#version: 0.2
t h
Ġ a
Ġ í
i n
Ġ th
e r
Ġ ,
ë ĭ
o n
Ġ s
r e
Ġth e
Ġí ķ
ì Ĺ
a t
Ŀ ´
ì Ŀ´
e n
Ġ o
Ġ c
ê °
ì ŀ
Ġ ìĹ
ê ³
Ġ w
ëĭ ¤
Ġ p
e s
ë Ĭ
o r
i s
e d
Ġ ìĿ´
Ġ f
ì ł
ì ķ
ì §
Ġ b
a n
ëĬ Ķ
a l
ì Ħ
Ġ m
Ġ d
Ġa n
Ġ ëĬĶ
t i
t o
Ġ in
Ġ ê³
in g
Ġ ê°
Ġo f
ë §
Ġ -
ì ĭ
a r
ì ļ
ê ²
Ġ ìŀ
Ġ h
o u
ĠìĹ Ĳ
Ġ to
ë Ĥ
Ġ ìķ
ê ¸
ë ı
Ġan d
l e
Ġ (
a s
i t
Ġíķ ĺ
ì ĸ
Ġ )
Ġ ëĭ¤
Ŀ Ħ
ì ĿĦ
r o
ì§ Ģ
Ġ ìĿĦ
i c
ë ¡
ë ĵ
Ġ ìł
Ġê³ ł
Ġ ê²
ë °
ì ľ
Ġ ë§
Ġ n
Ġ re
Ġ e
ìĦ ľ
Ġê° Ģ
Ŀ ¼
ë¡ ľ
Ġ l
ë ¦
e l
ì Ĥ
ëı Ħ
ìĸ ´
ê¸ °
en t
ë ³
ë ¥
Ġ ìĭ
ì ĺ
Ŀ ĺ
ì Ŀĺ
Ŀ Ģ
ì ĿĢ
ëĭ Ī
ì Ĭ
Ġ ìľ
Ġ ìĿĢ
ë ¶
Ġ "
ë į
ìļ Ķ
Ġ '
o m
a c
Ġ ëĵ
Ġ g
u s
ê µ
ì ĥ
ê ·
Ġ ìĿĺ
Ġ T
Ġ ëĤ
Ġ ë°
Ġ :
í ķ
e t
i l
ë¦ ¬
ë ¬
ì Ī
ë ©
Ġíķ ľ
ìĤ ¬
i d
Ġ ìĸ´
Ġ I
Ġ ëıĦ
t r
Ġ S
Ġ is
Ġìŀ Ī
Ġ ì§Ģ
ti on
v e
Ġ ë³
Ġ A
o l
i g
Ġ C
Ġìķ Ħ
ë ł
a m
ë Ŀ¼
u r
Ġf or
ë ª
ì Ľ
Ġ ìĺ
l y
ì £
Ŀ ¸
ì Ŀ¸
ê· ¸
ìĪ ĺ
Ġ =
o w
h e
o s
ê ±
Ġ ê¸°
Ġ on
i m
Į Ģ
ë ŀ
Ġìľ ¼
t er
a d
u n
ë ĮĢ
v er
ëĭĪ ëĭ¤
i th
Ġb e
u t
ì£ ¼
u l
Ġ ë¶
Ġëĵ ¤
o t
c e
Ġ y
ìĬ ¤
ì ¹
ì ²
ì °
Ġìĭ ľ
a y
ë Ĳ
ë© ´
Ġw h
Ġ /
ì Ĩ
Ġc on
Ġíķ ´
ë ²
Ġë³ ´
ë Ł
Ġ ìĤ¬
ì Ļ
Ġa s
Ġw ith
Ġ M
ê³ ł
Ġ P
Ġ ê·¸
Ġ r
Ġ v
ì Ŀ¼
Ġ ìĥ
Ġ ëį
i r
Ġp ro
Ġ !
ë ¹
c h
Ġ ëª
o d
Ġ ìĪĺ
Ġê² Į
Ġa l
i f
Ġ ê±
Ġìľ¼ ë¡ľ
Ġs t
ì ¤
Ġ B
e m
Ġ ëĭ
ë Ħ
er e
ĠëĤ ĺ
Ġ it
Ġ *
êµ ¬
ê ¹
a b
Ġ ë¡ľ
u m
Ġ ìĿ¸
t s
ëį °
Ġ ì§
Ġ F
Ġc om
Ġ ì£¼
ëĤ ĺ
Ġ D
Ġy ou
ê° Ģ
q u
s t
Ġ ?
ì ¡
Ġe x
Ġ }
Ġ ìĻ
Ġo r
Ġ ëĮĢ
ìĽ Ĳ
ë ¯
ë ħ
Ġ H
ĠìĹĲ ìĦľ
re s
er s
Ġê² ĥ
Ġw as
Ġë§ Į
ì ¢
Ġ ë©´
Ġ R
Ġ ëĿ¼
ë¬ ´
Ġ W
es s
Ġ ëĦ
ì ¶
Ġa re
Ġ N
Ġ L
Ġ {
ìŀ ¥
ìŀ Ĳ
Ġ ì¤
ĠT he
Ġ ì°
Ġd e
Ġìŀ Ĳ
ig h
Ġ ]
. .
Ġa t
ro m
ìĭ ľ
Ġ ìĿ¼
Ġb y
ĠìĹ Ī
Ġê³ ¼
Ġ ìĬ
it y
ë¹ Ħ
ìļ °
s e
ìĨ Į
Ġ k
Ġ E
Ġ ;
an d
Ġ ì¢
o c
ou n
m ent
Ġ [
ë¬ ¸
l d
ëı Ļ
Ġ G
es t
Ġ us
o re
Ġ tr
ê ´
en d
µ ëĭĪëĭ¤
Ġìł Ħ
Ġí Ļ
Ġë¶ Ģ
ë ¨
Ġ ë²
Ġìł ķ
Ġh a
o p
Ġ ~
Ġ ì²
íķ ´
Ġs h
ìł ķ
il l
Ġth is
Ġf rom
ê¹ Į
ë Ķ
ì¹ ĺ
a k
í Ļ
í Ĭ
Ġn e
Ġìł ģ
Ġn ot
ìļ ©
Ġs e
Ġê± °
ìķ Ħ
Ġw e
u re
Ġ le
Ġh e
ìĥ ģ
ëŁ ¬
êµ Ń
ë ķ
ĠìĹ ¬
Ġí ĺ
ã ģ
ĠìĬ µëĭĪëĭ¤
Ŀ Į
ì ĿĮ
Ġ un
ì¡ °
ë§ Į
í ĥ
Ġ O
ĠëĬĶ ëį°
Ġëį Ķ
Ġë§ Ī
ìł ľ
Ġíķ ł
Ġìĺ ¤
ë¯ ¸
í ĺ
Ġìł ľ
Ġ ë¨
ê² Į
ëł ¤
el l
ì ¦
Ġ ëķ
p l
íĬ ¸
Ġ >
ti m
g e
Ġha ve
t y
ë £
íķ ľ
al l
Ġre s
is t
ĠëĤ ´
ë¶ Ģ
ĠìĻ Ģ
Ġ ëħ
Ġìķ Ī
or t
ou r
ë ĳ
Ġ ê¸
o g
ê° Ħ
Ġc an
ê´ Ģ
ou ld
Ġ +
Ġ im
Ġ ìĸ
Ġ ë©
Ġ U
Ġc l
igh t
Ġì¢ ĭ
Ġëķ Į
Ġëª ¨
ĠìĹ Ĩ
ĠT h
Ġm e
Ġìŀ ħ
p er
Ġìĥ Ŀ
ë¬ ¼
om e
al ly
í ĸ
ëŀ ĺ
Ġê° Ļ
u e
am e
í ŀ
Ġ ìĦľ
ìļ ´
Ġì¤ ĳ
i z
íķ ĺ
Ħ °
ac k
Ġ ì¶
ìķ ¼
Ġp l
d er
Ġìĥ ģ
Ġp ar
Ġìľ Ħ
Ġìķ Ĭ
ì§ Ħ
ëĵ ľ
Ġa b
Ġ J
Ġë¶ Ħ
Ġ ìĤ
Ġ êµ¬
a re
Ġë° Ķ
íŀ Ī
Ġ ìĬ¤
ìł Ħ
i ve
ļ Į
Ġë¨ ¹
Ġí Į
g h
as s
Ġí ı
en ce
Ġìĸ´ ìļĶ
Ġê³ µ
í Ħ°
Ġìĭ ł
Ġa r
Ġí Ķ
Ġë§ İ
i al
Ġ ì¡°
Ġ ìĨĮ
í Ķ
as e
Ġê² ½
ou t
Ġ ^
Ġ ëĶ
oun d
Ġw ere
Ĩ µ
Ġ %
ë§ Ī
ëĳ Ĳ
Ġ ë¹Ħ
f er
Ġí ĥ
Ġw or
ì ħ
Ġê° ľ
Ġëį ĺ
ìĦ ±
ac h
Ġ ìĽĲ
on e
ë ģ
Ġë§ Ĳ
Ġ ë
o k
Ľ Ħ
ģ ¬
Ġì§ Ħ
Ġëĵ ±
í Į
Ġb ut
ê¸ Ī
Ġ K
Ġ ëĭĪ
ì ´
Ġìł Ģ
a th
os t
ation s
Ġh as
ë¥ ´
ìĺ ¤
ou gh
i tion
a v
Ġ i
= =
on g
ì ½
êµ Ĳ
Ġ ìĽ
ê° ģ
Ġcon t
Ġì§Ģ ë§Į
Ġd o
á Ħ
ìĭ ł
íĻ Ķ
in d
ìĹ ħ
el f
ac t
ĠëĦ ¤
an ce
Ġ #
Ġ tim
ë¶ Ħ
Ġh is
Ġ ê¹Į
Ġw ill
Ġìķ ĺ
Ġìľ ł
e ar
ë³ ´
Ġ ìļ°
íĸ ī
Ġg r
b er
ìĭ Ŀ
Ġ V
Ġìĺ Ī
as t
Ġg o
us t
c tion
Ġ ë¬´
Ġ ëĬ
Ġë° ©
ac e
s o
p e
ì ±
i le
Ġê² ł
Ġ ê´Ģ
os e
Ġyou r
Ġ* *
Ġ ìĨ
© ëĭĪëĭ¤
T he
Ġë Ĩ
Ġ ë¯¸
ëŀ Į
ìĹ ¬
ìĤ °
Ġs tr
Ġ ìļĶ
Ġs o
ëĤ ´
ìĭ ¤
a il
ã Ĥ
ìķ Ī
ĠìĹ °
ëŀ ĳ
Ġ ê·
Ġìŀħ ëĭĪëĭ¤
Ġim p
Ġ ë¹
Ġê¹Į ì§Ģ
Ġëĵ ľ
ì »
Ġê± ´
ëŁ °
Ġthe ir
Ġì° ¨
Ġìŀ ĺ
Ġë§ Ľ
Ġthe y
ëł Ī
Ġë© °
Ġìķ Į
Ġin ter
Ġm ore
ì Ķ
Ġs ome
Ġíķľ ëĭ¤
Ġ ëıĻ
ë¯ ¼
ëĵ ¤
Ġìĭ ¤
l l
Ġë° Ľ
Ġ |
Ġìŀ ¥
Ġh ad
ê »
Ġm an
at a
ìĥ Ŀ
ĠëĦ Ī
Ġb o
ê± °
Ġ ê¹
ur n
or d
í Ĵ
Ġëħ Ħ
ak e
Ġtim e
Ġ Y
ëł ¥
ì² ´
Ġí Ĭ
x t
Ġê³ Ħ
ver y
Ġth ere
ìĭ ¬
ê³ Ħ
ìł Ģ
í ļĮ
Ġ if
ĠìĥĿ ê°ģ
Ġí İ
ìľ ł
Ġin d
Ġ ì´
ul t
k s
Ġp r
Ġë° ľ
ëĭ ¨
Ġê° Ĳ
Ġ <
ìļ ¸
í İ
ë¥ ¸
tion s
ìĦ ł
Ġo b
Ġg et
Ġbe en
ëł ĩ
ã ĥ
Ġëĭ¤ ê³ł
Ġë ´
e f
Ġb et
Ġ ë¬¸
Ġí ĽĦ
Ġas s
Ġë©´ ìĦľ
Ġë² Ī
ĺ Ĳ
ì µ
í ģ¬
Ġ ì£
ë£ ¨
ĠìĤ¬ ëŀĮ
Ġë Ī
Ġo ver
ì¦ Ŀ
Ġíķ ¨
ìµ ľ
ë£ Į
í ı
l ow
g r
Ġ ìĿĮ
Ġs a
Ġs y
Ġíķ ©ëĭĪëĭ¤
ar t
Ġí Ĩµ
Ġë§ ¤
Ġìĺ ģ
Ġwh en
ĠíĻ Ķ
ëĭ ¹
Ġf e
ìĦ ¸
Ġwh o
Ġv al
Ġm y
p le
Ġf un
ì½ Ķ
ĠëĿ¼ ê³ł
Ġ ìħ
Ġ ty
Ġh er
ìĸ ĳ
íĴ Ī
Ġk n
Ġab out
ì ¼
Ġì² ĺ
Ġo p
Ġd if
Ġìĸ´ ìĦľ
o in
ëª ħ
Ġì§ ĳ
ëĤ ľ
Ġw ould
ë§ Ĳ
Ġ &
Ġëĭ ¹
ê ¶
t urn
ĳ ľ
Ġne w
Ġit s
ĠëĤ ¨
Ġ êµŃ
Ġ ì¹ĺ
ĠìĹĲ ê²Į
Ġ ëĳĲ
Ġíķ´ ìĦľ
ê³ ¼
Ġex p
ê² ½
Ġëĭ ĺ
Ġ ë¬¼
p s
Ġìĭ ¶
íĥ Ģ
r a
ĠëĦĪ ë¬´
í ħ
Ġë° °
Ġìĺ ¬
ìŀ ĳ
ing s
ë¡ Ŀ
w e
ir st
ay s
Ġëĭ ¨
ĠA n
f ter
ĠìĽ Ķ
Ġëĭ ¬
ĠìķĦ ëĭĪ
Ġë¶ Ī
ĠëĶ °
Ġëª »
Ġíı ¬
ĠëĬ Ĳ
Ġì¶ Ķ
Ġë° ĺ
Ġê° ķ
Ġ ì±
Ġìĭľ ê°Ħ
Ġ ëģ
Ġ ì»
ëĬ ĺ
ìľ Ħ
l o
ìŀ ¬
Ġs et
ê» ĺ
ì° ¨
Ġ ìµľ
Ġd ata
ĠëĦ¤ ìļĶ
ĠíĶ ¼
Ġo ur
í Ĺ
Ġwor k
Ġde f
re at
Ġin to
Ġìŀ ¬
ê³ µ
Ġë ĺĲ
ĠìĤ ´
ëĬ ¥
Ġy ear
Ġ êµĲ
Ġìķ ¼
ë° ©
í Ĥ
Ġí ļĮ
p t
Ġëħ ¸
Ġëª ħ
Ĩ ł
ê² ©
ìĽ Į
Ġh igh
ìĹ Ń
ìĺ ģ
ë¦ Ħ
ìł Ĳ
Ġê² °
Ġm ay
ë¦ °
ĠTh is
ìĹ °
ĠëįĶ ëĿ¼
Ġìŀ ĳ
n e
Ġp e
ì ¸
ìĨ į
ĠëķĮ ë¬¸
Ġëĭ¤ ëĬĶ
íķ Ļ
Ġs elf
ëª ¨
Ġê° Ħ
Ġ" ,
Ġun der
Ġìĺ Ģ
at ive
ëĶ Ķ
Ġf irst
Ġìł Ĳ
ëĵ ł
Ġdif fer
ì§ ģ
ëłĩ ê²Į
st em
in k
Ġíĺ Ħ
Ġthe m
í ĭ
ĠëĤ ł
ad e
an c
Ġwh at
ĠíĻ ķ
ĠíĮ Į
Ġë§İ ìĿ´
ar g
Ġê± ¸
Ġthe se
ì ĵ
ê· ¼
í Ĩµ
ë° ľ
at ing
el d
Ġíķ Ļ
Ġë¶Ģ íĦ°
Ġus e
Ġëį °
Ġ id
Ġë³´ ëĭ¤
Ġìļ° ë¦¬
Ġ ìĶ
Ġres p
ìŀ ħ
Ġh ow
Ġì£ ł
Ġíĥ Ģ
Ġfun ction
Ġn um
r ough
ë ĥ
t en
ê ¼
Ġ @
Ġs he
ë§ ¤
ë ĸ
Ġty pe
Ġê³ ³
we en
ë¦¬ ê³ł
Ġcl ass
íĶ Ħ
il ity
ol d
ì² Ń
ê± ´
Ġê¸ ¸
Ġwh ere
ì¤ ĳ
ĠìĦ¸ ìļĶ
Ġí ģ
Ġbet ween
f ore
ì ī
Ġí ŀ
Ġ ë¦¬
ì² ľ
â Ģ
u g
Ġíķĺ ëĤĺ
Ġa fter
an ge
ë° ĺ
a w
Ġre qu
u tion
is e
ê¶ Į
ì§ Ī
ë² Ī
Ġus ed
a x
íĺ ¸
Ī ¬
ĠìĤ¬ ìļ©
ì¶ ľ
ê° ľ
ĠìķĦ ìĿ´
Ŀ ½
Ġë² Ħ
Ġí Ĺ
Ġíķ Ħ
ĠëĿ¼ ëĬĶ
Ġ ìĵ
Ġsa id
ëŁ ¼
Ġì° ¸
ë ¸
Ġ ì½Ķ
ìŀ Ī
íĶ ¼
ment s
íĹ ĺ
Ġc ould
ì§ ĳ
i x
í Ŀ
Ġsy stem
ë² ķ
ê° Ĳ
ìŀ Ħ
Ġs m
ìķ ½
iz e
Ġr ight
Ġë§ ŀ
ëŀ Ģ
ë¦ ¼
oc k
ĠìĹ ´
on t
Ġìľ¼ ë©´
ë© °
Ġse e
Ġì¤ Ģ
êµ °
Ġin f
Ġí ģ¬
ì¡ ±
op le
Ġìĭ Ŀ
Ġíİ ¸
th ing
Ġë ĸ
Ġ ìļ´
á ħ
í ĽĦ
Ġë³ ¸
Ġìłķ ëıĦ
Ġm in
ĠìľĦ íķ´
ì¦ Ī
Ġìĸ ĳ
e w
í ĳľ
ĠíĬ ¹
e x
Ġm ost
Ġh im
Ġth rough
Ġin t
ìĦ Ŀ
Ġì´ Ī
e y
T h
ìł ¸
ur ing
Ġì¶ ľ
íĥ ľ
íĮ Į
Ġus ing
ĠìĨ Ĳ
Ġí ħ
ĠìĤ¬ ì§Ħ
Ġkn ow
Ġëĵ¤ ìĸ´
ëĤ ł
Ġì§ ģ
Ġì¤ Ħ
ĠìĤ °
ë³ µ
ìĪ ł
ĠíĶ Ħ
ë³ ¸
Ġìĥ Ī
u ch
i eld
Ġëĭ¤ ê°Ģ
Ġsh ould
ĠìĹ Ń
ìł ģ
Ġn ame
o y
Ġ ê´
it s
Ġë ĥ
ic t
ul l
Ġíĺ ¸
ìĬ µ
ì į
Ġê¹ Ģ
t est
ì§ ľ
ëŁ ī
ê° ķ
Ġd id
ë° Ķ
Ġê¸ Ī
Ġìłķ ë§Ĳ
o f
Ġíķ´ ìķ¼
Ġc oun
Ġê°Ģ ëĬ¥
Ġì° ¾
Ġìĸ´ ëĸ
em ent
Ġpe ople
Ġìĭ ¬
ë² Ħ
Ġë Ń
Ġimp ort
Ġ X
Ġgr ou
Ġë© Ķ
p ut
ation al
Ġíı ī
ì ª
o b
ê¸ ī
th od
ë¡ ł
Ġ ëł¤
ìł Ī
ìĻ Ģ
Ġê°Ģ ì§Ģ
ĠëĲľ ëĭ¤
ĠìĿ´ ëĤĺ
Ġ Q
ĠìķĦ ìļĶ
íĭ °
Ġê²½ ìļ°
ì ·
p tion
ì ģ
Ġcon f
ĠëĮĢ íķľ
Ġìķ ŀ
ì¤ Ģ
ĠëĪ Ī
ì¹ ´
at ure
ĠìĹ Ħ
Ġì² ´
Ġì¢ ħ
Ġex per
íħ Į
Ġf act
ĠìĻ ¸
Ġë§Į ëĵ¤
c c
ëł ¨
Ġ ìļ©
s elf
Ġì² Ń
Ġval ue
Ġê· ¼
or k
ĠìķĦ ìĦľ
íı ¬
Ġm ake
ëĦ Ī
Ġìķ ½
Ġ ì¦Ŀ
Ġê·¸ ëŀĺ
Ġë§Ľ ìŀĪ
v ing
Ġìĸ ¼
ëĭ ´
ì· ¨
Ġìĭľ ìŀĳ
Ġê·¸ ëŁ°
Ġëĵ ¯
Ġë³ ¼
Ġíķ¨ ê»ĺ
Ġp oin
Ġìĵ °
íĤ ¤
Ġí Ī¬
Ġf ind
ĠT r
Ġp ers
íİ ĺ
Ġëĭ¤ ë¥¸
Ġíŀ ĺ
ê² °
í ģ
Ġì¢ Ģ
ì¼ Ģ
í Ĩł
êµ¬ ìļĶ
Ġst at
Ġíĺ ķ
ĠìĨ į
ĠìĿ¸ ëį°
Ġ" :
ê² ¨
Ġl ong
Ġw ay
Ġnum ber
Ġ test
o od
ìª ½
ê ½
ë¦ ½
Ġë Ĵ
Ġdiffer ent
Ġe very
Ġëª ©
if e
Ġcont ro
ëħ Ħ
Ġs ame
ĠìĻ Ħ
ì¢ ħ
Ġdo es
Ġì° į
ì ³
ĠëĦ ĺ
in ed
Ġ es
ĠëĪ Ħ
Ġde velop
Ġbe fore
íĥ Ŀ
ìĽ Ģ
Ġyear s
Ġman y
ëł ¸
Ġìŀ Ħ
Ġìĸ ¸
Ġê·¸ ë¦¬ê³ł
ìĦ ¤
Ġpar t
ĠP ro
Ġ ìī
en g
Ġë§Ī ìĿĮ
Ġì§ Ī
íİ ¸
Ġf ound
Ġin st
Ġì» ¤
ìĥ ī
ëĭ ¬
Ġh and
Ġ er
ì¡ ´
O N
Ġme thod
Ġc ase
Ġì² ľ
Ġor der
Ġìĺ¤ ëĬĺ
ê² ĥ
o ol
Ġë³ Ģ
íĺ Ħ
ëĥ ¥
ī ´
ì¡ Į
Ġëĭ¤ ìĭľ
ìĺ ¨
Ġë°Ķ ë¡ľ
ĠíĻ ľ
ëĤ ¨
ĠìĹ ħ
p r
Ġê¸ Ģ
ĠëĶ Ķ
ì º
ĠëįĶëĿ¼ êµ¬ìļĶ
Ġth ose
Ġ Z
Ġê² Ģ
ĠìĹ Ķ
ĠëĬĲ ëĤ
Ġìĺ ¨
ìľ ¡
Ġí Ĥ
ĠëĬĶëį° ìļĶ
Ġbe ing
m e
c on
Ġë° ķ
in s
ak ing
Ġìķ ł
Ġe l
ìľ ¼
Ġm ade
Ġëģ Ŀ
E R
ë Ŀ½
íķ ©
Ġ ëŀĳ
íĺ ķ
ì¶ Ķ
ê ¾
Ġë³´ ìĿ´
c l
ëª ©
íĿ ¬
ĠíķĦ ìļĶ
Ġë ¿
ĠìĿ´ ìĥģ
Ġìħ ¨
a ve
tr y
Ġgo od
oun t
ĠëıĦ ë¡Ŀ
Ġa v
Ġ ê¶Į
ì² ĺ
Ġì²ĺ ëŁ¼
ĠìĿ´ ëłĩê²Į
ë§ Ŀ
íĻ ©
Ġê° Ī
ĠíĨµ íķ´
al ity
ëŀ ľ
íĸ ¥
Ġí ĭ
Ġë¬¸ ìłľ
ìĹ Ĳ
Ġëĭ ´
Ġì§Ħ íĸī
u ally
ĠìķĦ ëĭ
ĠëĨ Ĵ
Ġì§Ħ ì§ľ
Ġwh ile
ĠíĻ ĺ
r or
ì¹ ¨
íĮ ħ
Ġ ëłĪ
íĻ ĺ
ĠíĮ Ĳ
ĠíĬ ¸
d ef
Ġn on
an y
Ġd el
ĠëĮĢ íķ´
Ġí ļ
ĠëĶ° ëĿ¼
ĠëĬĶ ì§Ģ
Ġd uring
ĠìĿ´ ëŁ°
ìĻ Ķ
iz ation
ë¦ ´
Ġì§Ģ ëĤľ
Ġë° ı
Ġgrou p
Ġm uch
Ġì¹ľ êµ¬
ë¥ ĺ
ìĻ ¸
Ġë³ Ħ
o ver
Ġex t
ëħ Ģ
íĮ Ĳ
ĠëĴ ¤
Ŀ µ
Ġre turn
Ġsm all
Ġë¹ ł
Ġì§Ģ ê¸Ī
Ġin formation
ul ation
ab ility
ëŁ ½
Ġ ìº
w ay
Ġë² ķ
Ġì± Ħ
Ġd ay
Ġê°Ģ ìŀ¥
d ition
Ġë´ ¤
Ġpro per
Ġ ê½
ì Ŀµ
ìħ ĺ
Ġë³ µ
Ġí Ĩł
* *
Ġê°Ļ ìĿ´
Ġl ist
es e
Ġíģ °
ë§ ī
ê¾ ¸
Ġí ĳľ
ì ¿
Ġp ath
ìį ¨
Ġíķ´ ìļĶ
Ġth ink
Ġpers on
Ġê·¸ ëŁ¬
Ġë¨ ¸
ĠTh ere
Ġìŀ ¡
Ġar g
Ġì± ħ
ĠìĻ Ķ
Ġíķľ êµŃ
ë¸ Į
i ence
Ġwith out
ĠëĬĲëĤ Į
Ġíħ Į
Ġê° ģ
Ġ ëŁ¬
ë Ī
ì³ Ĳ
ëł ¹
ĠíĶ Į
Ġìľ¼ ëĭĪ
Ġë´ Ĳ
Ġìĸ µ
Ġres ult
Ġìłľ íĴĪ
g er
Ġê· Ģ
Ġìħ Ķ
ĠëĭĪ ê¹Į
re turn
ëį Ķ
ĠìĤ ¼
t ake
ĠìĤ¬ ìĿ´
Ġth ough
ĠëĨ Ģ
Ŀ ĳ
in t
d ay
ĠìŀĲ ìĭł
ĠëĨ ĵ
ë° ķ
um ent
Ġë¶Ģ ë¶Ħ
ĠëĤ ľ
Ġop en
Ġcontro l
ë° °
y n
Ġë§ ī
Ġ ì·¨
Ġpar am
ì§Ģ ë§Į
Ġë° ±
Ġë² ł
ì Ŀĳ
Ġf in
ĠëĤĺ ìĺ¤
Ġ êµ
Ġê±° ëĤĺ
ĠìĶ ¨
p ort
í ļ
ë³ Ģ
b e
Ġëª¨ ëĳĲ
Ġì¡° ê¸Ī
Ġ ë¯¼
A T
Ġë³ ĳ
Ġì¶ ©
ìĨ ¡
ĠìĿ´ ë²Ī
Ġl ife
Ġì¤Ģ ë¹Ħ
ìĬ ¹
ĠíĤ ¤
ĠëĦ £
Ġm ust
Ġê´Ģ ë¦¬
ìł ĳ
ë¨ ¸
m in
Ġ ê»ĺ
u le
Ġp ass
Ġ take
íĸ Ī
ĠìĹ¬ ê¸°
ac ter
ëĵ ±
ëĵ Ŀ
Ġl ast
Ġëĭ µëĭĪëĭ¤
Ġst and
Ġëª¨ ìĬµ
ê ¿
íģ ¼
Ġf ield
Ġìł Ī
ĠìĹĲ ìļĶ
ĠëŃ Ĳ
Ġê·¸ ëĥ¥
Ġl og
ac tion
Ġ techn
ĠìĹ¬ ëŁ¬
in ess
Ġë° Ŀ
ĠN o
Ġê¸ ´
our ce
Ġ ì½
I N
ì± ħ
Ġíļ ¨
ĠìĹĨ ìĿ´
Ġëĭ¤ ë©´
ì¦ ĺ
ĠìĤ¬ ìĭ¤
Ġwor ld
Ġê° Ķ
Ġíķ Ń
t es
ì° ©
Ġí ľ
Ġì²ĺ ìĿĮ
Ġwith in
tr act
ar ge
Ġìŀ ł
er t
ë³ Ħ
íķ Ń
ëħ ¸
Ġ ì¼Ģ
į ¼
ìĽ Ķ
ìĬ¤ íĬ¸
b ed
Ġê´ ĳ
w ork
Ġs ize
Ġs um
in ation
Ġcon dition
ĠìĤ¬ ëŀĳ
Ġk ey
ar n
Ġst art
f or
E S
Ġëĭ¤ ìĿĮ
id ence
ëĦ ¤
ĠìĿ´ ìļ©
Ġë ľ
ent ly
Ġg reat
Ġcont in
ĠE x
t reat
Ġ êµ°
ëĮĢ ë¡ľ
ĠìĻ ľ
Ġê°Ģ ê²©
ĠëĬĶ ëĭ¤
o th
ce pt
Ġagain st
Ġëª¨ ë¥´
Ġë°© ë²ķ
Ġpoin t
Ġì´ Ŀ
ëı ħ
Ġfollow ing
Ġs ay
Ġb est
Ġê²½ ê¸°
Ġëĵ ł
ìĸ ¸
Ġar ound
Ġëª ¸
ë ´
ë ī´
íĻ ľ
Ġëĭ¤ ìĸĳ
ĠA meric
ì´ Ī
Ġëĵľ ë¦¬
ê·¸ ëŀĺ
Ġinclud ing
ord ing
Ġê³ ¨
Ġb re
ĠíĮ ¨
Ġíķ ©
Ġíĥ ľ
íķ ł
Ġle t
w h
Ġìĥģ íĻ©
Ġ treat
Ġì§Ģ ìĹŃ
ĠìĦľ ìļ¸
ë¹ ł
Ġo ld
ê¸ ¸
Ġìĭľ ìŀ¥
ì¼ ľ
ĠìĤ¬ ìĹħ
ìĥ Ī
ĠíĶĦ ë¡ľ
-------- --------
Ġëª¨ ëĵł
Ġl ess
ê¸ Ģ
Ġse ver
Ġì° ½
ë¸ Ķ
į ëĭĪëĭ¤
C ategory
ĠìĿ´ ìłľ
ìģ ĺ
Ġíģ ´
ĠíĻķ ìĿ¸
le ment
Ġan other
ìĺ¤ ëĬĺ
Ġl ow
eng th
ĠíĹ Ī
o id
Ġê·¸ëŀĺ ìĦľ
Ġpl ace
ê º
ê° Ŀ
w ays
ìĹ Ī
ê² ¬
ê° Ī
Ġì¤ĳ ìļĶ
Ġìł ĳ
Ġm ight
Ġp ublic
ĠìĿ´ ìķ¼
íĶ Į
ì° °
ic ally
A R
Ġê· ľ
ì¹ ľ
ĠìĶ ©
ĠìĬ ¹
A n
ĠìķĦëĭ Į
íĺ Ģ
Ġus er
ì Į
Ġíĺ ĳ
th e
Ġì¹´ íİĺ
Ġìĥģ íĥľ
N A
Ġë° ĸ
Ġne xt
ìĤ ´
ìĺ ¬
ê·¸ ë¦¬ê³ł
Ġ ë¯
ëĬ Ĳ
R L
Ġë¨ ¼
ë© Ķ
Ġìĥ ī
l ess
ìĺ Ī
id ent
ĠìķĦ ë¬´
Ġê¸ ī
Ġgo ing
Ġ ëŀ
íļ į
Ġanalys is
f ace
ê¶ ģ
Ġfe w
ìĸ µ
Ġê´Ģ ëł¨
on se
ë¶ Ī
Ġì¹ĺ ë£Į
Th is
Ġtim es
Ġl arge
ìķ ħ
Ġê³Ħ ìĨį
st and
Ġëĥ Ĳ
ëĭ ĺ
ĠìĿ´ ìľł
Ġí Ľ
Ġëł¤ ê³ł
Ġë¿ Ĳ
ëħ ķ
end s
O R
Ġb ig
ĠëıĻ ìķĪ
Ġëĵ¤ìĸ´ ê°Ģ
a ult
al se
Ġìĸ´ëĸ ¤
ĠìĿ´ìķ¼ ê¸°
Ġì¶Ķ ì²ľ
ìļ ±
ëģ Ķ
ĠìĿ´ ëŀĳ
ìĶ ¨
Ġíķĺ ë£¨
Ġav ail
ì Ł
ĠëĬ ĺ
ĠìĬ¤ íĥĢ
íķ ¨
ĠìłĦ ë¬¸
Ġìĸ´ ìķ¼
igh ts
Ġind ic
Ġimp ro
ĠìľĦ íķľ
em s
ê´ ĳ
ìķ ł
Ġì§ ¸
le ction
Ġ= =
Ġm aterial
ëłĪ ìĿ´
ith er
ĠìĿ¸ ì§Ģ
ĠëıĮ ìķĦ
ì ĩ
íĺ Ķ
Ġì§Ģ ìĽĲ
Ġre fer
Ġëª °
Ġre search
ĠëĮĢ íĳľ
Ġê±´ ê°ķ
Ġs w
Ġinter est
ìĹ Ĩ
Ġê¸° ìĹħ
Ġëª ĩ
ĠìĹĦ ì²Ń
Ġë° ¥
ë Ĩ
Ġv ar
ĠìŀĲ ë¦¬
Ġë² Į
ë° ¥
ë¶ ģ
ëģ ¼
Ġ table
Ġ ì¡´
ì° ®
ë³ ĳ
ì° ¬
v al
Ġm ax
ĠìķĦ ì£¼
êµ ´
Ġl ight
} ,
ìļ ķ
ĠA ll
ĠêµĲ ìľ¡
Ġbet ter
Ġê´Ģ ê³Ħ
E N
end ed
ĠU S
Ġproble m
Ġìłķ ë³´
am b
Ġre ally
Ġë§Į íģ¼
ì¶ ķ
ì° ½
ã Ģ
ĠìĿĦ ê¹Į
ìĽ ł
Ġíĺ ¼
anc es
Ġsome thing
ĠìĿĮ ìĭĿ
ĠìĹ¬ íĸī
c om
Ġì² «
ĠP I
ĠíĶ¼ ë¶Ģ
Ġne ver
êº ¼
íĺ ¼
ë ľ
Ġìĸ´ëĸ »
Ġìļ´ ëıĻ
ëķ Į
ĠTh ese
Ġí Ħ°
Ġcont ent
Ġíĭ °
Ġíķ´ ëıĦ
ĠëįĶ ëĭĪ
Ġëĸ ¨
ĠU RL
Ġêµ¬ ìļĶ
Ġì£ ½
ìĸ´ ëĤĺ
Ġë³´ ìĹ¬
ĠN one
ĠëĶ ±
ĠìĹĦ ë§Ī
ĠëĤ´ ìļ©
Ġrepres ent
A N
ìĹ ´
m l
ì¸ ł
ê¹ Ģ
ìķ ¡
Ġr ange
Ġë°© ë¬¸
ĠìĹŃ ìĭľ
ĠìĦ¤ ëªħ
ĠìĦł íĥĿ
t arg
Ġí ĮĢ
S T
Ġê²° ê³¼
Ġ ìļ¸
oc ial
ĠìĤ¬ íļĮ
Ġin put
Ġëĸ ł
ì Ŀ½
d e
Ġì£¼ ë¬¸
it ch
Ġê°Ĳ ìĤ¬
Ġê·¸ ëłĩ
ë¡ Ģ
ìĿ´ íĬ¸
Ġë¯¸ êµŃ
ĳ ¸
end ing
ìĺ Ģ
E D
ìŁ ģ
ë° ±
ëħ Ĳ
ĠëĿ¼ ë©´
ĠìĿĢ ëį°
ê· ¹
Ġappro ach
Ġë³´ ëĤ´
ëĭ¤ ê³ł
Ġ ìĿ½
Ġë§Ī ëĭ¤
Ġ ur
Ġë¹ ¨
Ġìĺ¬ ëĿ¼
Ġl ength
ì§ Ŀ
is ter
Ġê´ ľ
Ġcom e
Ġê¹ ¨
Ġth ings
ĠìĿ´ íĽĦ
Ġal ways
I C
Ġstr ong
ê¸ ´
Ġê° ĸ
ëł Į
Ġ ìĮ
Ġë¶ ģ
Ġíľ ´
ë¹Ħ ìĬ¤
Ġë°ľ ìĥĿ
Ġha ving
Ġëĭ µ
Ġ ë¡
Ġê³Ħ íļį
Ġ} )
Ġle ast
ì ©
a it
ì§Ģ ë§ī
Ġê³ł ë¯¼
Ġsever al
Ġì¶ ķ
Ġë°Ŀ íĺĶ
Ġinter n
Ġêµ¬ ë§¤
th ough
ĠìķĦ ì§ģ
Ġ ë¬
Ġ ê¿
ìģ ľ
Ġì§ģ ìłĳ
Ġg ive
Ġìī ½
P I
n ot
Ġì§Ģ ëĤĺ
Ġë§Ľ ì§ĳ
ìĹ ¼
íĻ ķ
ĠìķĮ ëł¤
Ġresp onse
Ġgener al
Ġíİ ĺ
Ġìĸ¼ ë§Ī
Ġer ror
íĬ ¼
ĠìĿ´ ë¯¸
Ġê¸° ëĮĢ
Ġhigh er
Ġunder stand
ĠTh at
ëĤ ¬
ent al
le t
ĠìĦ¸ ê³Ħ
Ġê³¼ ìłķ
Ġe lectr
Ġf urther
Ġë§Į ëĤĺ
A L
ĠìĥĿ íĻľ
ĠëĨ į
Ġë¨¸ ë¦¬
Ġ ë£¨
Ġp x
Ġíļ¨ ê³¼
ivers ity
I T
Ġtreat ment
ĠíĺĦ ìŀ¬
Ġg ot
ìĪ ľ
ĠëıĦ ìĽĢ
Ġidenti f
Ġenerg y
Ġê½ ĥ
ar ing
ê³ ³
th ers
Ġdevelop ment
ic tion
lo b
ìļĶ ìĿ¼
ĠíĪ¬ ìŀĲ
Ġconf ig
ind ow
ìĿ´ ìĬ¤
ëĭ µ
Ġ ìª½
Ġ} ,
Ġë©Ķ ëī´
ĠíĮ Ķ
as ter
ĠíĻ į
ĠíĹ ¤
ĠìħĶ ìĦľ
Ġíŀĺ ëĵ¤
C T
ĠíķĻ êµĲ
Ġëª» íķĺ
Ġíı Ń
Ġind ex
Ġì¤ĳ êµŃ
Ġsh ort
ĠìļĶ ì¦ĺ
ĠìĥĪ ë¡ľ
Ġìŀĳ ìĹħ
íı °
Ġinclud e
Ġìĸ´ëĸ» ê²Į
Ġof ten
Ġc ustom
ĠìłĢ íĿ¬
ë§ Ľ
ĠëĺĲ íķľ
b y
Ġal ong
ê± ¸
ĠìĦľ ë¹ĦìĬ¤
Ġexper im
Ġìłķ ë¶Ģ
Ġ ìį¨
Ġíĸī ë³µ
ĠëįĶëĿ¼ ê³ł
íĤ ¨
Ġíķĺ ì§Ģë§Į
Ġê²½ ìłľ
em ber
i ally
íı ī
d a
ìĿ´ ìĸ´
± ìłķ
íĥ ģ
Ġê¸° ë¶Ħ
Ġìµľ ê³ł
Ġ ëŀĢ
ìĿ´ íģ¬
Ġìĸ´ ëł¤
Ġê¸° ëĭ¤
u ation
Ġì¶Ķ ê°Ģ
Ġìī ¬
ìļ° ë¦¬
Ġëĭ¤ ëĭĪ
ĠëĤĺ íĥĢ
ê° Ķ
ìĸ´ ì§Ģ
Ġtr ial
Ġë° Ģ
ìľ ¨
Ġê°ľ ìĿ¸
A S
ĠìĿ´ ë¦Ħ
Ġc ertain
Ġs ource
ë ĺĲ
gr ound
ì» ¤
s w
Ġe ither
Ġê°Ģ ì¡±
Ġ ê¶ģ
ëħ ģ
í Ħ
Ġex ist
Ġë¨¼ ìłĢ
ĠíĻľ ëıĻ
Ġê¸° ìĪł
ĠìĹ° êµ¬
y pe
í Ī¬
ĠìĽ ĥ
Ġíķľ íħĮ
Ġì°¨ ëŁī
Ġì² ł
Ġof fer
as ing
ĠëĮĢ íķĻ
Ġìŀ Ķ
Ġì°¾ ìķĦ
ĠìĬ¤ ëŁ¬
ol ution
Ġìĺģ íĻĶ
u tions
ĠëĤĺ ê°Ģ
et ers
Ġm aking
Ġê¸° ìĸµ
ĠëįĶëĿ¼ê³ł ìļĶ
E x
Ġê¹ Ķ
ìķĪ ëħķ
ĠìĨĮ ë¦¬
Ġë¶ Ļ
Ġ ê¾¸
Ġgovern ment
í Ĩ
ĠìĨĮ ê°ľ
con om
í į¼
E T
t ell
ëŀľ ëĵľ
ìĸ ¼
ĩ ´
Ġê± ±ìłķ
Ġê³µ ê°Ħ
ĠìŀĲ ê¸°
ĠíļĮ ìĤ¬
Ġes tim
Ġê³µ ë¶Ģ
Ġê´ľ ì°®
Ġs ocial
ë² ½
ĠëĤĺ ìĻĶ
ĠAmeric an
res p
ëŀ Ĳ
Ġê±° ëĵł
ĠëĤĺ ìļĶ
Ġwork ing
ë² Į
end ent
ìĬ ¨
Ġexper ience
Ġê° ĳ
Ġmodel s
ĠìĺĪ ìłķ
ĠëĤĺ ëĿ¼
Ġíķľëĭ¤ ê³ł
ìĹ ĩ
ë¡ľ ëĤĺ
Ġ êº¼
I S
Ġìĭľ íĤ¤
Ġê»ĺ ìĦľ
ì± Ħ
ëĿ¼ ê³ł
ĠìĬ µ
ê» ´
ĠëĿ¼ ëıĦ
ë§ ģ
ĠëįĶ ìļ±
ì² ł
íĥ ķ
ĠìľĦ ì¹ĺ
Ġìľ ¡
ĠìĿ¼ ë³¸
à ¤
Ġwh y
Ġd one
at ter
ĠìĿ¸ ê°Ģ
ĠC O
Ġê¸° ë¡Ŀ
Ġal ready
Ġn ecess
Ġìĥģ ëĭ´
ëĦĪ ë¬´
Ġìĸ´ ëĬĲ
Ġíı¬ ìĬ¤
Ġincre ase
ìĭ¬ íŀĪ
ĠìĿĺ ìĽĲ
Ġrequ est
ë¦ Ń
Ġìĭ ¸
Ġlevel s
ĠìķĦ ì¹¨
Ġ tes
ì ı
Ġchang es
Ġìĸ´ ëıĦ
t u
ĠìĹħ ì²´
· °
ĠìľĦ ìĽĲ
I D
Ġê·¸ ëłĩê²Į
Ġcondition s
Ġê±° ë¦¬
Ġì§ ľ
ìĶ Ģ
Ġperform ance
Ġcon tr
Ġëģ ¼
Ġgrou ps
ĠíĬ¹ íŀĪ
Ġë³´ íĹĺ
Ġê°ľ ë°ľ
ut ure
ê·¸ëŀĺ ìĦľ
Ġapplic ation
Ġì¤ ĺ
Ġìĺ Ĩ
Ġìĸ ĺ
ĠC R
f rom
Ġë¬¼ ë¡ł
Ġìļ´ ìĺģ
Ġê²° ìłķ
ĠìĻĦ ìłĦ
Ġìĸ¼ êµ´
Ġë° ¤
ëĭ ¥
m ission
tim e
Ġê³ł ê°Ŀ
s et
Ġë¯ ¿
Ġë³ĳ ìĽĲ
Ġ ìĩ
Ġsystem s
ë¦¬ ìĬ¤
ë¨ ¹
Ġactiv ity
ìľĦ ê¸°
or der
ĠëĤ ®
Ġë§Ĳ ìĶĢ
ë° Ģ
Ġëħ ¼
ì§ ķ
Ġto gether
ĠìĬ ¬
Ġìłľ ê³µ
ĠI I
Ġíĥ Ī
Ġì§Ģ ìļĶ
Ġìĸ´ ëĶĶ
íĬ ¹
Ġìº Ĳ
Ġíĥ Ħ
íĥ Ħ
Ġel se
Ġstruct ure
Ġde b
Ġ ìĿĳ
Ġproper ty
ort un
Ġì° ©
ĠíĮĲ ë§¤
ĠëĤ´ ëł¤
íķ ĳ
Ġcomple x
} )
íħ ľ
ĠëĤĺ ìĻĢ
Ġë ī´
Ġprovid ed
Ġì»¤ íĶ¼
ĠëĤĺ ìĺ¨
Ġexp ression
ound s
Ġê¸° ì¤Ģ
íĨµ ëł¹
Ġìĭľ ì¼ľ
Ġê¸° ê°Ħ
ĠìĽ Į
Ġìķ ī
ĠëĶĶ ìŀĲ
Ġre ach
Ġë§Į ì¡±
ë² ł
ĠíĻ Ī
A C
ê¹Į ìļĶ
L E
Ġëĵ £
ëĪ Ħ
l ation
Ġm echan
ëŀ ¨
Ġë§Ī ì§Ģë§ī
Ġ tell
ĠìķĮ ìķĦ
Ġpar ti
Ġìµľ ê·¼
Ġê·¸ëŀĺ ëıĦ
ë² Ķ
Ġíĺ ¹
ìĬ¤ íģ¬
ĠëĤ¨ ìŀĲ
ìĹ Ħ
ëı Į
ur ity
ë¡ľ ê·¸
Ġstr ing
ìī ¬
Ġê¸° ëĬ¥
Ġenviron ment
ĠO ne
ĠìłĦ íĻĶ
Ġthough t
ì ¥
Ġê¸° ë³¸
er ing
Ġth ing
ë¦½ ëĭĪëĭ¤
Ġmulti ple
Ġdescri bed
ĠìĺĪ ìļĶ
Ġe conom
ĠëĮĢ íĨµëł¹
p ro
Ġë´ ī
A M
ĠìĻ ķ
ì ¯
Ġê² ¨
Ġcon st
Ġa w
Ġinst all
v ar
m ost
Ġdef ault
Ġë§ ĺ
Ġë¬´ ìĹĩ
ëĭ¤ ëĬĶ
Ġê³ł ê¸°
s h
ĠìŀĲ ìĹ°
Ġìĸ¸ ìłľ
ĠìĤ ¶
ĠìĦł ë¬¼
Ġproduc t
Ġê±° ìĿĺ
Ġê±°ëĵł ìļĶ
ëłĪ ìĬ¤
is ing
ê² ¼
ĠëĮĢ ë¡ľ
Ġê´Ģ ìĭ¬
ĠìĦł ìĪĺ
tion al
ļ Ħ
ĠêµŃ ë¯¼
Ġo thers
ëĶ ©
ĠëĮĢ ìĥģ
Ġë¶Ħ ìľĦê¸°
ĠìľĦíķ´ ìĦľ
Ġobserv ed
Ġëĭ¤ ëħĢ
ĠìĬ¤ ëŁ½
Ġpoin ts
ìŀĲ ê¸°
Ġ ì¯
ĠìłĢ ëħģ
Ġ ìı
ì° Į
Ġcoun try
ì¶ ©
ê· Ģ
Ġc ame
í ľ
ĠìĹ¬ ìŀĲ
ê·¸ ëŁ¬
ĠëĿ¼ ìĦľ
Ġdef end
ĠêµŃ ëĤ´
ĠT H
ê±° ë¦¬
Ġcan not
Ġì½Ķ ë¡ľëĤĺ
Ġf uture
ĠëĬ ¥
Ġí ĳ¸
ìħ Ķ
ê· ł
Ġto ok
Ġë¬¸ íĻĶ
Ġíķľëĭ¤ ëĬĶ
Ġ| |
Ġê·¼ ëį°
Ġcl ose
ĠìĿ´ ê²ĥ
oin t
ìĿ´ ë²Ī
and om
im port
Ġêµ¬ ìĦ±
ĠëĬĲ ê»´
r t
ĠìĹ´ ìĭ¬íŀĪ
ĠìĿ¼ ë°ĺ
Ġ ìį
Ġìķ ħ
Ġëħ¸ ëł¥
Ġconsider ed
Ġmonth s
ī ìŀ¥
Ġì¡° ìĤ¬
ĠëŃ Ķ
Ġobtain ed
ur ation
Ġr ather
ĠA fter
amb da
Ġimpro ve
ĠëĶĶìŀĲ ìĿ¸
ĠìŀĲ ëıĻ
Ġfe atures
Ľ °
Ġê·¸ ê²ĥ
ë¶Ģ ë¶Ħ
Ġìķ Ķ
un ction
Ġr a
Ġcommun ity
Ġëį ķ
Ġdef in
Ģ ë¡ľ
Ġ- >
ĠTr ue
ĠíķĻ ìĥĿ
Ġmethod s
ëĿ¼ ìĿ´
íħ Ķ
Ġwor ks
Ġì¯ ¤
ĠìĿ´ ëŁ¬
ĠëıĦ ìĭľ
Ġ{ }
Ġint ro
Ġf lo
Ġìĺ¬ íķ´
Ġìł ¸
ĠìķĦ ëŀĺ
ĠìĦ¼ íĦ°
ĠìĦ¤ ì¹ĺ
ê³ł ê¸°
íĮ ¨
ëł µ
ĠìĻĢ ìĦľ
Ġíĺ¼ ìŀĲ
Ġíı¬ìĬ¤ íĮħ
Ġde ath
ìĽ ĥ
Ġë² Ķ
Ġê²½ íĹĺ
ĠìĹ¬ ìĦ±
Ġë§Ī ìĭľ
Ġìĭ «
ë´ ī
ìĪ Ļ
Ġfact or
Ġtr y
Ġìľł ì§Ģ
ĠìĿ¸ íĦ°
Ġìĺ ·
lob al
ë »
ì° ¸
Ġit em
Ġìĥģ íĴĪ
Ġwe ight
ìļ´ ëį°
Ġto ld
ĠìłĦ ì²´
ĠìĨ ¡
ce ption
ĠìĿĺ ë¯¸
ëł ´
Ġle arn
U M
ĠëıĦ ì°©
Ġval id
Ġë§ŀ ì¶
us e
ĠìĦ¸ ìĥģ
ìĨ Ĳ
ĠêµŃ ê°Ģ
ë¶Ģ íĦ°
Ġìĺ¤ ëŀĺ
à ¸
Ġ taken
Ġê°ľ ìĽĶ
Ġb ound
Ġìĸ »
fer ence
ĠíĻĺ ê²½
Ġë¿ Į
Ġìĩ ¼
Ġìłľ ìĿ¼
R E
Ġ ìĿµ
ĠìĪĺ ìĹħ
ĠìķĦ íĮĮ
íĶ Ī
Ġtemper ature
ĠìŀĲ ì£¼
Ġìĭ Ń
Ġn ull
Ġdoes n
ĠíķŃ ìĥģ
ë¥ ¼
ĠìĨ Ķ
ou p
Ġë°Ķ ëĿ¼
R O
ì¹ ł
Ġì» ¨
ĠìĽ Ģ
ì «
art ment
ĠìĿ´ íķ´
ê° ĳ
ĠëĮĢíķ´ ìĦľ
Ġë ½
ê· ľ
Ġë¶Ģ ëĭ´
ĠìĥĪë¡ľ ìļ´
ëĦ Ĳ
Ġwho le
Ġí į¼
ìĽĮ ìĦľ
Ġíķ´ ê²°
ìķ Ļ
Ġproduc ts
Ġíı¬ íķ¨
Ġstat us
ê³ ¨
Ġê²Į ìŀĦ
Ġproduc tion
Ġë§ Ŀ
Ġ ì¥
Ġì¤ ¬
Ġìµľ ëĮĢ
Ġdo ing
Ġë§¤ ìļ°
ìĬ ¬
íĥ Ī
ĠìķĦ ìķ¼
Ġop tim
Ġ- ----------------
ĠI N
g et
Ġw ent
Ġass ess
Ġìĸĺ ê¸°
ĠëĬĲ ëģ¼
y stem
Ġìłľ ëĮĢë¡ľ
Ġê· ¹
ĠíĻľ ìļ©
Ġê¶ģ ê¸Ī
ìľ µ
Ġob j
Ġperform ed
o o
Ġë¹ ¼
ìĹĨ ìĿ´
Ġ& &
n ame
Ġn ight
ë¬´ ë¦¬
ëį ķ
Ġì± Ļ
Ġon line
Ġimp lement
h er
ê³ ¡
Ġê¹Ķ ëģĶ
ê·¼ ëį°
ti tion
ëŀ µ
ĠìĦ± ìŀ¥
T r
ëĭ¤ ë©´
wh ere
ĠP C
Ġë§ ¥
os ition
Ġê°Ģ ìł¸
Ġperson al
ĠìŀĲ ì²´
O S
Ġinclud ed
ten tion
Ġë¹ µ
Ġdef ined
Ġë Ľ°
Ġìŀ ĸ
iz ing
Ġiniti al
ĠìĿ´ ëĿ¼ê³ł
Ġíıī ê°Ģ
Ġc reat
Ġìľ ¤
ìŀ ¡
n a
íĴ į
ë¨¸ ëĭĪ
Ġë¶Ģ ìĤ°
ĠìĿ¸ëį° ìļĶ
Ġa verage
ì¦ Į
ver se
ĠìĤ° ìĹħ
pr int
Ġìĥģ ëĮĢ
ty pe
Ġê²Ģ ìĤ¬
Ġal most
Ġr andom
tim es
ĠíĻĶ ìŀ¥
g o
ill ed
ĠìĤ¬ ê³ł
Ġëħ¸ ëŀĺ
Ġìľł ëªħ
il ities
Ġê¸° ê´Ģ
ê¹ Ĳ
Ġtr ack
íķĺ ì§Ģë§Į
ĠìŀĲ ìĦ¸
ĠìĿ´ ìĸ´
Ġë© ĭ
f act
ĠíĻ ©
ĠS T
Ġpar ty
Ġìĭł ì²Ń
ħ ëĭĪëĭ¤
ĠìķĪ ìłĦ
Ġresp ectively
ìķ Ķ
Ġëĭ¤ ë¥´
ĠS ome
Ġìłķ ë¦¬
ic ation
ëĶĶ ìĸ´
Ġë°Ķ ëŀĮ
ìĭľ ìķĦ
Ġìĭł ê²½
Ġdiffer ence
Ġprote in
ĠìĦ± ê³µ
A P
Ġë© Ģ
Ġìĸ´ ë¦°
Ġw indow
ì Ń
Ġëħ ¹
Ġprovid es
ĠìĿ¸ íķ´
O T
ĠìĪľ ê°Ħ
ëŁ ´
A D
Ġìłľ ì£¼
íķ Ħ
l og
ëĭĪ ê¹Į
Ġì°¨ ìĿ´
Ġìĭľ íĹĺ
ĠëĶ ¸
Ġaddition al
Ġmathb b
Ġpro to
Ġê² ¬
anc ed
Ġparam eters
ĠìĿ´ ëĤł
Ġê²° êµŃ
ĠM in
ĠíĶ¼ íķ´
Ġìľ¼ ìĭľ
istic s
Ġto day
Ġ ìļķ
ĠìĹ¬ ë¦Ħ
ë¦¬ ìĸ´
Ġbre ak
ĠëĤł ìĶ¨
ĠëĺĲ ëĬĶ
ĠC D
Ġê°ľ ìĦł
Ġì£¼ ë³Ģ
Ġê¸Ī ìľµ
ìĿ´ ì§Ģ
er ation
Ġdistrib ution
ly ing
Ġìĺ¤ íĽĦ
ĠìĺĪ ìķ½
Ġë¸Ķ ë¡ľê·¸
Ġê¿ Ī
Ġë³Ģ íĻĶ
ìķ Į
Ġíħ Ĳ
ĠP H
Ġì¦Ŀ ê°Ģ
Ġëĵľ ë¦½ëĭĪëĭ¤
end er
Ġìĺ¬ ëł¤
Ġìĺģ ìĥģ
Ġexp ected
t aking
Ġë ĺ
ë Ń
I G
ĠíĸĪ ìĹĪ
Ġì²Ń ìĨĮ
Ġknow ledge
Ġtr aining
Ġì» ¬
ĠëĦ ĵ
Ġëĵľ ë¦´
ĠìĹ ¼
Ġes pecially
Ġìĭľ ìĬ¤
ĠìĦł ìĥĿ
ëĿ¼ ìĿ¸
i ation
ì³ ¤
ĠëĶ° ë¥´
Ġë°© ìĭĿ
Ġê·¸ëŁ¬ ëĤĺ
ĠíķĺëĤĺ ëĭĺ
Ġë¹Ħ êµĲ
ĠëĪĦ êµ¬
Ġop tions
Ġìŀ ĩ
Ġì°¸ ìĹ¬
ì§ ¸
Ġìłķ ìĭł
to p
Ġìĺ¬ ë¦¬
Ġê·¸ ë¦¬
Ġsignificant ly
E L
Ġëľ ¨
Ġíŀ Ī
Ġìŀħ ìŀ¥
ĠìĿ´ ë£¨
Ġcontro ll
Ġë§¤ ìĿ¼
Ġpress ure
a id
ëŀľ ë§Į
Ġë¹ Į
í Ľ
ĠìĿ¼ ëĭ¨
it ing
Ġê·¸ ë¦¼
íĭ Ģ
r ror
ì§ Ĳ
ĠíĽĦ ê¸°
ëĥ Ĳ
Ġê¸° ìŀĲ
Ġì§Ģ ë°©
Ġthere fore
cl ass
a e
Ġìĭľ ì¦Į
ĠíĬ¹ ë³Ħ
Ġalign ed
Ġê°Ģ ìļ´ëį°
Ġìłķ ì±ħ
ë³ ¼
ĠìĽ ¨
en ing
ëĦ ·
Ġê°Ģ ê¹Į
ì¡ ¸
Ġfe ature
Ġl ambda
ëľ »
Th ere
Ġë¶Ģ ì¡±
en tion
Ġbelie ve
Ġare as
c ome
Ġê·ľ ëª¨
ĠëĬ ¦
ĠìĬ¤íĥĢ ìĿ¼
ĠíĻķ ìĭ¤
w ord
ĠëĮĢ ë¹Ħ
Ġf alse
ĠìĺĪ ìĥģ
Ġcont act
ĠìĪĺ ì¤Ģ
ĠìĬ¤ íĬ¸
ëª »
Ġdevelop ed
Ġìĸ¼ë§Ī ëĤĺ
Ġì½ ĺ
ĠíĽĦ ë³´
ĠìĿ´ ê±°
Ġë²Ħ ë¦¬
Ġcom es
Ġgr ound
Ġíĳľ íĺĦ
Ġìŀ¬ ë¯¸
Ġëĸ¨ ìĸ´
Ġë§Į ëĵł
Ġ taking
ìĿ´ ë¸Ķ
ĠìĿ¸ ê°Ħ
ìĿ¸ íĬ¸
Ġê³ł ìļĶ
ĠìĥĿ ê¸°
ĠN ational
ë² ¤
ĠëĮĢ ë¶Ģë¶Ħ
ĠìĤ¬ ê±´
Ġìĸ¸ ëĭĪ
Ġmanag ement
Ġìĭ¤ ìłľ
h o
Ġë¹Ħ ìļ©
Ġhe ight
ĠV al
Ġìĭľ ìĦ¤
ê° Ļ
P S
Ġ----------------- --------
Ġíĸī ìĤ¬
Ġ= >
Ġsh all
Ġì¦Ŀ ìĥģ
ëĪ Ī
Ġìĺģ íĸ¥
Ġë¹¨ ë¦¬
ë§Ī íĬ¸
Ġì¶© ë¶Ħ
Ġus ers
Ġëĸ ¡
ê² Ģ
Ġë°ľ íĳľ
Ġëª» íĸĪ
ê·¸ ëŀ¨
Ġíķ´ ëĭ¹
Ġëľ »
Ġhe art
Ġë°° ìļ°
Ġsh are
ĠìĹ¬ëŁ¬ ë¶Ħ
Ġë°Ķ ìĿ´
ĠìĭľìĬ¤ íħľ
Ġpresent ed
C C
in ally
Ġinclud es
ul ations
Ġê²° íĺ¼
Ġíı Ĳ
ist ance
ëį ¸
Ġë´ Ħ
Ġìĸ´ ëłµ
Ġle arning
Ġë§Ī ëł¨
ĠìķĮìķĦ ë³´
Ġê°Ģ ëĵĿ
m y
Ġbuild ing
ĠìĿ´ ëıĻ
Ġits elf
Ġí ĩ´
ëŀ ¬
Ġê±° ëŀĺ
in ing
Ġíķľ ëį°
Ġì§ĳ ì¤ĳ
ĠT V
Ġë§Ī ë¬´ë¦¬
ìĿ´ ëłĩê²Į
¬ ìĺģ
E M
Ġê² ģ
ĠíĶĦë¡ľ ê·¸ëŀ¨
ĠìĦľ ë¡ľ
Ġì¹´ ëĵľ
Ġass um
Ġcom pl
ë¨ ¼
Ġë§ ģ
íĹ Ī
Ġincre asing
O U
Ġfunction s
I L
Ġpropos ed
Ġëĭ Ń
ìŀ Ķ
ì¼ ĵ
Ġse ems
Ġê·¸ëŁ° ëį°
ĠìĺĪ ìģĺ
av ing
íķ´ ìĦľ
Ġê³Ħ ìķ½
ĠF alse
Ġtrans fer
Ġë¶Ħ ìĦĿ
ĠëĤ´ ë¶Ģ
Ġg ithub
ĠëĤĺ ìĿ´
ìĹ¬ ê¸°
Ġì£¼ ì°¨
ĠíĮ ¬
ìļĶ ì¦ĺ
ĠìĬ Ī
ĠìķĦíĮĮ íĬ¸
Ġìĸ´ ì©
) ,
Ġop tion
Ġ ì«
ë¦¬ ìķĦ
Ġì§ĢëĤľ íķ´
íĺ ľ
us ter
Ġimp act
Ġal gorith
ìĬ ·
Ġìłľ ìŀĳ
ĠëŃĶ ê°Ģ
ĠìĭĿ ìĤ¬
Ġë§ ¨
Ġê·¸ ëĮĢë¡ľ
Ġì§ģ ìĽĲ
ëł¤ ìĦľ
ìĤ ¼
E C
Ġê°Ħ ëĭ¨
ĠìķĦ ê¸°
ìĿ´ íĦ°
ìĻ Ħ
Ġex act
Ġdeterm ined
Ġsome one
Ġg lobal
Ġìĥģ ìĬ¹
íĦ ´
ë¦ ¿
B C
Ġìŀĸ ìķĦ
ĠìĿ´ ìĤ¬
th is
ëĥ Ī
it ation
Ġë »
Ġìĵ ¸
Ġlong er
Ġit ems
um ber
Ġrefer ence
Ġ ì¡Į
Ġêµ¬ ìŀħ
Ġì²ĺ ë¦¬
Ġì¢ħ ë¥ĺ
Ġinst ance
Ġartic le
Ġìłģ ìļ©
Ġì´ ¬ìĺģ
Ġfor ce
Ġê¸°ëĭ¤ ë¦¬
Ġcontin u
k n
Ġë¹ Ī
Ġê¹ Ĭ
Ġìłķ ìĥģ
Ġëĭ¹ ìĭľ
us try
Ġë¬´ ìĬ¨
Ġíĺ Ī
Ġê°Ĳ ëıħ
Ġdirect ly
ĠìŀĲëıĻ ì°¨
Ġê·¸ ëŁ¼
Ġì¡´ ìŀ¬
ac tions
Ġê³ ¤
Ġëĭ¨ ê³Ħ
Ġì° ¬
Ġr ound
Ġíĥ Ŀ
ell ing
íĺ ¹
ìłķ ë§Ĳ
Ġì£¼ íĥĿ
Ġk m
ĠìĿĢ íĸī
Ġres id
Ġë§ ¡
ĠíĻĺ ìŀĲ
Ġë°ľ ê²¬
Ġìĭ ±
ëį ĺ
ind ing
Ġêµ¬ ì¡°
ìĿ´ ìłľ
ĠìĤ´ ì§Ŀ
ĠìĿ¸ ìĤ¬
Ġevery thing
B S
ĠíĺĦ ëĮĢ
Ġìľ¼ë©´ ìĦľ
Ġtechn ology
Ġì§Ģ ìĨį
ĠìłĢ ëł´
ĠëĶ° ë¡ľ
Ġê²½ ì°°
ì½ ¤
Ġíģ¬ ë¦¼
ear ch
Ġus ually
ìĨĮ ë¦¬
ìĭ ¸
Ġìłķ ì¹ĺ
Ġì£¼ ë§Ĳ
ĠI D
ìĿ¸ ëĭ¤
ĠìĬ¤ëŁ¬ ìļ´
ĠíķĻ ìĽĲ
Ġëĥ Ħ
ĠìŀĲ ìľł
ĠìĪĺ ìĪł
Ġfin anc
ë ·°
Ġì¤ĳ ìĭ¬
m ore
Ġë°Ķ ëŀ
Ġë¹ Ľ
ë§ İ
ê·¸ëŀĺ ëıĦ
Ġë¶Ģ ëª¨
Ġê¸° ì¡´
ìľ¼ ë©°
ĠìĿ¼ ë¶Ģ
Ġë¯¸ ë¦¬
el se
Ġë³´ íĺ¸
ì² Ļ
ĠìĿ¼ ìĸ´ëĤĺ
Ġìĺ¤ ë¹ł
Ġëį ľ
Ġab ility
Ġinter p
ĠìĿ´ ê³³
Ġë¹Ħ ìĬ·
ĠëĮĢ ì¶ľ
Ġìķ½ ê°Ħ
Ġìĥ ¤
ìķĦ ìĿ´
ĠìĤ¬ ìŀ¥
Ġparti al
Ġìłķ íĻķ
ëŁ Ń
ĠëĬ¥ ëł¥
Ġìĺģ ìĸ´
Ġse lected
ì ĮĢ
Ġcoun t
ĠìłĦ ë§Ŀ
ëıĻ ìķĪ
Ġê²¨ ìļ¸
¾ Į
Ġìŀĳ íĴĪ
Ġê¸° íļĮ
Ġíİ¸ íķĺ
Ġur l
Ġëĥ ī
Ġëª» íķľ
ìħ ¨
Ġêµ¬ ê²½
Ġë§Į ëĵľ
Ġav oid
Ġdiffic ult
ĠìĤ¼ ìĦ±
Ġë¸Į ëŀľëĵľ
Ġsa w
Ġìķ ¡
Ġë°ĸ ìĹĲ
ĠìĹ° ê²°
Ġê·¸ëŁ° ì§Ģ
Ġì°¸ ê³ł
ĠìķĦ ë¹ł
ì§Ħ ì§ľ
ĠìĽĲ ëŀĺ
ĠìĹ° ëĿ½
Ġíĭ Ģ
Ġì¢ Į
ìĿ´ ëĵľ
íĽ Ī
ìĻ ķ
ë§Ī ìŀĲ
Ġë°© ìĨ¡
R I
ĠíĺĦ ìŀ¥
Ġê´Ģê³Ħ ìŀĲ
ëŀ Ļ
Ġmathb f
Ġhim self
Ġëª¨ ìĸĳ
ìĶ ¬
ìĦ¸ ìļĶ
Ġìķ ķ
ëĭ Ŀ
Ġw anted
Ġê·Ģ ìĹ¬
Ġëģ Į
Ġn ature
ëª ¬
Ġì§ Ĳ
ĠìĥĿ ìĤ°
t ings
Ġal though
Ġëŀ įëĭĪëĭ¤
Ġê°ķ íĻĶ
Ġn ational
Ġdesign ed
ac ity
ĠìŀĲ ë§ĪìŀĲ
Ġê½ ¤
Ġfollow s
us ed
Ġë³Ħ ë¡ľ
Ġëĭ¬ ëŁ¬
Ġs ound
ê²Į ìļĶ
Ġìĭľ ëĮĢ
Ġìº ł
Ġìĸ´ ìļ¸
ê·¸ ëŁ°
Ġìľ ¨
u fact
ĠìĽĢ ì§ģ
ĠìķĦ ë¦Ħ
Ġëª¨ ëį¸
Ġíķ µ
ì° į
Ġë°ľ ìłĦ
ê½ ĥ
ĠF irst
ì¼ °
ĠìķĦ ëĵ¤
Ġì´ ī
ëĶ °
Ġë¯¼ ì£¼
ĠìļĶ ë¦¬
Ġìĥģ ëĭ¹
Ġoffic ial
íľ ´
ëĭ¤ ê°Ģ
Ġë¹ł ë¥´
ĠìķĪ ìłķ
Ġdistr ict
Ġë§¤ ìŀ¥
Ġì§Ī ë¬¸
Ġind ustry
A G
ĠìłĲ ìĭ¬
Ġparticular ly
ĠìĨĮ ë¹Ħ
Ġì½Ķ ìĬ¤
ëģ Ĺ
S S
Ġl iving
ëŁ¬ ìĬ¤
O D
ĠThere fore
ë» Ĳ
arg in
Ġcompon ent
Ġê³µ ê°ľ
ì¸ ¡
Ġexper i
Ġëĭ¹ ìĭł
Ġëª© íĳľ
Ġì¢ĭ ìķĦ
at us
ì§Ģ ê¸Ī
ê¹ ¨
Ġr ights
Ġindep endent
Ġì¶Ķ ì§Ħ
Ġìŀĳ ìĦ±
ĠëĤ¨ íİ¸
ê±° ìļ´
Ġìłľ ê±°
Ġê°ĳ ìŀĲê¸°
ĠêµŃ ìłľ
ĠìĿ¸ ìĥĿ
ĠìĿ¼ ìłķ
I I
ĠìĿ¸ ìłķ
ĠìĹŃ íķł
ĠìĿ¸ ê¸°
Ġíı¬ ìŀ¥
Ġdiffer ences
ë²Ħ ì§Ģ
ĠìĿ¼ ìĥģ
íģ ´
Ġê°Ģ ìŀħ
ìĬ¤ ë¡ľ
Ġgener ally
Ġíķĺ ëĬĺ
Ġfollow ed
d o
T ype
Ġ ëłĮ
Ġë¶Ī íİ¸
Ġê±´ ë¬¼
Ġre duced
Ġ ì¡¸
ĠíĻ Ģ
Ġë´Ĳ ìķ¼
Ġst rength
Ġarg ument
Ġdetail s
Ġê³ł ìŀĲ
Ġíı¬ ìĿ¸íĬ¸
ĠìĿ´ ê²Į
Ġres tr
Ġê¸¸ ëŀĺ
ìĬ¤ íĥĢ
ì£ ½
ëĦĪ ì§Ģ
Ġcon tract
Ġìĺ¤ ìłĦ
Ġêµ¬ ëĤĺ
Ġë¶Ħ ìķ¼
Ġë³´ ìĺĢ
Ġìĭľ ìĽĲ
Ġìĭľ ê³µ
Ġ": "
Ġë° ĳ
ĠìĽĲ ìĿ¸
Ġíķ ĳ
ìĬ ´
Ġd ensity
Ġl en
ĠìĨĮ ìĬ¤
ê³ ¤
Ġë§Ī ì¹ĺ
Ġìĭľ ê¸°
Ġë²Ħ ìĬ¤
ĠO F
Ġíĸī ëıĻ
Ġì£¼ ìŀ¥
ì¹ Ļ
Ġk g
Ġcoun tries
ĠëĿ¼ ìĿ¸
Ġìħ Ģ
ĠëıĦ ìĻĢ
ac ement
ìĹŃ ìĭľ
ìŀĲ ë¦¬
ĠìĻĦ ìĦ±
Ġë¶Ģ íĥģ
ĩ Į
Ġ ì³Ĳ
ĠìłĦ íĺĢ
Ġmaterial s
Ġê¸° ìĹĲ
Ġê°Ģ ì¹ĺ
ĠêµĲ ìĪĺ
ĠëĤĺ ë¬´
ĠA M
Ġë² Ĺ
ĠìķĦ ëıĦ
ĠëĤ ¬
ê² ģ
Ġë°Ķëŀ įëĭĪëĭ¤
ìĤ¬ ì§Ħ
ì¿ ł
Ġì£ Ħ
íĨ ¡
Ġê³ §
Ġì¤ĳ ê°Ħ
ĠìĦ± ë¶Ħ
Ġ takes
ë¡ ¯
Ġëĭ¤ ìĿ´ìĸ´
Ġì¹ĺ ì¦Ī
I M
Ġë³ ¶
ìķ ŀ
Ġì» ´
ĠìĿ¸íĦ° ëĦ·
ĠF urther
O M
Ġì½ ľ
Ġpar ts
Ġwh ose
Ġìŀĺ ëª»
ĠëĮĢ íļĮ
Ġarg s
Ġê·¸ ë§Į
ë¦ ĩ
el ess
Ġchann el
h y
íħĮ ë¦¬ìĸ´
Ġpl aintiff
Ġproduc ed
ëŀ «
Ġë¯¸ ëŀĺ
le ase
Ġhigh ly
Ġactiv ities
ìķĦ ê°Ģ
Ġinf o
Ġê²Ģ ìĥī
Ġê²½ ìŁģ
Ġë¶Ģ ëĵľ
ĠìĹŃ ìĤ¬
Ġallow s
Ġê·¼ ì²ĺ
Ġestab lished
ĠìĦ¸ íĬ¸
ĠìĹħ ë¬´
ëĭ¤ ìĿĮ
Ġì£¼ ìĿ¸
Ġprevious ly
ì£ Ħ
Ġí Ŀĺ
Ġë´ ħëĭĪëĭ¤
Ġthems elves
ĠëĿ¼ ìĿ´
Ġì±ħ ìŀĦ
ìĦ ¯
ì´ Į
ĠìĤ¬ íķŃ
Ġë°© íĸ¥
Ġcorrespond ing
Ġle ave
Ġëĭ¬ ëĿ¼
Ġpl atform
ĠíĻķ ëĮĢ
Ġë§Ī ìĿĦ
I V
® ¤
ìĭľ ê°Ħ
Ġê±´ ì§Ģ
Ġëķ ħ
E rror
Ġres ources
w ith
íĤ ¬
Ġat tention
ë²¤ íĬ¸
f ig
Ġman ufact
ê¼ ¼
Ġnum er
Ġì±Ļ ê²¨
ìł ł
ĠíħĲ ëį°
V al
ĠìĤ¬ìĿ´ ì¦Ī
Ġëĺ ĳ
Ġëĭ¹ ìĹ°
Ġê² ©
Ġv s
ë¡ Ń
ë¥ ł
ìĹ ½
ell ow
ëĨ ĵ
Ġindividual s
ìĤ¬ ìĭ¤
íŀ Į
Ġìļ° ìĦł
ĠìĺĪ ìģľ
ĠíĶĦ ë¦¬
ìķĦ ì§Ģ
ĠëĮĢ êµ¬
Ġcom ing
Ġìľ¼ ëł¤
ĠA bstract
ĠìľĦ íĹĺ
rough t
ĠëĮĢ ìĭł
ĠëĶ° ëľ»
Ġíķł ìĿ¸
oun ts
Ġê·¸ ëķĮ
ĠíĽ Ī
Ġë³¸ ìĿ¸
Ġìļ´ ìłĦ
Ġìľ¼ëĭĪ ê¹Į
Ġëĭ¤ ë¦¬
ĠëĴ ·
ĠìĿĺ ë£Į
A B
Ġì»¬ ëŁ¬
or ing
Ġíĺ¸ íħĶ
Ġcontin ue
Ġg ave
Ġd ict
Ġelect ro
ĠìĬ¤ ìĬ¤ë¡ľ
Ġìŀ¬ ë£Į
ĠìļĶ êµ¬
Ġì² ¨
ĠíĨµ ì¦Ŀ
ĠìĭĿ ëĭ¹
ers on
Ġsw itch
ëĭ¤ ë¥¸
Ġfinanc ial
ĠìĿ´ ê±´
ĠìķĦ ë§Ī
íİ ´
Ġìľ¼ ìĭł
ĠìĹ ĺ
ë° Į
ĠAmeric a
Ġë¶ģ íķľ
ĠíĬ Ģ
Ġì¤ĳ ìķĻ
ĠìķĦ ìī¬
Ġê°Ģ êµ¬
ë¦° ëĭ¤
Ġëĭ¬ ë¦¬
Ġapplic ations
w or
ìł¸ ìĦľ
ĠH er
Ġì§Ī íĻĺ
Ġëĭ¨ ì²´
ĵ ¨
ë°Ķ ë¡ľ
ĠíĽ ¨
ëł ī
ë£ ¹
Ġìľ¼ ëŁ¬
Ġíķ´ ìĻ¸
ëģ Ħ
Ġê¹¨ ëģĹ
os ure
Ġcont aining
Ġfield s
ĠëĦĺ ìĸ´
Ġkn ew
Ġê·¸ ëħĢ
Ġê¸° ìĤ¬
ì¤ Ħ
ĠìĮ ĵ
Ġì° Į
O L
Ġì² Ļ
os ing
ĠëĥĦ ìĥĪ
ìĿ´ ë²Ħ
ì´ ī
ìĸ´ ëĤľ
Ġcurrent ly
ë Ģ
Ġcom ment
ìĪĺ ë¡Ŀ
ê°Ģ ì§Ģ
Ġì§Ģ ëıĦ
Ġê³ł ëł¤
ĠíĮĲ ëĭ¨
Ġin duced
Ġcon ver
Ġë³´ íĨµ
ĠìĿ´ ìłĦ
ĠìłĦ êµŃ
o very
Ġíĺ ľ
ĠìĿ´ ë²¤íĬ¸
ur ance
ograph y
Ġhand s
Ġì²´ íĹĺ
ĠìĻ¸ êµŃ
Ġeconom ic
ĠìľĦìĽĲ íļĮ
Ġf ather
Ġìĺ¤ ë¥¸
Ġintern al
ĠD NA
ĠíļĮ ìĿĺ
Ġìŀ¥ ìĨĮ
al ing
Ġtrans ition
ä ¸
Ġë°Ķ ëĭ¤
Ġì§ §
ĠA D
N o
Ġë²Ī íĺ¸
¢ °
ĠëĤĺ ëĪ
ë ¤
Ġstat ement
ìķ ķ
Ġë§ŀì¶ °
en ess
Ġpro gress
Ġê³µ ìĤ¬
ì¹ Ń
Ġprocess es
íļ ¨
ìłĢ íĿ¬
Ġê¸Ī ìķ¡
T H
Ġê³µ ëıĻ
Ġpr int
Ġê³ ¡
ìĿ´ ëŁ°
ĠìĺĪ ë°©
Ġìĺ¤ ëŀľë§Į
oc al
ìĭ ±
Ġchall eng
ch ange
ĠìĤ´ íİ´
Ġclaim s
Ġìĺģ ìĹħ
U S
íķĻ êµĲ
íĬ¹ íŀĪ
ì´ Ŀ
Ġcl uster
ë¹ Ľ
Ġallow ed
Ġê³µ ìĽĲ
Ġê°ķ ì¡°
fer ences
Ġë² ½
Ġìĸ´ ìłľ
ĠíļĮ ìŀ¥
tr ing
Ġê±° ê¸°
ĠìĿ¸ íħĮë¦¬ìĸ´
ĠíļĮ ë³µ
r ight
Ġne igh
ĠìĤ¬ ë¬´
ìĸ´ ìļĶ
ìī ½
ĠìĿĮ ìķħ
Ġob jects
Ġì¥ ¬
Ġíķ ¸
ì§Ħ ëĭ¤
Ġass ert
ì¸ µ
Ġë¬ »
Ġal one
I R
C H
ëĤ ¸
ĠO ctober
ĠI S
ac ing
ìĺ ¥
ĠA P
Ġëģ Ĭ
Ġê³µ ê²©
Ġto uch
Ġë¡ľ ìĦľ
ĠìĿ¸ ì²ľ
ĠìŀĲ ë£Į
ĠS ystem
Ġë°Ķ ëĢ
íŀĪ ëł¤
Ġover all
ìļ° ìĬ¤
Ġê³µ ê¸ī
}) ;
ë ¢°
Ġëĵ¯ ìĿ´
Ġëª© ìłģ
id ing
ĠíħĮ ìĿ´ë¸Ķ
Ġto wards
ĠêµĲ íĨµ
Ġìŀ¬ ë°Į
íĬ ľ
Ġtes ts
Ġê¹Ģ ì¹ĺ
Ġê³Ħ ìĭľ
ough t
ĠA S
ĠìĬ¤ ë§ĪíĬ¸
Ġì¡° ê±´
Ġì§ ķ
Ġalgorith m
Ġunderstand ing
ìĦ ¼
Ġb order
ĠìĤ¬ ëĿ¼
Ġìłľ ëıĦ
ĠìķĦ íĶĦ
======== ========
ĠM S
ĠI T
Ġëĵ± ë¡Ŀ
Ġëĭ¤ íĸī
Ġê´Ģ ê´ĳ
ìłĦ íŀĪ
Ġëĵľ ëł¸
c o
Ġëĭ¤ìĿ´ìĸ´ íĬ¸
M S
Ġëķ Ĳ
Ġp arent
Ġprocess ing
ĠëıĻ ìĭľ
Ġdescri ption
íĺ Ī
Ġíģ¬ ê¸°
ìĬ¤ íĦ°
Ġevery one
Ġë¬´ ë£Į
Ġhigh est
ĠëĶ°ëĿ¼ ìĦľ
Ġê¾¸ ì¤Ģ
ëĶ ±
ĠìĿ´ ìģĺ
ĠíĺĦ ìĭ¤
ĠíĮ ©
íħ Ĳ
Ġë²Ħ ëł¸
ĠìĿ¸ ìĥģ
íĿ ¥
ĠëĤ Ļ
ìĤ Ń
Ġinflu ence
Ġíĺ¹ ìĭľ
Ġìĭľ ë¯¼
Ġí Ģ
ë° Ľ
ĠíĽ¨ ìĶ¬
Ġì¤ įëĭĪëĭ¤
ĠëĲľëĭ¤ ê³ł
ĠR E
Ġ ìŃ
Ġìĭľ ì¼°
l ight
ĠëĤ´ ìĿ¼
Ġwork ed
Ġìĺ¬ëĿ¼ ê°Ģ
Ġë¦¬ ê·¸
con st
A ll
Ġìĺ¤ íĶĪ
Ġê± ·
Ġchang ed
ĠêµŃ íļĮ
Ġíĥ ĳ
ì§Ģ ëĤľ
í ĳ¸
Ġê°Ĳ ìłķ
Ġcoun ter
â Ļ
Ġthrough out
ĠC H
Ġexist ing
Ġë¡ Ń
ìŀ ĺ
ĠN ovember
ë³ ¶
Ġdefin ition
ĠA T
ĠAustr al
ĠëĥĲ ê³ł
Ġcho ose
ê·¸ ëĥ¥
Ġê·¸ ëŀ¬
ë´ Ĳ
Ġìŀ Ĭ
Ġìŀ¥ ìķł
Ġíķľëĭ¤ ë©´
Ġë ·°
Ġm iddle
Ġë³´ ìĿ¸ëĭ¤
Ġse lection
Ġth reat
ir ing
Ġst orage
Ġíıī ìĨĮ
íķĺ ëĤĺ
Ġprofession al
Ġconcentr ation
Ġê³ł ê¸ī
ass ert
Ġachie ve
Ġìĭł ê¸°
Ġì¤ĳ ê³ł
Ġë¶Ħ ëªħ
Ġwor th
ĠëĬĶ ê°Ģ
Ġë§Ī ë¦¬
Ġfind ings
ĠP M
Ġst ation
O C
Ġìĩ¼ íķĳ
ĠëĤ´ ë¦¬
Ġsmall er
Ġy ield
od ing
íĺ ĳ
Ġb rought
ĠìłĦ ìŀĲ
es ter
ëŀĺ ëıĦ
Ġì¹ľ ìłĪ
ë¡ ±
ill ing
Ġíĺķ íĥľ
ĠëıĻ ë¬¼
Ġê°Ģ ìĬ´
Ġê·¸ ë£¹
Ġìĸ´ë¦° ìĿ´
Ġìĥ Ģ
ì£¼ ìĿĺ
Ġì£¼ ë¯¼
ëĳ ¥
Ġfind ing
am ent
ê¹ Ķ
I P
Ġëĭ¤ ë©°
Ġs ources
ì» ¨
ĠìĿĺ ìĤ¬
Ġtest ing
ĠìŀĲ ê²©
Ġì£¼ ìłľ
Ġê°Ģ ì§Ħ
ĠìłĦë¬¸ ê°Ģ
ìĭ Ń
ĠëĤĺ ì¤ĳ
Ġìķ ¤
ĠìĿĺ ê²¬
Ġíĺ ģ
ë ļ
wor ks
Ġê°ģ ê°ģ
ĠíķĦ ìĪĺ
Ġë¶Ģ ë¥´
Ġíİ ¼
Ġintern ational
ëĭ µëĭĪëĭ¤
ëł Ģ
ĠêµĲ ì²´
ĠìĪĺ ìĿµ
Ġì²´ íģ¬
Ġìŀ¥ ê´Ģ
Ġë²ł ìĿ´
ì ¨
ĠìłĪ ëĮĢ
Ġê±´ ëį°
Ġìľł ë¦¬
Ġìĺ ¥
Ġìĥ ·
Ġre asons
U R
ìŀ ł
í ĩ´
it ter
ìļ´ ëĵľ
Ġtrans port
Ġì§ ±
ëĶĶ ìĺ¤
ĠìĬ¤íĬ¸ ëłĪìĬ¤
Ġf ight
Ġê³µ ê¸°
ĠS ection
Ġcon cept
Ġìł ¤
ĠìĺĪ ìłĦ
Ġëĵ¤ìĸ´ ìĺ¤
Ġsome times
ê°Ģ ëĿ½
Ġì¹ĺ íĤ¨
ĠìĦł ìłķ
ìľ ¤
Ġquick ly
ĠìłĲ ìłĲ
ĠD istrict
Ġê² ª
O P
Ġë§¥ ì£¼
b re
ëĭ¤ ìĭľ
Ġêµ ³
Ġìłģ ê·¹
íĤ ¹
Ġì£¼ ìļĶ
Ġëĭ¨ ì§Ģ
Ġvehic le
êµŃ ìĪĺ
ĠìĨĮ ìĭĿ
U T
Ġê³µ ìĹ°
Ġìĸ´ëł¤ ìļ´
ĠI P
Ġê² ¸
Ġìĵ ´
Ġë¡ľ ë¶ĢíĦ°
ĠìĥĿ ê²¼
ì ¾Į
pl ing
Ġv ector
ëıĻ ìĤ°
Ġë½ ĳ
ĠìłĦ ìĭľ
ĠìķĦë¦Ħ ëĭ¤
ĠP D
ì½ ľ
is try
ĠìķĦëĭ Ĳ
ìĨ Ķ
ĠìłĦ ê¸°
ìľ¼ ëĤĺ
íı Ń
Ġìŀ ĥ
Ġcontr ast
Ġìŀ¥ ìłĲ
Ġëĵľ ëĿ¼
Ġun its
Ġì§Ģ ì¼ľ
Ġì§ ĵ
ĠëĤĺíĥĢ ëĤĺ
Ġprovid ing
ĠS D
Ġì¡° ì§ģ
ë¤ Ħ
ĠìĹĲ ëĦĪì§Ģ
íĦ ¸
Ġë¹Ħ íķ´
êµ° ìļĶ
Ġresult ing
N S
Ġbenef its
ĠìĤ¬ìļ© ìŀĲ
Ġëł¤ ë©´
ëĭ Ĳ
Ġíı ´
Ġìĺ¤ íŀĪëł¤
Ġìĺģ ìĸĳ
Ġìŀ¥ ê¸°
Ġë§¤ ëł¥
Ġsay ing
Ġdatab ase
Ġê²ģ ëĭĪëĭ¤
Ġm aster
ĠìĪĺ ìĤ¬
l usion
ut ing
Ġì£¼ ìĿ¼
Ġcharacter istics
ĠìĿ´ë¯¸ ì§Ģ
Ġê²½ ìĺģ
Ġíĺ Ĳ
Ġ ëŀĺ
Ġìĺ¨ ëĿ¼ìĿ¸
ĠíĹ¤ ìĸ´
ĠA L
ĠB ecause
ìĹ ĺ
Ġíķł ì§Ģ
Ġfunction al
Ġê¼¼ ê¼¼
Ġappear s
Ġcommun ication
Ġë² ¤
Ġì¦Ĳ ê¸°
Ġparen ts
Ġíķľ ë²Ī
Ġíĥ Ĳ
ĠL G
ë ¿
Ġë¬¸ ìĿĺ
íĻ į
Ġf ederal
ĠëĶ° ë¥¸
Ġtrans l
Ġë¸Ķ ëŀĻ
Ġì§Ģ íķĺ
ĠìĦł ê±°
Ġre duction
Ġìŀĳ ê°Ģ
Ġëĵ± ëĵ±
Ġìĥ µ
ĠìĹ¬ ìľł
ĠëıĻ ìĥĿ
Ġstrateg y
Ġinterest ing
ìĬ Ī
ìĽ ¨
Ġìĭ¤ ìĭľ
Ġre action
Ġh undred
ĠìłĦ ëŀµ
p ublic
ĠìĦ¸ ëĮĢ
Ġëģ ĵ
Ġclass es
Ġstart ing
Ġëı¼ ì§Ģ
i ance
Ġregard ing
Ġíİ¸ ìķĪ
Ġinter action
ĠëĮĢ íĻĶ
R A
ĠëĨĴ ìĿ´
ĠìŀĸìķĦ ìļĶ
Ġëħ¸ ëıĻ
ĠìķĪ ëĤ´
ëĿ¼ ìĬ¤
ì¶ ĺ
ĠìŀĲ ê¾¸
Ġê¸° ëħĲ
Ġderiv ative
Ġrecomm end
ĠìĬ¤ íĨł
ëĤ Ļ
Ġexperim ent
Ġaw are
Ġëįķ ë¶Ħ
Ġexpress ed
ĠíĨµ ìĭł
M P
Ġì§Ģ ìłģ
Ġìŀł ìĭľ
Ġê°Ģ ê²Į
U N
Ġidentif y
Ġê°Ģ ìłķ
ĠëıĦ ìłĦ
Ġ ê»
Ġê³¼ íķĻ
ĠìĹĲ ìĸ´
Ġopportun ity
over n
Ġíŀĺ ëĵł
ëı Ī
ĠìĻĦ ë£Į
ìĦ Ń
ĠíļĮ ìĽĲ
Ġìĺ ®
I A
Ġì£¼ ìĭĿ
Ġëĵľ ëŁ¬
om ing
ĠìķĪ ëħķ
I F
ĠíĨµíķ´ ìĦľ
Ġëĸ¨ ìĸ´ì§Ģ
Ġexp and
Ġìĭľ íĸī
Ġattem pt
Ġë°Ķ ê¿
Ġtechn iques
ĠìĿĦê¹Į ìļĶ
Ġë¹Ħ ë¡¯
Ġëī´ ìĬ¤
Ġb inding
Ġíĺ¹ ìĿĢ
ëĳ ĺ
Ġë°Ķ ëĭ¥
Ġìķ½ ìĨį
Ġpro of
ĠìħĶ ìķ¼
Ġë°ĺ ëĮĢ
Ġë¶Ħ ìĸĳ
Ġë²Į ìį¨
Ġset tings
Ġcustom ers
for ce
ĠìĿĮ ë£Į
ĠEurope an
Ġex cept
Ġê· ł
ĠëĦĪë¬´ ëĤĺ
Ġì¶ľ ìĭľ
Ġì¡° ìłķ
Ġíıī ê·ł
Ġê±¸ ë¡ľ
Ġê°Ĳ ìĨĮ
ĠL ondon
A fter
ëĤĺ ë¬´
ĠëĤ´ ëħĦ
Ġexact ly
ĠI C
Ġì¶ľ ë°ľ
Ġë¶Ģ ìľĦ
Ġëįĺ ëį°
Ġrequire ments
Ġê±´ ìĦ¤
Ġë°Ķ ë¥´
oc ation
Ġë°ĺ ìĿĳ
Ġì¡° ìłĪ
Ġprogram s
Ġnot ed
Ġíı¬ ê¸°
Ġë§Ī ìĬ¤íģ¬
f unction
Ġs ession
Ġëª© ìĨĮë¦¬
Ġproced ure
Ġíı °
Ġìĭł ê³ł
Ġv oid
Ŀ ¤
Ġë ±
Ġimmedi ately
Ġëħ Ģ
Ġëĵľ ëł¤
íİĺ ìĿ´ì§Ģ
v ision
Ġì½ ©
Ĳ ëŁ¬
Ġë§¤ ì¶ľ
Ġì§ģ ìŀ¥
ë©Ķ ëĿ¼
Ġê¿ Ģ
ic ity
Ġë´Ĳ ëıĦ
Ġmention ed
Ġtr ade
ĠH T
íı Ĳ
Ġìħ ĭ
Ġìĭľ ìĪł
ĠíķĻ ìĬµ
Ġres ource
Ġíĥ ķ
Ġë¶Ī ìķĪ
ĠìĨĮ ìŀ¬
ĠìĿ¸ ì¦Ŀ
Ġtradition al
Ġëª° ëĿ¼
f ield
Ġë°ķ ìĬ¤
Ġë¶Ģ ëıĻìĤ°
ĠìĹ° ìĬµ
Ġì§Ħ ëĭ¨
ĠëıĦ ë¡ľ
Ġìłģ ëĭ¹
ë¶ Ļ
ĠëĤ ©
ĠëĤĺ ë¦Ħ
C L
Ġëĭ¬ ëł¤
ê² Ĳ
Ġì¢ĭìķĦ íķĺ
Ġê°ģ ì¢ħ
ë§ ¥
Ġexperim ental
Ġë¬¼ ê±´
Ġì¶©ë¶Ħ íŀĪ
Ġëĸł ëĤĺ
ĠëĬĲ ëĿ¼
Ġì¡° íķ©
Ġëĭ¤ëħĢ ìĻĶ
Ġmajor ity
ter ed
Ġpro jects
Ġì¤ĺ ìķ¼
Ġthink ing
íĶ ½
Ġê³¼ ê±°
ĠìŀĲ ê·¹
ëª °
ê°Ģ ìļĶ
ĠìĭĿ íĴĪ
ne w
Ġíľ ĺ
Ġìĭľ ìłĪ
Ġyour self
ĠS P
Ġconsist ent
Ġê° Ĵ
Ġì¹ĺ ìķĦ
ĠìĨį ëıĦ
Ġorgan ization
ĠìłĦ ëĭ¬
Ġhand le
Ġres istance
ĠìķĦ ë²Ħì§Ģ
ĠìĿĦ ì§Ģ
ì²ĺ ìĿĮ
Ġh ospital
Ġê°Ģ ìĿĦ
ĠS E
Ġë´Ĳ ìļĶ
Ġinf ty
ĠìłĦ ë¶Ģ
ĠC P
ë§ ŀ
Ġíĸī ìłķ
Ġë³´ ìŀ¥
Ġëĵ± ìŀ¥
M A
ĠìĹ¬ ìĦľ
Ġìĥī ìĥģ
ĠíĶĮ ëłĪìĿ´
Ġê°ķ ìĿĺ
Ġstat ic
ĠëĤĺ ëĪĦ
ë§ ¨
Ġë¡ ¯
Ġëĳĺ ëŁ¬
T S
ĠìŀĲ ê¸Ī
G r
ef ore
Ġdiscuss ed
ĠëıĮìķĦ ê°Ģ
ëł ģ
ĠìĹ´ ë¦°
ì¢ ĭ
Ġob vious
ĠìĻĦ ë²½
Ġì§Ħ ë£Į
ë² ¼
ë Ĵ
Ġë¯ Ģë¡ľ
Ġì¡° ìĭ¬
Ġê³ł ìĸĳ
Ġ ìĮĢ
Ġìĺ¤ ë¥´
ĠëĤĺìĻĢ ìĦľ
æ ľ
Ġì§Ģ êµ¬
Ġgener ation
ĠíĻķ ë³´
Ġíķĺ ìĿ´
Ġpass ed
Ġë°ĺ ë³µ
Ġfin ally
ĠIntern ational
ĠíĮĮ ìķħ
ĠëłĪ ìĿ´
Ġex ternal
Ġreturn ed
ĠìĥĿ ìĿ¼
¼ Ī
ĠìĬ¤ íħĮ
ĠíĺĦ ì§Ģ
ì¢ Į
Ġìļ° ëł¤
Ġëį° ìĿ´íĦ°
ĠìĥĿ ê¸´
Ġì£¼ ìĿĺ
Ġlet ter
Ġê´ĳ ì£¼
íĺ ģ
ë¨¸ ë¦¬
Ġapproxim ately
ì½ ©
Ġë¶Ħ ê¸°
ëľ ¨
ĠìĥĿ ëªħ
ĠëĤ ¸
so le
Ġíŀ Ĳ
ĠëĮĢ ìłĦ
G F
ĠìĥĪ ë²½
Ġì» µ
Ġì¤Ģ ëĭ¤
ĠìŀĲ ê³ł
Ġbenef it
ĠìĿ¼ ì°į
Ġ ì¦Ī
Ġì£¼ ë¡ľ
Ġinter face
Ġë³µ ì§Ģ
iz ations
Ĩ ŀ
Ġëĭ¨ ìĪľ
Ġíĺĳ ëł¥
Ġwork ers
k ey
Ġêµ ´
ĠF rench
Ġìľł ëŁ½
Ġê³µ ìľł
ĠAn y
Ġíİ ľ
ìĿ´ ìħĺ
qu est
ĠìĤ¬ìĿ´ íĬ¸
íķľ êµŃ
ë¹ µ
Ġëĭ´ ëĭ¹
ìĤ¬ ëŀĮ
ĠëĨĢ ìĿ´
Ġìµľ ìĨĮ
íĴ Ģ
ĠëĬĲ ëĥĲ
ic tions
f o
ĠìłĦ íķĺ
Ġê´ĳ ê³ł
ëĭĪ ëĭ¹
ëª ¸
Ġì¼Ģ ìĸ´
ĠO R
ĠíĻĪ íİĺìĿ´ì§Ģ
ĠìĿ´ íķĺ
ìĹĦ ë§Ī
Ġëĺĳ ê°Ļ
Ġprote ins
ĠíĺĦ ìĥģ
Ġreach ed
Ġêµ ¿
Ġsuggest ed
ë² ¨
ĠìĬ¹ ë¦¬
ĠS S
Ġì°¨ ì§Ģ
Ġíĸī ìľĦ
Ġê³µ ìĭĿ
ĠëĪĪ ë¬¼
ë¯ Ģë¡ľ
ĠìĿ´ ìĽĥ
ĠëıĻ ëĦ¤
ĠêµĲ ìłķ
Ġc riter
Ġìĸĳ ëħĲ
Ġë³Ģ ê²½
ĠìĿ´ ìĿµ
ä º
ĠA R
Ġintro duced
ê·¸ ëŁ¼
Ġê·¸ ê²Į
Ġres olution
ìķĦ ë¬´
ĠìĹ ī
ĲëŁ¬ ëĵľ
ĠD E
ĠêµĲ íļĮ
Ġëĭ¤ ìĿ´
Ġê³ ±
ĠëģĿ ëĤĺ
Ġê¸Ī ë¦¬
Ġê°ķ ëĤ¨
Ġê´Ģ íķľ
ĠìĤ¬ ë¡Ģ
ëŁ¬ ìļ´
Ġìłľ ìĻ¸
Ġë¹ł ì§Ģ
í ĵ¨
ìľ¼ ë©´
p oint
ĠìĶ »
ê·¸ëŁ° ëį°
C A
Ġê±´ ì¡°
Ġex ception
Ġê³µ íķŃ
ĠíĻĶìŀ¥ ìĭ¤
ĠëĤĺ ìĺ¬
D A
ìĻ ľ
Ġhe aring
ì½ ĺ
ĠìļĶ ì²Ń
Ġê±¸ ìĸ´
ìľ¼ ëĭĪ
Ġì¢ħ íķ©
Ġaltern ative
ĠíķĻ ëħĦ
ĠC S
ĠíĶ¼ ìŀĲ
Ġcommun ic
Ġì» ·
ĠY es
ĠS K
í Ģ
ĠëŃ ĺ
ë¦¬ ì¹´
Ġc ategory
p ass
Ġì§Ģ ê¸ī
ĠíĺĲ ìĿĺ
Ġ ì¡±
íĹ ¤
Ġë³´ ëıĦ
Ġìĭ¤ìłľ ë¡ľ
is ation
ëĨ Ģ
ì§ ĵ
Ġ ë¡ł
ì¡° ê±´
ĠìľĦ ê¸°
Ġìĸ´ìļ¸ ë¦¬
Ġê°Ĳ ìĹ¼
Ġíķ¸ ëĵľ
ĠG overn
ëĤ ¼
Ġì§Ģ ìĭĿ
Ġíķĺ ëĿ½
ĠE ach
íĭ ±
Ġê´ ´
Ġìł Ĭ
Ġíķł ê¹Į
ĠëĮĢ ìĿĳ
ĠëĪĦ ê°Ģ
Ġparam s
ĠìĬ¤ íı¬
ëĭ¤ ëĭĪ
ë¹ Ī
ĠìĺĪ ìĪł
ë¦ ī
ìĹ¬ ëŁ¬
Ġíķ «
Ġrecord ed
ĠC T
â Ī
ìĦľ ìļ¸
Ġcustom er
ĠìĺĪ ìĪĺ
ĠìŀĲ ëŀĳ
Ġì¡° ì¹ĺ
Ġconfig uration
Ġëį §
Ġcreat ing
ĠíĹ ¬
Ġë ĩĮ
Ġê°Ģ ëģĶ
Ġbehav i
Ġeffic iency
Ġë¶Ī ëŁ¬
Ġê³Ħ ìĭł
Ġliter ature
ĠíĿ¬ ë§Ŀ
ĠíĥĢ ìĿ´
Ġrecord s
Ġë¹ł ìł¸
ĠíĻķìĭ¤ íŀĪ
Ġë³´ ê³ł
ëĸ ¡
yn c
ĠW ashington
Ġê¸Ģ ë¡ľ
Ġê±¸ ë¦¬
Ġê¹ ľ
Ġìŀ¥ ëĤľ
ë¹ Ļ
ëģ Ī
Ġê¾¸ì¤Ģ íŀĪ
ëģ Į
íĶĦ íĬ¸
ĠW indow
Ġpattern s
ĠìĤ° ì±ħ
Ġtest ed
Ġë³´ ìľł
Ġì¡° ìĦł
ìĻĢ ìĦľ
Ġcorre l
Ġìĭ¤ íĮ¨
Ġìķŀ ìĦľ
A c
ĠêµŃ ë¬¼
ĠìĹ¬ ìłĦíŀĪ
ĠìĦŃ ì·¨
Ġê·¼ ìľ¡
ĠíĽĪ ëł¨
ĠE very
wh ile
Ġìŀĳ ëħĦ
ëĵľ ìĭľ
Ġëĵ Ŀ
Ġë¡¯ ëį°
ìĿ´ ëĤł
Ġì¹´ ë©ĶëĿ¼
Ġìŀ¥ ë¹Ħ
ĠT ype
ĠFurther more
arg s
ìĥĿ ê°ģ
Ġìĸ´ ì°Į
ĠëĮĢ ì²´
ëĵ ¬
Ġì§Ħ ìłķ
ĠìĹ° ê¸°
Ġcircum st
Ġflo at
ê·¸ëŁ¬ ëĤĺ
Ġwhere as
ĠíĬ ¼
S E
Ġìĺ Ľ
ìĿ¼ ëĭ¨
Ġë¹ł ë¥¸
Ġadmin istration
Ġë°° ìĨ¡
ĠíĬ¹ ì§ķ
ëĵ ¯
j ected
Ġconduc t
ĠìĿ¸ ìĭĿ
Ġë°ĶëĿ¼ ë³´
Ġcommerc ial
ĠìĪĺ ì¶ľ
ĠìĦ¤ ìłķ
Ġëª° ëŀĲ
íķĻ ìĥĿ
ĠI L
Ġìĭ¤ ëĤ´
Ġëĵ¤ìĸ´ ê°Ķ
Ġë¯¸ ìķĪ
ëŃ Ĳ
ìķĦ ëĵ¤
ìłĦ ìŀĲ
Ġíĳľ ìłķ
Ġcontain er
Ġìłľ ëª©
Ġë¬ µ
S tring
Ġs ociety
Ġcorre lation
Ġmeasure ments
ĠS C
ëĺĲ íķľ
Ġspecific ally
Ġop tical
Ġimport ance
P A
Ġë°ĶëĢ Į
ĠìĽĲ ìŀ¥
Ġê³ł ëĵ±
Ġëĵ¤ìĸ´ ê°Ħ
Ġbe autiful
ĠëĤ¨ ìĦ±
Ġë¶Ģ ë¶Ģ
is tical
íĵ¨ íĦ°
Ġcould n
ĠìĻ ¼
Ġex change
Ġìłľ íķľ
ĠìĹ¬ ë¶Ģ
ĠT O
ĠìĨĶ ì§ģ
ĠA PI
Ġê·Ģ ìĹ½
Ġarg uments
Ġìĸ´ì© Į
ĠìłĦ íĻĺ
ëĦ ĺ
Ġë¯¼ì£¼ ëĭ¹
ìĺģ ìĥģ
Ġìĭľ ëıĦ
Ġframe work
ĠìĿ´ ë¤Ħ
Ġë¬¼ ì§Ī
Ġì¹ĺ ê³¼
Ġê°Ģ ë°©
ì ĳ
ĠìľĦìĽĲ ìŀ¥
Ġcom ments
ì» ¬
ìĸ´ ëĸ
P L
Ġl ibrary
Ġì¡° ìĦ±
ĠìĬµ ê´Ģ
Ġì°¸ ìĦĿ
Ġ ëŁ°
ĠëĦ¤ ìĿ´ë²Ħ
Ġë¹ Ļ
Ġëĵ± ê¸ī
Ġexper t
Ġë¸Į ëĿ¼
Ġd anger
Ġì§Ģ ì§Ģ
Ġìĭľ íĤ¨
ĠP S
Ġexp osure
Ġê°Ģ ë¥´
d ata
ĠëĬĲëĤ Ħ
ë ½
ĠëĵľëĿ¼ ë§Ī
ë¬´ ìĽĲ
Ġë¬´ ë¦¬
Ġë°Ķ ê¾¸
ĠìłĦ ìŁģ
Ġíķµ ìĭ¬
Ġê¸° ëıĦ
ëĭ ī
Ġwh om
Ġìĸ´ ìļ©
Ġë°© ì§Ģ
ìĭ ¼
Ġìŀħ êµ¬
à ¥
ìĹ Ķ
ĠìķĦ ìī½
Ġê²Ģ ì°°
Ġíģ¬ ë¦¬ìĬ¤
ab ilities
Ġcontroll ed
Ġê·¸ ëŁ´
Ġê³Ħ ëŀĢ
Ġë°© ìķĪ
ĠíĹ Į
ĠìĿ´ ë¥´
Ġíı ¼
ëĤ ©
ĠìĥĪ ìļ°
in st
Ġexerc ise
ĠíĥĢ ìŀĦ
Ġìĥģëĭ¹ íŀĪ
C E
Ġì° °
F F
íĺ¸ ìĤ¬
ì¹ľ êµ¬
Ġì²´ ê³Ħ
Ġext ension
Ġëĭ¤ ë§Į
ĠëĲľëĭ¤ ëĬĶ
Ġìłľ ìĭľ
Ġì°¨ ë¡Ģ
ĠP lease
Ġíķľ ì§Ģ
Ġì°© ìļ©
ĠíĨµ íķ©
Ġopen ed
Ġë°ĺ ì°¬
Ġext ent
Ġë°ĺ ëĵľìĭľ
Ġëįĺ ì§Ģ
ëĭ¤ ë¦¬
Ġë¶Ī êµ¬
Ġê¸° ë°ĺ
ĠìĨĮë¹Ħ ìŀĲ
Val ue
Ŀ ł
Ġì¦Ŀ ê¶Į
ìĵ °
ê² ¹
Ġíĺľ íĥĿ
Ġëĵł ì§Ģ
P C
Ġhealth y
Ġreturn s
Ġê¸Ģë¡ľ ë²Į
n o
ĠìĤ´íİ´ ë³´
Ġë³¶ ìĿĮ
Ġenvironment al
Ġinf ection
ĠëĮĢ ê¸°
Ġê°ľ ìµľ
Ġìĭľ ë¦¬
Ġìĥ ĲëŁ¬ëĵľ
ell ent
ĠëĭĪ ê¹Ĳ
íľ ĺ
Ġë» Ķ
Ġslight ly
Ġoffer ed
ĠìĪĺ ëıĦ
ĠíĤ¤ ìļ°
Ġmanag er
Ġëĸ ¼
Ġn ation
Ġìĺ µ
ë¨¸ ì§Ģ
ë³¶ ìĿ´
Ġìķ ±
Ġopen ing
Ġì¶Ķ ìĸµ
Ġë§Ī ìĤ¬
ìĦ °
Ġìĭ¤ ëł¥
Ġì§Ģ ìĪĺ
Ġë¯¸ ëĭĪ
Ġidenti ty
ĠìĦ± ê²©
ì°¬ ê°Ģì§Ģ
ĠìĪĺ ìŀħ
ĠìĥĿ ê²¨
ĠìŀĲ ë©´
Ġìŀł ê¹Ĳ
ĠD uring
ĠìĨĮ ì¤ĳ
ĠëħĢ ìĦĿ
ĠëĮĵ ê¸Ģ
ĠëĤ¨ ê²¨
ĠìĿ¸ íķľ
Ġelectr on
Ġë§ŀì¶ ¤
in ter
ĠìĻ¸ ë¶Ģ
Ġê°ķ ìķĦì§Ģ
ĠìĨĮ ëĵĿ
Ġdecre ase
Ġë ®¤
Ġë³¸ ê²©
ĠìĬ¤íı¬ ì¸ł
ë§ ¹
ĠìłĦ íķ´
AT E
íķĺ ë£¨
êµ° ê°Ģ
Ġconven tional
ĠëĮĢ ì±ħ
Ġë¬´ ì¡°ê±´
ĠìĤ¬ ìłĦ
Ġìłľ ì¡°
Ġactiv ation
Ġêµ¬ ìĽĮ
Ġë© ĺ
Ġì·¨ ìĹħ
ë¯¼ êµŃ
ĠìĽĲ íķĺ
ĠëĪ Į
ĠëĨĢ ëĿ¼
ĠìķĦë¬´ ëŀĺëıĦ
Ġun iform
Ġëĵľ ëĶĶìĸ´
Ġìı ĺ
ĠC L
Ġìľ¼ë¡ľ ìĦľ
Ġcertain ly
ĠìĤ¬ ê³¼
Ġun less
Ġint ended
Ġb acter
Ġë°ľ ëĿ¼
Ġëª¨ ìŀĦ
ìĸ´ ì§Ħ
Ġê²½ê¸° ëıĦ
ĠíķŃ ê³µ
titution al
Ġê¸Ī ë°©
Ġpass word
Ġcover ed
ĠS M
Ġinterest ed
Ġìĺģ êµŃ
Ġrespons es
ut ation
Ġê³µ ìŀ¥
Ġë¯¸ ìļ©
Ġdevelop ing
T P
ê¹ Ŀ
Ġíģ´ ë¦Ń
Ġdimension al
ĠíĻľ ìĦ±
ìķĦ ëĭĪ
Ġì§Ģ ëĤ´
T A
ĠWindow s
ĠíĹĪ ë¦¬
Ġcontrol s
Ġimplement ation
Ġpurch ase
B A
ĠíĻį ë³´
ìĿ´ íĮħ
Ġê°Ī ë¹Ħ
ëĭ Į
Ġë§Ī ì°¬ê°Ģì§Ģ
Ġëĭ¨ ìĸ´
ê» ı
ĠìĹ° ìĨį
ìĸ´ ëĵ¤
Ġì¹¨ ëĮĢ
re tion
Ġbre ath
ĠN S
Ġë² ¨
Ġê°Ĳ ìŀĲ
ĠìºĲ ë¦Ń
Ġë°ĺ ìĺģ
ĠíĿĶ ëĵ¤
Ġìŀ¬ë¯¸ ìŀĪ
Ġm argin
ograph ic
Ġë¶Ģ ìłķ
íĭ ´
Ġë§Į ìķ½
Ġì»´ íĵ¨íĦ°
ëĨ į
Ġë³´ ê´Ģ
ĠíĻķ ì§Ħ
Ġíľ´ ëĮĢ
Ġì§Ģ íĤ¤
Ġìļ° ìĪĺ
Ġphoto graph
Ġinvestig ation
ê¹ ĥ
íĥĢ ë¯¼
Ġê³ł ìĥĿ
ê·¸ ëłĩ
Ġê·¸ ë¦°
Ġë°° ëĭ¬
ĠìłĦ íĸĪ
ì² ¨
ìķĦ ì¹¨
Ġìĸ´ëĸ ł
Ġg ather
Ġmeasure ment
' ,
Ġw itness
Ġìľ¼ ìĭ¤
ĠìĿ¸ ëıĦ
Ġë§Ī ê°Ĳ
Ġê³łìĸĳ ìĿ´
Ġìĸ´ ê¹¨
l ist
Ġtrans mission
ĠE R
Ġschool s
ĠìĦł ë°ľ
Ġdynam ic
Ġë¡ľ ìļ´
Ġconcentr ations
íĿ ¡
Q L
Ġpe tition
Ġì¶ľ ê·¼
Ġdescri be
Ġê³ł ìĨĮ
ĠE S
ĠëĲĺ ê²Į
c ont
ĠD C
Ġê°Ģê¹Į ìļ´
ĠíĶĦ ëŀĳ
Ġê°Ħ ìĭĿ
Ġíİ Į
ĠìķĪ íĥĢ
Ġconf irmed
ĠìµľëĮĢ íķľ
Ġst ories
Ġproper ly
Ġìį ¼
ĠC A
Ġìµľ ì¢ħ
Ġì¡° ìļ©
Ġfocus ed
Ġl atter
Ġì°¾ìķĦ ë³´
Ġìľł ì¹ĺ
Ġìŀ¥ ë©´
Ġí ĳ
ìĿ´ ê±´
ĠC C
ĠìłĦ íĨµ
Ġê¸° ë¦Ħ
Ġìŀĳ ìļ©
Ġìĸ´ ë¨¸ëĭĪ
Ġchang ing
Ġì´Ī ëĵ±
ì¹´ ìĺ¤
Ġì´Ī ê¸°
ĠëĦĪë¬´ ëĦĪë¬´
ĠìĪĺ ë¦¬
ç Ķ
Ġì§Ģ ìłķ
Ġíİ¸ ìĿĺ
ĠëĮĢ íĺķ
ë³ į
Ġm ental
Ġh idden
Ġê³ł íĨµ
ĠB oth
ĠíĻĶ ìĿ´íĬ¸
Ġ tu
Ġìĭ¬ ë¦¬
Ġìŀ ī
Ġassess ment
Ġëį ®
ĠìķĦë¬´ ë¦¬
Ļ ëĭĪëĭ¤
/ /
ëī´ ìĬ¤
" ,
ĠD irect
Ġext ended
ĠìĤ¬ ë§Ŀ
ĠìĪĺ íĸī
Ġìĥģ ê´Ģ
ĠìĿĺ íķ´
ĠìĺĪ ìĤ°
ë§Ī ì§Ģë§ī
Ġì¼Ģ ìĿ´íģ¬
Ġassoci ation
ë§Ī ìĬ¤
Ġìµľ ì´Ī
ĠU N
Ġê°ķ ëł¥
ĠìĦ¤ ê³Ħ
F A
Ġdatas et
ĠìĪĺ ìļĶ
ìķĦ ì§ģ
ĠëĮĢíķĻ êµĲ
ìĸ´ ìłľ
â ĸ
Ġêµ¬ ì¶ķ
Ġrepresent ed
Ġê¸° ì´Ī
Ġcircumst ances
ĠM A
ĠìĿ¼ ìĸ´
ĠìĤ´ ìķĦ
ĠìĻ¸êµŃ ìĿ¸
Ġëĭ¹ìĹ° íŀĪ
Ġê³¼ ìĿ¼
ĠëıĦ ìŀħ
íĻķ ìĿ¸
ĠìŀĲ ìĤ°
Ġe psilon
Ġë§ŀ ì¶Ķ
Th at
ĠìļĶ ìĨĮ
Ġìĭł ëŀĳ
Ġë© Ī
ĠëįĶ ë¶Ī
ëł Ľ
ĠíĪ¬ ìĸ´
Ġì·¨ íĸ¥
ĠíĮĮ ìĬ¤íĥĢ
Ġë ĿĦ
Ġequival ent
ĠìĺĪ ë»Ĳ
xt ure
Tr ue
Ġë¬´ ìĦľ
Ġalleg ed
D e
Ġk w
tific ation
Ġëĭµ ë³Ģ
Ġíĥ ģ
ëĭ «
Ġcont ained
Ġì¤ĺ ìĦľ
ĠìĪĺ ìĽĲ
ĠP ublic
ë¥¸ ëĭ¤
Ġëĭ ¦
Ġë ¼Ī
Ġd uration
th eless
Ġinvest ment
Ġexist ence
ìľĦ ì¹ĺ
Ġêº¼ ëĤ´
Ġíķ© ìĿĺ
Ġì£¼ì°¨ ìŀ¥
Ġmost ly
ë Į
ĠS H
ĠëĤ´ ëĤ´
Ġë©Ģ ë¦¬
ë°ĺ ê¸°
å ľ
Ġìĥģ ìĥģ
Ġíİ¸ ë¦¬
Ġë¬¸ ìŀĲ
Ġë¿Į ë¦¬
Ġê·Ģ ì°®
Ġì§Ģ ìĿ¸
ĠìŀĲ ëĿ¼
ĠìłĲ ê²Ģ
ĠìĿĺ ì§Ģ
Ġb atter
ĠN O
Ġê³ł ì¶Ķ
ĠìĦ± ìłģ
ĠìŀĦ ëĮĢ
Ġíİ Ģ
ì¡° ê¸Ī
Ġì¶© ìłĦ
Ġapproach es
Ġëħ¸ íĬ¸
Ġstr ict
p ath
Ġê°Ĳ ëıĻ
Ġinter actions
Ġë²Ħ ë¦°
Ġwould n
Ġëĭ¤ ìļ´
Ġë¹Ħ ìĭ¸
Ġcl ients
Ġê¸Ī ì§Ģ
ë° į
Ġíļ¨ ìľ¨
Ġë¹Ħ ìľ¨
ì¶ °
Ġì¼Ģ ìĿ´ìĬ¤
ĩ ¨
Ġëķ ¡
ĠíĬ¸ ë¦¬
ë¬¼ ë¡ł
Ġë©ĭ ì§Ħ
Ġrepresent ation
Ġê°ľ ëħĲ
ĠìĻ ł
ĠF inally
P T
í Ī
Ġìĭł ìļ©
Ġspectr um
Ġinvol ve
Ġê³ł ë¥´
ĠìĽ¨ ëĶ©
ĠëıĻ ìĿ¼
ĠìĿ´ ëķĮ
Ġê°ķ íķľ
Ġìĥ Į
Ġë¦¬ ë·°
ĠëĤĺëĪ ł
Ġëıħ ìĿ¼
ĠìķĦë¦Ħëĭ¤ ìļ´
ë£ ©
ĠëĤ Ń
ĠìĻĢ ìĿ¸
Ġë¯¸ ìĪł
ES T
ĠO S
Ġê³ł ë§Ī
Ġíģ´ ëŀĺ
Ġìĭ¤ ìłģ
Ġanalys es
Ġê·¼ ë¬´
Ġl isted
Ġê·¸ ë¦ĩ
Ġê¸ į
Ġê·ľ ìłķ
íİĺ ìĿ¸
Ġì§ĢëĤĺ ê°Ģ
Ġì¶ķ êµ¬
Ġë§¤ ìļ´
Ġê³µ ê°Ĳ
Ġdetail ed
Ġìķ¼ ì±Ħ
Ġwh atever
Ġì²Ń ëħĦ
íĮ Ķ
in ations
Ġëª¨ ìķĦ
Ġk illed
ĠìĪĻ ìĨĮ
ëª ĩ
ĠìłĪ ì°¨
ĠìºĲë¦Ń íĦ°
Ġê³µ ê³µ
Ġproto type
ìĽĲ ëŀĺ
Ġíĺģ ìĭł
Ġë¬ ĺ
ĠíĤ ¹
Ġeconom y
F C
Ġë¹Ħ íĸī
ĠìĿĺ ìĭĿ
Ġìļ° ìľł
ĠA C
Ġ- --------
ĠíĻĶ ë©´
ĠìĽĶ ëĵľ
å ®
ĠìķĦ ê°Ģ
Ġrelationship s
ĠìĿ´ ëģĮ
ĠëĤĺíĥĢ ëĤ¬
ĠìĿ´ ìģľ
ĠìĪĺ ë¶Ħ
ĠW estern
ĠìĹ¬ ì£¼
ĠS U
Ġì°¸ ê°Ģ
Ġposition s
ĠìĤ Ń
ĠE C
Ġíķĺ ê³ł
Ġëĭ «
Ġë¬´ ëĮĢ
Ġauthor ity
íĶ¼ ìĬ¤
Ġíķĺ ìļ°ìĬ¤
Ġsever e
Ġelectr ic
Ġdirect or
íĦ° ë¦¬
Ġíĺķ ìĦ±
Ġëģ Ħ
or ation
íħĲ ì¸ł
Ġê³¨ íĶĦ
ê¼ ¬
ĠP L
Ġìĭł ë¢°
ĠìĽĮ ëĤĻ
Ġìµľ ìĦł
ĠëĤĺ ê°Ī
Ġìĸ¸ ë¡ł
ìł Ŀ
Ġëĸ¡ ë³¶ìĿ´
Ġinstall ed
ĠAssoci ation
ìĿĢ íĸī
Ġìĥģ ì²ĺ
Ġê·ĢìĹ¬ ìļ´
ìĽ ħ
ĠíĴį ê²½
kn ow
Ġê° ¤
Ġê·¸ ëıĻìķĪ
Ġoptim al
ìį ¹
ĠH D
Ġê³Ħ ìĤ°
Ġìļ° ìĬ¹
ëĸ ¼
ì² «
Ġê³¼ ìłľ
pl ace
Ġì¶ķ ìłľ
ĠëĤĺ ë¨¸ì§Ģ
Ġtes tim
ĠìĪĺ ìĺģ
íĿ Ĳ
Ġlearn ed
ëª ½
Ġì¥ Ĳ
ĠO N
Ġìĭľ íĤ¬
Ġì¡¸ ìĹħ
anc ing
Ŀ į
ĠëĮĢíķľ ë¯¼êµŃ
ìłĢ ê¸°
Ġíķ© ê²©
ĠìĨĮ íĻĶ
á ĥ
ĠìķĪ ìĭ¬
ĠìĹħ ê³Ħ
Ġìĸ´ëł¤ ìĽĢ
Ġìķ Ļ
ĠëĲľëĭ¤ ë©´
Ġê³ °
R S
Ġíĺĳ ìĿĺ
ê°ľ ìĿ¸
Ġì£¼ ê°Ģ
ĠìĿ¼ ìľ¼
ĠìĿ¼ ê¹Į
ĠìĿ¼ ê¸°
D E
ê·¸ ëłĩê²Į
Ġë§ĪìĤ¬ ì§Ģ
ĠíĨµ íķľ
ìķĦ ì£¼
Ġëħ¼ ìĿĺ
Ġíıī íĻĶ
Ġê±´ ì¶ķ
Ġthresh old
ëŀ Ħ
Ġint ensity
ĠìłĦ ìļ©
Ġë º
ĠE U
ë§Ľ ìŀĪ
Ġìĭľ ì²Ń
ĠìĮ ¤
ĠëĶ ©
Ġì¡° ëªħ
Ġre ality
ë¬ µ
Ġstandard s
T C
Ġê°Ģ ë³į
Ġì§ģ ìĹħ
Ġìłľ ì¶ľ
Ġìĭł ì²´
ì Ŀį
Ġì°½ ìĹħ
ĠëĤ ¼
Ġoffic er
Ġì¶© ê²©
Ġemploy ed
S ome
Ġë¹Ħ íĥĢë¯¼
Ġëª¨ ìŀĲ
Ġì£¼ ë°©
ëŀĢ ëĭ¤
Ġíģ Ĳ
Ġchalleng es
ul ating
Ġmarket ing
Ġê¸° íļį
ĠíĮ ħ
ĠíĬ¹ ìĦ±
Ġìļ¸ ìĤ°
ì§Ģ íĦ¸
Ġìĭľë¦¬ ì¦Ī
ĠìĪĺ ìłķ
Ġëĵľëł¤ ìļĶ
ìĥ ¤
ĠëĪĦ êµ°ê°Ģ
Ġstand ing
Ġìı Ł
Ġê°Ģê¹Į ìĿ´
Ġun ivers
ĠìĹ° íķ©
Ġfin ished
Ġìĭł ê·ľ
ĠíĽĦ íļĮ
ë¦¬ íĭ°
Ġf illed
Ġ ê¾
ĠìĬ¤ íĭ°
Ġë¸Ķ ë£¨
ĠJapan ese
Ġle aving
Ġë¶Ģ ë¬¸
Ġì¦Ĳ ê±°ìļ´
Ġnucle ar
Ġì£¼ ëª©
Ġìĺ¤ë¥¸ ìª½
ĠC N
ĠìłĢ ëŁ°
Ġë¶Ģëĵľ ëŁ½
Ġìĺ¤ ë¦¬
ì© į
Ġìĭ¬ ê°ģ
ê´ ´
Ġë°ĶìĿ´ ëŁ¬ìĬ¤
ĠìĨĲ ìĥģ
Ġê² Ł
ìĹ¬ ìĦľ
ĠìĪĺ íķĻ
Ġìĸ¸ ê¸ī
Ġinter val
Ġcommun ities
Ġgreat est
Ġexperi enced
ĠìĽĢì§ģ ìĿ´
Ġê²Į ìĭľ
Ġallow ing
Ġì¢ħ ìĿ´
Ġevent ually
Ġì¦Ĳ ê¸¸
Ġë§Į ëĤľ
ĠíĽ Į
ĠíĶ¼ ê³¤
Ġê²° ìłľ
ë°Ķ ìĿ¼
Ġê¸° ê³Ħ
ĠP R
Ġìº ¡
Ġë¹Ħ ë°Ģ
ìĪ ¨
Ġë© į
Ġd aughter
Ġë°Ķ íĥķ
Ġwindow s
ĠëĦ Ĳ
Ġìłģ ìłĪ
ëĿ¼ ìĦľ
Ġìĸ¸ìłľ ëĤĺ
Ġë§ ĳ
ĠN E
ĠIntern et
Ġíķľ ìŀĶ
Ġsecond s
Ġë¶Ī ë¦¬
ĠN C
Ġíĳľ ìĭľ
ĠìĻ¼ ìª½
Ġë¶Ħ ë¦¬
Ġëª ½
ĠìĹ ĳ
ë© ĺ
truct ure
ĠB M
íģ¬ ë¦¼
ĠìłĦ ë°ĺ
Ġobj ective
Ġn ative
Ġëŀ Ħ
Ġë°° ê²½
ìłĦ ê±°
el come
ĠíĮĮ íĭ°
Ġê·¸ ëł¤
ĠìķĦëĭĮ ê°Ģ
E lement
ì§Ģ ìĸ´
ìłķ ë¶Ģ
Ġìĭł ë°ľ
Ġìĺ¬ ë¦¼
Ġì¦Ĳ ê±°
Ġì§Ħ ì¶ľ
Ġìłľ ê¸°
Ġíķĳ íģ¬
ìħ Ģ
Ġì»¤ íĶĮ
j ection
ëĤĺ ëĿ¼
ĠëıĮ ëł¤
ë¹ ¨
Ġíĥ ĵ
ĠìĿĺ ìŀĲ
ĠE N
ìĿ´ ê±°
íķľ ëĭ¤
Ġì£¼ íĸī
ĠìŀĲ ëħĢ
ê°Ī ë¹Ħ
ĠìĭĿ ë¬¼
ĠI V
ìĸ Ģ
ĠëĮĢ ëĭ¨
Ġì£¼ìĿ¸ ê³µ
ëĿ¼ ëıĦ
ĠìĬ¤ íĮĮ
Ġsubsequ ent
Ġst ability
Ġë§Ī ëĬĺ
ĠíĥĢ ìŀħ
ĠíĶĦëŀĳ ìĬ¤
Ġê·ľ ìłľ
Ġê·¸ ìłĢ
Ġ ë¦½
Ġì¤ĳ ìĨĮ
ĠëĪĦ ë¦¬
ĠíĨµ íĻĶ
ĠëıĦ ìĦľ
Ġìĺ¤ ìĿ¼
Ġs ector
Ġíĩ´ ê·¼
ĠëĬĶëĭ¤ ê³ł
Ġë¯¸ ìĦ¸
Ġì¶ľ ì²ĺ
Ġobserv ations
Ġì¤ĳê³ł ì°¨
ĠìķĦëĭĲ ê¹Į
ĠíĶ ½
ĠìĨĮ ìĦ¤
el if
ä »
Ġì° ľ
Ġê·¼ ë¡ľ
ĠìĿĺ ìĭ¬
ĠìħĶ ëıĦ
ĠìĿ¸ ë¬¼
Ġë³´ ìĥģ
Ġê³ł ìļ©
Ġì§Ħ ìĭ¬
ìłĿ íĬ¸
Ġíĥ ±
ë© į
ĠìķĦëĭ ĻëĭĪëĭ¤
Ġcont em
ĠìĬ¤íĨł ë¦¬
Ġthe ore
ĠìĹ´ ë¦¬
Ġë³¸ ë¶Ģ
Ġì¤Ħ ìĿ´
Ġë² ħ
ĠC I
Ġconsider ing
Ġconf idence
Ġë°Ķê¿ Ķ
Ġê² ī
Ġex tract
ĠíĴį ë¶Ģ
ì¹ ¼
Ġë¹Ħ íĮĲ
Ġê¸į ìłķ
Ġêµ ½
Ġê²Ģ íĨł
Ġconsum ption
ĠìĦ± ê³¼
Ġë³¸ ëĭ¤
íģ Ĳ
ĠíĿĺ ëŁ¬
íĹ Į
ĠF A
ë° ¤
Ġstrong ly
íŀ ĺ
Ġê³ł ê°ľ
Ġimprove ment
Ġoperator name
ĠW H
ition s
· Ķ
Ġëķ Ģ
ê¸° ìĹħ
F T
ëł ¬
ĠP A
ĠêµĲ íĻĺ
ĠT R
Ġì¶ľ ìĭł
ê¼ Ī
ĠëģĿ ëĤ´
Ġê·¸ë§Į íģ¼
ĠìłĦ ëĤł
ìŀ İ
ĠìķĦ ê¹Į
Ġremain der
Ġë¡ ¤
ĠAfric a
ĠëŁ¬ ìĭľìķĦ
ë²Ħ ìĬ¤
ĠR NA
Ġë¹ ħ
ĠìĹ ĩ
Ġoffic ers
ĠìĹ° ìŀ¥
G A
Ġíķ´ ì§Ħ
Ġìĭ¬ íķĺ
ĠìĦł ë³´
ĠìĿ´ ìĸ´ì§Ģ
ìĤ° ë¬¼
ĠëĨ Ī
Ġìĭł ëĤĺ
ĠìĮ į
ìĩ Ħ
ĠìĿ´ ëŀĢ
íĻĶ ìłĲ
ĠìĻĦ íĻĶ
F alse
Ġìħ ĺ
ĠìŀĲ ìĽĲ
Ġìŀħ ë§Ľ
Ġìłĳ ê·¼
Ġf aster
Ġëĥ Ī
ortun ately
ord ers
Ġfrequ ently
Ġconcern s
ĠC M
ìĺ¤ ëŀľë§Į
Ġìĸ´ì© Ķ
Ġappear ance
Ġë©´ ìĹŃ
Ġsubstanti al
å Ī
ten ance
ĠëĮĢ ë°ķ
D S
ĠëĤ¨ ê¸°
Ġintern et
ê°Ģ ê²©
ĠìĥĿê°ģ ëĤĺ
ê¼ Ń
ĠVal ue
ĠA I
ĠíĶĦë¦¬ ë¯¸
ĠëıĻ ìĺģìĥģ
Ġì¢ ģ
íĨ ¤
ĠD M
Ġmanag ed
ë¡ ¤
Ġìĭ¬ ìĤ¬
ĠK ey
ĠëĶĶ ì§ĢíĦ¸
ĠG M
Ġê¸´ ìŀ¥
ëĭ Ń
Ġsee ing
Ġë²Ķ ì£Ħ
Ġê³ł ìłķ
ĠGovern ment
D P
Ġê³µ ë¬´ìĽĲ
Ġrecept or
Ġofficial s
ëĭĪ ìĬ¤
Ġë³¼ ê¹Į
Ġteach ing
Ġìľł íĨµ
Ġê°Ģ ë¦¬
Ġn arrow
ĠìĨĮ ìĨį
Ġìĭľ ìłĲ
Ġë§Ī ìĿ´
Ġcharg ed
Ġìĭł ìĦł
ĠëĤĺìĺ¨ ëĭ¤
ĠëĬĺ ìĸ´ëĤĺ
Ġêµ¬ ì²´
Ġext end
ĠìŀĲê²© ì¦Ŀ
Ġë§¤ ìĪĺ
Ġm ission
Ġìŀħ ì£¼
ĠM C
Ġtherm al
íģ °
Ġê° Ŀ
Ġìĺ¤ ëŀľ
Ġcompe tition
Ġë§Ī íĬ¸
ê²¹ ìĤ´
Ġê² ¹
Ġëĭ ¿
Ġìŀ¥ ì¹ĺ
ĠS N
ĠìĿ´ ê±¸
ĠìķĦ íĬ¸
Ġì¡° ì°¨
ëĭ¤ ë³´
Ġexperi ences
Ġëĵľ ëĿ¼ìĿ´
Ġì£¼ ëıĦ
ĠìķĦìĿ´ íħľ
Ġexp ansion
ìģ ¨
Ġìľ¼ëł¤ ê³ł
Ġì°¨ ìĽĲ
ĠìĨĮ íĨµ
as cript
Ġëģ Ī
Ġunder lying
ĠìĻĦìłĦ íŀĪ
Ġphoto s
Ġì¦Ĳ ê²ģ
Ġë³Ģ íĺ¸ìĤ¬
ìĿ´ ê²ĥ
ĠìĪĺ ìĥģ
ìħ ī
Ġë§ģ íģ¬
Ġíķľ ì°¸
íĮ ¡
Ġìł¸ ìĦľ
am ental
Ġpartic le
Ġë°Ľ ìķĦëĵ¤
Ġê°ľ ìłķ
ĠëĮĢ ëĭµ
ĠëĮĢ íķĺ
Ġíķ¸ëĵľ íı°
Ġìŀ¥ ì°©
Ġë³´ ê±´
wh at
Ġover line
ĠìĽĥ ìĿĮ
Ġorder ed
Ġíķľ íİ¸
Ġëĭ¹ ìŀ¥
Ġë³´ ëĥĪ
ĠìĹ° ì¶ľ
ĠíĶĦë¡ľ ìłĿíĬ¸
ĠìŃ ī
ĠìĿĢ ì§Ģ
ë¡ľ ìļ´
ĠJ S
H T
Ġìĸ ĩ
ĠìĨĮ ê¸Ī
Ġê±° ì³Ĳ
B I
Ġìĥ ĺ
ĠíĻķ ìĤ°
Ġindep end
] ,
Ġìŀ¬ ìĤ°
Ġëģ¼ ë¦¬
Ġopportun ities
Ġstat ements
Ġkw args
Ġë İ
Ġëį° ë¦¬
Ġë§¤ íĬ¸
Ġorgan izations
ìĤ¬ ëŀĳ
B M
Ġë³´ ìĿ¼
Ġdiscover ed
ĠíĿ¡ ìĪĺ
ĠìĬ¤ë§ĪíĬ¸ íı°
Ġê³µ ìłķ
t ables
ĠP o
Ġìĸ¸ ìĸ´
ĠëĤĺ ìĺ
Ġcommon ly
ĠëĮĢ ì¶©
Ġcolumn s
ĠíħĮ ìĬ¤íĬ¸
Ġìķ ¨
ìŀħ ëĭĪëĭ¤
ES S
ë ĺ
å ħ
íĬľ ë¸Į
Ġìŀ¬ íĮĲ
Ġorgan ic
Ġìłķ íķ´
Ġre verse
ĠíĿĲ ë¦Ħ
Ġê°ķ íķĺ
Ġìł ĸ
ĠëĿ¼ ëĭĪ
ĠëĤĺ ìĦľ
Ġê¸° íĥĢ
ì¼Ģ íĮħ
ĠìĿ´ ë¦¬
ĠíĮĮ ìĿ¼
Ġra ise
L C
ĠAfric an
et ing
ĠíĻĶìŀ¥ íĴĪ
Ġmonitor ing
Ġì§ľ ë¦¬
L S
Ġstat istical
íĢ ´
Ġë¬´ ìĭľ
Ġíĺĳ íļĮ
ĠìĤ´ ìķĦê°Ģ
h ow
Ġë©Ķ ìĿ¸
Ġdeterm ination
ĠN H
Ġëĵ ¬
Ġë°ĺ ë©´
Ġì²´ ìľ¡
Ġì²ŃìĨĮ ëħĦ
Ġëį° ìĿ´
c ase
Ġë°° ì¹ĺ
Ġcontrib ution
Ġë§Ľ ëĤĺ
Ġwe ather
stand ing
Ġì§ĢëĤľ ëĭ¬
ĠëĮĢ ìĤ¬
Ġassign ed
Ġê·¸ ë¦¬ìĬ¤
ĠëıĻ ê¸°
ìĭľ ëĭ¤
ìĺ¤ ë¥´
ìĿ´ íĶĦ
Ġëª¨ ë°ĶìĿ¼
Ġautom atically
ê²° êµŃ
Ġì°¨ ëĭ¨
Ġê°Ģ ë£¨
Ġìĺ¨ ëıĦ
Ġìłĳ ìĪĺ
Ġì¡° ê°ģ
ĠíĬ¹ ìłķ
ĠìķĦ ëĤ´
Ġne ither
ĠìĹĲìĸ´ ì»¨
Ġìłľ ìķĪ
ĠëĳĲ ëł¤
ìĺ ·
ìķĦ ë¦¬
ĠI M
Ġíķ´ ì¡Į
Ġíĸ¥ ìĥģ
ra ise
Ġtrans p
ĠìĦ± ìĿ¸
Ġìĸ´ ë¥¸
ì°Į ê°ľ
Ġì½ľ ëĿ¼
Ġëĵľë¦´ ê²ĮìļĶ
Ġassum ed
ìļ° ìĦł
ĠìķĦ ìĭľìķĦ
ìµľ ê·¼
ĠìĮ Ī
Ġê°ķ ìĽĲ
Ġìį °
Ġì¢ħ ëª©
ĠìĦł íĺ¸
ìłĢ ê²ĥ
Ġëį° ëł¤
ìłĢ íĬ¸
ĠìĿĳ ìĽĲ
Ġë Ŀ½
Ġë§Į ëĤ¬
ĠìĿ¸íĦ° ë·°
Ġê·¸ ê±¸
Ġìĭ¤ ìĪĺ
Ġg ender
ĠëĶ¸ ê¸°
Ġê½ ī
ĠíĨµ ê³¼
Ġê¸° êµ¬
Ġíķ´ ìĦĿ
Ġê°Ĳ ìĦ±
íĺĦ ìŀ¬
Ġê¸° ê¸°
ĠìĨĮ ìľł
īìŀ¥ ê³ł
Ġíķ© ë¦¬
ìĬ¤íģ¬ ë¦¼
ìĤ¬ ê³ł
Ġf ashion
Ġìº Ķ
tim ately
ĠìķĦìĿ´ ìĬ¤íģ¬ë¦¼
ĠìŀĲ ìłĦê±°
ĠìĪľ ìľĦ
Ġì´ī ì´ī
I ST
Ġìľł ìĿ¼
ĠìĬµ ëĭĪê¹Į
Ġim aging
ĠìŀĦ ìĭł
Ġëĭµ ëĭµ
Ġjurisd iction
Ġë§Ī ì¼ĢíĮħ
Ġì¶ķ íķĺ
ëħ Ķ
Ġëį§ ë¶Ļ
Ġë²ķ ìĿ¸
ê°Ģ ë£¨
Ġíħ į
Ġêµ¬ ë¶Ħ
Ġìļ° ìļ¸
Ġb attle
Ġë¯¸ ì¹ĺ
Ġìĭľ íĭ°
ëį ©
Ġê±´ ê°Ģ
ìĿ¸ ì§Ģ
Ġbre ast
ĠìĭŃ ëĭĪëĭ¤
ĠëĨ Ķ
ĠìĤ¬ íĥľ
ĠíĸĪ ìľ¼ë©°
íĶ Ķ
ĠëĮĢ ì¤ĳ
Ġë²Ħ íĬ¼
Ġìĭľ ê°ģ
ĠìĨĶì§ģ íŀĪ
ĠíĻķ ìłķ
ĠìĹ°êµ¬ ìĽĲ
Ġíķł ë¨¸ëĭĪ
Ġemploy ment
ĠìķĦëĭ ĺ
Ġëľ ¯
ëĶĶ ìħĺ
ĠíĸĪ ìľ¼ëĤĺ
ĠìĦľ ë¥ĺ
Ġì·¨ ëĵĿ
Ġê°Ĳ ê¸°
Ġì´Ī ì½Ķ
ch o
Ġrecomm ended
Ġê°Ģ ìļĶ
Ġimplement ed
Ġpers pective
Ġv ision
Ķ Ģ
Ġë§Ī ìłĢ
ĠP O
ìŀ ī
ê»ĺ ìļĶ
ëĦ ī
ult ure
Ġë©Ķ ìĿ´
ë£ ¡
Ġë½ Ģ
ì» µ
ìĤ¬ ìŀ¥
Ġë¯¸ ì¹ľ
cl usion
Ġentire ly
Ġíİ¼ ì³Ĳ
ĠëĬĶëĭ¤ ëĬĶ
Ġpl astic
Ġìĭł ë¬¸
Ġë²Ķ ìľĦ
Ġìĸĳ íĮĮ
ĠìĬ¤ íĬľ
Ġsh aring
íĬ¹ ë³Ħ
ĠC entral
Ġsched ul
Ġassum ing
Ġsupport ing
ĠìĿ´ ëŀĺ
ĠìĿµ ìĪĻ
ĠìłĲ ìĪĺ
Ġê³ ģ
ĠM D
Ġë° ´
ê¸ ĭ
ĠíĪ¬ íĳľ
ĠS ocial
Ġìłķ ìĿĺ
Ġê³Ħ ê¸°
bre ak
ĠìĹĲ ìĬ¤
P D
ìłĢ ëħģ
un der
ĠìķĦë¬´ ê²ĥ
O G
ĠìľĦ íķĺ
ĠëĦĺìĸ´ ê°Ģ
ĠìłĢ ìŀ¥
Ġë§ŀ ìĿ´
ëĳ Ķ
Ġcharg es
Ġ tables
Ġsuccess fully
Ġì§Ī ë³ĳ
å Ń
å Ĳ
Ġattach ed
Ġëĭ¹ ìĿ¼
t x
ĠE X
Ġbusiness es
ëĵ Ń
ĠìĹ ł
ĠìĨĲ ëĭĺ
ìłĢ ìĶ¨
ĠAn other
ĠìŃ Ī
ĠìĿ¸ ìĪĺ
ĠìĪľ íĻĺ
Ġìĭ¬ ìŀ¥
Ġobserv ation
ĠF C
Ġf i
Ġëĳĺ ì§¸
Ġreduc ing
Ġê·ł íĺķ
Ġë©´ ìłĳ
ĠëĦĪ íĿ¬
Ġëį° ìĿ´íĬ¸
Ġíıī ìĥĿ
Ġìĭľ ìĦł
ĠíĶĦ ëłĪ
ĠìĽ ¹
ĠëĬĲ ê¼Ī
ĠìĤ¬ë¬´ ìĭ¤
Ġconflic t
Ġcontroll er
ĠìŀĲìĦ¸ íŀĪ
Ġconcern ed
Ġintegr ation
ĠìĶ ¹
Ġinvol ving
íĨ ±
ction s
Ġì¢ħ ìĿ¼
ĠêµĲ ìĤ¬
Ġìĭ¤ ì²ľ
Ġì¹´ ì¹´ìĺ¤
x i
Ġìĺ¬ë¦¼ íĶ½
Ġbehavi our
Ġì£¼ ìĨĮ
ë¹ Ķ
Ġíĭ Ī
Ġidenti fication
Ġwill ing
Ġìĭľ íĬ¸
Ġinstruc tions
ë ĩ¨
Ġìļ© ê¸°
ĠíĮ¨ ìħĺ
Th ese
ì²ľ íŀĪ
ĠI R
ĠíĶĮ ëŀ«
ë¦ İ
X X
ĠìĹĦì²Ń ëĤľ
T E
Ġì²ł ìłĢ
Ġì¤ Į
Ġê³ł ìĦľ
ĠíŀĲ ë§ģ
ĠPC R
á »
ìĿ´íģ¬ ìĹħ
ĠC B
Ġë¶Ģ ìĥģ
Ġëħ¼ ëŀĢ
Ġì§Ģ ìłĲ
ë§Ī íĨł
Ġì±Ħ ìĽĮ
Ġresearch ers
Ġìĺģ ìĹŃ
ĠìļĶ ê¸Ī
Ġë§¤ ë§¤
Ġì´Ī ë°ĺ
Ġë§Ī ì£¼
íĻĺ ê²½
ì¢ Ģ
ĠìķĮëł¤ ì¡Į
Ġclass ification
Ġê´Ģ ìłĪ
ĠìĨĮ ìĨ¡
ìķ Ĺ
Ġëĵľ ëłĪìĬ¤
ĠíĪ¬ ëªħ
ist ent
ë¸ Ĳ
ĠD S
ĠìļĶ ìĿ¸
Ġëĭ¹ íķĺ
Ġrequire ment
Ġ ìĳ
ĠíĥĿ ìĭľ
Ġìĭ ¹
Ġìķł ê¸°
Ġìĺ¬ ëł¸
Ġë°° íĦ°ë¦¬
ĠìľĦ ì£¼
ĠìĦ± ëĬ¥
Ġëĭ ¥
Ġìŀ İ
b ut
Ġìĺ¬ ëŀĲ
Ġprincip le
Ġìī Ĳ
Ġìłľì£¼ ëıĦ
Ġì¤ĳ ëĭ¨
Ġíĸ¥ íĽĦ
ĠF ederal
Ġê°Ģ ëŁī
Ġgr anted
Ġë°Ķ ëĶĶ
Ġê±° ë¶Ģ
ĠìĦ¤ ë¦½
ĠìķĪ ìª½
Ġê·¸ ê±°
Ġëĵ¤ ëł¤
Ġì°¨ ë³Ħ
Ġìķ¼ êµ¬
Ġëį ©
ĠëĤ ³
ĠëıĮìķĦ ìĺ¤
Ġconsider ation
ĠìĿ¸ ë¶Ħ
F P
Ġëĭ¬ ëĭ¬
Ġìķł íĶĮ
Ġì½ĺ íħĲì¸ł
res ent
Ġëĭ¹ êµŃ
Ġì§ Ŀ
Ġassemb ly
Ġinter vention
Ġtrial s
ĠëĤĺ ìģĺ
ĠM P
Ġë²ķ ìĽĲ
å ¤
Ġdeb ug
ĠìķĦ ëıĻ
ĠìĤ¼ ê²¹ìĤ´
ĠëĤ «
Ġì¶ľ ìĹ°
Ġthere by
ĠìĬ¤ íĶ¼
Ġë°± íĻĶìłĲ
ĠìķĦ ë©Ķ
Ġì« Ħ
ð Ł
Ġrespons ibility
Ġê°Ħ ëĭ¤
Ġrecogn ition
Ġc ities
Ġì±Ħ ëĦĲ
Ġë§ º
Ġindustr ial
ĠëĮĢ ë¦¬
Ġë´ī ìĤ¬
ë´ Ħ
ì§ĳ ëĭĪëĭ¤
Ġíħ Ķ
itch en
ĠìĥĪ ë¡Ń
ĠëĿ¼ ëĸ¼
Ġíĳ ¹
Ġì´Ī ë°¥
ĠA B
ĠìĿ¸ íķĺ
ìĭľ ì§Ģ
íħĮ ìĿ¼
Ġíķ´ ìĨĮ
Ġêµ° ìļĶ
g ression
Ġëŀ ©
Ġinterpret ation
Ġ ëŁī
ĠB C
Ġì¸¡ ë©´
Ġê·¸ ê±´
íķ Ģ
ĠíĨµ íķĺ
Ġë¹Ħ ìĭ¼
ĠíĥĿ ë°°
Ġcompe ti
ĠëĪĮ ëŁ¬
def ined
Ġìķŀ ëĳĲ
Ġê°Ģ ìĭľ
Ġê³Ħ ìłĪ
Ġë¯¸ ìĨĮ
Ġê°Ħ íİ¸
ëįĶ ìļ±
Ġindic ating
Ġê°Ģ ë²¼
ĠìķĦ ìĺĪ
ĠëĤĺ ê°Ķ
Ġë³´ ìĪĺ
t ension
Ġë¶ ī
Ġëĭ¬ ìĦ±
ëĤĺ ë§Ī
Ġê³¼ ëª©
Ġê¸°ëĭ¤ ëł¤
ĠìĿ¸ ê·¼
Ġconclud e
Ġëª ¬
F S
ĠëĦ ī
Ġë¶Ī ê°Ģ
Ġë²ķ ë¥ł
Ġê°ģ ìŀĲ
Ġê°Ģ ìĬ¤
ĠìķĦëĭĮ ëį°
ĠìĦ¸ íĥģ
ë² ħ
Ġ ì¼ľ
Ġìłķ ìĭĿ
Ġëĭ¹ íĻ©
Ġreview s
Ġnecess arily
Ġëĵ¤ ìĹ¬
Ġì§ ¬
íļĮ ìĤ¬
Ġê±° ìĭ¤
ĠíĢ Ħ
Ġìľł ìĤ°
Ġteach ers
ĠíĮ¨ ìĬ¤
Ġìľł íĬľë¸Į
Ġë³µ ìŀ¡
Ġë³´ ëĭ¨
íĻ Ģ
if fer
Ġimp ossible
ĠìĹ¬ ìķ¼
ĠìĺĽ ëĤł
Ġfriend ly
istic ally
Ġtechn ologies
Ġê°Ħ ìŀ¥
ĠëĨ ¨
ĠëĪĦ ë¥´
Ġìī¬ ìļ´
ĠëĤ´ëł¤ ê°Ģ
ĠìĹĶ ì§Ħ
Ġë© ¤
Ġì·¨ ìĨĮ
ìĬ¤ íĨł
Ġconclud ed
ë§ Ļ
Ġteach er
Ġë¶Ī ë²ķ
Ġêµ¬ ìĿ´
Ġêµ¬ íķĺ
ĠìķĦ ìłĢìĶ¨
Ġì²Ń êµ¬
Ġassess ed
Ġw arn
Ġ ìŁ
ì£ ł
Ġíĺĳ ìĥģ
Ġexp ensive
ĠíĶ¼íķ´ ìŀĲ
ĠìĿ´ ëĤ´
ëľ ©
ëį ľ
Ġ ì¼
ìħ ľ
{ }
ĠíĬĢ ê¹Ģ
Ġëıħ ë¦½
Ġë¹Ħ ì¤ĳ
Ġëħ¸ ìĿ¸
Ġë°© ì¹¨
ìł ¤
Ġìĺ¬ëĿ¼ ìĺ¤
Ġíķ Ģ
ex cept
Ġë³´ ì¦Ŀ
ìĸ¼ ë§Ī
Ġê³¼ ìĹ°
Ġass ist
ë¶Ģ ìĤ°
Ġì§ĳ ìķĪ
Ġëĭ¤ ìĨĮ
Ġ ìŁģ
ir ation
Ġlist en
ĠìĿ´ íĭĢ
ĠìĬ¤ íĶĦ
ĠL C
Ġê¹Į ìĬ¤
ĠG S
Ġì£½ ìĿĮ
Ġíķ¨ ìľł
Ġìĭł ë¶Ģ
ĠìķĪ ê²½
ĠìĦ¸ íı¬
Ġconvers ation
ĠíĻĶ ëł¤
Ġìĥ ´
Ġë°± ìĭł
ĠíİĢ ëĵľ
Ġë° ¸
ĠE rror
ĠëĦ ·
Ġclaim ed
Ġcon ference
ì» ´
Ġë¬´ ê¸°
Ġë°° ì¶ľ
Ġthough ts
Ġë¯¼ ê°Ħ
ĠìĿĺ ë¬´
ĠìĿ¸ ëł¥
Ġê³Ħ ëĭ¨
ë¨¼ ìłĢ
è ¡
Ĵ Į
ë¶Ģ ëª¨
Ġtemper atures
Ġ ëł¥
ĠëĽ° ìĸ´
ĠìĬ¤íĬľ ëĶĶìĺ¤
Ġë³Ħ ëıĦ
Ġregion al
ìĸ¸ ìłľ
ìĸ´ ëĬĲ
à ¹
æ ĸ
P R
ĠìĹĲ ê²Ĳ
Ġê±° ì£¼
Ġass istance
Ġíľ´ ê°Ģ
L A
Ġëĵł ëĭ¤
b order
ë°Ķ ëĭ¥
Ġëĸł ìĺ¬
Ġì½Ķ ëĵľ
ĠL ED
Ġìļ° ì£¼
ĠíĨł ìļĶìĿ¼
end ment
ĠëŃ ī
Ġíģ¬ë¦¬ìĬ¤ ë§ĪìĬ¤
ĠëĬĲëĤ Ģ
Ġë¨¹ ìĿ´
Ġë¶Ģ ìĹ¬
ĠëıĮ ë¦¬
Ġ ì¾Į
Ġë¬´ íķľ
ĠëłĪ ëĵľ
Ġb inary
Ġíı¬ íĨł
ĠíĴĪ ì§Ī
ĠS ociety
Ġtrans formation
c an
Ġíĸ¥ íķ´
Ġìłķ ìĽĲ
ĠíĻĶ íķĻ
ĠìĿ¼ ìļĶìĿ¼
Ġêµ³ ìĿ´
ä ½
ë½ ķ
Ġì»¤ ë²Ħ
ĠìĤ¬ ìĥģ
ĠíĮ ģ
Ġimmun e
ëłĪ ê¸°
Ġì°¾ìķĦ ê°Ģ
Ġiniti ally
Ġë©° ì¹ł
ëĵľ ë¦Ħ
ĠìŀĲ ë³¸
Ġê±´ ëĦĪ
ìĺ¬ íķ´
íŀ Ĳ
Ġpropor tion
Ġlimit ations
êµ¬ ë§Ī
l en
ĠìŀĲ ëĬĶ
ĠDevelop ment
Ġë¶Ī ê³¼
ëĭµ ë³Ģ
Ġì¹Ń ì°¬
ĠëĶĶ ìłĢíĬ¸
ĠS O
A bstract
ĠìĿ´ ëłĩ
ĠíĸĪ ìĸ´ìļĶ
ĠE D
Ġíİ¸ ì§Ģ
ĠíĿĲ ë¥´
Ġìłķ ìĦ±
ĠìĿĺ íĺ¹
Ġë¬ ¶
Ġs ounds
Ġë©Ķ ìĿ´íģ¬ìĹħ
Ġsched ule
Ġì¹´ íĨ¡
Ġì£¼ ìľĦ
Ġê³¼ ìŀĲ
Ġë¶Ģ íĴĪ
com ing
ĠM B
ëł¤ ê³ł
Ġìłķ ê¸°
Ġê±° ì§ĵ
Ġarchitect ure
Ġattack s
Ġê°ĸ ì¶Ķ
Ġëħ¸ ì¶ľ
ì İ
ìĦ¸ ê³Ħ
ĠìĿ¸ êµ¬
Ġs ought
Ġoffer ing
Ġì²ľ ìĹ°
Ġì§Ģíķĺ ì²ł
Ġêµ¬ ìĨį
ĠíĻķ ìŀ¥
ĠN umber
Ġwatch ing
Ġdeliver ed
Ġê³± ì°½
Ġm ock
Ġë²Ħ ê±°
Ġì²ľ ì²ľíŀĪ
Ġtrans action
Ġì²´ ëł¥
ĠëĵĿ ìłĲ
ĠíķĦ ë¦Ħ
ĠK T
Ġinterp re
Ġìĺµ ìħĺ
Ġinform ed
Ġì¦Ŀ ê±°
Ġê²½ ëł¥
Ġì§ľ ì¦Ŀ
Ġê°Ģ ë¡ľ
Ġìłĳ ì¢ħ
ëŃ Ķ
Ġë´Ĳ ìĦľ
Ġë¬´ ë¦İ
ĠíĶĦ ëĿ¼
ĠìĪĺ ë§İ
Ġë¨¼ ì§Ģ
Ġíķľ ê°Ģ
ĠìĿ¼ ìŀĲë¦¬
Ġì²´ ê²°
Ġì¶ ĺ
ë¨¼ ì§Ģ
Ġë²Ĺ ìĸ´ëĤĺ
Ġì£Ħ ìĨ¡
Ġprincip al
ĠìĿ´ ê¸°
Ġìłķ ë¹Ħ
Ġê²° ë¡ł
ĠìĬĪ íį¼
Ġf ellow
ìĿ¼ ë¦¬
ĠíĮĮ íĬ¸
ìķĦ ë²Ħì§Ģ
Ġìĺ ´
Ġìĸ´ ëĶ
ĠS aturday
Ġlow est
ê° Ĵ
Ġ ëĭĪëĭ¤
Ġsignific ance
Ġëĵľ ë¦°
Ġint ent
ìłľ ì£¼
ĠìĿ¸ ìĽĲ
Ġpass ing
ĠìłĢ ê¸°
Ġy ellow
Ġíİĺ ìĿ´ìĬ¤
Ġbatter y
ur ally
ĠëĤĺ ìģľ
Ġdisplay ed
ê²½ ê¸°
Ġë© ľ
ĠíĶĦë¦¬ë¯¸ ìĹĦ
V D
ëģ Ŀ
Ġíķł ê¹ĮìļĶ
Ġê°ľ íĺģ
Ġsuggest ing
ĠíĶĮ ëŁ¬ìĬ¤
ĠëĤ ļ
Ġì±Ļ ê¸°
in ating
Ġìĺ¤ ëŀ«
ĠìĿ´ê²ĥ ìłĢê²ĥ
ĠP T
Ġê·¸ ëĤł
lectr ic
Ġë§ µ
ĠìĦł ë°°
ĠìĽĶ ìļĶìĿ¼
Ġproduc ing
Ġê²Į ëĭ¤ê°Ģ
ĠìĿ´ íĥĪ
ĠìĪĺ ì¹ĺ
m ax
Ġìłģ ìĿĳ
íĿ ĳ
Ġì²ĺ ë²Į
ĠMin ister
Ġë¬´ ê²Į
Ġíĭ ±
ĠìķĮ ë¦¬
Ġsurround ing
Ġinstit utions
Ġcharacter istic
ĠìĬ¤ íĤ¨
ĠìĨĲ íķ´
ĠìĬ¤ ì¼Ģ
ĠíĨł ë¡ł
ëª¨ ëĵł
ĠL A
ĠìĭĿ ê°Ĳ
ĠíĽĦ ë°ĺ
Ġë§ ¹
Ġë¬¼ ë¦¬
Ġacadem ic
Ġëĭ Ŀ
Ġë Ŀł
m argin
Ġìĸ¼ ë¥¸
ë¥ Ń
ĠíĬ¹ ìĪĺ
ë¥´ íĬ¸
Ġíľ´ ìĭĿ
ì£¼ ìĸ¼
ìĸ´ëĸ ¤
Ġp adding
ĠìĨĲ ê°ĢëĿ½
id ential
ĠëĦī ëĦī
ëŀĢ íĬ¸
ĠìĿ´ ë»Ĳ
E X
ëĭĪ ìķĦ
ĠëĮĢ ìĦł
Ġìħ Ī
Ġright arrow
ê±¸ ìĿ´
Ġìĭ¬ ì§Ģìĸ´
ì»¤ íĶ¼
ĠíĶ¼ ë¡ľ
Ġë©¤ ë²Ħ
Ġìĥ¤ ìĽĮ
Ġperiod s
Ġë¶ ĵ
s tr
Ġì¢ħ ì¢ħ
ë°Ķ ëŀĮ
å ı
Ġext ensive
ĠíķĺëĤĺ íķĺëĤĺ
Ġì£¼ ìĤ¬
Ġdeterm ining
ĠìķĦ íĶĪ
Ġexper ts
ĠíĺĦ ê¸Ī
ĠëĤľ ëĭ¤
Ġëıħ ìĦľ
ê¹Ģ ì¹ĺ
Ġê³Ħ ìĹ´
íı ´
Ġëį ¸
Ġmanufact uring
Ġë¶Ļ ìĹ¬
íĤ¤ ì§Ģ
Ġsmall est
ìĸ´ ìł¸
Ġun iversity
ĠìĺĪ ë¹Ħ
P re
ëĴ ¤
ĠT C
ĠD B
ĠìĪĺ ìĪĺ
Ġë¹¨ ê°Ħ
ëª¨ ëĳĲ
Ġíĺ¸ íĿ¡
Ġíļ į
Ġíģ´ ëŁ½
Ġs ister
Ġëĥ īìŀ¥ê³ł
Ġë©Ķëī´ íĮĲ
Ġì²ľ ë§Į
Ġì± Ķ
Ġìŀ¬ ìłķ
ĠìĬ¤ íģ¬
ĠìĻ¸ êµĲ
ĠìĿ´ ìłł
Ġê³łëĵ± íķĻêµĲ
W S
ĠíĶĮ ëĿ¼
Ġê¹Ģ ë°¥
í ĳ
ĠëĶ ľ
Ġì¤Ģ ëĭ¤ê³ł
Ġmaintain ed
Ġë¡ ±
Ġê³¨ ëª©
j i
Ġê½ Ĥ
à ¦
ĠìĤ¬ëĿ¼ ì§Ģ
Ġìĵ° ëłĪê¸°
ìĺĪ ìłĦ
Ġì§ĳ ëĭ¨
Ġê³ł ê³ł
Ġm apping
ìĿ´ ëŁ¬
k r
Ġfor get
Ġë°© ìĹŃ
H z
Ġìĭ¤ íĸī
ì° ¾
Ġíĺķ ìĭĿ
Ġsome what
à ®
Ġìľł ë°ľ
ĠìĨĮ ê³łê¸°
Ġbuild ings
ĠìĬ¤íħĮ ìĿ´íģ¬
ì¦ Ĳ
ì§ķ ìĸ´
Ġë¡ľ ìį¨
Ġinter s
Ex ternal
Ġíģ¬ ë¡ľ
Ġê» į
Ġê³ł ë§Ļ
Ġì¡° ë¦¬
Ġpath way
ĠC F
Ġê·¸ëŁ° ê°Ģ
ë§Ī ìĿĮ
Ġë³µ íķ©
Ġëĵ¤ ë¦¬
ì¨ Į
Ġrepresent ative
ĠíĬ¸ ëłĪìĿ´
Ġíħ ľ
m m
ĠJ ournal
Ġë¶Ģ ì§Ģ
G C
ê°Ģ ìŀ¥
Ġprepar ation
ĠR T
Ġìį ¬
Ġ ë¦°
ĠìľĦ ë°ĺ
ĠëĪĪ ì¹ĺ
ì° ľ
Ġëª¨ ìĹ¬
Ġì¶ľ ìĤ°
Ġêµ¬ ìĹŃ
Ġíİ ´
P P
Ġtheore tical
Ġhundred s
ĠìĿ¸ ê³µ
Ġìĥī ê¹Ķ
Ġê°ķ ìĤ¬
Ġëĥ ¥
ĠíķĻ ê¸°
Ġìµľ ìłĢ
ĠëıĻ ìĿĺ
ĠìŀĦ ê¸Ī
Ġëĭ´ ë°°
Ġcorrect ly
ĠO K
ĠìĪĺ ê°ķ
ìĿĺ ìĽĲ
Ġcomplex ity
ĠìĤ¬ ìłķ
Ġë¬´ ìĹŃ
Ġtr ained
ĠH R
Ġperform ing
Ġìĸ´ëĸ ¨
Ġconsum er
ëŀ į
Ġê° ĵ
ë ®¤
Ġì¸¡ ìłķ
ĠíĪ¬ ìŀħ
Ġëª¨ ì§ĳ
ĠíĢĦ ë¦¬íĭ°
ëĤł ìĶ¨
ĠëıĦìĦľ ê´Ģ
ĠëĭĪê¹Į ìļĶ
Ġë³¶ìĿĮ ë°¥
Ġìĥģ ê°Ģ
Ġê°Ī ëĵ±
gr oup
ĠíĶ¼ íķĺ
Ġinput s
ĠìłĦ ëħĦ
Ġì¦Ŀ ëªħ
Ġcheck ed
Ġìłķ ëĭ¹
ëĵľ ë¦¬
Ġì´Ŀ ë¦¬
ëĵľ ëĶĶìĸ´
ì§ ±
Ġr ational
ë¯¸ êµŃ
ë ±
ĠìĨĮ ì£¼
ĠëıĻ ë°ĺ
Ġë¹Ħ ë¹Ķ
ĠL ambda
ĠìĽĲ ì¹Ļ
ĠY OU
ĠíĬ ľ
ĠF L
íķĺ íķĺ
ìĪ Ń
ĠíĮĮ íģ¬
Ġê± į
ĠìĦ¼ ìĬ¤
Ġê·¹ ë³µ
Ġíļ Ł
ĠìłĦ ì£¼
ĠìĤ¬ìĹħ ìŀĲ
Ġì¶Ķ ì¶ľ
Ġinst ances
íķŃ ìĥģ
Ġë¹Ħíĸī ê¸°
Ġê°ĳ ëĭĪëĭ¤
Ġíİĺ ìĿ´ì§Ģ
Ġtrans f
Ġì¡° íĻĶ
Ġstat istics
Ġë§¨ ëĤł
ĠíĥĢ ìĿ´ìĸ´
Ġìĸ´ ëĳĲ
An other
ëĤĺ ë¬¼
ëĭ¤ ìĸĳ
Ġs elling
ĠìĿ´ ë¥¸
Ġë°ľ ëĭ¬
ĠìĿ´ ëª¨
ëĤ´ ìĿ¼
ĠD O
Ġë¶Ģ ëĮĢ
ĠëĤ´ ëĨĵ
ĠJ ustice
Ġregister ed
ĠíĮ¨ íĦ´
ĠìĻł ì§Ģ
i ological
ë¬¼ ê´Ģ
ĠìłĦ ìĦ¸
Ġassum ption
ĠAddition ally
Ġìĭł ëĭ¤
Ġtes tified
ìķ ī
ëŁ¼ íĶĦ
Ġëĭ¨ ìłĲ
Ġëĭ¤íĸī íŀĪ
ë¬´ ì§Ģ
Ġë§Į ëĤł
Ġìĺ® ê²¨
Ġë°ĶìĿ´ ìĺ¤
Ġëª» íķ´
Ġìĭ¤ íĹĺ
B O
Ġë°° ê³ł
ĠT uesday
ĠìĪĺ ìłľ
Ġë¬´ ëł¤
Ġë¯¿ ìĿĮ
Ġê¸° ìļ¸
Ġinter act
Ġìķ¨ ë²Ķ
ĠìĨĮ íĶĦíĬ¸
Ġë© ¸
Ġì¤ĳìĨĮ ê¸°ìĹħ
íİ ľ
Ġê° ±
ĠìłĦ ëł¥
Ġdivers ity
ĠíļĮ ëĭ´
ĠëĦ¤ íĬ¸
Ġëĭ ®
Ġaccord ance
Ġìłģ íķ©
Ġexplan ation
ĠëĤĺ ìĦ°
Ġop tional
Ġ ëł
Ġk itchen
ĠìĥĪ ëģ¼
ìĿ´ ê²Į
ĠíĺĪ ìķ¡
ĠìĹ¼ ì¦Ŀ
Ġdiffer ential
ĠP E
Ġëī´ ìļķ
ĠìĦł ìĸ¸
Ġì½Ķ ë¦¬ìķĦ
ĠìłĦ ê³µ
Ġìı Ļ
ĠíĤ¤ ìĽĮ
ĠìĹ¼ ìĥī
ĠìĦ¸ ìĽĶ
Ġìĥ´ íĳ¸
Ġê²¨ ìļ°
ĠëĤ´ ê²Į
ĠH S
Ġcontrib utions
Ġëĵ Ģ
Ġì±Ħ ìļ©
Ġìŀħ ëł¥
ĠíĪ¬ìŀĲ ìŀĲ
Ġmatch es
Ġìŀĺ ëĿ¼
Ġresp ective
Ġreport ing
Ġë§Į ëĤ¨
Ġìĭ¤ ìŀ¥
ĠT M
Ġëª¨ ëĵľ
Ġìŀ ¼
Ġë°ľ ìĸ¸
Ġengine ering
Ġì¶ľ ìłĦ
Ġìļ© íĴĪ
ĠíĽĮ ë¥Ń
Ġë± ħ
íķĺ ìļ°
Ġê°Ĳ ê°ģ
ĠìĥĿ ê¸¸
Ġìŀ¥ ìĭĿ
ë¿ į
Ġtrans cription
ĠDirect or
ëĲ ĺ
Ġì¦Ĳ ê²¨
Ġê³³ ê³³
ìľ¼ ë¡ľ
Ġìľł ê¸°
Ġì£¼ ê¸°
Ġconsequ ences
Ġì¿ł íĤ¤
Ġìĺ¤ íĶĦ
================ ========
ĠE M
Ġìĭľ ëĤ´
ĠìĪĺ ë¹Ħ
ìĿ´ ì¦Ī
ĠíĿ¥ ë¯¸
B Q
Ġtrans lation
Ġê´Ģ ëŀĮ
Ġìį¨ ìķ¼
Ġê·¸ ëŀ¨
Ġê´ľ íŀĪ
Ġë¹ Ĺ
ìĹ ī
Ġëĭ¨ ìľĦ
ê°Ħ ëĭ¤
Ġë¬´ ì²Ļ
ĠìĦ¸ ê¸°
Ġìľł íĺķ
ê°Ĳ ìĤ¬
ĠëĿ¼ ìļ´ëĵľ
ĠëĤľ ë¦¬
Ġc oding
ìĽĮ íģ¬
B L
ĠíĮ¨ íĤ¤ì§Ģ
Ġê¸° ìĹ¬
Ġì±Ħ ìĨĮ
Ġë²Ħ íĦ°
ĠìłĦ ìĽĲ
ë¥ ¨
ĠTh ose
Ġê¸Ī ìļĶìĿ¼
ë°ĺ ì°¬
Ġìľł ìķĦ
ìĿ´ ëĦĪ
Ġë·° íĭ°
ĠíĶĮ ëŀĢíĬ¸
ĠE V
Ġparti tion
ìĿ¼ ë³¸
ĠìĿ¸ íĺķ
val ue
ĠR S
Ġìľł ëĭĪ
Ex ception
Ġwe ights
Ġìĺ¤ ìĹ¼
ĠìłĢ ëłĩê²Į
ĠìķĦìĿ´ íı°
á Ģ
Ġtell ing
Ġíĥľ ìĸĳ
ĠC ustom
Ġcoun ts
ĠM T
Ġì° Ĳ
G E
Ġíķľ ê³Ħ
ëĳ ĳ
Ġë¶Ģ ìĿ¸
ìļ´ ëıĻ
ë£ ¸
Ġthous and
Ġë§¤ ëħĦ
Ġìľł íĸī
Ġì¡° ìĸ¸
ê» ĳ
ë» ¤
Ġcarry ing
ĠB efore
ĠTh ursday
Ġë³´ ìŀħëĭĪëĭ¤
ë©Ķ ëī´
Ġë¿Į ëł¤
Ġauthor ities
Ġpresent ation
Ġëĵ¤ìĸ´ ê°Ī
ĠìĽĢì§ģ ìŀĦ
ĠìĹ¬ ëĵľë¦Ħ
Ġb ought
Ġreview ed
Ġíļ¨ ëĬ¥
Ġíķ ı
ìº Ĳ
Ġê³¨ ëĿ¼
Ġpublic ation
ìĦ ¬
Ġtreat ments
RO M
Ġvalid ation
ĠìĪľ ìĦľ
ĠG B
Ġë§¤ ì½¤
ER E
Ġìłĳ ìĭľ
ìķĦ ëŀĺ
Ġbig ger
Ġrequest ed
Ġíĥľ ëıĦ
ĠìĽ ħ
ë¦¬ íĬ¸
ë¬ ĺ
Ġíľ´ëĮĢ íı°
Ġëĵ¤ìĸ´ ìĻĶ
ĠìĦ¸ ìļ°
ìĹ¬ íĸī
ĠìĿ´ ë¡ł
ĠN on
Ġ ëŀľ
ĠìĹ° ì£¼
Ġintro duction
ëŁ¬ ìĽĮ
ĠëĨĢ ëŀĲ
ĠíĹĪ ìļ©
Ġìºł íķĳ
ê°Ļ ìĿ´
ĠìĿ´ ìĬ¤
ĠìĹ¬ê¸° ìłĢê¸°
Ġì²ĺ ë¶Ħ
Ġë¬¸ ìŀ¥
Ġê²½ìŁģ ëł¥
Ġíĳ¸ ì§Ĳ
ì³Ĳ ìĦľ
ìĿ´ ìĥģ
ìĭľ ìĬ¤
Ġë²Ħ ìĦ¯
l iament
ĠìĹ° ê¸Ī
Ġë²Ħ ìłĦ
Ġquanti ty
Ġincreasing ly
Ġíģ´ëŀĺ ìĬ¤
Ġë¯¸ìļ© ìĭ¤
le ments
Ġë¶Ļ ìĿ´
Ġë§Ī ì¹¨
Ġê¸° ìļ´
Ġì§¬ ë½ķ
ë§İ ìĿ´
ĠB L
Ġíıī ìĿ¼
Ġë¦¬ ì¡°
Ġcreat ive
Ġ ì©
ĠíĮ Ŀ
ëŃĶ ê°Ģ
ìĹ¬ ë¦Ħ
Ġplaintiff s
Ġë°Ķ ìģĺ
Ġapparent ly
ìħĶ ìĦľ
ìĻĦ ìłĦ
ìĭ¤ ìłľ
Ġìļķ ìĭ¬
Ġsepar ation
æ Ī
Ġì¶ ¤
Ġìŀ¬ ìĥĿ
ĠìĬ¤ ì¹´
Ġìĭ¬ íķľ
Ġknow ing
Ġìľ µ
Ġdocument ation
Ġë¶Ģëĵľ ëŁ¬ìļ´
B efore
Ġ> =
a fter
Ġë°Ķ ë¥¸
ĠìĬ¤ íĥ
I B
ĠìķĪ ì£¼
Ġëĸ¨ìĸ´ ì§Ħ
ĠëĬĺ ìĸ´
Ġìĸ´ëł¤ ìĽĮ
E A
ĠM L
ĠA ction
Ġintellig ence
c m
ĠO ption
Ġìļ´ íĸī
Ġë°Ŀ íĺĢ
Ġë§¤ ìŀħ
Ġsignal ing
Ġinflamm atory
ĠìłĢ ë²Ī
Ġëı¼ ìļĶ
ìĺģ íĻĶ
Ġì¡° ê¸°
ëĮĢ íĳľ
ê² ł
Ġë§Ī ì¼ĵ
ĠG P
Ġê°Ģ ëł¤
ĠìķĦë©Ķ ë¦¬ì¹´
ĠH istory
Ġë°ĺ ëıĦ
Ġì²´ ìłľ
â ĺ
Ġë¬¸ íķĻ
Ġinfras tructure
Ġbo ol
Ġëħ¸ íķĺìļ°
ĠAn alysis
Ġë¦¬ ëįĶ
ì§Ī ë¬¸
Ġê°Ģ ìĪĺ
Ĥ ¬
ëĮĢ ì²´
Ġë¯¼ ì¡±
Ġëı¼ ìĦľ
Ġë³´ ìķĪ
ĠëłĮ ì¦Ī
Ġíķ´ìķ¼ ì§Ģ
Ġrepresent ing
p tions
ìłĲ ìĭ¬
ĠìĹ° ê³Ħ
Ġì¤Ħ ìĸ´ëĵ¤
Ġì¢ħ êµĲ
íĶĮ ëłĪìĿ´
Ġmatch ing
Ġìŀĳ ëıĻ
Ġë°ķ ë¬¼ê´Ģ
ĠêµŃ ìłķ
Ġclass ic
Ġexp ort
ìĸ¸ ê°Ģ
ĠM M
Ġê°ķ ìłľ
Ġë§Į ëĳĲ
Ġavail ability
Ġì±Ħ ê¶Į
ëļ Ŀ
Ġconsum ers
íķ ©ëĭĪëĭ¤
Ġê±¸ ëł¸
Ġëĺ ¥
ë¡ľ ëĵľ
Ġì¹¼ êµŃìĪĺ
Ġorient ation
ĠìĹ° ë§Ĳ
Ġì´Ī ì½ľ
ĠìĬ¹ ìĿ¸
Ġë°© íķĻ
ĠìķĦ ëĿ¼
Ġlabor atory
Ġíģ´ ë¦¬
ĠìĪĺ ë©´
Ġê²¬ ìłģ
Ġrecogn ize
ĠìĪ« ìŀĲ
Ġcon sole
ir a
Ġëª» íķł
Ġëĸ¨ìĸ´ ìł¸
ĠëĮĢ ìŀ¥
ìŀĳ ìļ©
Ġê·ľ ì¹Ļ
ĠìĹ´ ìłķ
Ġëĭ ·
Ġê·¼ ê±°
Ġìķ¼ ìĻ¸
ĠíĬ¹ ìĿ´
Ġfound ed
Ġcoun ty
Ġëĭ¤ ìĦ¯
Ġcompreh ensive
Ġa ircraft
ĠëıĻ ë£Į
Ġe ating
ĠëĳĺëŁ¬ ë³´
Ġ ì¨
ĠíĮĢ ìŀ¥
ë£¨ ìħĺ
ì£¼ ë§Ĳ
ì¹´ íİĺ
ĠìĿĺ íķľ
Ġë¬´ ì§Ģ
Ġìłľ ë°ľ
Ġìķħ íĻĶ
ĠíĨł ì§Ģ
ĠìŀĲ ìĭĿ
ĠìĹĦì²Ń ëĤĺ
Ġíİ¸ìĿĺ ìłĲ
ĠìĿĺ íļĮ
ê°Ģ ì¡±
ĠìĨĮ ë¬¸
ĠìĤ¼ìĦ± ìłĦìŀĲ
Ġkey word
ëį ¤
ë´ ¤
Ġw elcome
Ġê²½ ëĤ¨
Ġstand s
Ġê°Ĳ ìĥģ
Ġlaunch ed
Ġê¹ľ ì§Ŀ
D I
Ġìĺ¤ íĨł
j ective
ĠS W
ĠíĦ° ì§Ģ
Ġíľ ł
Ġinf ected
Ġì²´ ì¤ĳ
ĠT N
Ġë¶ ķ
ĠëĦ Į
ĠT S
Ġì·¨ íķĺ
ĠëĦĺ ì¹ĺ
Ġaddress ed
ĠG L
ëĵ¤ ìĿ´
ë© ¸
ĠíĹ¬ ìĬ¤
Ġë§Ī ìĦ¸ìļĶ
ëķ ħ
Ġhigh light
ĠìĿĢ ê·¼
ĠëĪĦ ëĤĺ
Ġperman ent
oun der
Ġì§ ł
Ġëªħ ëł¹
å º
Ġìķ µ
ĠìķĦìĿ´ ìĬ¤
êµ¬ ëĤĺ
ĠìĦ¸ ê¸Ī
Ġyoung er
à °
Ġë°© ìĸ´
Ġí ĵ¨
Ġìĭ¬ íķ´
Ġêµ° ëį°
ĠìĪĺ ë¡Ŀ
Ġëĭ¨ ê¸°
ì°¨ íĶ¼
Ġë³´ ì¡°
ĠêµŃ ìĪĺ
ë¦ ħëĭĪëĭ¤
ĠìĬ¤íĭ° ì»¤
ê°ĳ ëĭĪëĭ¤
Ġíķľ ë°©
Ġë³´ ìĿ¸
ìĪĺ ìĪĺ
inst ance
ëĤĺ ìĿ´
Ġê³ł ìĨį
Ġì»¨ ìħī
ĠíķľêµŃ ìĿ¸
ĠH ospital
Ġíķľ ìłķ
Ġìĺ ¹
Ġdeath s
ĠìłķíĻķ íŀĪ
ĠíĮĮ ìĿ´
Ġin tention
ĠWilliam s
ĠìĤ¬ ê¸°
Ġì£¼ ê°Ħ
Ġìĺ¬ ë¦°
å ¹
Ġë³Ģ íķĺ
Ġê·¸ ê³³
Ġëª¨ ëĭĪ
Ġìĭł ìĨį
ĠëĮĢ ë³Ģ
ĠíĨł ë§ĪíĨł
res ult
ĠëĴ¤ ì§ĳ
ĠëıĻ ìŀĳ
ĠëĤ´ ëł¸
Ġfight ing
é Ģ
Ġë°Ķ íĢ´
Ġëĭ¬ ì½¤
Ġìŀ¬ ëĭ¨
Ġì¶ľ êµ¬
ëį° ìĿ´
ĠìĦ¤ íĥķ
Ġìĭ¤ ë§Ŀ
Ġì¶Ķ ìłķ
Ġì²Ń ì£¼
I E
ĠìĿĺ ëıĦ
ĠìĤ Ĳ
ĠìķĦ ìĽĥ
Ġdepend ence
Ġre actions
Ġêµ¬ ê°Ħ
ê³ ±
ĠS QL
Ġíĸ¥ ê¸°
ĠíĶ¼ ìķĦ
ĠìĿ´ ìŀĲ
ĠíĻķ ë¥ł
AT A
ëĮĢ êµ¬
ìĿ´ ë¯¸
ĠìĿ´ ìĻ¸
Ġê³¨ ëĵľ
ĠM aster
ê¸° ë³¸
Ġì§Ħ ëĭ¤
Ġì½Ķ íĮħ
ĠìĦ¸ ìĽĮ
ĠìĹ° íľ´
Ġë¯ ¹
ĠíĨµ ìĿ¼
Ġì» ¸
ĠìĥĮ ëĵľ
ĠG lobal
is ition
Ġë¹ł ì§Ħ
ĠìĺĪ ì¸¡
ë° Ń
Ġê¹Ĭ ìĿ´
Ġoptim ization
ë°Ķ ìĿ´
ìķĦ ë§Ī
Ġtype of
Ġë©Ķ ëª¨
Ġë¶Ģ ìŀ¥
Ġê·¸ ëĤĺë§Ī
Ġimpro ving
ment ation
Ġëĭ¨ ëıħ
ĠíĮĮ ìĽĮ
ĠëĮĢ ì²ĺ
Ġadvert ising
ĠíĥĦ ëł¥
Ġê°Ģ ì£½
Ġê¶Į ë¦¬
íķ µ
Ġë°© íķ´
Ġsubsequ ently
ĠëģĿ ëĤľ
Ġì¶ľ ìŀ¥
Ġinhib ition
Ġe lected
Ġë¯¸ ìĤ¬
ëĶ ¸
we ight
line ar
Ġprovid ers
ĠP erson
Ġíİ¸ íķľ
ë¶ ķ
ĠìħĢ íĶĦ
ìĵ ¸
Ġspectr al
Ġregard less
Ġë©ĭ ìŀĪ
ëį© ìĿ´
Ġì²« ì§¸
Ġê¸ī ìĹ¬
D R
Ġê°Ģ ì¡Į
Ġëĵ¬ ë¿į
ìłľ íĴĪ
Ġsubstanti ally
Ġobvious ly
Ġê±¸ ê¹Į
Ġê±° ìļ¸
ĠìĦľìļ¸ ìĭľ
Ġpro ps
Ġì²ĺ ë°©
Ġíķĺ ìĸĢ
igh ter
Ġíķł ê²ĮìļĶ
Ġì§Ħ ìĭ¤
ĠRepublic an
ìĹĦ ì²Ń
ĠíĬ¼ íĬ¼
Ġê³µ ì£¼
Ġus ername
ister ed
ĠìĿ´ íĺ¼
Ġëª¨ ë¥¼
íĶ¼ ë¶Ģ
ì¤ĳ êµŃ
Ġì±Ħ ìļ°
Ġelectro de
Ġëĭ¤ ëħĶ
ìĭľ ìĺ¤
Ġìľ¡ ìķĦ
Ġê±¸ ìĿĮ
Ġì°½ ë¬¸
Ġë¹ ļ
Ġbre aking
ĠP P
ì² ©
ĠìĪĺ ìļ©
Ġëĵł ëĵł
ĠìĿ´ë£¨ ìĸ´ì§Ģ
Ġìłķ ê¶Į
Ġìŀħ ìĪł
ë¡ľ ë¦¬
ĠM iddle
ĠP ath
Ġìĭł íĺ¸
Ġ= ========================
ĠA G
Ġprior ity
Ġscreen ing
Ġê°Ģ ë§Į
ĠëĦ ¥
Ġtrack ing
Ġë¬´ ìĦŃ
Ġë°ķ ìĤ¬
ĠìĨĮ ìŀ¥
Ġìĥģ ìŀĲ
Ġë° Ł
ĠëĦ¤ ìĿ¼
Ġë³µ ê·Ģ
ĠìĥĿ ë¦¬
Ġê³ł êµ¬ë§Ī
ĠU V
Ġëĭ ī
ëŁŃ ìĭľ
E ach
ĠìĨĮ ëıħ
M essage
Ġëª¨ ë°ľ
Ġw estern
ĠB S
Ġíĳ¸ ëĵľ
Ġbring ing
Ġo times
ì§ģ ìĽĲ
Ġcl usters
Ġê´ĳ ìŀ¥
Ġë³´ ëĤ¸
f ortunately
ĠM O
Ġìĭľ ê³Ħ
Ġë³´ìĹ¬ ìĦľ
Ġst ations
ĠS NS
ĠíĮĮ ë¦¬
ĠìĦ¸ ìļ©
ë¥ Ļ
ĠF unction
Ġë©Ķ ìĭľì§Ģ
Ġëĭ¤ê°Ģ ìĺ¤
ĠìķĦ ë¥´
Ġë¿Į ëĵ¯
ê·¸ ë¦¬
Ġgreat ly
ĠS R
Ġintegr al
ĠëĤł ì§ľ
Ġê¸°ëĭ¤ ëł¸
ĠìĹ° ìķł
Ġìŀħ ìĽĲ
or tion
ĠìľĦ ìĥĿ
us er
M C
Ġtempor al
Ġë°ĺëıĦ ì²´
Ġsimult aneously
Ġì°© íķľ
ĠE T
Ġë°´ ëĵľ
ĠìłĪ ë°ĺ
Ġìłķ íķĺ
¬ ¬
Ġë§¤ ë¬¼
Ġì»¨ ëĶĶìħĺ
ĠìĬ¤ëŁ¬ ìĽĮ
ĠëĤĺ ìĦł
Ġìķķ ë°ķ
ĠíħĮ íģ¬
p adding
Ġì¼Ģ ìĿ´
ĠìĹĨ ìķł
ĠD R
ĠìĹ°êµ¬ ìĨĮ
Ġë¨¸ ë¬¼
Ġìĺ¤ëŀ« ëıĻìķĪ
ĠíķĦ íĦ°
ĠëĨĵ ì¹ĺ
Ġì¹ľ íĻĺê²½
Ġë¯¸ìĦ¸ ë¨¼ì§Ģ
Ġì§ģ ìłĦ
Ġíİľ ìħĺ
ī ĺ
Ġcomple ment
Ġparticip ation
Ġë°Ķ ì§Ģ
Ġë§¤ ë²Ī
Ġì´Ī ë¡Ŀ
Ġê²Ģ ì§Ħ
ĠìĨĶ ë£¨ìħĺ
Ġinstall ation
Ġë§Ī êµ¬
ëłī ìĬ¤
ĠìĥģëĮĢ ë°©
ìĸ´ ëıĦ
ê¸° ë¦Ħ
ĠëĲľ ìŀ¥
ëĥ ī
ìľ Ī
Ġrefer ences
ĠëĤĺ ìķĦê°Ģ
Ġperfect ly
Ġappro val
ĠìĻ¸ ì¶ľ
in ue
Ġí Ī
Ġë¹Ħ ìĥģ
Ġêµ¬ ë¦Ħ
ĠìĤŃ ìłľ
ĠS L
ĠS A
Ġê°ľ ë³Ħ
Ġuncertain ty
Ġpro min
Ġë¶Ģ ìŀĳìļ©
Ġê·¸ë¦¬ìĬ¤ ëıĦ
Ġext ends
ĠìĹ° ìĸ´
Ġcompens ation
ì¹´ ëĵľ
H A
Ġìłģëĭ¹ íŀĪ
Ġìį¨ ìĦľ
ĠìĻĢ ì¤ĳ
Ġsudden ly
ĠG R
Ġì¢ħ ë£Į
ĠìĿĺ ë¢°
An y
ê¶ Ī
ur l
Ġstrong er
w as
Ġìľ Ī
Ġìľł ëıĦ
Ġë¶Ħ ë¥ĺ
Ġë¶Ģ ì²ĺ
Ġìľ¡ ìĪĺ
Ġìĥģ íĺ¸
Ġ< =
Ġìĺģ ìĽĲ
Ġbelie f
ëĬ ¦
Ġw avelength
d ict
Ġë¶Ģ ìŀĲ
íĬ Ģ
ìĺ¤ ë¹ł
ĠíĻĶ ìŀ¬
ĠìłĦ íĪ¬
ĠR O
Ġun defined
Ġì¿ł íı°
Ġë¯¸ ëĶĶìĸ´
ĠìĨĮ íĴĪ
ĠC urrent
Ġìľł ìĤ¬
ĠëłĪ ëª¬
Ġì£¼ ë¦Ħ
Ġë¶Ģ ëģĦ
Ġì²ľ ìķĪ
ĠA F
D B
ĠìĺĪ ë¯¼
Ġì§Ħ ìŀħ
ëĭ¤ ë§Į
Ġprocess ed
S cript
ĠìĨ ľ
ach ing
ĠìĿ´ ëŁ´
D uring
Ġì°½ ì¡°
ìķĶ íĬ¼
Ġê²½ ì£¼
íĥ ĳ
ĠëĤ¨ ë¶ģ
Ġë¬¸ ìŀ¬
Ġê³ł ìŀ¥
Ġêµ° ìĤ¬
ĠìłĦ íĺķ
ĠN M
Ġëĵľ ë¦¼
Ġì¶Ķ ìĦĿ
ĠìĨĮ ëħĢ
Ġdirection s
Ġì§Ģ ìĤ¬
ĠìĿ¸ê°Ģ ìļĶ
ê¹ ¥
Ġíĭ° ì¼ĵ
Ġê·¸ ì¹ĺ
Ġê¾¸ ë©°
Ġadministr ative
Ġë¬´ ìĸ¸ê°Ģ
Ġdistrib utions
Ġíİ¸ ì§ĳ
Ġrestr icted
ĠìĬ¤ íĦ°
ER T
Ġê³µ ëª¨
Ġìĥģ ìŀ¥
H C
Ġìĺ¬ ë¦´
ĠíıŃ ë°ľ
Ġdesign s
ëĨ Ī
Ġì½ ¤
Ġê¹¨ ëĭ¬
Ġestim ation
ĠëĪĦ ìĽĮ
ìĥĿ íĻľ
ë¥´ ìĭł
Ġì£¼ ëħĦ
Ġê°ķ ì¶Ķ
Ġcalcul ations
Ġconsequ ence
Ġ taught
Ġchalleng ing
Ġcommunic ations
ĠíĮĲ ê²°
Ġëį ¥
ĠìłĦ ë©´
Ġê±¸ ì³Ĳ
Ġì¡± ë°ľ
ĠìĹ° ìĪĺ
ĠëĤļ ìĭľ
ĠíĨµ ìłľ
ĠìľĦ íĺĳ
Ġë²ł ìĬ¤íĬ¸
Ġì±Ķ íĶ¼
Ġëŀ ¨
Ġcorrespond s
Ġë²Ħ ëł¤
Ġenviron ments
Ġpreval ence
ĠìĹ° ìĺĪ
P G
Ġìĸ´ ë§Ī
ë¦¬ ìĺ¤
ĠL E
ĠíĥĦ ìĥĿ
Ġíĭ° ë¹Ħ
ĠìĨĮ ë°©
ĠëĳĲ íĶ¼
Ġannoun ce
Ġë°© ì¹ĺ
ĠíħĲëį° ìļĶ
Ġëľ¨ ê±°ìļ´
Ġë§Į íĻĶ
Ġround ed
ĠC V
ĠìŀĲ ì¹ĺ
Ġê±¸ ëł¤
Ġìĺ¬ ë°Ķ
ì¿ ¨
ĠìĨĮ ìĿĮ
Ġíĺ¸ ìĪĺ
Ġìĭ¸ ìĽĢ
Ġì¦Ŀ ìĭľ
H D
Ġëĭ¤ ëĭĲ
Ġê¸ī íķĺ
ì¤ Į
Ġíıī ë²Ķ
ë§Ī ëĶĶ
ì¤ĳ ê°Ħ
Ġì§ĳ íĸī
ìĹĲ ëıĦ
ĠìĿĺ ìŀ¥
ìĩ ¼
ëıĻ ìĥĿ
ëŁ¬ ì§Ģ
ĠìŀĶ ëľ©
Ġstat istically
ë¡ ¬
ĠëĶ± íŀĪ
ĠL S
ĠìĹŃ ëŁī
Ġcoord inates
Ġëĭ¨ìĪľ íŀĪ
Ġclass ified
Ġê²½ ê³Ħ
ë§¤ ìĿ¼
ëĭ ·
Ġë¦¬ ìĬ¤íĬ¸
ĠëĶĶ ìĬ¤
ìİ Ħ
ĠM E
Ġtransp arent
ĠìķĦìī¬ ìĽł
Ġë§Ī ëĥ¥
ìŀĲ ìĭł
ĠíĬ¸ ëŁ¼íĶĦ
Ġíĺķ ìĤ¬
ĠëĦ¤íĬ¸ ìĽĮíģ¬
Ġwe aring
Ġìłķ ì²´
ë İ
Ġë§Ī ë¥´
íĶĦ ëĿ¼
ĠìĥĿ ìĦł
Ġê¸¸ ìĿ´
re ement
Ġëĭ¹ ì²¨
ìĸ´ ë²Ħ
ĠH P
Ġìĸ¼ ìĿĮ
ìŀ ĩ
Ġatmosph ere
ĠíĮĮ ìļ°
ĠëıĮìķĦ ëĭ¤ëĭĪ
ê²¨ ìļ¸
ĠëģĮ ìĸ´
ĠTh rough
Ġìĥģ ì§ķ
ë¹ Į
Ġmoment um
Ġêµ¬ ë©į
Ġìłĳ ì´ī
Ġë³´ ìĬµ
ĠG O
í ĮĢ
Ġë©ĭ ì§Ģ
ĠëĽ° ìĸ´ëĤľ
Ġë³´ê³ł ìĦľ
Ġpropos al
Ġê¸° ë¶Ģ
ë³´ íĨµ
Ġë§Ī ìħĶ
ìĭ ¹
ë¸Ķ ë¡ľê·¸
D ER
Ġë°ĺ ëł¤
ê´ Ħ
Ġë°Ķ ìĤŃ
ìĽ¨ ìĿ´
ë²ł ë¦¬
ĥ ½
ëłĪìĿ´ ëĵľ
Ġì£¼ ê´Ģ
Ġê·ĢìĹ¬ ìĽĮ
Ġì£¼ ê±°
Ġìĺ¤ ì§ķìĸ´
Ġìĸ´ ë¦´
Ġë¯¸ ìħĺ
Ġëĵ¤ ìĿ´
ĠëŀĦ ê¹Į
ë³¶ ìĿĮ
T R
ł ´
ĠìłĦë¬¸ ìłĲ
ĠCommun ity
ĠìĿ´ ëĭĿ
Ġëĭ¤ëħĢ ìĺ¤
Ġíĺ Ģ
Ġë°ľ íĸī
« ĺ
Ġenforce ment
Ġìľł ë¡ľ
Ġíı¬ ìĬ¤íĬ¸
Ġsurpr ise
ê°Ģ ìļ´
ë³´ ìĿ´
ĠìĻ¸ ê´Ģ
O O
ë§Į íģ¼
Ġëª¨ëĭĪ íĦ°
Ġë³¼ ê¹ĮìļĶ
ê°Ģ ìĬ¤
ĠêµŃ ë¦½
Ġë¦¬ ëĿ¼
ĠI reland
me thod
Ġë°ľ ê¸ī
Ġìļ´ ìļ©
Ġì¶Ķ êµ¬
Ġê¸° ìģ¨
ĠN A
Ġreach ing
ĠìĪĺ ëĬ¥
Ġìķ¼ ì§Ģ
Ġwork er
Ġë¹ ¡
ê²½ ì°°
Ġìľł ìļ©
ĠìķĦìī¬ ìļ´
ë ·Ķ
íĺ¼ ìŀĲ
ĠìķĦë¦Ħ ëĭµ
ë ĩĮ
ĠëĶĶ ìĬ¤íģ¬
Ġë¹Ħ ì¦Ī
Ġstr ange
AS S
Ġëĭ¤ëħĢ ìĺ¨
ĠE conom
Ġì§Ģ ë°°
Ġëĸł ìĺ¤ë¥´
ĠìĿ¼ ì§Ģ
ĠëĤ ¯
Ġ ë£Į
ĠìĨĲ ìĭ¤
Ġìĩ¼íķĳ ëª°
ĠêµĲíĨµ ìĤ¬ê³ł
Ġs essions
Ġemphas is
å ĭ
Ġë¯¼ ê°Ĳ
ĠëıĮìķĦ ìĻĶ
ition al
ëĪĪ ìį¹
Ġíķľëį° ìļĶ
Ġìĸĳ ìĦ±
Ġê²°íĺ¼ ìĭĿ
Ġì°¾ìķĦ ìĺ¤
Ġìĥī ê°Ĳ
ëĥ ł
ĠíĤ ¬
Ġsatisf y
ë´ ĩ
ĠìļĶ ê±´
Ġhe ating
Ġê°Ģìł¸ ëĭ¤
Ġìĭ¬ ìĭ¬
Ġë©´ ìłģ
ë¥´ ë¥´
Ġreduc es
Ġì§Ģ ë¶Ħ
ìĿ¼ ë°ĺ
Ġíĺ¸ ì£¼
Ġcommit ment
Ġìĵ° ìĿ´
ĠíĬ¹ íĹĪ
Ġinvolve ment
ìĭľ ìŀ¥
Ġsurpr ising
ĠìĿĺ ë¬¸
Ġgr ounds
Ġê±´ ê°ĢìļĶ
Ġdecre asing
ĠëıĦ êµ¬
Ġres istant
ĠB R
Ġshould er
Ġíķ´ ìĸĳ
C S
Ġê³µ ìĿ¸
ĠìĪľ ìĪĺ
Ġì·¨ ë¯¸
ìłł ê°Ģ
id ation
ĠìĹħ ì¢ħ
Ġfrequ ent
ìĩ ł
ìĤ¬ ìŀĲ
U D
ĠíħĮ ë§Ī
ĠìķĮëł¤ ìł¸
ĠìĦ¸ ëł¥
ëĿ¼ ë¦¬
Ġê²° íķ©
Ġtarget ed
Ġë¦¬ ìĬ¤
ì¹ĺ ì¦Ī
êµĲ ìľ¡
ëĦ Ľ
ĠíĹ¤ ëĵľ
íĺ¹ ìĭľ
ĠíĥĢ ìĽĮ
Ġrequ iring
Ġê·¼ë¡ľ ìŀĲ
Ġì¡° ìŀĳ
ĠëĨį ìĹħ
ĠëĲł ì§Ģ
ĠìĪĺ ëĭ¤
Ġíĭ ´
ĠíķĦ ëĿ¼
ìħ ĭ
ĠíĥĪ ëª¨
ĠìĽĲ ëĭ¨
Ġcorre ction
Ġs ending
Ġëĵ¤ìĸ´ ìĺ¨
íİ Ļ
ĠìľĦ ë¡ľ
ì¤Ģ ëĭ¤
ĠëıĦìĭľ ëĿ½
Ġìłķ êµŃ
ê´ĳ ìĹŃìĭľ
ĠëĲľ ëĭµëĭĪëĭ¤
Ġparti ally
ì¨Į ëĵł
Ġë°Ķ ëŀĢëĭ¤
ĠíķĻ ê³¼
Ġl osing
re ment
Ġapproxim ation
ĠìĪĺ ëĭ¨
M M
Ġì¶ ¥
ë¶Ģ ë¥´
ê°ĳ ìŀĲê¸°
ĠíıŃ ëł¥
Ġyield s
Ġìĸĳ ìĭĿ
Ġê³¼ ìŀ¥
Ġaw ait
Ġëĵľ ìħĶ
ĠM R
ëĤ Ń
á º
P lease
Ġê´Ģ ì°°
Ġë µ
ĠL ibrary
ĠL D
Ġgener ating
S ource
Ġì´Ŀ ìŀ¥
Ġcontroll ing
Ġì¶Ķ ìĦ¸
Ġnon umber
Ġì°½ ì¶ľ
Ġê°Ģìł¸ ê°Ģ
ĠìķĦë¬´ íĬ¼
ĠíĪ¬ ìĪĺ
íıī ìĨĮ
LE CT
Ġclean ing
Ġsubst ance
ĠF R
Ġë°° ëł¤
ĠíĬ¹ ìľł
Ġëħ¸ ì¡°
Ġìļ© ëŁī
Ġtrack s
ìĦľ íĬ¸
ĠíĻį ì½©
Ġì²ł íķĻ
íĭ ¸
ë®¤ ëĭĪ
Ġëĥī ëıĻ
Ġìŀħ íķĻ
Ġê±¸ ë¦°
Ġëĭ´ ê²¨
íĥ ±
Ġìĭł ë¶Ħ
ĠìĿ´ ëĭ¬
Ġmonth ly
Ġgener ic
ĠìĹ° ëł¹
Ġë¬¼ ê°Ģ
Ġë§ī ìĥģ
Ġìł ł
Ġexhib it
Ġcompl iance
Ġíķľ ëĭµëĭĪëĭ¤
Ġin duction
ĠìĹ ½
ĠìĨĮ ìļĶ
Ġm unicip
Ġpath ways
Ġì»¤ ìĦľ
Ġexpand ed
ìķĦë¬´ íĬ¼
Ġfeature d
Ġìĭ¸ ìļ°
Ġsemicon ductor
ĠëıĦ ë§Ŀ
Ġëĭ¤ ìĪĺ
ìŀĳ ëħĦ
ìķĦ ëĤ´
ĠH C
Ġê¸° ìĺ¨
ë°ķ ìĬ¤
Ġëıħ íĬ¹
Ġê³łë§Ī ìĽĮ
ëĵ¤ ìĸ´
ĠíĤ¤ ë¡ľ
Ġìłģ íĺĢ
ĠìķĦ ì¹´
ìĸ¸ ëĭĪ
ìķĦ ìĽĥ
Ġexclus ive
Ġê°Ģ ìĿ´ëĵľ
Ġëĭ¨ ëĭ¨
Ġfrequ encies
ëŀ Ń
Ġë¬¸ êµ¬
Ġë°Ķ ìģľ
Ġì´Ī ëĮĢ
Ġíĥ Ķ
ì¹ µ
ĠíĹĪ ê°Ģ
ĠAcadem y
ë°Ķ ì§Ģ
ĠìķĦë©Ķë¦¬ì¹´ ëħ¸
Ġë³µ ìļ©
Ġì´ Į
Ġfound ation
ĠìĿ¸ ê¶Į
B T
Ġsome where
ĠS F
Ġmetric s
ĠíħĶ ëłĪ
ëŁ° ìĬ¤
Ġê°¤ ëŁŃìĭľ
ĠíĻĪ ëŁ°
Ġwatch ed
Ġëª¨ ìľ¼
ĠE L
å ¸
ìĤ¼ ìĦ±
Ġíķ´ ì§Ī
U G
å Ĭ
Ġë³´ ëĵľ
ĠëĬĲê»´ ì¡Į
ĠO P
ì¤ ĺ
Ġë°ĺ ì§Ģ
íĺĢ ìĦľ
Ġìľ¼ ìĦ¸ìļĶ
Ġê¾ ¼
Ġmodel ing
ĠìĻ ģ
Ġê°Ħ íĮĲ
ëĤ¨ ìŀĲ
ëĬĶ ëį°
Ġcover ing
Ġíĺķ ìłľ
ĠìĿĮìĭĿ ìłĲ
if eration
Ġíķľ ìª½
ĠìĽĲ ëĤ´
Ġproduc es
Ġr ating
ĠíĨµ ê³Ħ
ì¿ Ħ
ĠìļĶ ëłĩê²Į
ëĤ ®
ì£¼ ë¬¸
Ġíı¬ íķŃ
ĠìĪĺìĪĺ ë£Į
ìĺ Ĩ
ê¿ Ī
Ġë§Ľ ë³´
ĠìĭĿ ëĭ¨
Ġsh ield
Ġê²Ģ ì¦Ŀ
Ġê²½ ë¶ģ
ê±´ ê°ķ
ëĤľ ëĭ¤
Ġì½Ķ íĬ¸
Ġê¸° ì°¨
Ġas ync
ĠK im
Ġì»¤ ë®¤ëĭĪ
Ġv ictory
ĠC G
Ġìłķë§Ĳ ë¡ľ
Ġìĸ´ëĸ¨ ê¹Į
Ġê²½ ê³ł
ëĤĺ ëĭ¤
T T
ĠëĤĺìĺ µëĭĪëĭ¤
ìĭ¤ íŀĪ
ëŁ¬ ë¦¬
Ġsufficient ly
ìĦ¸ ìĥģ
ë¯¸ ë¦¬
con sole
Ġëĸ¨ìĸ´ ì¡Į
ing ers
ĠëĳĲ ë¶Ģ
Ġconsist ing
Ġìĭł ëĭ¤ê³ł
Ġdiscrim ination
Ġë®¤ ì§Ģ
Ġëĭ¹ ê·¼
Ġ ë¦¼
ĠìĪĺ ëĤ©
ìŃ ī
Ġíķľ ë³µ
ĠìŀĲ ìľ¨
Ġl ights
Ġunivers al
tific ial
Ġë¬´ ìĤ¬
ëĳ¥ ìĿ´
Ġë¬´ ëĤľ
Ġtim ing
Ġë¹Ħ ì¹ĺ
å į
Ġinflu enced
ĠìĦ¬ ìľł
Ġindepend ently
Ġìľ Ĺ
Ġexplicit ly
B P
ĠìĪĺ ìĦĿ
ĠëĤ¨ ëħĢ
ĠìĦł ê³ł
Ġìĥģ ìĦ¸
ëĤĺ ëĤĺ
Ġìľ¡ ìĦ±
Ġê´Ģê´ĳ ê°Ŀ
Ġê²° ì½Ķ
Ġë¬¼ ëŁī
íħĮ ìĬ¤
Ġíķľ ìļ°
Ġíķ´ ë¬¼
Ġsettle ment
êµ¬ ë¦¬
Ġemploy er
ĠëĪĪ ìį¹
ĠAccording ly
ĠU I
ìĬ¤íĨł ëŀĳ
ĠëłĪ ìĬ¤íĨłëŀĳ
¿ ½
Ġëĥ ł
N umber
íĬ¹ë³Ħ ìĭľ
Ġproceed ings
ĠìĽĶëĵľ ì»µ
Ġregular ly
Ġìŀ ¤
Ġv ectors
Ġëŀ Ń
Ġëģĵ ìĹ¬
Ġë©Ī ì¶Ķ
Ġê·¸ëŁ¬ ë©´
Ġìķ Ĺ
Ġìļ° ëıĻ
ë¹¨ ë¦¬
ĠS I
Ġìłķ ìĪĺ
Ġgather ed
ĠìĿ¸ ìĹ°
ëŀ ©
Ġê¼¼ê¼¼ íŀĪ
ĠíĶĮ ëŀĺ
Ġë¶Ģ ì§Ħ
Ġëħ¸ ëŀĢ
Ġì´Ī ë³´
Ġê¶Į ëł¥
Ġaccomp an
ĠíĶĦ ëĿ¼ìĿ´
ìĤ¬ ìļ©
Ġë²ł ìĿ´ìĬ¤
ê·¸ ê²ĥ
Ġìľłì¹ĺ ìĽĲ
Ġphenomen on
Ġbe aring
ĠìłĲ ì°¨
íĳ ¼
Ġì§Ģ ìĥģ
Ġê¹Ģ ìłķ
ĠêµĲ ê³¼
ë¡ľ ìļ°
ester day
Ġexpect ations
Ġimprove ments
Ġun iverse
Ġë§Ī ìħ¨
Ġdevelop ers
Ġì¦ī ìĭľ
rom ise
Ġíķ´ ìļ´
Ġìĥģ íķĺ
Ġíĳľ ì¤Ģ
Ġìļ° ë¦°
Ġê°Ģë²¼ ìļ´
T O
Ġplatform s
Ġì§ĳ ëĭĪëĭ¤
Ġëļľ ê»ĳ
Ġëª¨ ë¥¸ëĭ¤
Ġíļ ¡
ĠTh ough
Ġìĭ¤ íĺĦ
Ġê±° ëĵŃ
ĠìĦ¤ ë¹Ħ
h and
ĠíĿĶ íŀĪ
ĠìĿ´ ìĬĪ
ĠìĿĺ íķĻ
Ġíİĺ ìĿ´
ĠìĥĿ íĥľ
é ĸ
ĠìĹĺ ë¦¬
Ġel astic
Ġê±° íĴĪ
Ġìĭł ì¤ĳ
Ġëªħ íĻķ
ìĬ Ĳ
ĠìķĦë§Ī ëıĦ
Ġë¿ ľ
ĠìķĦìĿ´ ëĶĶìĸ´
Ġis instance
Ġê°Ĳ ìķĪ
Ġë°Ķ ê¹¥
ĠìĤ ½
Ġìŀł ëĵ¤
Ġë§¤ ëĭ¬
ĠìĽ¨ ìĿ´
Ġexclud ed
L R
Ġë§Ī ëĿ¼
ìĭľ íĶ¼
ëŃ ĩ
W H
ĠìĤ¬ ìľł
ĠëłĮ íĬ¸
ĠìĿ´ ìŀ¬
Ġë§ŀì¶° ìĦľ
Ġíĺģ ëªħ
Ġdevelop er
Ġarrang ed
ë° ĸ
Ġì±ħ ìĥģ
Ġì°½ ìĽĲ
ìĸ´ ë§Ī
Ġìĸ´ ë¥´ìĭł
Ġíĸĩ ìĤ´
ĠìłĦ ëĤ¨
Ġíĥľ ìĸ´ëĤĺ
Ġëĭ¤ ë¥¼
Ġë³Ģ ëıĻ
ë Ŀł
Ġf iction
Ġinhib it
é ģ
Ġë¹ł ì¡Į
P N
ĠìĹĲìĦľ ë¶ĢíĦ°
Ġcontinu ing
ĠëĮĢ ë§Į
ĠíļĮ ìłĦ
ĠëĤ´ ë¦°
Ġê°ķìĽĲ ëıĦ
Ġmaintain ing
ment ed
Ġover come
ë°ĺ ëıĦ
Ġthere of
ë¨¸ ëĭĺ
ĠìĿĳ ëĭµ
Ġì»¤ ì§Ģ
Ġquantit ative
ĠìĬ¤ íİĺìĿ¸
Ġserious ly
ĠF I
Ġìı ł
Ġëħ¸íĬ¸ ë¶ģ
Ġëĭ¤ ì§Ĳ
íĬ¸ ë¦¬
ĠìĦ¤ ëłĪ
Ġêµ¬ ìĦĿ
Ġarrest ed
ĠëĤ´ ìŀ¥
Ġëĭ¤ ë£¨
Ġìŀ¥ëĤľ ê°Ĳ
Ġì½Ķ ëĦĪ
Ġë¹Ħ ì£¼ìĸ¼
ĠìļĶ ìķ½
ĠìĪĺ ê³ł
ëį° ìĿ´íĬ¸
Ġë¶Ģ ìĦľ
Ġind irect
Ġë§Ī ë²ķ
Ġë§Ī ì¹´
Ġvictim s
Ġëĭ¹ ìĦł
p art
Ġsh ipping
P e
T M
Ġaddress es
ĠG C
Ġìĭ ¼
Ġë¶Ģ ì²ľ
ëłĮ ì§Ģ
íĮ ¬
Ġìĭ¬ íĶĮ
Ġh ierarch
Ġìĸ´ë¦°ìĿ´ ì§ĳ
ĠA A
ĠìĹĪ ìĹĪ
Ġconstant ly
ĠìĤ¬ìĿ´ ëĵľ
Ġê°ľ ë´ī
Ġë°ĺ ì§Ŀ
Ġì« ĵ
Ġë²Ī ìĹŃ
Ġì¼Ģ ìĿµ
ĠìĹĲ ìĿ´
ĠëĤĺëĪ Ķ
Ġê°Ģ ê¹Ŀ
ĠF ull
ĠìŀĦ ìĭľ
ĠíĴĢ ë¦¬
Ġschedul ed
Ġë¦¬ì¡° íĬ¸
Ġìĭľ ìĦ¸
ë¬´ ìĹĩ
Ġë²ħ ìĬ¤
ĠìĿ¼ìĸ´ ëĤ¬
ì¶ ¤
ĠìĦ¸ íĮħ
ĠìķĦë¬´ ëŁ°
y ou
Ġë¯¸ ë§Į
ëĭ¤ ëŀĢ
Ġìĸ´ ìĥī
Ġë¹Ħ íĬ¸
ê±° ëĤĺ
Ġd ating
Ġcontr ad
Ġint ake
ëĲ ľ
Ġì³Ĳ ëĭ¤ë³´
F inally
Ġëĭ´ ë³´
B ar
ĠíĻľ ë°ľ
Ġbut ter
Ġë¯¸ ë£¨
ĠíĿ¬ ìĥĿ
C O
Ġë¹Ħ ëĮĢ
Ġassign ment
Ġìľ¼ ëĿ¼ê³ł
Ġë§Ī ìĭ¤
Ġìłľ ìķ½
K E
ĠëĤĺíĥĢ ëĤ´
íĩ´ ê·¼
íķĺ ë©´
ī ģ
Ġìķĺ ìĹĪ
Ġdifferenti ation
ĠS V
Ġë³´íĹĺ ë£Į
Ġmin ister
Ġreturn ing
Ġk illing
ĠS ource
ĠìĬ ´
Ġab normal
ĠíĶ¼ìķĦ ëħ¸
ëĺ ĳ
ëł ·
ĠìļĶ ìĥĪ
ê·¸ ëķĮ
ĠëĿ¼ ìĿ´íĬ¸
Ġre jected
ĠìĦľìļ¸ íĬ¹ë³Ħìĭľ
ar ation
Ġì°¸ ì¹ĺ
ëĿ¼ ìĹĺ
Ġìĭ¤ ì§Ī
Ġ ëŀľëĵľ
Ġì§Ģ ëĭĪ
ê³ł ë¦¬
ĠìĻľ ëĥĲ
ĠêµŃ ë°©
ĠíĦ° ì¹ĺ
Ġëªħ íĴĪ
D NA
ĠìĿ´ ê²¨
Ġì§Ģ íĺľ
ģ ëĭĪëĭ¤
Ġë¶Ħëªħ íŀĪ
Ġê³µ íı¬
ëŀĢ ëĵľ
ĠíĿĶ ìłģ
ĠM V
Ĳ Ĩ
ëłĪìĿ´ íģ¬
ĠìķĶ íĬ¼
Ġì° ¢
Ġrecommend ations
Ġíĺĳ ìķ½
Ġê³µ ëĭ¨
Ġì§Ģ ëĤ¬
Ġìķł ëĭĪ
Ġì¶ľ ìŀħ
H R
Ġê±° ì¹ĺ
Ġë§Ī ìĬ¤íĦ°
Ġingred ients
ë³¸ ëĭ¤
ìķĦ ë¹ł
ĠB Y
Ġê°Ģë§Į íŀĪ
ĠìłĢ íķĺ
ĠìĽ ¬
ĠíĿĺ ë¦¬
ĠíĹ Ĳ
F O
ĠíĻĺ ìĺģ
Ġtrans actions
Ġìłķ ì§Ģ
Ġì¼Ģ ìĿ´ë¸Ķ
Ġë°Ŀ íŀĪ
Ġsearch ing
Ġê°ĸ ì¶ĺ
ĠìĹ¬ ë¡ł
ë²Į ìį¨
ĠíĹ ·
ĠëłĪ ë²¨
Ġì´ī ì§Ħ
ë© ľ
Ġì½ĺ ìĦľíĬ¸
Ġë°Ķ ëŀĺ
Ġinter ference
Ġë©´ìĹŃ ëł¥
________ ________
ê³Ħ ìĨį
ìļ¸ ëŁ¬
ĠíĮĮ ê´´
ëĤĺ ì¤ĳ
Ġsatisf action
Ġê³µ ì§Ģ
Ġcomplic ations
Ġlater al
ĠìĿ¼ ìĤ°
Ġì´Īì½ľ ë¦¿
Ġwhere in
Ġíģ´ ëłĮ
ìŀ¡ ìĿ´
Ġìºł íĶĦ
ĠíĥĪ ì¶ľ
ĠìĭĿ íĥģ
Ġì± Į
Ġíķľ ê¸Ģ
ĠEx ception
ĠìĥĮëĵľ ìľĦì¹ĺ
ĠL iving
ĠìĥĿ ìĦ±
æ Ĺ
Ġenjoy ed
ĠìĦ¸ ìĿ¼
Ġìĺģ íĺ¼
Ġê·¸ëŁ¬ ëĭĪê¹Į
Ġìĸµ ìłľ
Ġìłķ ê·ľ
ĠíĬ¸ ëłĮ
Ġoutput s
Ġê¸´ ê¸ī
ë¬¸ ìłľ
Ġì¢Į ìĦĿ
ìĬ¤ íĮħ
Ġêµ¬ ìĽĲ
ìļ´ ìłĦ
Ġë¶Ģ ì±Ħ
Ġinf ections
ìļ° ëĵľ
ê·¼ íĺľ
Ġë¸Į ë¦¬
ĠìĿĮ ìĦ±
ĠA BC
Ġorient ed
ìĸ´ ë¦¬
ëħ ¼
ĠR F
Ġê°ķ ë¦ī
Ġs aving
E P
Ġcomple tion
ĠìĦ¸ ëł¨
ĠìľĦ ìķĪ
ë°Ķ ëĭ¤
U P
Ġíķľ ìŀħ
Ġìī ´
ì°¸ ê³ł
Ġthe ories
Ġë¶Ģ ì°©
ĠM ountain
íĺĦ ëĮĢ
Ġê·¼ ë³¸
Ġì¤Ħ ìĹ¬
ĠìķĦ ìļ°
ìĿĮ ìĭĿ
ìĮ Ī
Ġì¤ĳ ëıħ
Ġë§Ī íģ¬
G S
Ġìĺ ³
Ġì§Ģ ë£¨
ìĽĮ íķĺ
Ġnon linear
ĠOption al
ë¥´ ëª¬
Ġë§¤ ëıĦ
ĠìĹ¬ ê¸´
ì» ·
Ġìĸ´ ìĹ¬
ìĸ´ ëĶĶ
ĠìłĦ ë¶ģ
Ġë¡ľ ë´ĩ
Ġimplic ations
Ġìłľ ë²ķ
Ġìĸ´ìķ¼ ì§Ģ
Ġlist ening
Ġcoord inate
Ġìµľ ìĭł
ìłĢ íŀĪ
Ġpro test
Ġê°Ī ìķĦ
Ġë¹Į ëĶ©
ĠìĹŃ ëĮĢ
Ġê·¸ ëłĪìĿ´
ĠíĻį ëĮĢ
ĠìĿ´ ìĦ±
ĠíķŃ ëª©
ë§Ĳ ë¡ľ
ëĭ¤ íĸī
Ġcheck ing
ĠëĶĶ íħĮìĿ¼
Ġì£¼ ìĦ¸ìļĶ
ĠìĿ´íĥĪ ë¦¬ìķĦ
s ylvania
Ġëĭ¹ íĸĪ
C o
ĠP V
Ġë¬¼ ìĸ´
Ġì¤ĳ íķĻêµĲ
Ġì¡° ë¦½
Ġsepar ately
ĠìĦ¸ ì¢ħ
Ġ ë¦´
Ġêµ¬ ê¸Ģ
ë§Į ê°Ħ
ĠìĿ´ ë¶Ī
Ġarrang ement
ĠíĺĪ ê´Ģ
Ġëį ¤
Ġswitch ing
ĠìŀĲ êµŃ
tr ation
ë¯¸ ëĦĲ
Ġlabel ed
Ġë¶Ģ ë¦¬
Ġë³µ ìĽĲ
Ġì¿ł ìħĺ
Ġìµľ ìłģ
Ġscatter ing
Ġëĭ¬ëĿ¼ ì§Ģ
ĠìķĦìī¬ ìĽĢ
ĠìĪĺ ìĭľ
S ystem
ë¿ Į
Ġíĸ¥ ìĪĺ
ĠëįĶ ë¸Ķ
Ġíķĺ ë°ĺê¸°
Ġì§ ¤
Ġì¶Ķ ìĽĮ
D C
ĠìĿ´ ëĿ¼
Ġfunction ality
ĠíĮ Ł
Ġíķł ìķĦë²Ħì§Ģ
Ġì§ģ íĽĦ
Ġë¹ł ì§Ī
ĠE astern
Ġstrugg le
Ġìļ© ìĿ¸
Ġrandom ly
ĠíĥĢ ìĿ¸
Ġëľ ¬
Ġë§Ī ìĿ´íģ¬
Ġê²Įìĭľ íĮĲ
ĠHT TP
Ġê»į ì§Ī
ĠìĬ¤ íĤ¬
G G
Ġì²Ń ìķ½
Ġì²Ļ ì¶Ķ
ĠìĦ± ê²½
Ġê°Ģ ìĤ¬
ĠìłĢ ê±°
Ġë¡ľ ëĵľ
Ġìĸ´ ì°¨íĶ¼
Ġìĸ´ì°Į ëĤĺ
ëŀ ´
íı¬ íĬ¸
Ġdegrad ation
ìĿ¸ íĦ°
ĠT i
ìĻ¸ ìĦł
Ġìŀ¥ ë¯¸
Ġê³Ħ ì¢Į
Ġg ained
Ġíķĺ íĬ¸
ê±° ê¸°
íĮ ł
Ġëį° ë·Ķ
ìĺ¤ ëŀĺ
ĠìĽĲ ë¦¬
the ast
Ġìĳ ¥
ĠìĽ °
Ġê±°ì§ĵ ë§Ĳ
Ġì»¨ ìĦ¤
Ġìĥģ ìľĦ
Ġì§Ħ ë¦¬
Ġë¸Ķ ë¡Ŀ
Ġê°ľ ë°©
ëĨĢ ìĿ´
ĠíĻķ ìĭł
Ġë°° ê´Ģ
B R
ĠëłĪ ìĭľíĶ¼
ĠëĿ¼ë©´ ìĦľ
ë© Ģ
Ġê¹¨ ëĭ«
Ġíķľ ë§ĪëĶĶ
Ġì¡° ê°ľ
ĠF S
Ġìĺ¤ íĶ¼ìĬ¤
íļĮ ìŀ¥
ĠF ollowing
Ġìĸ ¹
ëŁ¬ ìĦľ
Ġìķł ìłķ
ĠS earch
Ġmatch ed
ĠíĿ¡ ìŀħ
ĠìĿ¸ ì¹ĺ
Ġpro gression
ĠUS B
ê³µ ìĤ¬
ĠêµĲ ë¥ĺ
Ġê³µ ìĭľ
Ġë²ķ ë¬´
Ġëĭ´ ê¸´
ìľ Ĺ
Ġëª¨ ëŀĺ
Ġë¸ĮëĿ¼ ìļ´
ĠìĿ¼ìľ¼ íĤ¤
ìĬ¤ íĭ°
ë£ ¬
ĠíĶĦ ë¦°
Ġstr ings
ìĤ¬ ë¦¬
Ġì§Ģ ìĭľ
ëĬ ¬
Ġrespond ed
Ġê´Ģ ìłĲ
it ative
ĠìłĦ ê°ľ
Ġíı¬ íĬ¸
Ġìł ĵ
ĠìĦ± íĸ¥
lo at
Ġë°ľ íľĺ
ĠS everal
Ġì§Ģ ì¶ľ
he ight
ĠìĤ´ ë¦¬
G R
Ġtransport ation
ĠëŃĶ ì§Ģ
Ġcontem porary
íĬĢ ê¹Ģ
ĠD A
Ġshould n
Ġìĥģ ë°ĺê¸°
ìłĢ ë¦¬
Ġpsych ological
ĠêµĲ ìĭ¤
ìĽ¨ ìĸ´
ëĦ¤ ìļĶ
ĠìĬ¤íĨł ìĸ´
Ġìŀ¬ ëĤľ
Ġê°Ħëĭ¨ íŀĪ
ĠìĦ± ëĤ¨
Ġë²Ħ ë¦´
in ance
Ġíķľ íĻĶ
ë³´ ëĵľ
Ġë¦¬ ìĸ¼
Ġv ascular
con fig
Ġêµ° ëĮĢ
Ġse asons
ê´Ģ ë¦¬
Ġíķ´ ë³Ģ
Ġpromin ent
ëļ ľ
Ġë¦¬ ëª¨
Ġrestr ictions
ìĬ¤ ëłĪ
Ġê¸ ģ
Ġbound ed
Ġperson ally
Ġë° Ń
Ġëĵ¤ ìľ¼ë©´
Ġstudy ing
Ġelse where
ìŀĲ ìĹ°
Ġcont am
ĠInter est
ì· Ħ
Ġo mitted
Ġë¶Ħ ëħ¸
ê¹Ķ ëģĶ
ëŀĢ íŀĪ
Ġëĵ± ìĤ°
ìĦ¼ íĬ¸
Ġëĥī ë©´
Ġëħ¼ ë¬¸
Ġë°Ķ ìľĦ
ĠìķĦ ëģ¼
ĠìĿ¼ ìĭľ
êµ¬ ëĭĪ
Ġëªħ ìłĪ
Ġcollabor ation
ëĮĢ íķľ
Ġì¹ĺ ìĹ´
Ġbound aries
Ġê³Ħ ìħ¨
Ġìľ¼ ë¡ł
ĠìĥĪ íķ´
ĠìĽĲ íĻľ
Ġëį° ìĿ¼ë¦¬
ì¹´ ëĿ½
Ġë°° ìĽĮ
Ġë¹Ħ ëĪĦ
ë£ °
ur ations
ĠìķĮëł¤ ì§Ħ
ĠìĥĿê²¨ ìĦľ
ĠìĺĪ ê³ł
ĠìĹ´ ë§¤
Ġf ingers
Ġì½Ķ ì½Ķ
íĿ Ķ
Ġë©´ íĹĪ
Ġë°ľ ìĤ¬
ĠíĻĶ ìĿ´íĮħ
aterial s
Ġìĭľ ìĿ¸
Ġëª© ìĤ¬
ĠíıĲ ê¸°
ĠA V
Ġë¹Ħ ëĤľ
íĪ ¼
l ife
Ġcompris es
Ġìļķ ìĭ¤
B ecause
ĠëĿ¼ìĿ´ íĶĦ
ì¹ ¸
Ġì«Ħ ê¹ĥ
Ġsome how
Ġíľ´ ë¬´
ê±¸ ë¦¬
Ġê·¸ ëĮĢ
Ġë¶Ī ëłĢ
â Ĺ
U RE
ĠìŁ Ī
ĠG T
ëļ ±
Ġê¸° ìĨĮ
ĠíĮĲ ìłķ
ail ing
Ġëįĺ ê°Ģ
ĠìĿ´ìĬ¤ ëĿ¼ìĹĺ
ê³ł ê°Ŀ
Ġì§Ģì¼ľ ë³´
ĠìĹ°ìĺĪ ìĿ¸
Ġë¨¸ ë¦¿
ĠêµŃ íĨł
Ġëĵ¤ìĸ´ ìĦľ
Ġë³´ ìĻĦ
Ġì§Ģ ê°ĳ
ĠE P
ir atory
Ġê·¸ ë¶Ħ
ĠëģĬ ìŀĦ
ìĿ´ ëķĮ
ĠìĤ´ ëł¤
Ġbacter ial
ëŁ¬ ë¸Ķ
ĠìĬ¹ ë¶Ģ
ĠëıĦ ì¤ĳ
ĠëĪĦ ìĪĺ
Ġë§Ī ëĭ¹
Ġíķ´ ìĪĺ
ĠíĻĺ ìľ¨
Ġìĭ¤ ìĭľê°Ħ
íĻĶ ìŀ¥
F urther
Ġìļ© ëıĦ
ìĸ´ëĸ »
Ġê·¸ ëĿ¼
ĠëıĦ ìŀ¥
ĠíĽĦ ìĽĲ
ĠíļĮ ìĭĿ
ìĮ į
Ġë° į
Ġë¬´ ëĦĪ
ëłĪ ìĿ¸
Ġëıħ ìŀĲ
Ġë¹Ħ ëĭĲ
ĠìķĦëĭĪ ë©´
ĠCorpor ation
ĠìŀĦ ìĥģ
Ġë¹Ħ ë²¼
Ġíģ¬ ë¦¬
ëĭĪ ìĸ´
Ġì£¼ ë¨¹
ul ative
K S
Ġë¬¼ íĴĪ
Ġconserv ative
Ġì£½ ìĿ´
Ġin line
op en
ĠìĨĮ íĮĮ
Ġì·¨ ê¸ī
ìĿ¸ ì²ľ
ĠíĥĢ ìĿ¼
ĠìĿ¸ìłķ ë°Ľ
Ġ tension
Ġê°Ģ ì§Ī
Ġê±° ëĮĢ
Ġlife time
ĠìĨĮ ìĦľ
Ġcompris ing
Ġstrateg ic
Ġì¶ľ ëł¥
ìĬ¤ íħĮ
Ġat titude
Ġadmin istered
ĠìĦ¸ ë¶Ģ
ëĿ¼ ë©´
ĠíĮĮ ëŀĢ
ë¸Į ë¦¬
Ġregard ed
íķĺ ëĬĺ
Ġë§¤ ê°ģ
Ġëį ´
ĠëĨĴ ìĹ¬
Ġë³´ ëĤ¼
ĠëĮĢ ëŀµ
ëª¨ ìĬµ
Ġmin ing
ĠëłĪìĿ´ ìłĢ
Ġê²Ģ ìłķ
Ġì¾Į ìłģ
Ġmanag ers
ë° ĳ
ìĺģ ìĹħ
ur ities
Ġëª© ìļķ
ĠìĭŃ ìĭľìĺ¤
ĠìĦ± íĺķ
Ġíĺ¸ ë¥´ëª¬
Ġì¹¼ ë¡ľë¦¬
Ġë¶Ģ ìĬ¤
Ġë§¤ ì²´
è ¦
ìĨĮ ìĬ¤
Ġinterview s
ist ing
Ġìĸ´ëł¤ ìļ¸
ĠìĬ¤ íĤ¤
Ġíķľ ëĳĲ
ĠêµŃ ë¬´
ĠìĿĢ ìĿĢ
Ġelection s
Ġb ounds
Ġê²° ìĭ¬
ĠíĥĢ ìŀĲ
Ġ ëŁŃ
Ġass umptions
Ġdestroy ed
Ġexpert ise
ĠíĤ¤ ì¦Ī
ĠìłĦ ë³µ
Ġëĵ Ń
Ġì½Ķ ëĶĶ
Ġdiffic ulties
Ġbirth s
Ġpro jection
ĠëĮĢë³Ģ ìĿ¸
l ength
J S
ëį §
Ġê°Ģ ëıĻ
Ġê°Ģ ê³µ
elf are
Ġê³¼ ëıĦ
Ġëħ¸ ìĦł
ëĮĢ ë¬¸
Ġíĸĩ ë¹Ľ
ìĿ´ ë¦Ħ
ë´Ĳ ìķ¼
ëĤĺ ê°Ģ
ìłĦ ì²´
ĠìķĪ ë³´
ê° ĸ
Ġpar agraph
Ġneigh b
ex port
ĠìĪł ì§ĳ
Ġêµ¬ ëĭ¨
ë¯ ¹
íĺ¸ ë°ķ
ĠìĿ¸ ìļ©
Ġìĩ ł
Ġë©Ģ íĭ°
ĠìĹĲ ëĭ¤ê°Ģ
ê³ ½
over ty
íĮĮ ìĿ´
Ġê³ł íĸ¥
L ink
Ġíģ´ ëĿ¼
ĠìłĢ ì¶ķ
ì¹ «
Ġíķľ ìķ½
Ġì¹´ ëłĪ
ĠìĽĲ ë£Į
Ġë» Ĺ
Ġprefer ences
ĠìĹ ¿
ĠìĪĺ ì§Ģ
ĠìĥĿ ì¡´
T V
ĠìĹ¬ ìĿĺ
Ġprocess or
ìĭľ ìĽĲ
ĠëıĮ íĮĮ
Ġf ounder
Ġì¶ķ ìĨĮ
ĠG DP
Ġìĺ® ê¸°
H istory
ëĳĲ ë¶Ģ
¥ ¿
Ġë¶Ļ ìŀ¡
Ġsimilar ity
Ġì½ §
ĠìĤ¬ ë£Į
ĠíĹ Ľ
Ġìŀħ ìĭľ
Ġfocus ing
Ġcho osing
ĠìĬ¤ íİĺ
Ġconstit u
ĠëĮĢ ìļ°
ĠB P
Ġalign ment
Ġì¶ľ íĮĲ
Ġìĭ¤ ë¬´
ĠíĦ° ë¯¸ëĦĲ
Ġìľł ìŀħ
Ġass ault
Ġíı¬ ëıĦ
Ġpass es
à ¯
Ġë°± ìĦ±
Ġì·¨ ìķ½
ĠìĽĮ íģ¬
Ġê±¸ìĸ´ ê°Ģ
Ġì¤ĺ ìļĶ
ìķĦ ê¸°
Ġìĭł íĺ¼
ĠìĹ° ê°Ħ
ĠìĺĪë»Ĳ ìĦľ
ç ī
ĠíĻĺ ìĥģ
í Ŀĺ
Ġë°Ķ ë³´
Ġëħ¼ ë¦¬
Ġê°Ģ ìĥģ
Ġenhance ment
ì½Ķ ë¡ľëĤĺ
Ġíķľ ëıĦ
ĠëĮĢíķĻ ìĥĿ
Ġì±ĶíĶ¼ ìĸ¸
Ġíģ ¼
Ġì« Ģ
Ġinflamm ation
ĠìĿ¼ ìĸ´ëĤľ
ĠíĶ¼ë¶Ģ ê³¼
Ġìĸ´ ë¦¬
Ġar tificial
ĠìĹ° ìĿ¸
Ġì§Ģ íĳľ
ĠìĬ¤íĥ ł
Ġìĺģìĸĳ ìłľ
Ġíĳľ ë©´
Ġpoin ter
ĠO H
ematic s
Ġìĺ¬ë°Ķ ë¥¸
Ġun expected
Ġíĺ¸ ìĨĮ
ìķĦë¬´ ëŀĺëıĦ
Ġconsist ently
ink ing
ĠìĹĳ ìĬ¤
Ġëªħ ìĺĪ
ĠëĤ´ ìĽĲ
Ġelectr icity
Ġëª¨ íĦ°
Ġëħ¸ëıĻ ìŀĲ
ĠìĹ¬ ìĪĺ
Ġin verse
Ġë²ķ ìķĪ
Ġì´Ī ìłĲ
Ġmolec ule
ìĦ¸ ì§Ģ
Ġê²½ íĸ¥
Ġì²´ ì§Ī
ĠìĿ¼ ìŀĲ
ĠíĮ¨ ëĵľ
ĠìĪĺ ë¦½
Ġê°Ī ìĪĺë¡Ŀ
ê·Ģ ìĹ¬
ëıĮ ìķĦ
êµŃ ëĤ´
Ġì§ĢëĤĺ ì¹ĺ
ëĦ ¬
ì£¼ ìĭľ
Ġê°ľ ìĦ±
Ġìĭł ìĥģ
íĭ° ë¸Į
Ġhand ed
Ġtransform ed
ĠìłĢ ìŀĲ
Ġëĭ¹ íķľ
Ġë°ĽìķĦëĵ¤ ìĿ´
ĠëĤ¨ ì¹ľ
ĠëĪĪ ê¸¸
ĠíĴį ìĦ±
ìĹ¬ ìŀĲ
ĠK B
Ġëŀ į
Ġìĭľ ê³¨
ëĦ¤ ìĿ´ë²Ħ
íĨł ë¦¬
Ġìĺ¤ ì§ģ
Ġë§Į ìĦ±
íĭ° ì§Ģ
ĠíļĮ ê³Ħ
Ġvalid ity
Ġphilosoph y
ĠE lectr
Ġìĸ´ ëĿ¼
è ¨
Ġë¬¸ìłľ ìłĲ
ĠìķĦ ìķĦ
Ġìĺ¨ ëĭ¤
Ġìĸ´ ìļ°
ĠM essage
æ °
Ġì£¼ ìĬ¤
ĠV ersion
ĠìĬ¤ ëŁ°
Ġìĺ¤ ìĿ´
ĠMethod s
Ġì±Ħ ë¬´
Ġìĭľì¼ľ ìĦľ
cont ent
å ¼
ĠìĬ¤ ìľĦ
Ġë¬´ ìĦł
Ġë³´ ì¶©
ĠêµĲìľ¡ ì²Ń
ĠëĬĺ ë¦¬
os ystem
Ġìķ¼ ê°Ħ
ëį ´
Ġìĭ¤ ë¦¬
ĠìĿ¸ íĶĦëĿ¼
Ġê¸° ìĥģ
ĠìłĢ ì§Ģ
ĠëĿ¼ìĿ´ ë¸Į
ĠF ather
íı ¼
Ġìĺ¤ ëłĮì§Ģ
Ġíĥľ íĴį
ĠìĹħ ëį°ìĿ´íĬ¸
Ġì¦Ĳê±° ìĽĢ
Ġë¶Ī ë§Į
Ġë³¸ ìĤ¬
ĠT B
Ġê³ł ë°±
Ġë¶Ħ ëĭ¹
AB LE
ĠìĦ¸ ìłľ
Ġë¶Ģ ê³¼
G O
Ġman ually
ĠíĨł ëģ¼
Ġë³´ ìĬ¤
Ġë ·Ķ
Ġê²ģ ëĤĺ
ĠíĶĦëłĪ ìŀĦ
ĠL P
Ġì´ī êµ¬
Ġë§¡ ê¸°
Ġë°Ķ ëĤĺëĤĺ
ĠìĦľ ë²Ħ
ĠëıĦ ì¿Ħ
Ġhypoth es
Ġsymbol s
Ġê¸Ģ ìŀĲ
Ġ}) ;
Ġë¬¸ìŀ¬ ìĿ¸
Ġê²½ ìĥģ
ĠCP U
êµĲ íĨµ
Ġìŀ¥ ë¡Ģ
Ġmethod ology
ĠìĨĮ ëħĦ
Ġê¸° ìĽĲ
N T
Ġ ë¡Ŀ
Ġíĸ¥ íķĺ
Ġë§¤ ëĭĪ
ìĹ´ ìĭ¬íŀĪ
ĠìĽĲ ìłķ
Ġë§Ī ì¹ľ
Ġcomput ational
ĠëĲł ê¹Į
Ġê¼¬ ì¹ĺ
Ġf usion
Ġì¤Ħ ìĸ´
ĠìĽĲ íĶ¼ìĬ¤
Ġì°¨ ëł¤
íĸī ë³µ
Ġmanag ing
Ġë³Ģ ìĭł
Ġì¡°ìļ© íŀĪ
Ġì½ ķ
Ġëĭ¤ ë¦Ħ
ĠV S
Ġê±¸ ê¹ĮìļĶ
Ġprogram me
ĠìĻ¸ ëª¨
ì£¼ ì°¨
Ġìľ¤ ê¸°
ìłĢ ë²Ī
ĠìŀĲ ë¥´
Ġë¹Į ëł¤
Ġëĭ¤ë©´ ìĦľ
ĠR ights
ol ation
Ġë¹Ļ ìĪĺ
Ġë°ľ êµ´
ĠëıĦ ëĮĢì²´
ĠëĤ´ëł¤ ìĺ¤
Ġë§Ŀ ê³ł
Ġestablish ment
Ġperson ality
ĠíŀĪ íŀĪ
Ġê¸° ìķĦ
ĠìĿ¸ ìŀ¬
ëıĦ ë¡ľ
U I
Ġìµľ ìĥģ
ëĴ Ģ
ì§ģ ìłĳ
ĠìŀĲ ê¶ģ
Ġíĺ¼ ëŀĢ
ĠìĽĮ íĦ°
ĠíĿ° ìĥī
ĠíĻ© ê¸Ī
Ġíĥľ êµŃ
ĠíİĺìĿ´ìĬ¤ ë¶ģ
F D
ĠìĨį ëĪĪìį¹
ĠD I
Ġì§Ħ ì§Ģ
Ġsever ity
Ġìŀ¥ ìĤ¬
Ġë§Į ì§Ģ
h as
ĠëĵŃ ëĭĪëĭ¤
ĠìĨį ìĥģ
ë¹ ¡
ĠìĤ´ ìĿ¸
Ġ ê»´
Ġtrans mitted
Ġëĺĳê°Ļ ìĿ´
Ġìľł íķĻ
ĠíĥĢ ê²©
Ġgovern ments
out put
C D
Ġë³¸ ë¬¸
Ġcont est
Ġì¶Ķ ìļ´
Ġíģ´ëŀĺ ìĭĿ
ê¸° ì¡´
Ġres idence
ĠëĮĢ ìĹ¬
Ġê²© ë¦¬
Ġf illing
Ġë² ¼
Ġy esterday
ĠF M
ì¦ Ļ
Ġê°Ĳ íĥĦ
Ġê´´ ë¡Ń
Ġë¡ľ ê³ł
E very
å ĵ
Ġì²¨ ë¶Ģ
ĠëĳĲ ìĤ°
ĠìĦ± ë¹Ħ
ë¬´ ê²Į
Ġì¹ĺ ìľł
iffer ent
ĠíĻ Ģë¡ľ
ëĶ ľ
ĠíĺĪ ìķķ
Ġcluster K
ĠPD F
ĠSystem s
Ġor ange
ĠN P
ĠëĶĶìŀĲ ìĿ´ëĦĪ
ĠëıĦ ìĸ´
Ġëª¨ ë¥¸
Ġhe aling
ëį° ë¯¸
Ġíķľ ë°ĺëıĦ
ëŁ° ì¹ĺ
ĠìļĶ ê¸°
Ġì° Ķ
ĠëĶ ´
ĠìĪĺ ì§ĳ
ĠìĿ¸íķ´ ìĦľ
in ition
Ġìĺ¬ë¦¬ ë¸Į
Ġalleg ations
Ġìłľ ìŀ¬
G B
Ġíļį ëĵĿ
Ġìĭľ ìľĦ
ĠìĿ´ íĥľ
Ġdisput e
Ġê¹Į ë¨¹
Ġë³µ êµ¬
C R
Ġê³µ íĨµ
Ġemerg ing
Ġíĺ¹ìĭľ ëĤĺ
Ġìľł íķ´
Ġìĸ´ë§Ī ìĸ´ë§Ī
Ġë¶Ħ íķ´
Ġíķĺ íķĺ
ĠëĶ± ëĶ±
Ġìĺ¤ ë²Ħ
Ġë§Ī ì³¤
Ġëħ¸ íĻĶ
Ġat tract
ìĬ ĺ
Ġë°ķ ê·¼íĺľ
Ġë³Ģ ìĪĺ
Ġìĭ¬ íĮĲ
Ġìĺģ ê´ĳ
Ġê°ģ ì§Ī
Ġì¡´ ëĤĺ
ìļķ ìŀ¥
ĠëĬĶ êµ¬ëĤĺ
ë§ ĺ
Ġra ising
ĠB B
Ġë¶Ī ëŁī
Ġì²« ëĤł
Ġìĸ¸ ìłłê°Ģ
Ġìķ½ íķľ
ĠìļĶ ìĸĳ
Ġlimit ation
u ations
ac tivity
ĠìłĢ ëłĩ
ĠìĹ° ëĮĢ
Ġë¶Ī ê³łê¸°
ist ence
Ġobj ectives
Ġse lective
ìĨĶ ì§ģ
ìŀĲ ì²´
ĠíĻĶ íıĲ
Ġevery where
v ation
Ġë¨¸ë¦¬ ì¹´ëĿ½
ĠìºĲ ëĤĺëĭ¤
d el
Ġintegr ity
Ġëĭ¹ ë¶Ģ
Ġë§¤ ì£¼
Ġìķ ĵ
ĠíħĮ ëĿ¼ìĬ¤
Ġëĵ¤ìĸ´ ìĻĢ
ëĵľ ëł¤
ĠSome times
ëŀĮ íļĮ
Ġaccur ately
ĠëĦĺ ê¸°
Ġíĳ¸ ë¥¸
Ġë°ľ íļ¨
Ġëĭ¹ ëĩ¨
ĠìĹ° ê´Ģ
ëľ¨ ë¦¬
Ġìĭ± ìĭ±
N C
ê²Į ëĭ¤ê°Ģ
Ġn ations
ĠW T
Ġë§Ī ëĶĶ
Ġë°° ìļ´
ëĭ¨ ì§Ģ
ĠëįĶ ëįĶìļ±
i ology
ë²Ħ ê±°
Ġê¸Ģ ìĶ¨
ĠëĬĺ ìĸ´ëĤľ
ĠíĨµ ìĥģ
Ġì²ł ëıĦ
Ġìļ´ ëªħ
ëĸ ¨
ĠìĨĲ ì§Ī
Ġê°Ģ ëĿ¼
ĠìķĦ íĶĶ
Ġêµ µ
ĠìĨĲ ëª©
Ġìķ °
ĠíıĲ ì§Ģ
Ġal tered
ĠëıĮìķĦ ë³´
Ġconserv ation
Ġíķ´ ìł¸
Ġíŀĺ ëĵľ
Ġë¹Ľ ëĤĺ
Ġì¶© ëĤ¨
Ġë³¼ ê²ĮìļĶ
Ġë§Īì¹´ ë¡±
Ġì¤Ħ ê¸°
å °
Ġinterven tions
ĠëĮĢ íĸī
ĠM RI
íķŃ ê³µ
Ġf lying
Ġunder w
ĠëĤ© ë¶Ģ
Ġë°Ķ ëĭ·
ìĤ° ë¶Ģ
ìĿ´ ëıĦ
ĠëĳĲëł¤ ìĽĢ
êµŃ ë¯¼
Ġcollection s
Ġì¢ħ ë¡ľ
ĠëıĻ ìĽĲ
Ġì½© ëĤĺë¬¼
Ġíķ´ ìĤ°ë¬¼
ĠíĺĦ íĻ©
ĠìĻ¸ ìĭĿ
Ġwe ighted
Ġrecover ed
ì¦ ī
ĠìľłìĤ° ê·ł
anc ial
ç ķ
ĠG aussian
ĠíķĦëĿ¼ íħĮìĬ¤
ë²ł ìĿ´
ëĦĪ ìĬ¤
ĠìķĦ ìĬ¤
ĠëĤ¨ ë¶Ģ
ĠëĤĺìĻĢ ìļĶ
ìĥ ĺ
ĠìĬ¤íĥĢ íĬ¸
Ġë¹Ħ ë¡Ŀ
Ġê°Ķ ìĹĪ
Ġliter ally
Ġë¹Ħì¦Ī ëĭĪìĬ¤
Ġëĭ¬ ëŀĺ
Ġproduc tivity
ĠF ROM
Ġì²¨ ëĭ¨
Ġë¹Ħ ìłĦ
Ġì²Ń ìłķ
Ġdismiss ed
ìĸ´ëĸ» ê²Į
Ġê¸° íķľ
ë¹Ħ ìķĦ
Ġìķł ë§¤
ê³ §
Ġê¸°ëĮĢ ê°Ĳ
Ġê°ľ êµŃ
Ġìłĳ ìĨį
Ġë²Ħ íĭ°
Ġlimit ing
å ¾
O H
Ġê³ł ëıĦ
Ġíı¬ ì¦Ī
ĠëĵľëĿ¼ìĿ´ ë¸Į
ê°Ģ ëģĶ
ĠìĪĺ ìĽĶ
Ġíĥĳ ìĬ¹
Ġë¬´ ì¹¨
Ġìĺ¤ íķ´
Ġìĥĺ íĶĮ
Ġproduc er
ê°Ģ ìĿĦ
Ġrestr iction
Ġìłģ ìĸ´ëıĦ
ìĦ¼ ìĬ¤
¥ Ń
Ġì²ł ê±°
Ġë± ĥ
Ġíķľ ê°ķ
Ġì»¨ìĦ¤ íĮħ
Ġadjust ment
ĠëĨį ìŀ¥
r ange
ê¿ Ģ
C urrent
Ġì¢Į ìļ°
ìĿĺ ìŀĲ
Ġë§Ŀ ìĦ¤
L G
ĠC at
ĠëĭŃ ê°Īë¹Ħ
ĠìĨĮ íĺķ
Ġê¹Ģ íı¬
Ġë³¼ ë¥¨
Ĳ ģ
Ġpl acement
D U
Ġë°Ģ íģ¬
Ġst aining
æ ĺ
Ġë¯¸ìĤ¬ ìĿ¼
Ġë³´ ë¦¬
######## ########
Ġê°Ģ íķ´
ĠìĪĺìĺģ ìŀ¥
ĠëĪĦ ìłģ
Ġêµ¬ ì²Ń
ĠíĨł ëĮĢ
ìĦ¸ ëĮĢ
ë°° ì¶Ķ
é Ļ
Ġfocus es
ĠìĹ¬ ê±´
Ġë¡ľ ë§Ī
ĠíĨµ ìŀ¥
Ġê²° ìĬ¹
ìĸ¼ êµ´
ĠìļĶ ë²ķ
Ġì·¨ ì§Ģ
ëĤ¨ íİ¸
Ġíĺ¸ ê¸°
Ġìŀĩ ëª¸
Ġíİ Ħ
ĠíĮ ½
ĠìĽĲ ìŀĲ
Ġëĥł ëĥł
Ġsugges tions
ìķ Ĭ
ĠëĳĲ êº¼
Ġprogress ive
Ġíķĺ ìĪĺ
E CT
ĠìĹ´ ì°¨
Ġê±° ìłĪ
Ġìŀ¬ ë¬´
Ġê³Ħ ìĭ¤
Ġë²Į ìĿ´
Ġp ending
ĠìĿĮ ì£¼
Ġfin ance
Ġìĺģ ìŀħ
Ġìłķ ë°Ģ
Ġì´Ī ê³¼
Ġtreat ing
Ġëª°ëĿ¼ ìĦľ
z ation
Ġì»¤ ëĭ¤ëŀĢ
Ġê±° íĬ¸
Ġdefinition s
ĠëĳĲ ê»ĺ
ĠêµŃ ìŀ¥
Ġë³´ ì¡´
Ġíİ¼ ì¹ĺ
Ġex ceptions
ĠëĮĢ ê°Ģ
ëĨ ¨
Ġë§Ī ìĿ¸
ĠëķĮ ë¦¬
ĠìĤ¬ìĭ¤ ìĥģ
Ġtime out
ĠëĤĺìĺ ´
Ġê³ł ëĬĶ
ĠíĨ¡ íĨ¡
F R
Ġìľł ê°Ģ
Ġdefin ing
Ġëĭ´ ë°±
ĠíĹĪ ë¸Į
Ġp overty
ëĤ´ ë¶Ģ
D M
Ġë²łìĿ´ ë¹Ħ
ĠëĤĺ ê°Ħ
ĠìĿ´ë¤Ħ ì§Ģ
Ġì¹ľ ìłķ
Ġproceed ing
ĠìħĢ ì¹´
Ġassoci ations
ĠMin istry
Ġì§ķ ìĹŃ
ĠíķĻ ìłĲ
Ġencoun ter
ĠíĬ¸ ëŁ¬ë¸Ķ
Ġê³Ħ ìłķ
Ġderiv atives
Ġì¥¬ ìĸ¼
íħ Ģ
Ġê³Ħ ê³¡
Ġprotocol s
Ġíķ´ ìłľ
Ġë¡ľ ìħĺ
Ġìķ¼ ëĭ¹
Ġìļ´ìłĦ ìŀĲ
ëłī íĬ¸
Ġë°° ìļ¸
Ġì¶ľ ê³ł
Ġìĸĳ ìª½
ester ol
ĠìĤ¬ ë¦¬
ĠP K
ĠìĺĪ ë»¤
ĠìĿ´ìĸ´ ì§Ī
Ġë¯¸ ì³¤
ĠíĻĶ ìĦ±
Ġì²¨ ê°Ģ
Ġresp iratory
ëĦ £
Ġê·¸ëŁ¬ ë¯Ģë¡ľ
S earch
m etric
ĠêµŃíļĮ ìĿĺìĽĲ
Ġëĭ¹ ëĭ¹
Ġê¹Į ì§Ħ
ĠìĽ¨ ìĿ´íĮħ
Ġë°ĺ ìĦ±
ĠëĤĺ ìķĦ
ĠìĿ´ íĸī
Ġdocument ed
Ġìŀ¬ ì§Ī
Ġìĸ´ ì§Ģ
Ġë³ĳ íĸī
ëĿ¼ ìĿ´íĬ¸
Ġê³µ ë°©
Ġë²ł ë¦¬
ëł ĺ
ĠìĿĺë£Į ì§Ħ
ĠìĹ¬ íĺ¸
Ġexcess ive
P H
Ġíķ© ë³ĳ
ĠíĮ į
ëĿ¼ ì§Ģ
end ers
Ġì¹´ ìļ´
Ġanaly tical
Ġefficient ly
ĠìķĦì¹´ ëį°ë¯¸
ĠìĤ¬ë¬´ ìĨĮ
ĠìĻĢ ìķ¼
Ġíħ Ģ
Ġass istant
ĠìĽĲëĤ´ ëĮĢíĳľ
ĠìĦł ì§Ħ
ĠìĿĢ íĺľ
ìĺ¤ ë¥¸
ĠìĹī ëį©ìĿ´
ĠV R
Ġë¹Į ëĿ¼
ìķ½ ê°Ħ
Ġë°Ķ ë¹ł
ĠíĴĪ ëª©
ĠR C
Ġappoint ment
ìĬ¤ ì½Ķ
ĠìĿĺ íķĺ
Ġì§Ħ íķľ
Ġì§ĳ ê³Ħ
à ª
ĠëıĦ ìļ°
ill ance
Ġë°ķ ëŀĮíļĮ
Ġstrict ly
íĻ Ī
in put
Ġë¦¬ íķĦ
Ġë§ī ê±¸ë¦¬
ê¸° ë¶Ħ
Ġë³´ ëĿ¼
ë¶Ħ ê°Ħ
ìłĦ íĻĶ
ë¹ ¼
Ġìĭ¤ ìĬµ
æ Ń
ĠëĮĢ ìļĶ
Ġì§Ģ ìĹ°
Ġìĭł ì¶ķ
Ġtarget ing
Ġêµ¬ íĺĦ
Ġì£ µ
Ġìķ½ ë¬¼
Ġcorrel ations
ĠíĥĢ ìļ´
ĠìĺĪ ë°°
Ġexpress ing
ĠìĹĲ ëĭ¤
Ġpetition er
I O
Ġê·¸ëłĩ ì§Ģë§Į
ĠM other
Ġexclus ively
Ġdiscl osure
Ġì§Ģ ìļ°
Ġcomplex es
æ ī
ìķ ¤
Ġì§ľ ìŀ¥
ĠíĬ¸ ìľĦ
Ġë¹Ħ ìĦľ
ê²¨ ìĦľ
Ġë¬¼ ê³łê¸°
Ġê¸ī ê²©
Ġê°ľ íİ¸
Ġentertain ment
ĠíĤ ¨
ĠPro position
Ġì½Ķ ì¹ĺ
Ġì¶© ì¡±
Ġê°ķ ëıĦ
Ġíķĺ ëĵľ
Ġìĸ´ì©Į ë©´
ì¼Ģ ìĿ´ìħĺ
ı ¾
ĠìĥĿ ë¬¼
Ġhistor ic
Ġìľł ìłĢ
Ġemerg ed
Ġìį ©
Ġê²½ ë¡ľ
Ġë¹Ħ ë¹Ħ
Ġevery day
Ġì§ģìŀ¥ ìĿ¸
ĠìĿ¸ ë¥ĺ
Ġìŀ¬ ë°°
ë¦Ń ìĬ¤
Ġd ictionary
Ġì²ľ ìŀ¥
Ġíģ´ëłĮ ì§ķ
B E
Ġë¦¬ íĶĦ
Ġappro x
Ġpro tes
íĶ¼ ìķĦ
Ġm ature
ê³ł ìĤ¬
Ġë¸Į ëłĪìĿ´íģ¬
all ing
Ġíķ© ìĦ±
ìŀħ êµ¬
ê·¸ ëłĪìĿ´ëĵľ
Ġíĸ¥ íĸĪ
ĠìĬ¤íĦ° ëĶĶ
é ĥ
íķ¨ ê»ĺ
å ·
Ġthem es
ĠF estival
ĠìĨĮ ìĽĲ
Ġìĥģ íģ¼
ĠìĹ¬ ìŃ
Ġint est
ĠëĤĺíĥĢ ëĤł
Ġë¹Ħ íķĺ
ĠH A
ì´Ŀ ë¦¬
Ġattach ment
il ation
Ġëĭ¨ ëĭ¤
ĠNo thing
Ġì§Ħ ì£¼
L P
Ġì§ĢìĽĲ ê¸Ī
W indow
Ġìŀ¥ ìĸ´
Ġinf lation
tition er
Ġìŀ¬ ë°ľ
ë§¤ ìŀ¥
ĠìĿ´ìļ© ìŀĲ
ĠëıĻ íĻĶ
Ġë°° ëĭ¹
A ction
Ġìŀ ¦
ĠìĿ´ ì¤ĳ
Ġdifferent ly
ĠëĵľëŁ¬ ëĤĺ
Ġì£¼ ì²´
Ġê¼¬ ë¦¬
ĠëıĮìķĦ ìĺ¨
Ġwitness es
ĠìłĦ íĽĦ
ĠAddition al
ê²ł ëĭ¤
Ġdeterm in
ĠìĿĺ ìĻ¸
Ġë¶Ģ ì¶Ķ
Ġëª° ëł¤
Ġìľ¼ ë¦¬
Ġê°Ģ ìĦ±
ê°Ħ ëĭ¨
Ġìµľ ìķł
Ġìĭł ìĦ¸ê³Ħ
om etric
Ġìķķ ëł¥
ĠSpecific ally
ĠìĻĢ ìĿ´
ĠíĹ ĺ
Ġì²ľ ìĤ¬
ĠìĨĮ ìĨĮ
Ġ ì³¤
Ġìĭ¤ ìļ©
Ġëĭ¤ ìĬ¤
Ġìłľ ìŀĲ
ĠìĦ¸ ì°¨
ĠíĽĦ ìľł
Ġìĸ´ëĶ ĺ
Ġì§ĳ íļĮ
Ġíĳľ ì§Ģ
ëĶ ª
Ġì¶ĺ ì²ľ
ĠëįĶ ìļ´
ĠíĻĶ ë¶Ħ
ìĭľ íĹĺ
Ġë¶Ħ ë¹Ħ
ê¾¸ ë¯¸
ëŀĳ ìĿ´
Ġìļ© ìĸ´
ê±° ëŀĺ
íĮ¡ ìĿ´
ĠíķĻ ë¶Ģëª¨
Ġë©Ķ ìĿ¼
ìĸ ĺ
Ġcompet ing
ëĿ¼ ë¯¸
Ġê¾¸ ë¯¸
Ġobtain ing
Ġì°½ ê³ł
à ²
ĠìĦł ìŀĦ
Ġë°Ģ ëł¤
Ġindepend ence
Ġê³µëıĻ ì²´
def ault
Ġê°Ģë¥´ ì³Ĳ
ĠB A
Ġ ëŁ¼
M T
Ġë´ ħ
ĠìĪĺ ìļĶìĿ¼
Ġgraph s
ìķ ĺ
Ġìł¤ ë¦¬
Ġë¹¨ ëŀĺ
Ġì§Ģ ë¶Ī
ĠìŀĲ ì¡´
Ġê³Ħ ì¸µ
Ġwonder ing
ĠT F
Ġë§ī íŀĪ
Ġê±¸ìĸ´ ìĦľ
Ġrepresent ations
Ġëª¨ ìĭľ
ĠìĦľìļ¸ ëĮĢ
Ġê³ł ë¬´
Ġì§ģ ë¬´
ĠìĪĺ ìĭŃ
ëĭ¹ ìĭł
ĠìĦ¸ ê·ł
íĮĮ ìĦľ
Ġcont ends
Ġìĭ± íģ¬
Ġì¤ĳ ê°ľ
Ġëŀĺ ìļĶ
ìĸ´ ë¦°
ìĸ´ ì¡Į
ĠìĪĺ ê¸ī
Ġìľ¼ëĭĪ ê¹ĮìļĶ
Ġì¶Ķì¶ľ ë¬¼
Ġê·¸ëŁ¼ ìĹĲëıĦ
ĠN F
Ġíĥģ ìĽĶ
Ġìĸ´ëĬĲ ìĥĪ
ëıĦ ìļ°
ë ¼Ī
Ġë§¤ ì¹ĺ
Ġrender ed
Ġêµ¬ ë¦¬
ĠìĦ± ëĭ¹
Ġê¸° ìłĢ
Ġë®¤ì§Ģ ì»¬
ĠíĹĮ ë²ķ
Ġì£¼ ì£¼
ìĻ¸ ê³¼
Ġì§ĢëıĦ ìŀĲ
ìĨĶì§ģ íŀĪ
Ġëĸ Ħ
F unction
Ġë³¸ ìłĲ
Ġrecons truction
less ly
Ġì¡´ ì¤ĳ
Ġìº ĺ
Ġs orted
Ġëı¼ì§Ģ ê³łê¸°
h is
ĠíıŃ íĴį
íĺ¸ íħĶ
ĠìĪĺ ìľł
ĠìłĢ íķŃ
Ġë¯¸ìĪł ê´Ģ
ession al
ĠìĦ¸ ì²Ļ
Ġover se
Ġinvestig ations
Ġëª© ìĪ¨
Ġcontinu ously
ĠëĨį êµ¬
Ġìĺ¤ ë¸Į
Ġìłĳ íķĺ
S QL
ĠíĻĶ ìłľ
Ġreach es
ĠíĥĦ íĥĦ
Ġê°Ģê¹Į ìĽĮ
ĠëıĻ íķ´
Ġëħ¹ ì°¨
Return s
Ġprevent ing
Ġresid ential
Ġperiod ic
ìłľ ìĿ¼
ìĭŃ ëĭĪëĭ¤
Ġext ending
ĠíĮĮíĬ¸ ëĦĪ
Ġê°Ģ ìłĦ
ĠìĦł ëªħ
Ġë²Ħ ë¦¼
log ger
l ast
ĠìĦł ìĤ¬
Ġìĭł íķľ
ĠëĮĢ ìķĪ
ĠëĶĶìĬ¤ íĶĮëłĪìĿ´
ê±° ì§Ģ
Ġë°ĶëĢ Ĳ
ĠìĦľ ìĦľ
ĠìĹħ ê·¸ëłĪìĿ´ëĵľ
å ±
ç Ľ
Ġê°Ĳ ëŁī
Ġì¶© ëıĮ
al ities
Ġblock ed
ìŀĲ ëıĻ
ĠìŀĲ ìłľ
Ġbreak s
Ġë°© ìļ¸
ĠìµľìĨĮ íķľ
ĠìĮĵ ìĹ¬
Ġì¡° íļĮ
ĠìħĶ ìļĶ
Ġíķľ ì°½
ëĤ ©ëĭĪëĭ¤
Ġê³ł ìľĦ
Ġë¬´ìĦľ ìļ´
ê¾ ¼
Ġíķ´ ëĿ¼
& &
Ġprepar ing
Ġìĭł ìķĻ
ĠëŁ° ëįĺ
íħ į
ĠëĨį íĺĳ
Ġ ìĿį
ĠëĤł ìķĦ
Ġìºł íİĺìĿ¸
į ½
N N
ĠìĿ¸ ì²´
Ġdistin ction
Ġê°Ħ ê²©
Ġë¯¼ ìĽĲ
ĠìĿ¼ë¶Ģ ëŁ¬
Ġê´Ģ ê°Ŀ
Ġíķľ ìĪ¨
Ġìĭł ìĦ¤
íĦ ±
ìŀ¬ ë£Į
Ġê³ł ìĪĺ
Ġrepeated ly
ĠìłĦìĭľ íļĮ
ĠìĨĮ ëª¨
Ġìľł ëıĻ
ë© ĭ
Ġìŀł ìŀ¬
ĠN ature
Ġìľł ìĹ°
ĠíĽ ¼
ĠR ather
ĠëĴ Ģ
Ġë¶Ģ ëĶª
ĠíĸĪ ìľ¼ëĭĪ
ê³ł ë£¨
R T
í īģ
Ġì£¼ ëł¥
ĠìĿ´ ìĪĺ
Ġpolynom ial
Ġì¹´ ëĿ¼
Ġìŀł ìĭ¤
Ġlog ger
Ġíģ¬ ë£¨
ĠìĿ´ ëĵĿ
ĠíĶĮëĿ¼ ìĽĮ
Ġêµ¬ ê°ķ
ëĨ Ĵ
Ġpart ly
Ġì´Ŀ ìĦł
Ġêµ¬ ìļ©
Ġex isted
Ġë¬¼ ë¥ĺ
ëĭĲ ëĿ¼
ë§Į ìķ½
Ġëª© ìļĶìĿ¼
ĠëĤ ©ëĭĪëĭ¤
ì§Ģ ë°©
ĠìĦľ êµ¬
Ġinter fer
Ġì§Ħ íĻĶ
Ġreserv ed
ĠìĬ¤ íİĻ
Ġinters ection
ĠìĬ¬ ìĬ¬
ëŁ¬ ìĽĢ
Ġë¬´ ìĥģ
Ġìĸĳ ìĤ°
Ġestablish ing
Ġtu ple
Ġìľ Į
Ġìĺ¥ ìĪĺìĪĺ
Ġì°° ì¹µ
Ġì²ľ êµŃ
Ġëª¨ ìĿ´
Ġaccept ance
ĠìłĦ ìĭł
ê±¸ ìĿĮ
Ġì° ¹
ê» į
ĠìłĲ ìľł
ìĤ¬ ìĿ´
â ľ
Ġê°ľ ë§ī
Ġê°Ħ ìłĪ
Ġlist ing
rom agnetic
Ġë¸Ķ ë¡ľ
Ġë¬¼ ëŁ¬
Ġê·¸ ë¦´
ĠìĤ¬ ìĽĲ
Ġì§Ħ íķĺ
ĠF E
Ġë§Ĳ ë¦¬
ë½ Ģ
Ġìĸ´ëł¤ ìĽł
Ġìĸ´ ë¨¸ëĭĺ
Ġì« Į
ĠH aving
Ġíģ´ë¦¬ ëĭī
ĠìĪľ ëĮĢ
Ġíĺ¸ ë°ķ
Ġë¬´ ê²ģ
ĠëĤł ê°ľ
Ġê±° ëĳĲ
ìĿ¼ ë³´
ë¹ Ĺ
Ġìĭľ ê·¸
Ġë²Ī ì§Ģ
Ġw elfare
Ġinter active
Ġì»¤ë®¤ëĭĪ íĭ°
Ġë°ĳ ë°ĺì°¬
Ġë°ĺ ë°ľ
Ġê¸° ìģĺ
Ġê°Ĳ ìĭ¸
ĠEngine ering
ìĸ´ ì§Ī
Ġp ounds
Ġìĥģ ê¸°
êµ¬ ìĦĿ
Ġë¹Ħ ìŀĲ
C P
ĠìķĦ ê¹Ŀ
G T
ack ing
ĠëĨĢ ëŁ¬
ath ers
Ġan terior
Ġì²´ ìĿ¸
Ġíİ¸ íķ´
Ġë°ĶëŀĮ ì§ģ
íĶĦ ëłĪ
ĠíĹĪ ëĿ½
Ġì¡° ë§Įê°Ħ
êµ¬ ìĿ´
Ġë²¤ ì²ĺ
Ġìŀħ ì¦Ŀ
Ġë¬¸ ìĦľ
Ġpublic ly
Ġres ident
Ġë§Įì¡± ëıĦ
Ġíĸ¥ íķľ
Ġê°¤ ëŁ¬ë¦¬
ĠìķĪ ìĸĳ
ìģ ł
ëĥ ħ
Ġimp ression
Ġrevers ed
Ġextra ord
ĠíĺĦ ê´Ģ
ĠíĶĮ ëŀľ
Ġimmun ity
ëŁ ¿
Ġíıī íĥĿ
ĠëĽ° ìĸ´ëĤĺ
resp onse
Ġë¶Ģ íļĮìŀ¥
ĠêµŃ ë°¥
Ġê¹Ģ ìĺģ
ì¶ľ ì²ĺ
ìĪĺ ìľ¡
Ġindic ators
Ġìĥģ ìĹħ
Ġbehavior al
Ġë§¤ ì§ģ
ĠU T
ë³ĳ ìĽĲ
Ġìĸµ ìļ¸
Ġì§Ģ ëĮĢ
ĠìĿ´ ë§ĪíĬ¸
H igh
ĠíĹ¤ íĹ¤
Ġc iting
Ġdeploy ment
Ġì²Ń ê²°
Ġcorpor ation
ĠìĽĶ ê¸ī
Ġë°ľ ëª©
Ġë¨¸ ìĭł
Ġì´Ŀ íļĮ
Ġìļķ êµ¬
ĠëıĻ ë¶Ģ
ĠìĻ ĵ
ë§¥ ì£¼
Ġìĺ¤íĶĦ ëĿ¼ìĿ¸
ĠíĬ¹ë³Ħ íŀĪ
Ġì»¤ íĬ¼
Ġd ental
Ġê¹Ģ íĥľ
Ġê³µ ëŀµ
Ġlight ing
ĠìĭĿ êµ¬
ĠW S
Ġì§Ģ ìŀĲì²´
ëĤ¨ ëıĦ
Ġconf usion
ìł ĵ
æ ³
Ġê±¸ ë¦´
Ġê¸° ëıħ
Ġë°ĺ ì£½
Ġê¹Į ëĭ¤
Ġimp ressive
Ġshort ly
ì§ģ ìŀĲ
ĠíļŁ ì§ĳ
ĠI B
ĠëĤ¨ ê²¼
Ġëĭ¨ ìĿ¼
ĠëĶ°ëĿ¼ ê°Ģ
P M
ĠíĿĶëĵ¤ ë¦¬
Ġë¯¸ ìĹŃ
Ġì¹´ì¹´ìĺ¤ íĨ¡
Ġëĭ¤ìĿ´ ìķĦ
ĠìĦ¸ ë¯¸
ĠíĬ¸ëłĮ ëĵľ
ĠìĿ´ìľł ìĭĿ
Ġblock ing
ĠM I
ĠìłĪ ê°Ĳ
ĠìĹ° ë£Į
U RL
Ġê²½ ë¹Ħ
Ġattempt ing
íĪ °
ĠìĿĺ ì¡´
ĠíħĲ íĬ¸
Ġimplic it
Ġë¬´ ê±°ìļ´
Ġì°¨ ë¶Ħ
ëĮĢ ê¸°
Ġë§¤ì¶ľ ìķ¡
Ġsystem ic
Ġìķ½ íķ´
ĠìĦ¼ ìĦľ
ê±° ìĿĺ
ĠëĶ° ì§Ģ
Ġìķ¼ ê²½
» ìŀİ
ĠíĻĶ ìļĶìĿ¼
Ġemail s
ĠD D
Ġpropor tional
ĠL anguage
ĠëįĶìļ± ëįĶ
Ġimmigr ation
ĠëĪĪ ë¹Ľ
ëĮĢ ìłĦ
Ġì§Ħ ë¡ľ
Ġaggress ive
ĠìŀĲìĭł ê°Ĳ
íĤ ´
Ġìĺ¤ ë¥ĺ
Ġì§Ģ ìĽĮ
Ġê¹Ģ íķ´
Ġì°¨ ëĿ¼ë¦¬
Ġëª¨ ê³µ
eng ers
ĠìĤ¬ ë¡ľ
Ġê½ ģ
Ġê²½ì°° ìĦľ
Ġi OS
Ġì¤ĳ ëĮĢ
Ġíķľ ì¸µ
ĠëĵľëŁ¬ ëĤ´
ĠìĽĲ ì£¼
Ġint ensive
ĠC J
Ġìļ© ìĦľ
ì¡° ë¦¬
Ġconfig urations
Ġë³Ģ ê¸°
ĠìĬ¤ íĳ¼
ĠC SS
ĠëįĶ ìľĦ
ê²° íĺ¼
Ġì§Ģ ë¯¼
Ġíĥĳ ìŀ¬
ĠìĿ´ ìłķ
Ġthreat s
Ġë¯¸ íĦ°
Ġê²½ê¸° ìŀ¥
K T
ĠíĶ¼ ì§Ģ
ĠìĨĮ ìĪĺ
Ġst ating
ìħĶ ì¸ł
Ġëªĩ ëªĩ
íĻĶ ë¬¼
ĠìķĪíĥĢ ê¹Į
Ġìļ° ìĤ°
ĠìĿ¼ìĸ´ ëĤł
ĠìļĶ ê°Ģ
Ġaccompl ished
ëĤ Į
ë¡ľ ìĿ´ëĵľ
íį¼ ìĬ¤
ĠíĽĦìľł ì¦Ŀ
Ġab ilities
Ġspecific ity
ĠF uture
Ġë¹Į ë¦¬
Ġperform ances
C U
Ġë¯¸ ëģĦ
Ġ ëŀĮ
let ter
ĠìĤ¬ ë¬¼
ĠêµĲ ìŀ¬
Ġdescri pt
ĠëĬ Ļ
Ġìĸ´ëĳĲ ìļ´
Ġíķĺ ëĭ¨
Ġê°ľ íĨµ
ĠìĪĻ ë°ķ
ìĺ ¹
ë²Ī ìĹĲ
ĠìĶ Į
Ġê¶Į íķľ
ĠìĿ´ ë§Ī
Ġë°Ķê¿ Ģ
Ġì¤Ģ ëĭ¤ëĬĶ
ĠìŀĲ ìĤ´
ĠíĨµ ë³´
Ġconf ident
ĠêµŃ ìĸ´
ĠíĮ¨ ë°°
Ġëĭ¥ íĦ°
ìĬ¤ íĭ±
Ġìĥģ ìĭ¤
ĠìĤ° íĸī
ìŀ ĸ
ĠìķĮ ì°¨
ëĪĦ êµ¬
Ġìĭľ ëģĦ
N D
ĠL V
Ġgot ten
ĠíĮ ¥
Ġê³§ ë°Ķë¡ľ
Ġreason ing
Ġbre ach
Ġë¹Ħë¹Ķ ë°¥
ĠìķĦëĭĮ ì§Ģ
Ġparticip ating
ĠìĿĳ ê¸ī
ìŀĲ ìĦ¸
Ġëĵľë¦´ ê»ĺìļĶ
h ave
Ġbelong s
Ġì§Ģ íľĺ
Ġcross ing
Ġë¹Ħ ìĬ¤
Ġì¡° ìķĦ
ë©Ķ ìĿ´ìħĺ
ëĤĺ ë¦Ħ
ĠìĦł ëĳĲ
Ġëľ °
Ġêµ¬ ë¯¸
Ġê¸° ìŀ¬
Ġê°Ŀ ê´Ģ
ĠìķĮ ë§ŀ
Ġre active
Ġgener ations
ĠD VD
Ġê°ľ ìŀħ
ì¦Ŀ ê¶Į
ĠëĤĺíĥĢ ëĤľ
Ġê¿Ī ê¾¸
Ġì§Ħ ìĪł
Ġíŀ Ļ
Ġêµ¬ ë¹Ħ
ĠìķĦ ìļ©
ìĨ ¥
Ġpress ed
ë¸Į ëĿ¼
Ġì²´ìľ¡ ê´Ģ
Ġê°ĳ ìŀĳ
ĠëĤ® ì¶Ķ
ëłĪ ì¹Ń
aw ait
Ġë°° ìĽł
ĠU P
Ġconfig ure
ĠëĨĵ ìĹ¬
ĠìĹ° ê·¹
Ġëĵľ ìĭ¤
íķ´ ìķ¼
Ġìłķ ì°©
ìĺ¬ ë¦¬
ĠIsrael i
ĠìĿ¼ ìłľ
Ġíķĺë£¨ íķĺë£¨
N G
Ġìĭł ì¢ħ
Ġì°¨ ë¦¬
ĠëıĦ ìĭ¬
Ġencoun tered
Ġëİ ħ
ĠN T
Ġê°ľ ìĦ¤
Ġëĭ¨ ê³¨
Ġstimul us
Ġspecific ation
Ġcharg ing
Ġíķ´ìĪĺ ìļķìŀ¥
íĭ Ī
Ġkey board
Ġindic ation
Ġëĭ´ëĭ¹ ìŀĲ
Ġorder ing
Ġinflu ences
Ġë°Ŀ íŀĮ
Ġfunction ing
ĠìĨĲ íĨ±
Ġì¹ľ íķ´
ĠíĮĮ ìĿ¸
Ġê²ł ëĭ¤
ĠT A
Ġê·¹ ìŀ¥
Ġë¸ĮëĿ¼ ì§Ī
Ġì¡° ì¹´
Ġë¡ľ ì¦Ī
ĠìĿ´ ë§Į
ĠìķĪ ìĤ°
Y P
Ġstraight forward
Ġë§Į ë§Į
ìŀĳ ìĹħ
ĠV I
Ġíĥľ ìĸ´ëĤľ
Ġì°© ê°ģ
ĠA CC
ëĭ¬ ë¦¬
ëĭ´ íļĮ
Ġì¤ĳ êµ¬
ëĬ Ħ
ĠëĮĢìĥģ ìŀĲ
ĠD T
ìĸ´ ëĤ´
Ġdepend encies
Ġcharacter ization
ĠA U
Ġë°ķ ìĪĺ
Ġëª «
ĠíĻĶ ë¬¼
ĠëĤ´ ìĦ¸
ig ence
Ġë°Ģ ë¦¬
Ġ ìİĦ
ĠìĤ¬ëĿ¼ ì¡Į
Ġëģ Ķ
Ġê³ģ ëĵ¤
Ġê³µ íķĻ
Ġê°Ģë¥´ ì¹ĺ
Ġëĭ¬ íķĺ
Ġì¶ľ ë²Ķ
Ġíı¬ ì¼ĵ
th rough
Ġar ising
ëĿ¼ ëĬĶ
Ġì¤ĳ ë°ĺ
ĠìķĦë¦Ħëĭ¤ ìĽĢ
Ġìłķ ëĭµ
G V
ĠG A
ĠìĦľ ë¯¼
Ġë°° ì¶Ķ
Ġbirth day
Ġì°¸ ì¡°
ê²Į ìŀĦ
ĠPlaintiff s
ëłĪ ëĵľ
ëŁ¬ ì§Ħ
Ġext ensions
Ġìĭľ ìĤ¬
Ġìķ½ íķĺ
Ġì°¸ ìľ¼ë¡ľ
ĠìĦľ ì´Ī
Ġìµľ ìķħ
Ġíŀĺ ëĤ´
ĠD J
Ġë§Ľ ëĤľ
Ġres ist
ĠìļĶ ê±°
ĠíĬ¸ìľĦ íĦ°
ìĨĮ ëħĦ
Ġìŀĳ ìłĦ
ĠìĮĵ ìĿ´
Ġìº ¬
Ġëĭ¨ ìĨį
ĠëįĶ ìĽĮ
Ġretain ed
ĠëĮĢíķĻ ìĽĲ
Ġíķ´ ìŀ¥
Ġëģĵ ìĿ´
íĬ¸ ë¡¤
Ġë°° ìĥģ
ì¼Ģ ìĿ´íģ¬
ìľł ëŁ½
Ġê°Ģ ëĤľ
Ġëĵ¤ ëł¸
ëĦ ĵ
Ġê¹ į
h ad
ë¥ ľ
ì°¨ ëŁī
Ġë§¡ ê²¨
Ġìļ© ìĤ°
ĠíħĮ ëŁ¬
Ġëª° ëŀĺ
ĠíĴĢ ìĿ´
ĠíĮ ľ
w ill
íĶĦ ë¡ľ
ĠìĽĲ ê³ł
ĠíķľêµŃ ìĸ´
Ġlegisl ative
ĠìŀĦ ëªħ
ë°ķ ìĿ´
Ġpublic ations
Ġìĭľ ë²Ķ
Ġê°ģ ëıĦ
ĠìĿ´ ëĿ¼ëıĦ
Ġsurround ed
Ġë³µ ìĿĮ
ç ´
Ġlength s
ĠëıĦ ìłĢíŀĪ
ìĪŃ ìķĦ
Ġìļ° ëĵľ
Ġunderw ent
Ġëĵ¤ìĸ´ ìĻĢìĦľ
ĠìŀĦ ìĽĲ
ĠìłĦíķ´ ì¡Į
Ġëħ¸ íĽĦ
Ġìĸ´ ì¨Įëĵł
Ġë§Į ê¸°
ëĳĺ ëŁ¬
Ġê°Ī ê¹Į
Ġê°Ģìł¸ ìĺ¤
Ġìłķ ìĦľ
Ġê·¸ ë¦½
Ġê±°ëŀĺ ìĨĮ
Ġtravel ing
Ġë§Ī ëķħ
ĠíĥĦ ìĨĮ
Ġlong itudinal
ëĬĲ ëĭĺ
Ġìĥģ íĻĺ
ĠìķĦ íĨł
ìķĦ ìķĦ
ëĳĲ ê·¼
ament e
Ġconven tion
Ġconf used
Ġë¸Į ë¡ľ
Ġìŀ¬ ê°ľ
Ġë´ī ì§Ģ
Ġê° ļ
Ġê°Ĳ ìĭľ
ĠìĬ¬ íĶĶ
Ġì§Ģ ëĭĮ
ĠìĿ´ ëªħ
Ġìŀ¡ íŀĪ
Ġë°ĺ ê°ĳ
Ġì¹ĺ ìļ°
Ġconstruct or
ĠìĥĿ ìĥĿ
Ġëĭ¤ëĬĶ ëį°
ĠPH P
Ġflo ating
ê³ °
ĠTr aining
Ġìĺ¤ ë¡ľ
Ġê³µ ìķ½
Ġë²ł ëŀĢëĭ¤
Ġê³µ ìłľ
ĠìĬ¤ì¹´ ìĿ´
Ġë©Ķëª¨ ë¦¬
ë¦¬ íķĢ
Ġë°¸ ëŁ°ìĬ¤
Ġlocal ization
Ġë±ħ íģ¬
Ġtransition s
ĠëĿ¼ ëĶĶìĺ¤
Ġê¸° ë»Ĳ
Ġë¨¹ ê±°ë¦¬
Ġoffic ially
ĠìĿ´ ìĬ¹
Ġëĭ¨ ìŀ¥
Ġê°± ìĭł
ĠìĪĺ ìĨĮ
Ġê²Į ìŀ¥
Ġdocument class
Ġìĥģê´Ģ ìĹĨ
Ġimplement ing
Ġìħ °
Ġìĸ´ëĸ ¡
Ġê°ĢìĬ´ ìĤ´
ĠëįĶ ëŁ¬
ĠìĹ¬ ìĿ¸
Ġì°½ ìĿĺ
ĠN ations
Ġì·¨ ìŀĦ
Ġìłģ ìŀĲ
Ġoccasion ally
Ġa wards
Ġëķ ľ
ĠìĥģìĬ¹ ìĦ¸
Ġìĸ Į
ĠM ember
Ġdevelop ments
Ġnot ing
ĠëĶ° ìł¸
Ġë²Į ê¸Ī
ëĭ¤ ëĭ¥
ĠìĬ¤íģ¬ ë¦°
ĠìĿĺ ìĥģ
Ġë¶Ģ íĻľ
Ġê¸° ìĸ´
Ġì¶© ë¶ģ
Ġê³ł ìľł
Ġincre ment
Ġdisapp ear
Ġìľł ìĿĺ
ĠìĦ¤ ëĵĿ
Ġevalu ating
Ġpresent ing
ĠìĿ´ë£¨ ìĸ´ìł¸
Ġìŀ¬ ê³ł
Ġì¶ľ ìĦĿ
ĠëĨį ëıĦ
Ġë´Ĳìķ¼ ì§Ģ
ì½ ķ
Ġì¶© ì²Ń
Ġë©ĺ íĨł
Ġì»¤ ë¦¬
Ġê¸° íĽĦ
Ġìłķ ìŀĳ
ĠEx ecutive
ëĭ¤íĸī íŀĪ
Ġëª°ëĿ¼ ëıĦ
Ġë²ķ ìłķ
t ender
Ġì¹ľ íķľ
IS A
ë¥ µ
Ġìĭł ì°¨
Ġë³Ģ íĺķ
ìĪĺ ìĽĲ
ìĤ° ëıĻ
Ġtermin ation
Ġexclud e
Ġpower ed
Ġì§ ļ
ĠL T
ë°© ìļ¸
Ġin ference
Ġëª¸ ë¬´ê²Į
ĠT D
ĠMin nesota
ĠìĻ¸ ì¹ĺ
ĠíĮĮ ëıĦ
Ġë¹Ħ ë¦¬
ì¡° íķ©
ĠìĪľ ìĿ´
ì»¤ ë¦¬
íĮ ½
Ġë¶Ģ ëĭ¹
L D
ìĺ¤ ë¦¬
F actory
Ġê°Ĳ ëĭ¹
Ġëĭ¨ ì¶ķ
ĠìĦĿ ìľł
è Ģ
Ġauthentic ation
ĠìķĦ íĮł
ë¬¸ íĻĶ
ìĸ´ ëĤ¬
ĠìĿ´ ë¯¼
ĠíĺĦ ëªħ
ĠìĿĮìĭĿ ë¬¼
Ġì·¨ ìŀ¬
º «
S K
Ġselect ing
Ġìŀ¬ ëĬ¥
Ġëĭ¹ ë¶Ħê°Ħ
Ġìŀ¬ íĻľ
ĠìłĦ ìĿ´
å ¿
Ġìłģ ë¦½
Ġconsider ations
ìĿ¼ ëŁ¬
Ġë¶Ģ ìĭ¤
Ġì§Ģ íĸ¥
ĠìĹ´ ëł¸
ĠìŀĲ ìķĦ
Ġpass ive
ĠìĤ¬ íĽĦ
Ġpropag ation
Ġë°ķ ì§Ģ
Ġíķ´ ìķĪ
Ġíķ© ë¥ĺ
Ġê¸° ìŀ¥
ĠN ative
Ġiniti ative
ĠíĥĢìĿ´ ë°į
ìŀĶ ì¹ĺ
Ġê³ł ëł¹
======== ==
ĠíķĦ ê¸°
ìłĦ ë¬¸
ĠìĪĺ íĻķ
Ġì¤ĳ ìłĲ
Ġë¶Ħ ìŁģ
Ġìłľ ìłķ
ĠìĤ¬ ìķĪ
Ġìłķ íĴĪ
Ġëı¼ ìķ¼
Ġanalys ed
Ġìĸ´ ëł¸
Ġìĥī ìĨĮ
ĠTrans port
å Į
Ġë²Į ëłĪ
Ġexpand ing
Ġìľł ëıħ
Ġë³´ ê¸ī
ë²ķ ìĽĲ
ĠìŀĲ ìĻ¸ìĦł
ê°Ģ ê²Į
Ġìį ¸
Ġê°ĸ ì¶°
Ġass ays
íĮ į
ë¶ģ ëıĦ
ĠìĹ¬ìĿĺ ëıĦ
ĠìĿ¼ ì¢ħ
ĠëĳĲ ê·¼
Ġadvert is
ĠíħĶëłĪ ì½¤
Ġit eration
Ġcontrib uting
ĠíĺĳìĿĺ íļĮ
ĠëıĻ ê·¸
ĠValue Error
Ġdesign er
Ġíı´ ë¦¬
Ġunivers ities
íĤ ·
ĠìĤ¬ ë²ķ
Ġhyper tension
Ġì§Ģ ë¦¬
ë± ħ
ĠëĤ´ ìĹŃ
ĠíĮĲ ìĤ¬
Ġì½ľëĿ¼ ê²Ĳ
Ġìŀħ êµŃ
ch astic
ĠF F
Ġíľ´ ê²Į
ĠìłĢ ìŀĳ
Ġê°Ķ ëĭ¤
ĠìĤ¬ ëĥ¥
Ġê°ķ ìĦ¸
Ġëª»íķľ ëĭ¤
ĠìĦ¬ ìĦ¸
O B
íı¬ íĦ°
Ġê°Ħ ëĭ´íļĮ
Ġì£¼ ë¨¸ëĭĪ
ê³µ ë¶Ģ
Ġë§Į ìł¸
Ġì¦Ŀ ì§Ħ
ĠB D
ĠìĿĳ ìĭľ
Ġpl acing
ìĻ ł
Ġìĭľ ìķ¼
ĠìĦľ ë©´
Ġcompet e
Ġcross ed
Ġìĺģ ìĽħ
Ġê¸°ëıħ êµĲ
Ġg ambling
Ġìĺ¤íĶ¼ìĬ¤ íħĶ
ëĭī ìĬ¤
ìĳ ¥
Ġê¹ İ
Ġíĺĳ ì¡°
ëĤĺ íĥĢ
ĠT OD
ëĵ Ģ
Ġamong st
ĠF T
Ġëĭ¹ ê¸°
Ġbelong ing
Ġê¸° ë²ķ
Ġs ectors
ĠëĦĺ ê²¨
Ġrespons ive
Ġë¬´ ëłµ
ĠGovern or
ind ex
ĠìıŁ ìķĦ
Ġíķ´ íĶ¼
Ġmicro s
Ġìŀħ ì§Ģ
in ement
ìĦľ ë¡ľ
ĠìĦ± ì·¨
Ļ Ĥ
Ġpreserv ed
Ġcataly st
ĠìĻľëĥĲ íķĺë©´
Ġíķľ ëıĻìķĪ
Ġìĭł ìŀ¥
Ġachie ving
Ġì°© íķĺ
P osition
ĠëĤĻ ì§Ģ
Ġì° ¡
Ġcalibr ation
ĠëĥĦ ë¹Ħ
Ġê°ľìłķ ìķĪ
ĠìĹ¬ ëıĦ
Ġthread s
Ġbroad er
ĠíĽĦ ë°°
Ġre tention
ĠëĮĦ ìĬ¤
ëĵ¤ìĸ´ ê°Ģ
ĠëĶ° ìľĦ
Ġinter f
Ġì´Ī ì²Ń
Ġstimul i
Ġì½Ķ ìĿ¸
ĠìĦ± ëł¹
Ġìĸµ ì§Ģ
ĠAppend ix
ĠëıĻ íĥĦ
ĠN D
ĠêµŃ ìĤ°
ĠìĹŃ ìłĦ
ĠíĹĪ ìľĦ
Ġë¸Į ëŁ°ì¹ĺ
Ġset length
Ġconven ience
Ġpers istent
Ġremember ed
Ġê¸ī ëĵ±
Ġìĭł ìĥĿ
ĠëŀĢ ëĭ¤
Ġì¹ĺ ë§¤
Ġíķ´ ìĥģ
Ġex clusion
ìĻ ¼
ĠìĹ¬ ê²¨
Ġ ë¦Ń
íĨ ¨
ë§Ī ì¹ĺ
Ġf ought
Ġì¹¨ ì²´
ĠIndian a
ìĹ ł
ĠìĹ° ë´ī
ĠìĪĺ íĹĺ
ë¥´ ê¸°
ĠìĦľìĦľ íŀĪ
Ġëº ı
Ġstream s
ë¶Ħ ëªħ
ìµ ¸
ìľ Ļ
Ġëĵ¤ ëŁ¬
Ġconflic ts
Ġëł¤ ëĤĺ
Ġrepresent atives
Ġstream ing
Ġë¬¸ ëĵĿ
Ġìĺ¨ ê°ĸ
Ġëį® ë°¥
Ġìĺģ ìŀ¥
Ġê¾ ¹
Ġëļľ ëł·
ĠìľĦ ìŀ¥
ĠíıŃ íĸī
ëŁ¬ ìł¸
ĠëĥĲ ë©´
ìĥĪ ë¡ľìļ´
Ġê¸ī ì¦Ŀ
Ġê²½ ë§¤
Ġì¦Ŀ ìłķ
Ġìĭ¤ë¦¬ ì½ĺ
Ġìķł ê²¬
Ġimportant ly
ìĸ´ ë¨¹
íķĺ ìĹ¬
Ġë¬´ìĤ¬ íŀĪ
ĠíļĮ ìĪĺ
Ġìĭ± ê¸Ģ
Ġìľł ìĿµ
Ġtim estamp
ì¹ľ ëĭ¤
Ġìĭ¬ ìĿĺ
Ġê¶Į ìŀ¥
ìĿ´ ìĽĥ
Ġaltern atives
ĠìļĶ ëŁ°
ĠìĦ¸íĥģ ê¸°
ë§Į ëĳĲ
ìĬ¤ íĤ¤
ĠìĬ¤íĬ¸ ëłĪì¹Ń
Ġprevent ed
Ġê¸° ìłģ
Ġì±Ħ íĥĿ
ĠW isconsin
Ġê¹Ģ ì¢ħ
Ġclick ing
Ġëª¨ ëĭĿ
Ġinvest ments
ìķł íĶĮ
Ġë°± ë§Į
ĠëĲł ê¹ĮìļĶ
ĠM N
Ġëįĺ ìł¸
· ¯
Ġorgan is
Ġë°° ìłľ
ĠìĬ¤íĶ¼ ì»¤
ì¥ Ĳ
íĥĢ ìĿ´
ĠëĿ¼ êµ¬
Ġì²łìłĢ íŀĪ
Ġsugges tion
ĠíļŁ ìĪĺ
Ġë²Į ìĸ´ì§Ģ
Ġgovern or
ĠíĶ¼ ìĬ¤
Ġìĥģê´Ģ ìĹĨìĿ´
Ġapproach ed
Ġaddress ing
Ġê³¨ ê³łë£¨
s m
Ġê¹ ĥ
ìĬ¤ ì¹´
ĠëıĦ ëĭ¬
Ġëħ¹ ìĥī
Ġìĭ¤ ìĹħ
Ġposition ed
ĠR R
Ġíı¬ ë¥´
Ġíķĺ ìĹ¬
Ġë³´ìĹ¬ ìļĶ
Ġìľł ì¶ľ
Ġê³ł ì§ĳ
iz ational
ëĶĶ ìķĦ
Ń Ĳ
ì£¼ ë³Ģ
ë¯¸ ëĭĪ
ìĦ¸ íı¬
ĠB attle
ĠíĤ¤ íĬ¸
Ġë§¤ëĭĪ ìłĢ
Ġìĭ¤ ë¹Ħ
ĠëĤ´ ì£¼
Ġcondition al
ĠìĬ¬ íĶĦ
ê¹ Ĭ
ë²Ħ ë¦¬
ëĮĢ ë¶Ģë¶Ħ
Ġindivid ually
Ġë³µ ìĪĺ
Ġacknow ledge
ĠëıĻ ìĸĳ
Ġconvers ations
ìĿĮ íĮĮ
ĠíĬ¸ ëŁŃ
ĠìĽĥ ê¸°
ĠìĮĢ ìĮĢ
ol ving
ì§Ģ ëĬ¥
Ġexpect ation
Ġnucle us
ë°Ķ ëĿ¼
ĠìĿ¸ì§Ģ ëĿ¼
Ġíķ¸ ëĵ¤
ĠëĦ¤ ìĿ´
Ġê³µ ê³ł
Ġìłģ ìłķ
Ġìĺ¬ëĿ¼ ê°Ķ
Ġë³¸ ì§Ī
ĠìķĪ ë°©
ìĥĪ ë²½
Ġê³ł ìłĦ
vious ly
ĠëĮĢ íıŃ
ĠìĿ´ ëł¥
Ġexhib its
Ġë°ľ ìĿĮ
ìĹ ĳ
Ġíķĺ ëıĦ
Ġunder go
Ġst ained
ë°° ê¸°
ĠìĭŃ ìŀĲ
Ġë°ľ ë³ĳ
Ġìĭł ìĤ¬
Ġì§Ħ ëıĻ
Ġìĺ¬ëł¤ ìĦľ
íĴį ê¸°
Ġchalleng ed
ĠìĨ¡ ëıĦ
Ġê³¨ ëŀĲ
Ġconsum ing
Ġperform s
íķĻ ìĽĲ
Ġë©´ ìĦ¸
ì¡° ë¦¼
Ġê°Ģ ê³Ħ
Ġadvent ure
Ġë¯¹ ìĬ¤
â Ĩ
Ġê´Ģ ì¸¡
ast ing
ĠìĤ° ìĨĮ
ìĸ´ ìĦľ
à ´
ĠëļĿ ëĶ±
Ġspeak ers
ĠëĮĢ ìļ©
Ġëĭ¤ ëĭĮ
Ġìľ Ļ
V ersion
ĠìłĢ ë¦¬
ĠP G
Ġê³¼ ìĦ¸
Ġê¸° ì§Ģ
Ġphenomen a
Ġíİ «
ĠìĿµ íŀĪ
Ġaccording ly
Ġì¦Ŀ ìĦ¸
Ġaccomp any
Ġsubst ances
Ġìĭł ìŀħ
ì²ĺ ëŁ¼
Ġì§ Ń
Ġ tender
Ġìĥģ íķľ
Ġattack ed
Ġbreath ing
Ġê³ł ë°ľ
Ġvolunte ers
ë´Ĳ ëıĦ
AR S
ĠK BS
ĠìĽĶ ìĦ¸
ĠìĦ¸ ìĭ¬
ĠìĬ¤ íĭ±
ĠH M
Ġnot ation
ĠF D
Ġë¨¸ë¦¿ ìĨį
Ġexp end
Ġphotograph s
ĠëķĮ ë¡ľ
Ġê¸°ìłĢ ê·Ģ
ë¶Ħ ìľĦê¸°
ì¤Ģ ë¹Ħ
ĠV M
ë¬´ ìĬ¨
ĠìĬ¬ íĶĪ
in fo
ĠìĬ¤ ëĭĺ
íķĺ ìĿ´
Ġì¶Ķ ìłģ
Ġimpro per
ĠìľĦ ëĮĢ
ĠíĮĮ ëĿ¼
Ġì£¼ ìµľ
ĠìłĦ íĮĮ
Ġì»¨ íĬ¸ë¡¤
Ġíİ¸ ìŀħ
Ġë§Ī ìĭł
ĠíħĮ ëĿ¼
ĠìĨĮ íĻĺ
ìĤ° ìĹħ
Ġalumin um
Ġíķ´ìļ´ ëĮĢ
ĠìķĦ ëŀ«
Ġalleged ly
ĠìĿ´ ëĵľ
Ġíķĺ ëĬĲëĭĺ
Ġìĸĳ ìĥģ
ĠëıĻ ëĤ¨
Ġíıī ëĵ±
Ġë°°ìļ° ìŀĲ
ĠìĿĦ ìĪĺë¡Ŀ
Ġìĸ¸ ëįĶ
ĠìķĦíĮĮ ìĦľ
ĠëĨį ê°Ģ
ĠìĪĺ ëªħ
ĠíĿī íĦ°
ëĺ ¥
ê·¸ ë¦¼
ĠëĮĢ ê²°
ĠëĲĺ ì°¾
Ġë§ī ëĤ´
Ġê³ł ì§Ģ
ìł ¯
Ġdistingu ished
Ġë¹¼ ìķĹ
ĠìĪĻ ìłľ
ĠìķĦ ë¦¬
ĠM W
Ġì£¼ ë¶Ģ
ĠìĹ¬ìŃ ¤
Ġë·Ķ íİĺ
Ġì¡´ ê²½
ĠPalest in
ĠíļĮ ìĥĿ
ĠíĽ Ķ
Ġcontain ers
Ġìĭľ ì¤ĳ
ê¼ ½
Ġë¹Ħ ëĶĶìĺ¤
Ġê¹ ¡
ìĺ¨ ëĭ¤
ëı ¼
å ĳ
B B
Ġl itigation
ëĶ ĺ
Ġë§ĪìĿ¸ ëĵľ
æ Ķ
Ġì¡° ìĭĿ
ìŀĲ ì£¼
Ġë¹Ħ íķ´ìĦľ
ê¸¸ ëŀĺ
ĠT T
Ġêµ¬ ëıħ
Ġê°ķ ìĹ°
ĠëĪĪ ìķŀ
ĠìĿ¼ ì¹ĺ
ìŁģ ìĿ´
ĠìķĦíĶĦ ë¦¬ì¹´
ĠM ET
Ġë©ĶìĿ´ ìłĢ
ë°Ģ ë¦¬
ĠíıĲ ìĩĦ
ëĭ¤ ìĪĺ
Ġë£¨ íĶĦ
Ġmountain s
ì Ĳ
Ġìķķ ëıĦ
ĠìĨĮíĶĦíĬ¸ ìĽ¨ìĸ´
Ġdef ensive
Ġë§Ľ ìĹĨ
Ġíķľ ëĪĪ
æ ķ
Ġê±° ë¶ģ
íı¬ ë¥´
to gether
Ġtechn ological
ĠêµĲê³¼ ìĦľ
ĠìĨ¡ íĮĮ
O K
Ġprosec ution
ìĸ´ ì°Į
Ġë¶Ħ ìľł
Ġë°© ìĪĺ
Ġf estival
ëĭ¤ ìĿ´ìĸ´
ë²ł ìĿ´íĦ°
ĠìĪĻ ìĦ±
Ġintroduc ing
Ġëĸ¨ìĸ´ ì§Ī
ĠEx change
ìĿ´ ìłł
Ġì¶ľ ë§Ī
Ġë½ ķ
Ġdel icious
Ġì§ĢëĤľ ì£¼
Ġless on
ĠìĶ ¬
Ġíĸī ìļ´
ĠìĿ´ ìĬ¬
Ġê· ¤
Ġfilter ed
Ġr iding
ĠìłĦ ì§Ģ
ĠìĥĪ ì½¤
ĠìĤ¬ ê°ģ
Ġass isted
Ġë© ķ
íĮ¨ ëĵľ
íĪ¬ ìĬ¤
ĠA wards
Ġë§Ī ìļĶ
ĠìĤ´ ê·ł
Ġrecommend ation
ĠM BC
ĠìĨĮ ë§Ŀ
ĠST R
Ġë¹Ħ ì¶Ķ
ëĤ¨ ëıĻ
ĠíķĦ ëĵľ
ì© ¡
ĠBM I
ĠìĹ İ
ĠëĨĢ ìĿ´íĦ°
Ġcollect ing
ĠìĿ´ìĤ¬ ìŀ¥
ìķĦ ë¬´ë¦¬
Ġíķĳ ê³Ħ
Ġëħ¸ ë¦ĩ
Ġë¯¸ êµ°
Ġê²°ê³¼ ë¬¼
Ġde formation
ĠG PS
Ġìĭł ë¹Ħ
Ġë§Ī ìķ½
Ġextraord inary
Ġì¤Ħ ìĿ¼
ĠìķĦëĭĪ íķĺ
ĠìĨĮ ì§Ģ
Ġë¶Ħ ê³¼
ĠëıĦ ë³´
Ġnecess ity
Ġíı¬ ëŁ¼
Ġìłķ ë¥ĺ
Ġat titudes
Ġê°ķ ìłĲ
Ġpublish ing
Ġë²ł ë¥´
Ġìĭľ ëł¥
Ġì²Ń ìŀ¥
ĠíĸĦ ë²Ħê±°
Ġm aternal
Ġê°Ģ ëĵľ
Ġtrigger ed
Ġalbum s
N P
íĮĮ ë¦¬
Ġíķľ ê²°
Ġëĵľ ëŀĺ
Ġëĭ¤ íģ¬
S ection
ĠìĺĪ ë§¤
Ġë¯¸ ëĵľ
ĠF DA
Ġcluster ing
ëĤĺ ë¦¬
Ġìĭł íĻĶ
Ġêµ° ìĿ¸
H E
ĠìĿĢ ê°Ģ
ĠìĿ¼ ëŁ¬
Ġconfirm ation
tific ations
Ġë°° ìłķ
Ġìĺ¤ ê°Ģ
ĠíĺĦëĮĢ ì°¨
Ġìłķ ë©´
ĠìĪľ ì²ľ
Ġìļ°ë¦¬ ëĤĺëĿ¼
as ync
ì¹ĺ ë£Į
Ġìĭ¤ ë¬¼
Ġì§± ì§±
ê´ĳ ì£¼
Ġìĥģ ë¬´
ĠìĦ¸ ìĿ´
ĠìĪŁ ê°ĢëĿ½
Ġí Ĳģ
ĠëĤ´ ìĻ¸
ê¸´ ëĭ¤
ĠG E
Ġë¶Ģ íıī
ĠUS D
Ġëªħ ì¹Ń
ëıĻ êµ¬
Ġë³´ ëŀĮ
ìĺ ´
Ġê³¤ ëŀĢ
Ġìĥģ ìĭĿ
Ġìľ¤ ìĦĿ
Ġë¸Į ìĿ´
L ocation
Ġì¹¨ íķ´
ìĿĢ ìĿ´
ĠìĮĢ êµŃìĪĺ
ìĹ¬ ìĦ±
tr action
ĠìĹ¬ ëĭ¹
Ġn ights
ê±´ ìĦ¤
ĠëĤł ë¦¬
Ġëĺĳ ëĺĳ
Ġì§Ģ ì¹¨
Ġ ìĲ
Ġìŀ¥ ë¥´
Ġê³ł ëĮĢ
Ġíİ ĳ
ĠìĽĲ ëĳĲ
Ġê·¸ ê°Ħ
ĠíĻĶ ìĤ¬
ĠíĽ¼ ìĨĲ
Ġê³ł ë¥¸
Ġíģ´ ë¦°
ĠQ uality
ëĶ° ëĿ¼
ĠEvery thing
Ġphosphory lation
ëĴ ·
ĠíĻĺ ë¶Ī
Ġë²¤ ì¹ĺ
Ġëĭ¤ìĿ´ ëłīíĬ¸
Ġë°ĺ ê°Ģ
Ġíĥľ íĺķ
Ġìłľ ìĸ´
ic ations
ìĥĪ ìļ°
ĠP eters
Ġappear ing
ĠL H
ĠìĤ¬ ìļ°
ìķĦ ìĭľìķĦ
íķ ¸
L ength
Ġë³´ ìłķ
ëĥ Ħ
Ġë¦¬ ë²Ħ
ê²Į íĭ°
Ġëį© ìĸ´ë¦¬
Ġle ather
Ġì§Ģ ìĺ¥
ĠìĿ´ìĸ´ ì¡Į
Ġclaim ing
Ġê°Ħ ëĭ¤ê³ł
Ġannounce ment
Ġë§Ī íı¬
Ġì§Ģ ì£¼
Ġì§Ģ ëĥĪ
ìĥ¤ ë¸Į
ëĶĶ ìŀĲ
Ġì¶Ķ ìľĦ
Ġê¸°ìĪł ëł¥
ĠìŀĲ ë¶Ģ
Ġorgan isation
ëª¨ ì°¨
ĠëĨĢëĿ¼ ìļ´
Ġíģ¬ë¡ľ ìĬ¤
Ġìĸĳ êµŃ
ĠíĹ· ê°Ī
ĠìĪ¨ ê²¨
ĠìĹ° ìŀ¬
Ġê³¼ ê°Ĳ
ĠSU V
Ġìķł ì´Ī
ĠíĻ© ìłľ
Ġengine er
Ġì£¼ ìłĢ
Ġë¶Ī êµĲ
Ġint act
Ġsleep ing
Ġë²Ī ê±°
Ġê³ł ë¦¬
ìĥ µ
Ġëķ¡ ê¸°
ê²Ģ ì°°
Ġìĥģ ëĭ¨
Ġëª¸ ë§¤
Ġë²Ĺ ê²¨
Ġan onymous
Ġdepart ure
Ġì°¨ ê´Ģ
Ġarrang ements
Ġintrac ellular
ĠìĿ´ ìłģ
Ġë©´ ìĿĢ
ĠN ation
ĠíĢ ĺ
Ġë®¤ ì§ģ
ĠC U
Ġê°ķëĤ¨ êµ¬
Ġë¶Ģì§Ģ ëŁ°
ĠìĿĺ ìķ½
Ġëĭ¹ ìĤ¬ìŀĲ
Ġê°Ģìł¸ ìĻĶ
ëį° ê¸°
ìĦľ ìķ¼
ĠíĶ¼ ëĵľ
ĠíķĻ ìľĦ
Ġpro jected
Ġëª© ë¡Ŀ
Ġëĭ¬ ë¦°
Ġop acity
Ġê°Ģ ìľĦ
ì¹ĺ ê¸°
ter one
Ġdiscuss ing
Ġì¤ĳ ìĪľ
Ġëĭ¬ëł¤ ê°Ģ
ĠìĻ¸ íĻĺ
Ġê²Į ìĿ´
ëŀ Ĺ
Ġì¡° ëĭ¬
ì« Ħ
ĠìĹĲ ì½Ķ
Ġf iring
Ġë¬´ ëĬ¬
im ental
Ġìĩ¼ íĮĮ
odynam ic
ĠìĨĶ ë¡ľ
Ġê³µ ìĤ°
ĠëĿ¼ ë©ĺ
ĠT P
Ġì¶ķ ë³µ
Ġìľł ëŀĺ
ë§Į ëĵ¤
omorph ic
ĠëŁ¬ ë¸Į
ĠíĢ ´
Ġìĸĳ ë°°ì¶Ķ
Ġêµ¬ ìļ´
Ġshould ers
ê¸Ģ ëĿ¼ìĬ¤
ĠëĦĲ ë¦¬
Ġinvestig ating
s ize
æ ²
ĠìĹĶ íĦ°
Ġêµ¬ ëĳĲ
ìļ° ë¦°
Ġë°© ìĤ¬
ìĤ´ ì§Ŀ
Ġíĩ´ ì§ģ
Ġê´Ģê´ĳ ì§Ģ
ĠìķĪíĥĢ ê¹Ŀ
ĠìłĦ ìĦ¤
Ġunder line
ĠìĤ¬ ìŀĲ
Ġëĸł ëĤ¬
it em
ĠìħĶ ì¸ł
Ġì¶ľ ëıĻ
Ġchemical s
Ġìľł ìłĦìŀĲ
ëħ ¹
ĠëĮĢ ëŁī
ëĪĦ ê°Ģ
ĠìĿ¼ ëĮĢ
ë² ³
ĠëĤ´ëł¤ ëĨĵ
ĠìłĪ ëĮĢë¡ľ
ĠìĨį ì´Ī
Ġëħ¸ ë¦¬
ĠìĹ° ë§¹
Ġê³µ íĻĶ
ìĹ¬ ìķ¼
ĠíĻĶ ìŀĲ
Ġíķľ ìĭĿ
Ġa queous
Ġíį¼ ì§Ģ
ĠìĦł ëıĦ
ĠìķĮ ëłĪ
Ġì¤ĳ ëıĦ
ĠìĿĺ ìłķë¶Ģ
Ġcomposition s
ĠìĬ¤ ë¬´
m essage
Ġë¶Ħ ëŁī
Ġìłľ ë¡ľ
Ġëª¨ ê¸°
ì¹ĺ íĤ¨
ĠëıĮìķĦ ëĭ¤
ĠPerform ance
íĿ °
Ġìŀ¥ ë§Ī
Ġì¡° ê·¸
b et
ĠìĬ¤ ì¿¨
Ġë§Į ìłĲ
íģ¬ ëĿ¼
ĠìŀĲ ì±ħ
Ġì§Ħ ë³´
ĠëĤ´ëł¤ ìĦľ
íĶĦ ë¦¬
Ġë§Ī ë£¨
ĠìŀĲ ë¬¸
ëħ¸ ëŀĺ
Ġë°© ê¸Ī
ĠìĪĺìĭľ ë¡ľ
ĠìĹ¬ ì§Ģ
Ġì§Ī ìĦľ
ĠìĶ¨ ìķĹ
ĠìŀĲ ëĭĪ
Ġë´ī íĪ¬
ĠìĿ´ë£¨ ìĸ´ì§Ħ
Ġì§ Ļ
ĠëĭĪ íĬ¸
Ġíĳ ¼
Ġdeploy ed
ĠìĪĺ ìĤ°
Ġë¶Ģ ëŁ½
Ġíģ´ëĿ¼ ìļ°ëĵľ
ĠìĿ¸ê³µ ì§ĢëĬ¥
ìĬ¤ íĦ´
Ġìľ¤ ë¦¬
Ġë°Ķëŀ Ħ
ĠìķĦìĿ´ ëıĮ
Ġìĭ¤ ë²Ħ
Ġìĭ¬ íĻĶ
ĠìĦł ë°ķ
Ġê°ĢëĿ¼ ìķī
ĠìķĪ ìĦ±
ë¦¬ ìĬ¤íĬ¸
Ġë¬´ ê±°
ìļĶ ê±´
æ Ģ
u ating
Ġgather ing
ĠëĤŃ ë¹Ħ
Ġìľłê¸° ëĨį
Ġimpair ment
ĠíĮ ¡
ĠìŀĦ ìĤ°ë¶Ģ
ĠëĤ¨ ìĸĳ
ìĿ´ íĽĦ
ĠBM W
ĠíĶĦ ëłĮ
ĠìłĦ ëĭ´
ĠëĭĪ ìĬ¤
Ġëħ¸ ë¬´
ĠëıĻ íĸī
ĠìĬ¤íİĺ ìħľ
ĠìķĦ ìĭ¤
ì¼Ģ ìĿ´
Ġrespond ent
Ġë³´ì¦Ŀ ê¸Ī
Ġpropos ition
Ġì£¼ ìŀĲ
Ġbe ings
ĠìłĪ ìķ½
Ġìľµ íķ©
ìĺ Ľ
Ġìŀħ ì°°
Ġcontrovers ial
Ġpar liament
Ġë¯¸ ì¹ł
Ġìĸĳ ë§Ĳ
ìĹ¬ ê¸´
is factory
Ġìľł ëĮĢ
Ġìŀĥ ìĸ´ë²Ħ
Ġobj ection
Ġtrans cript
Ġlast ing
ì» ¥
ìĦľ êµ¬
Ġì°¨ ê°Ģìļ´
Ġíĳ¸ ë¥´
ì°¨ ë¦¼
Ġëľ¨ ê±°
Ġë°° ë¶Ī
ĠëĬĺ ëł¤
ĠìĿ´ ìª½
ĠìĤ´ ìĤ´
Ġê°Ģê²© ëĮĢ
Ġëĸłìĺ¬ ë¦¬
im ension
Ġres ort
ĠìĹ¬ ê¶Į
Ġë° ĭ
íħĮ íģ¬
ĠìķĮ ë°Ķ
Ġë¦¬íĶĦ íĮħ
Ġdialog ue
Ġìĭľ íģ¬
ĠìķĦìĿ´ ëĶĶ
ê¸° ëĮĢ
Ġë± Ģ
Ġëĵľ ë¦½
ĠìĺģìĹħ ìĭľê°Ħ
ĠìķĮ íĮĮ
ê´Ģ ìłĪ
ĠìĦ± ëªħ
ë³ ķ
Ġexperi encing
ĠëĲĺ ëıĮ
ëĤĺ ìłĢ
ìĭł ê¸°
Ġìĺ¬ëĿ¼ ìĻĶ
ĠìĽĲ ìłĦ
Ġíİ¸ ìĦ±
ĠìĦ± ìĭ¤
ĠëĤ® ìŀł
ìĻĢ ìĿ´
ê·¸ ì¹ĺ
Ġíĭ° ìħĶì¸ł
ëĬ ĳ
m ention
Ġë¶Ī íĸī
ìĺ¤ íĽĦ
Ġproduc ers
Ġìĸ¸ ëįķ
ĠìĤ¬ ëĭ¨
Ġì¶Ķ íĽĦ
Ġcampaign s
Ġì´Ī ìĿĮíĮĮ
Ġë°ĺ ìłĦ
íĹ ¨
ĠíĮĮ ìļ´ëĵľ
Ġë ®
ĠìĭĿ ìĿ´
Ġíĥķ ìĪĺìľ¡
Ġíĺ¸ê¸° ìĭ¬
Ġìŀħ ê¸Ī
Ġë§¤íĬ¸ ë¦¬ìĬ¤
ĠëĮĢ ë¶ģ
ëı¼ ì§Ģ
Ġìŀ¬ ê±´
Ġê³° íĮ¡ìĿ´
Ġê¸Ī ìĨį
Ġprecip itation
Ġê°Ħ ì§Ģ
Ġab ortion
Ġìŀ¡ ìķĦ
íĻĶ ë¬¸
íĥĢ ìĿ¸
ì« Ģ
ĠìŀĲ ë¶Ħ
â Ķ
ë²ħ ì§Ģ
ĠíķĻ íļĮ
íŀĮ ëĭ¤
ĠíķĦ ë¦¬íķĢ
ê° ±
ĠëıĦ ëįķ
Ġë§ī ì°½
Ġë¦¬ ìĬ¤íģ¬
Ġd ressed
Ġê³µ ì¤ĳ
ĠìĦ¸ ë¬´
ĠìĤ¬ ìĨĮ
ĠS ound
Ġê°Ħ íĺ¸ìĤ¬
Ġë¶Ħ íķł
ell ation
Ġëĸł ëĤľ
Ġprivile ge
ĠíĦ° ëĦĲ
Ġë¬´ ëįĶ
Ġr ounds
Ġìį¬ íĮħ
ĠëĤ´ ë©´
ê¹Ģ ìĹĨìĿ´
ê°Ģ ë¦¬
íķĺëĤĺ ëĭĺ
l ong
Ġì°½ ìŀĳ
é Ŀ
Ġìļ°ìļ¸ ì¦Ŀ
Ġìĺ¤ ë¦Ħ
Ġê¸° ì¹¨
Ġê±´ ìłĦ
Ġê·¸ëŀĺ ìķ¼
Ġìĭ¤ ê°Ĳ
Ġì£¼ ìłĦ
ĠL incoln
Ġintellig ent
ìĭľ ìķĪ
ĠIS O
ĠìĿ¼ ì²´
Ġìºł íį¼ìĬ¤
ê³µ ìĹħ
Ġëĭ¹ ì´Ī
ìª ¼
ĠíĮĮìļ° ëįĶ
ëĤĺìłĢ ëĤĺ
Ġd ining
Ġìłľ ìĿ´
ìĦ¼ íĦ°
ĠìĹ° ë°©
Ġë°ľ ë§¤
Ġìĸ´ëĶ ľ
ìĭĿ ìŀ¥
Ġpopular ity
ĠíĻĶ ìĥģ
Ġê´ĳ ëªħ
ìĻ¼ ìª½
Ġrender ing
ë¡¯ ëį°
Ġë¡ľ ë¹Ħ
Ġìŀ Ń
Ġ ëłī
ach ment
Ġëª¨ ëįĺ
ê·ĢìĹ¬ ìļ´
ĠìķĦ ëĥĲ
ĠìĤ¼ ê°ģ
ìĿĺ ìĤ¬
Ġë¶Ģ ê·¼
ìĦľ ë¦¬
c urrent
ë©ĺ íĬ¸
ĠA K
ê³ł ë¯¼
Ġold est
Ġë©¸ ì¹ĺ
Ġê·¹ ëĮĢ
ç «
f ather
ĠìĪĺ ë°ķ
Ġìĸ´ ë¬µ
ĠìĹ° ëıĻ
ĠëıĮìķĦ ìĻĢ
i ences
Ġíĳľ ê¸°
Ġê±° ì¹ľ
Ġthreat ening
Ġì§Ģ ì§Ħ
ìĽĮ ìļĶ
Ġíıī ì°½
ĠìĪĺ ì£¼
ĠëĭŃ ë°ľ
ĠìłĦ ìĨ¡
Ġexception al
ĠI G
Ġê¿Ģ ë§Ľ
ë¡ľ ìĬ¤
Ġfilter ing
ĠD W
Ġìĥģ ì¶Ķ
Ġìľł íļ¨
ĠëĪĦ ìĽĮìĦľ
ĠíĽĦ ìĭĿ
Ġë°ľ ê±¸ìĿĮ
Ġë¯¼ì£¼ ì£¼ìĿĺ
Ġthere in
ëİ ħ
ĠìĦ¼ íĬ¸
Ġmulti pl
Ġìĭľ ëĤĺ
B oth
Ġì°¨ ìŀ¥
ĠìĨĮ ë§¤
ĠX X
ul atory
Ġpurch asing
ĠìĥĿ ëŀµ
ë¯¼ ì£¼
ĠCommission er
ĠìķĮìķĦ ë³¼
p erson
com pass
Ġconsum ed
Ġtrans it
Ġ ìļ±
ê·¸ ë§Įíģ¼
ĠìĪĺ ê±´
Ġforgot ten
ë²ł íģĲ
ĠíĮĶ ì°Į
Ġëĵ± íĮĲ
ĠëĤĺ ë¹ł
ëĭ Ľ
Ġíı¬ìĬ¤ íĦ°
Ġë°° ë¶Ģë¥´
ĠD P
Ġëªħ ìĿĺ
Ġê²© ëł¤
ìĪĺ ìĹħ
Ġì¤ĳ ê³Ħ
Ġê·¸ëŀĺ íĶ½
ì¤ įëĭĪëĭ¤
Ġoptim ize
tition ers
Ġpass engers
Ġwarn ed
Ġìľ¡ íļĮ
íģ¬ ë¦¬ìĬ¤
F E
Ġì§Ħ ìĺģ
ê¶ģ ê¸Ī
ĠìĬ¤ ëĥħ
ëĮ ģ
Ġë©Ķ ë¥´
Ġë°Ģ ê°Ģë£¨
ìĭł ëŀĳ
Ġthorough ly
Ġëªħ ëĭ¨
ëª¨ ìħĺ
Ġr acing
ìĨĮ ëĵľ
Ġë§ŀì¶ ĺ
Ġíķĳ ìŀ¥
Ġë¡ľ ìļ°
Ġìĥģ ìĤ¬
Ġless er
Ġavoid ed
Ġêµ¬ ìĥģ
h im
êº¼ ë²ĪìĹĲ
Ġìĥģ ê³µ
Ġê³ł ì¹ĺ
ĠP B
Ġë´¤ ìĹĪ
ĠíķĻ ìŀĲ
Ġë§¥ ìĬ¤
ëĭ¤ ì§Ģ
Ġê°Ģìŀħ ìŀĲ
ĠV A
ĠìĤ¬ ìĿ¸
ĠìĹ° ìĬ¹
ĠìĪĺ ëł¹
Ġíı¬ íģ¬
ĠëĤĺ ë§Ī
Ġì£¼ ìĸ´ì§Ħ
Ġë¯¼ íĬ¸
Ġìĭ¬ ìłķ
ĠëłĪ ìĬ¨
Ġresid ue
ĠìĨĲ ìŀ¡ìĿ´
Ġì§Ħ íķĻ
ìĸ Ĺ
Ġìŀ¥ êµ°
Ġdevelopment al
Ġachieve ment
ĠíĥĢìĿ´ íĭĢ
Ġë©Ķ ë¦¬
ĠSE LECT
ĠíĹ Ŀ
ĠëıĦ ë¦¬
Ġìī ¼
Ġì¦ī ê°ģ
ĠëıĻ êµ¬
Ġìĭľ ìĥģ
ĠìĺĪ ìĿĺ
le e
Ġspeed s
ĠëĤł ëł¤
Ġë°© íĥĦ
ë³´ ëĤ´
ĠW inter
Ġì§ĳì¤ĳ ëł¥
Ġtouch ed
ìĺ¬ ëĿ¼
Ġíķ´ ì§Ħëĭ¤
ĠìŁģ ìĿ´
Ġìĺ¤ëĬĺ ëĤł
Ġìĥģ íķ´
ĠìĤ¬ ê·Ģ
Ġextrac ts
ĠìĪĺ ëł¨
Ġê³ł ìĭľ
ĠìĹ° ìĥģ
Ġì§Ģ ëªħ
Ġì² ¼
ĠìłĦ ëıĻ
Ġproceed s
íľ´ ìĿ¼
Ġì£¼ ìĭ¬
ĠR D
Ġìłķë¥ĺ ìŀ¥
word s
ĠëķĮ ëł¤
ëĳĲ ë¦¬
Ġì§ĳ ì°©
ĠìĿĺ ë¥ĺ
ĠEvery one
ĠìĦľ ìĸĳ
Ġêµ¬ ëıĦ
Ġë§Ī ëĭĪ
Ġìĭł ëĿ¼
Ġìĺģìĸĳ ìĨĮ
Ġì§Ģ ë¥´
Ġíĸī íķĺ
Ġì¦Ĳê±° ìĽł
Ġêµ¬ íķ´
ìĭľ ìŀĳ
Ġê¹ »ìŀİ
ë©Ķëī´ íĮĲ
ĠS ET
ĠìĹ¼ ëł¤
íĭ° ìĬĪ
out ing
Ġì½ĶìĬ¤ ëĭ¥
ĠM G
ĠìĿ´ ì§Ģ
ê°ķ ëĤ¨
Ġê¸° ìĪĻ
Ġë°ĺ ìĤ¬
ĠìĦ± ìĪĺ
íİ ł
ë²Ħ ìĦ¯
Ġë¡ľ ìĬ¤
ìĹĲ ìĿ´
ìº Ķ
Ġìłķ ìŀ¥
ìĦ¸ ìĬ¤
F ollowing
Ġë¡ľ ê·¸
Ġë¹¨ ëĿ¼
ĠìĦľ ë¸Į
ĠìĬ¤ íĮ
ĠìķĦ ë¯¸
Ġë°Ķ ëĭĲëĿ¼
ĠíĬ¹ ê°ķ
ĠìĤ¬ìĿ´ ë²Ħ
Ġëª¬ ìĬ¤íĦ°
ĠíıĲê¸° ë¬¼
mention ed
Ġìĺ¤ ë¸Ĳ
Ġfranch ise
ìĭľ ì½Ķ
Ġdescript or
Ġì²Ń ìĽĲ
ëĸ ł
Ġrecruit ment
Ġso vereign
Ġê°Ħ íĺ¹
ĠíĤ¤ ìĬ¤
ë°° ìļ°
íı¬ ìĭľ
ìĿĢ íĴĪ
Ġorgan izational
ĠìłĢ ê²©
ì§ ¤
Ġregard s
Ġë§ī êµŃìĪĺ
ĠìĿ¼ íĸī
ĠíĨµ íĨµ
é ĩ
App lication
Ġê³ł ì³Ĳ
ĠìĭŃ ëĭĪê¹Į
Ġëª¨ ìĿĺ
Ġë³´ ìĮĪ
Ġì¹« ìĨĶ
Ġëĭ¨ íĴį
ìļĶ ìĥĪ
Ġmanufact ure
ĠReturn s
ĠíĿĶ íķľ
Ġìķµ ì»¤
ĠìĿ´ìĸ´ íı°
ĠL I
Ġë¹µ ë¹µ
Ġë§Į ìĿ¼
ĠëĤľ ìĿ´ëıĦ
ĠR V
M I
ê°Ĳ ìŀĲ
ëĶ° ëľ»
Ġì§Ģ ìľĦ
Ġë²Ħ ëł¤ìĦľ
ìĿ¸íĦ° ëĦ·
Ġimp ose
ìĪ į
ĠCommon wealth
Ġì²´ ëĤ´
é ¡
Ġë²Ħ ë¸Ķ
Ġfollow ers
Ġë¶Ģ ê°Ģ
ĠS B
Ġë¨¸ ë¬´
ĠíĮĮ ì£¼
å Ľ
? !
ĠìĥģíĴĪ ê¶Į
Ġhuman ity
ĠR andom
Ġreview ing
Ġë³µ ìĪŃìķĦ
cont inue
íĿ¥ ë¯¼
Ġë¶Ģ ê°ģ
íĢ ĺ
Ġê±´ ë¦½
ĠíĨł ëĦĪ
Ġformer ly
Ġdesign ing
Ġìłķíķ´ ì§Ħ
Ġëĭ¬ ëŀĲ
ĠíĤ ¥
ĠíĪ¬ ìŁģ
ĠìŃĪ ê¾¸ë¯¸
é Ľ
Ġchromos ome
ĠAuthor ity
Ġê·Ģ ìĭł
Ġplace holder
ìłĢ ë¶Ħ
ĠëıĻ ìķĦë¦¬
ĠìłĦê¸° ì°¨
ĠìĿ´ìĸ´ ìĦľ
ĠìĪĺ ëĭ¹
Ġìĥģ ìĨį
Ġìłķ íĻĶ
Ġassess ing
Ġì½ĶìĬ¤ íĶ¼
Ġê°ľ ê°ľìĿ¸
Ġë°° ìĪĺ
Ġìŀ¥ íķĻ
ĠíĬ¹ íĻĶ
íĥ Ĳ
ĠíĻį ìĤ¼
ĠD L
Ġìĺģíĸ¥ ëł¥
ĠìĦľ ë¶Ģ
Ġìĸ´ëĶĺ ê°Ģ
ĠìķĦ ìĤ°
ĠíĿ¡ ìĹ°
Ġìłķ ì§ģ
ë¡ľ ìĽĢ
Ġìĳ ¤
Ġë¬¸ ìĸ´
ĠíĨł ìĿµ
ĠíĶ½ ìĹħ
- >
ĠëĪ ķ
ĠíĬ¸ ëłĪ
ĠêµŃëĤ´ ìĻ¸
ë©Ķ ìĿ¼
ĠìĿĢ íĩ´
ĠíĶĮëłĪìĿ´ ìĬ¤
Ġëľ ¸
ì¤Į ë§Ī
ĠìĪ¯ ë¶Ī
Ġì¹ĺë£Į ìłľ
æ Ŀ
ĠíĻĺ ê¸°
ë¶Ģ ìĿ¸
Ġê°ķ ìļĶ
Ġemploy ers
ëĵľ ëĿ¼
ĠB T
th ey
ĠEconom ic
ĠF P
ìĺ¤ ìĬ¤
íķ «
Ġê²© ì°¨
Ġdeliver ing
ë§Ī íģ¬
ĠëłĮ íĥĪ
C ustom
Ġìļķ ë§Ŀ
ëĭ¤ìĿ´ìĸ´ íĬ¸
ĠëĳĲ ë£¨
ĠG H
Ġcompris ed
Ġê°ľ ìĭľ
ĠíĥĦ ìĤ°
L ED
ĠìŀĲ ì¼ĵ
Ġcharacter ize
Ġëĭ¤ ì§Ģ
ĠëıĻ ì°¸
ì¹ĺ ìķĦ
Ġêµ¬ ìłľ
ìłķ ìĭł
ĠìŀĦ ê¸°
ëįĶ ëĭĪ
Ġwithdraw al
Ġcurren ts
Ġë» ¥
Ġcoord ination
ĠíĮĮ ê²¬
Ġì§Ī ë¦¬
ĠìłĦ ìĹŃ
ëĥī ë©´
Ġíİ ł
Ġê° ¯
ĠìķĦ íĭ°
Ġìļ° ì¸¡
Ġinstall ing
Ġto String
Ġë¸Ķë£¨ ë²łë¦¬
ìľł ë¦¬
Ġë¹ł ìł¸ìĦľ
Ġê°Ħ ìłĳ
ĠìĭĿ ìļķ
Ġíľ´ ìĿ¼
ë³´ ë¦¬
¾ °
Ġì²´ íĺķ
ĠLC D
ë¦° ì§Ģ
ĠíĮ¨ ëĦĲ
Ġinst ability
Ġìº¡ ìĬĲ
ĠíĶĮ ë¡ľ
Ġê²Į ìĬ¤íĬ¸
ìĤ¬ ë¹Ħ
Ġìłķ íķľ
ĠëĤĺ ë¹Ħ
ê¹Į ë´Ĳ
Ġì§ķ ê³Ħ
Ġconduc tivity
ĠëĮĢì²´ ë¡ľ
Ġcontrovers y
Ġì§Ģ ì¹ĺ
Ġconsequ ently
ëĤĺ ìĺ¤
ëŁ¬ ìĽł
ĠìĹ°íķ© ëī´ìĬ¤
ë¡ľ ë§Ī
ob acter
Ġìĺ¨ ëª¸
ĠìĨĮ ë³Ģ
Ġavoid ing
ĠE B
ĠìķłëĭĪ ë©ĶìĿ´ìħĺ
ìķ¼ ë§Ĳë¡ľ
Ġëĭ¬ëĿ¼ ì§Ħ
er ror
Ġc ement
Ġë¶Īê°Ģ íĶ¼
Ġretrie ve
ëĦ Į
Ġê´Ģ ìĦ¸
ì¶Ķ ì²ľ
ë¦¬ íķĦ
ĠìĤ¬ ìļ´ëĵľ
ĠìĬ ¨
Ġë³Ħ ëĭ¤ë¥¸
ìĽĲ ìŀ¥
ĠìĬ¤ ì½Ķ
Ġê¹Ģ ë¯¼
Ġincons istent
Ġì¡° ì§Ģ
Ġext ensively
in to
Ġê°Ĳ ì§Ģ
ç µ
Ġìŀ¥ ê°ĳ
Ġìŀ¥ ìĪĺ
Ġìľ¼ ìħĶìĦľ
Ġíİ¸ íŀĪ
Ġìļ° ìķĦ
ìĺ¤ ìłĦ
íļĮ ìĿĺ
ĠëıĻ ìĤ¬
Ġì§ĢëĤľ ë²Ī
ĠíĥĪ ëĿ½
ìĺĪ ìķ½
Ġswitch ed
Ġìĺ¬ëĿ¼ ìĺ¨
Ġíķ¨ ëŁī
ĠíĶ Ī
Ġë§Ī ë¥¸
ìĸ´ ëĤł
Ġíĺĳ ìłķ
Ġgovern ance
Ġìĺ¨ ì²ľ
Ġë²ł ê°ľ
Ġneglig ence
Ġì«Ģ ëĵĿ
ë°Ķ ìĤŃ
ë Ľ°
ĠìĪĺ ë°±
Ġhigh way
Ġë§Ī ì·¨
ëĭ¤ ìĿ´
Ġê²½ ìĦł
ĠC K
ê³Ħ ëŀĢ
Ġë¬´ ëĦĪì§Ģ
Ġë°Ķëŀĺ ìļĶ
ĠìĹ´ ìĩł
ê³ł ìĸĳ
Ġdescri ptions
Ġpreced ing
ĠìĦľ ìłĲ
Ġìłģ ë°ľ
ë°ĺ ì§Ŀ
Ġêµ ¶
ë²Ħ ëĭĺ
Ġë²ł ëĵľ
æ µ
ĠMA X
Ġëĭ¤ê°Ģ ê°Ģ
ĠëįĶ ìĽĮìĦľ
Ġì¤ į
ĠEx amples
Ġìĸĳ ìľ¡
ĠíĮĮ ìĬ¤
Ġë¦¬ íĦ°
Ġë¸ĶëŀĻ ë°ķìĬ¤
ĠE A
Ġìľł íĺ¹
ĠíĬĢ ìĸ´ëĤĺ
ìĪĺ ìĪł
w riter
Ġì´Ī ëŀĺ
ìĥģ ëĭ´
íħ Ŀ
ìĸ¼ë§Ī ëĤĺ
Ġëĵ¤ ìľ¼
Ġìĸĳ ìĭ¬
Ġì°¾ìķĦ ìĻĶ
ĠíıŃ íı¬
§ ĭ
ĠCustom er
ĠC ulture
ĠìĹĦ ì§Ģ
ĠëĿ¼ ìļ´
Ġíģ° ìĿ¼
Ġprolong ed
ĠT W
ĠS ummary
ĠëĵľëŁ¬ ëĤ¬
ê·¸ ê²Į
ĠíĢ ¸
Ġselect or
ìĬ¤ ëŁ½
Ġìĺ¤ ë°Ķ
Ġê¸° ê¸Ī
Ġpress ing
Ġë¶ģ ë¶Ģ
ĠíıŃ íĥĦ
ĠëĨį ì´Į
ëıĦ ë¦¬
Ġwonder ed
Ġì¹¼ ìĬĺ
Ġìĭľì¼ľ ìķ¼
ëĶĶìŀĲ ìĿ¸
ĠëĳĲ ëĵľ
Ġë²Ķ íĸī
Ġì²´ ìĺ¨
Ġì²Ń ì¶ĺ
ìĿ¸ ê°Ħ
Ġhierarch y
Ġê» Ħ
Ġê±° ë¡ł
Ġê°ķ íķ´
Ġì¡° êµŃ
ĠíĶĦë¡ľ ëª¨ìħĺ
ç ¾
Ġë¸Ķ ëĿ¼
Ġëª» íķ´ìĦľ
Ġsearch ed
íĬ¸ ëĿ¼
ĠìķĦ ëĭ´
Ġíķľ ìĺ¥
ĠëĤ´ ë¦´
Ġë¡ľ ë§¨
ĠëĨį ìĤ¬
ĠíĽĮ ì©į
Ġìĺ¤ë¦¬ ì§Ģ
ĠíķĦ ëŁ¬
re quest
ĠìĦ± ì§Ī
Ġë°¥ ìĥģ
Ġì²ŃìĨĮ ê¸°
ĠëĤĺ ëŀĢíŀĪ
ĠìķĮ ë¦¼
ìļ¸ ìĤ°
Ġs ender
Ġê°Ŀ ìĭ¤
ëĭ¤ ë°ľ
Ġë¸Ķë¡ľ ê±°
Ġcombus tion
Ġê·¸ ì³¤
ĠìĽĲ ëª©
Ġì¤Ħìĸ´ ëĵł
Ġê´Ģ íķ´
Ġê·¸ë¦¼ ìŀĲ
ĠE dition
Ġì¹ĺ ë¥´
Ġìķ½ êµŃ
ĠìĦ¸ ëĿ¼
Ġíľ ©
ĠìķĦ ì¿ł
Ġshall ow
Ġíķľ êº¼ë²ĪìĹĲ
ĠíĪ Ń
ìĺ¤ íĶĦ
Ġìłľ êµŃ
Ġê¸° ë¥´
ìĤ¬ ì¹´
Ġê°Ī ëĿ¼
ë³¸ ìĿ¸
å ½
Ġë§Ī ë¹Ħ
ĠìĬ Ľ
ĠíĶ¼ ê³ł
Ġenvelop e
ĠìĦ¤ ë§Ī
ĠìĤ¬ ìĸĳ
Ġìļ´ ìĨ¡
Ġëª¨ ìĥī
ìĨĮ ëĵĿ
Ġìłľ íľ´
ĠëĮĢì¤ĳ êµĲíĨµ
Ġíģ´ ë¦¬ìĸ´
íĬ¸ ë¡ľ
ëĿ¼ìĿ´ ëĵľ
Ġìŀħ ìķĪ
X R
Ġì§Ģ ë¶ķ
ìľ ½
ĠìĹ¬ ìĦ¯
Ġspread ing
Ġgraph ic
Ġë³´ ìĦĿ
íıī ìĿ¼
Ġìķ¡ ìħĺ
ĠíĿ¥ ë¶Ħ
M D
ëĭ¤ ìļ´
Ġíķľ ëķĮ
Ġtrans verse
ĠìĦ¸ ìĹ¬
ĠA WS
Ġ ë¦¿
Ġì°¸ ê¸°ë¦Ħ
Ġë²½ ë©´
ĠìŀĦ ì§ģìĽĲ
ëĵł ì§Ģ
ĠìĿ¼ë°ĺ ìĿ¸
Ġê³ĦìĹ´ ìĤ¬
Ġspeak s
Ġê°Ī ì¹ĺ
Ġì¿ł íĮ¡
Ġspecial ist
inst all
ĠìĻķ ìŀĲ
Ġê¶Į ê³ł
Ġë°Ķê¿ ¨
Ġproxim ity
ĠëĭĪ ëĿ¼
ìĿ¸ ìĥĿ
Ġê³ł êµĲ
Ġiniti atives
Ġíı¬ ì§Ģ
Ġëľ¨ ê²ģ
Ġcontam ination
ĠMuslim s
ĠìĺĪ ìĻ¸
ĠíĻľ ëł¥
ĠíĮ¨ ëĶ©
ä ¾
ë¯ ¿
ĠìĹĲ ìĿ´ìĬ¤
ĠìĦł ì°©
Ġê´ĳ íĥĿ
Ġyou tube
Ġnegoti ations
Ġëª© ê±¸ìĿ´
Ġg ently
est one
ĠëłĪ ìĿ¸
ĠìłĦ ìłľ
Ġìĭ±íģ¬ ëĮĢ
ìķĦ ë³´
ĠL ocation
ĠìķĪ ê°ľ
ĠìĭĿ ì´Ī
Ġë¹Ħ ìĺ¤
Ġìľł ëª¨ì°¨
Ġìĭľ ëıĻ
Ġì¤ĳ ëıĻ
Ġíĺĳ ìĹħ
Ġìŀħ ëĭĪê¹Į
Ġê°Ģ ë§¹
Ġìľ¡ ì²´
ĠìĤ´ìķĦ ëĤ¨
ĠìķĦ ìļ¸ëŁ¬
ĠìĦ¤ ë¬¸
ĠI O
ìłĪ ë¡ľ
S A
ĠìĤ° íĽĦ
ĠìŀĲ ìĿ´
ĠëłĪ ìķĮ
Ġdel ight
ĠF B
Ġë³´ ìľ¡
ĠG N
ĠìłĢ ê²ĥ
ĠìķĪ ë©´
Ġengine ers
ĠëĴ¤ ëĬ¦
Ġê°ľ ìĨĮ
Ġì§ģ êµ¬
ĠM AC
Ġê°ĪìķĦ ìŀħ
Ġì´ Ľ
ĠìĤ¬ ëĤ´
Ġuniform ly
ĠìłĪ ë¡ľ
right arrow
Ġë°ľ ëªħ
ĠH O
Ġencour aging
Ġë©Ķ ìĿ´ëĵľ
ĠìĽĲ ë£¸
ĠìĨį íķĺ
ĠìĹĲ ìĦ¼ìĬ¤
Ġìĵ° ìĹ¬
Ġíĺķ ìĥģ
ĠìĦ¤ ìĤ¬
ĠH B
Ġëª°ëĿ¼ ìļĶ
Ġafter wards
ëıĮ ìĿ´
ì§Ģ íķĺ
ìķĦ ìĿ´ìĬ¤
Ġë³´ ê°ķ
ìĺģ ìĸ´
Ġíķ© ëıĻ
ĠìĿ´ ì¹ĺ
ĠëĲľìŀ¥ ì°Įê°ľ
ëĿ¼ìĿ¸ ëĵľ
Ġíİĺ ìĸ´
ĠìĦ¸ë¯¸ ëĤĺ
Ġê·ĢìĹ¬ ìĽĮìĦľ
Ġíķ© ìĭľëĭ¤
Ġê³µ êµ¬
ĠìĬ¤ìľĦ ìĬ¤
ĠìĨĮ ìķĦ
Ġë¬ĺ ìĤ¬
ĠO T
ë²Į ëłĪ
Ġkeyword s
ĠìĦ¸ ìķĪ
oprote in
Ġê°Ģ ìĨį
Ġposition ing
ìĿ¼ ëŀľëĵľ
ĠìĦ¸ ìĽł
Ġê¹Ģ ìĦ±
ĠíĥĢ ë¥´íĬ¸
ĠíļĮ íĻĶ
Ġê¸ Ķ
Ġê³łì¶Ķ ìŀ¥
ë¸Ķ ëŀĻ
pe ople
Ġcont ention
ëĤ´ ëħĦ
| |
Ġcreate Element
Ġìķ¡ ìŀĲ
n umber
ĠìĻ Ī
Ġìļ¸ ë¦¬
Ġëĸ ´
Ġëŀ ´
ĠëĳĲ íĪ¼
ĠíļĮ ê´Ģ
ĠíħĮ ìĿ´íĶĦ
ìĪĺ íĻĶë¬¼
ĠìłĦ ìłģ
Ġcalcul ating
ìĨĮ ë¬¸
Ġíĺ¼ íķ©
ëĭ¨ ì²´
Ġì°° ëĸ¡
Ġê³Ħìĭł ê°ĢìļĶ
wh en
Ġì¶© ì¹ĺ
ĠTh ings
Ġìķŀ ìª½
ĠSome thing
Ġê³¨ ë°ĺ
ĠìĶ Ģ
H L
Ġdepart ments
íĶ¼ ìŀĲ
Ġsucceed ed
ĠìĤ¬ ëıĦ
it ations
Ġë§Ľ ë³¼
Ġê°ľ ìļ´
Ġì´Ŀ ê´Ħ
Ġë´ħ ìĭľëĭ¤
Ġë³Ģ ë¹Ħ
Ġë¶Ī ê½ĥ
Ġfinanc ing
Ġêµ° ìĤ°
ĠìĭĿ ë¹µ
Ġvar ieties
Ġë§Ī ìļ°ìĬ¤
tr on
Ġë¶Ī ìĮį
ĠìŀĲ ìŀ¬
Ġìŀħ ìĤ¬
ĠìĿ¼ ë°©
ĠìĽ¹ íĪ°
ĠìĪľ ìłķ
Ġìĥģ ì£¼
Ġdemand ed
ĠíķŃ ìķĶ
è ª
íĨ °
Ġê¸ī ìĭĿ
Ġrespons ibilities
ĠChris to
ĠS BS
Ġenjoy ing
ĠëĮĢ ê¸Ī
ĠT X
Ġìĸ´ ëķĮ
ĠíĬ¸ëłĪìĿ´ ëĭĿ
Ġë¶ Ĳ
Ġjournal ist
Ġenroll ed
Ġfinish ing
Ġìĥģ íĸ¥
Ġcentrif ug
Ġê¸° íĺ¸
ĠìĨ Ł
ìĭľ ê²½
Ġë¦¬ ë³¸
Ġìĭľ ê¸ī
Ġìº¡ ì³Ĳ
íħĮ ìĿ´ë¸Ķ
ĠP F
Ġì§Ħíĸī íķł
ëĤ´ ë¦¬
ĠìĦ¸ ìłķ
ĠëĬĲ ëĭĪ
ìŃ Ī
ĠíĹĪ ë²ħì§Ģ
ĠìĦľ ëªħ
Ġiniti ation
íı¬ ìŀ¥
ìĽĶ ëĵľ
ìŀł ìĭľ
Ġinteract ing
Ġëĵľ ëłĪ
ĠíĽĦ ëĵľ
Ġb orders
Ġconstr ained
Ġíķľ ìŀĲ
Ġreflect ing
íĿ ł
ĠìĬ¤ íĮĢ
Ġìļ° ìłķ
Ġë³¸ ìĽĲ
ë§Į ìĹĲ
ĠíĪ¬ ê¸°
Ġì°¸ê°Ģ ìŀĲ
Ġìľł ìłĦ
ĠìĹ° íĮ¨
Ġêµ¬ìĦ± ìĽĲ
Ġprison ers
ëĭ¬ ì½¤
ĠS uccess
Ġind ict
ĠR M
ĠìĨĮ ê°Ĳ
ë¯¸ ìķĪ
Ġìłķ íĺķ
Ġcorpor ations
Ġpostoper ative
Ġê³ł ê°Ģ
ë°© ë¬¸
ìĬµ ê´Ģ
ĠìĬ¤ ìĽ¨
Ġë²ķ ì¹Ļ
Ġê·¸ ëĬĺ
ì½Ķ ìĬ¤
k g
Ġìłķ ëıĪ
ĠìĬ¤ ìľĦì¹ĺ
Ġthere after
ìłĦ ê¸°
s pective
ĠìľĦ ì¶ķ
ĠìŀĲ ë§¤
ĠìķĶ íĺ¸
gorith m
ëĶ¸ ê¸°
Ġê°ģ ìĺ¤
Ġì§Ģ ìŀ¥
Ġscatter ed
ìĦł ìĥĿ
ĠìĺģìĽĲ íŀĪ
Ġì¤ĳêµŃ ìĸ´
Ġtable t
Ġëª ¹
wor ld
Ġaccess ed
ĠìĦł ë³Ħ
ìĭ¤ ëĤ´
Ġpublish er
Ġë¹Ī íĭ°ì§Ģ
ĠìĦ¸ ë¡ľ
ĠíĬ¸ ëŀĻ
ĠìĹĺë¦¬ ë²łìĿ´íĦ°
ĠëĤĺ ë¬¼
Ġdef ence
Ġassum es
ê³µ íķŃ
Ġspecific ations
Ġë¯¸ ëĦ¤
ĠìĿ´ëŀĺ ìĦľ
ĠìĤ¬ ìĿĢíĴĪ
Ġìĥģ ì¾Į
Ġê³ł ë¬¸
D irect
Ġwhere by
ĠìĦľ ëĳĺëŁ¬
Ġëıĭ ë³´ìĿ´
ĠìĻĢ ìĿ´íĶĦ
ŀ ĭ
Ġì²´ íı¬
ĠìĬ Ŀ
ì¹ľ ìłĪ
ìĸ´ ë¨¸ëĭĪ
ĠìķĦíĨł íĶ¼
Ġì°¨ íĬ¸
Ġdemonstr ating
ķ Ĳ
ĠìĬ¬ íį¼
ìĪĺ ì¦Ŀ
ul ence
ĠCurrent ly
ì¦Ī ëĭĪ
Ġcompar ative
Ġìĸµì§Ģ ë¡ľ
Ġre jection
Ġwork place
ì§Ģ ìĤ¬
ìĪĻ ìĨĮ
Ġdiscl ose
ĠëĶ ¥
æ Ľ
ĠíıĲ ì°¨
Ġconserv ed
ë²Ķ ì£Ħ
ĠëıĻ íĸ¥
Ġnanopar ticles
ĠìĿ¼ íĴĪ
Ġìŀħ ë²ķ
ĠíĬ¸ ëŀ©
Ġìĺ¤ë¡ľ ì§Ģ
Ġë§Ĳ ëģĶ
Ġby pass
ĠìŀĲ ëª½
Ġë¶ģ ë¯¸
ĠëłĪ ìĿ´ìĬ¤
ìłľì£¼ ëıĦ
ĠìĤ° ëĭ¤
ĠìĹ´ ê¸°
ĠíĶ¼ëĵľ ë°±
Ġnever theless
ĠL R
ĠìĦ¸ ë¸Ĳ
Ġsection al
ĠíĶĦë¡ľ íķĦ
Ġdel ays
Ġë²łìĿ´ ì»¤ë¦¬
Ġì§Ģ ê²½
Ġê·¸ ëĭ¥
Ġê°Ī ìĥī
Ġê·¸ëŀĺ ìļĶ
ĠìĹ¬ ìĭł
Ġcorrespond ence
ìĦ± ìŀ¥
Ġexhib ition
Ġìļ© ìĿ´
ĠìĿ¸ ìĩĦ
Ġì²ľ ìŀ¬
ìł¸ ìķ¼
] )
ĠìŀĲ ì·¨
ĠìĻĢ ëıĦ
ĠìĹĲ íĶ¼
Ġdemand ing
Ġê¸Ī ìłĦ
Ġë²ķë¬´ ë¶Ģ
Ġappear ances
Ġbuild s
Ġë³´ íİ¸
Ġb aking
There fore
Ġë³¸ ëŀĺ
ĠíĹĪ ëĭĪ
ĠìĤ¬ ìĹ°
ĠìĿĮë£Į ìĪĺ
ëĤ¸ ëĭ¤
ĠíĺĦ ìķĪ
Ġsuscep tibility
Ġê³Ħ ìĭŃëĭĪëĭ¤
ĠìĨĲ ìī½
Ġìĺ¤ ì§Ģ
b ug
Ġìłľ ë³´
Ġ ëł´
ë¹ ´
m other
Ġë¬´ ê´Ģ
ĠëıĮ ìŀħ
Ġìĺ¥ ìĥģ
Ġh iring
Ġìĸ´ ìĿ´
Ġinitial ize
ĠW right
Ġê³µ ë£¡
Ġì§Ħ ëıĦ
Ġë©Ī ì¶°
ê³ł ì¶Ķ
ĠìĿµ ìĬ¤
ê° ĵ
ĠìĿ´ ë³Ħ
Ġspecim en
ĠìĤ¬ íĥķ
Ġinstant ly
ĠíĶ¼ ìļ°
ĠL O
Ġë¸Ķ ëŁŃ
Ġê°Ģ ëĵł
ĠEnvironment al
Ġë¬¼ íĭ°ìĬĪ
Ġìłľ íĺķ
Ġë²¤ ì¸ł
Ġìħ §
ëĦĪë¬´ ëĦĪë¬´
ĠP RE
Ġê·Ģ íķľ
ĠE lement
ĠìĨĲ ê¸¸
Ġìķŀ ëĳĶ
ĠìĿĺìķ½ íĴĪ
Ġre wards
Ġë¶ĪìķĪ ê°Ĳ
Ġê¸° ë¯¸
Ġseason al
ì£¼ íĥĿ
ĠëĮĢ ìłĳ
ĠìĿµ íĺĢ
Ġì§Ģ ë¬¸
Ġë¹Ħ ìĹ¼
Ġpredominant ly
Ġphotograph y
Ġaddition ally
Ġ ëł¨
ĠìľĦíķ´ ìĦł
ĠM aterial
Ġíį¼ ìĦ¼íĬ¸
Ġëħ¹ ìĿĮ
ĠìŀĦ ë¬´
ë§Ī ìĿĦ
Ġ ëŁ½
Ġíıī ìĥģ
ĠìĽĮ ì¹ĺ
ĠëĿ¼ ê¸°
ìĸĳ ëħĲ
ĠìĻĶ ìĹĪ
ĠíĤ¤ìĽĮ ëĵľ
ess ment
ĠíĨł ë¦¬
íĮĮ íģ¬
Ġëªħ íļĮ
ĠìĹ¬íĸī ì§Ģ
Ġì¹ĺ ë§Ī
ëł Ĳ
Ġë°Ķ ë²łíģĲ
ĠìĹ°ëĿ½ ì²ĺ
Ġìĺ¤ ë©Ķ
ê°Ģ íı¬ë¥´
Ġoptim um
Ġìķ¼ ë¬´ì§Ģ
Ġnucle i
ĠS G
ĠìĦ¸ ìļ´
ĠìĤ¬ íĩ´
Ġìĸ¼ ë£©
ĠëĮĢ ëĭ¤ìĪĺ
Ġìĥģ ìŀĦ
Ġë¸Įë¦¬ íķĳ
R ad
à ±
Ġìħĭ ì§¸
Ġsearch es
ê¸° ìĤ¬
ĠìłķìĪĺ ê¸°
ë¶ģ íķľ
Ġìľ¤ìĦĿ ìĹ´
Ġíķ¨ ìĪĺ
å ĩ
ë£ ½
Ġê¹ Ĳ
Ġì²Ń ë¬¸
Ġì³Ĳ ëĭ¤
s tring
Ġë°ľ ìĨ¡
Ġíķ¨ ìłķ
Ġmyocard ial
ĠìĨ¡ ìĿ´
Ġì§Ģ ìĦ±
íĮ ©
Ġì²´ ë¦¬
ë§Ī ìĿ´
Ġìķħ ê¸°
íĶĦ ë¦¬ì¹´
Ġì¶© ìĭ¤
ĠìĪľìĿ´ ìĿµ
ĠëĤ© ìŀħ
ìĭĿ ìĤ¬
ĠìŀĶ ëĶĶ
Ġab dominal
ĠíģĲ ë¸Į
Ġìĸĳ íķ´
ĠìĮĵ ìĿ¸
ĠìĹĦ ê²©
ĠìĪĺ ìĦ±
ĠìĹ° ìĦ¤
Ġíķ´ ì§Ģ
Ġê¸°ìļ¸ ìĿ´
Ġst oring
Ġê¹ľ ë¹¡
Ġmaintain s
Ġìĥģ ìĥĿ
ĠëıĻ ëł¥
Ġëħ¸ ìĤ¬
Ġë¨¹ ë°©
Ġìĺ µëĭĪëĭ¤
Ġworth y
ĠìłĦ ê²½
Ġëĭ¤ìĿ´ìĸ´ ë¦¬
Ġê²° ìĿĺ
Ġê²½ì°° ì²Ń
Ġextrac ellular
Ġëĥ ħ
ĠìķĦ íģ¬
Ġë¶Ħ íĻį
ìļ¸ ëłĽ
íĻĶìŀ¥ ìĭ¤
Ġê·¸ ëŀľëĵľ
ĠìĦľ ê·Ģ
Ġaggreg ation
W R
ê¹ ľ
ĠìĿ´ë»Ĳ ìĦľ
Ġëª° ë¦¬
Ġì±ħìŀĦ ì§Ģ
ë¶Ģ ì§Ģ
ëłĪìĿ´ ìħĺ
Ġê¹Į íİĺ
ĠIN S
ìĦł ë¬¼
ìº ł
ĠíĬ¹ ìķ½
ì§Ģ ë¥´
Ġíķł ìĪĺë¡Ŀ
ìĵ° ê¸°
ĠíĶĦ ëŀľ
Ġmetall ic
Ġê°Ģ ì§ľ
å ī
ĠìĿ´ ëĮĢë¡ľ
ì°¨ ê·¼
Ġê° ¬
Ġíķĺ íķĺíķĺ
ĠëĤ´ ë°Ģ
ĠíĮĮ ìĹħ
Ġì²´ ê°Ĳ
Ġsimult aneous
ĠìķĦ ì¤Įë§Ī
Ġê³¨ ëĵł
Ġ ëł¹
ĠìĿ¸ ëĮĢ
Ġë°± íĺĦ
ĠìĬ¤íĶ¼ ëĵľ
Ġë¯¸ ëŁ¬
Ġìŀī ê¸Ģ
Ġë½ Ĳ
ĠíĻĶ ì§Ī
ear ing
ëĮ ķ
ĠìĿĺ íķ´ìĦľ
Ġì§Ħ ìĹ´
ĠìıŁ ìķĦì§Ģ
ĠìĤ¬ ëł¹
ĠìļĶ ìĽĲ
Ġì¦Ī ìĿĮ
Ġê°ķ ëł¬
ìĺ¤ íŀĪëł¤
ĠìĥĪ ê²¨
Ġaccept ing
Ġelect romagnetic
ĠS cript
ĠìĤ´ íĶ¼
ì²ł ìĪĺ
æ ł
Ġíģ´ ë¡ľ
Ġëĵ¤ìĸ´ ìĺ¬
Ġnetwork ing
Ġê° ĩ
Ġì½Ķ ìĸ´
ob j
Ġë¹ł ì§Ĳ
ti zation
ê· ¤
N one
ĠìĬ¤íĶĦ ë§ģ
ĠìĹ´ ëł¤
ĠìĭŃìŀĲ ê°Ģ
Ġë¶Ģ ë¥¸
ĠíĮĮ ìĨĲ
ĠëıĻ ìĦ±
ĠëĴ¤ ìª½
ĠB O
ĠíĹ ¹
ê± ±ìłķ
ìłķ ëıĻ
Ġëĭ¤ìļ´ ë¡ľëĵľ
Ġë¶Ģ íĦ´
Ġê²¬ ëĶĶ
Ġì§Ģ ì¹ľ
ĠëĤĺ ìĦ¤
Ġëª¨ ìķĺ
ìĸ´ ëĦ£
å ¯
ĠëıĮ ëł¸
ĠìĿĳ ìļ©
Ġê¹Ģì¹ĺ ì°Įê°ľ
Ġë§ĪìĿĮ ê»ı
ç ¨
ëĳĺ ì§¸
ĠìĤ¬ìĹħ ìŀ¥
Ġê³ł ë¥¼
ĠìĿ´ìłľ ìķ¼
ĠëĴ· ë©´
Ġê·¸ ëł¸
Ġê±´ëį° ìļĶ
ĠëĶľ ëŁ¬
ë¹ ħ
Ġê³µ ì§ľ
ì¹¨ ëĮĢ
Ġë¸Į ë£¨
íķł ë¨¸ëĭĪ
Ġunder taken
ìĿ´ ìľł
ĠI CT
ìĹĲ ìĸ´
ĠíĿĶ íķĺ
ĠìķĦê¸° ìŀĲê¸°
Ġë°Ķëĭ· ê°Ģ
Ġë²Ħ íħ
íĢĺ ìĸ´
ĠN K
ĠìķĮëłĪ ë¥´ê¸°
Ġëĵ¤ìĸ´ ê°ĳëĭĪëĭ¤
Ġrecord ings
ë¬¸ íķĻ
Ġìħ ľ
ĠíĮį íĮį
ĠëĳĲ ê¸°
Ac tivity
ĠìĭľíĤ¨ ëĭ¤
Ġdismiss al
ĠìĿ¸ íĦ´
Ġë¸Ķ ëĿ¼ìĿ¸ëĵľ
Ġëĭ¨ ìĽĲ
ĠìĽĲ íĺķ
ìķĦ ë¦Ħ
Ġì»¨ íħĲì¸ł
Ġassess ments
Ġë¹¼ ëĨĵ
Ġì°¬ ìĦ±
ĠìĪľ ëĳĲë¶Ģ
ĠìĹ¬ íĮĮ
Ġìĸ´ìļ¸ ë¦´
ë§ŀ ì¶¤
Ġconf ined
Ġëĵ¤ìľ¼ë©´ ìĦľ
Ġì¶Ķ ìĽĮìĦľ
å Ł
Ġlong est
Ġemploy ing
êµŃ ë¬¼
íĥĢ ìŀĦ
ĠíĦ° íĤ¤
Ġìļ° ìĻĢ
at ility
ä ¹
Ġcreat ure
" :
Ġì¥¬ ìĬ¤
ĠëĪĦ ë¦´
Ġë¬´ ìŀ¥
ĠìĤ¬ë§Ŀ ìŀĲ
Ġê± Ķ
Ġì´Īëĵ± íķĻìĥĿ
Ġì¹´ìļ´ íĦ°
ĠìĹ´ ë¦°ëĭ¤
Ġì¡°íķ© ìĽĲ
ĠìķĪ ëĭ¤
ĠíĴĪ ìłĪ
Ġëĭ¤ ëĵ¬
ĠìĿĺ ê²°
Ġë¬´ìĦľ ìĽĮ
i encies
ĠO C
Ġê·¸ ëĭ¤ì§Ģ
ìłĲ ìłĲ
ì¥ ¬
ìķĦ ìļ¸ëŁ¬
ìĿĮ ë£Į
yn thesis
Ġë¬´ ìĿ¸
Ġê¶Į ìľł
Ġë¯¼ ë§Ŀ
Ġìĺ¤ ë¥¼
Ġê±¸ ëł¤ìĦľ
Ġëĭ¤ ì§Ħ
ĠìĨĮ ìľĦ
op tions
Ġì¤ĳ ë³µ
Ġìĭľ ì§ĳ
ìĵ ±
Ġê¸°ìĪĻ ìĤ¬
Ġëª¨ ëĵ¬
Ġë¶Ģ ë¥¼
Ġë³¸ ëĭ¤ë©´
Ġê±° ìłľ
íĺĦ ì§Ħ
U B
Ġì°½ ê°Ģ
ĠëĤ¨ ê¸´
Ġë©Ķ ê°Ģ
Ġdownload ed
Ġì§ĢëĤĺ ê°Ķ
ĠíĦ° ìł¸
Ġê³Ħìķ½ ìĦľ
ĠìĿ¸ ëĶĶ
Ġêµ¬ ë³Ħ
W A
Ġapproach ing
ĠìĦ¤ëªħ ìĦľ
Ġíŀ Į
ĠS ession
Ġì§Ģ ë¦Ħ
ë¨¼ íĬ¸
ĠìĦľ íķ´
Ġìŀĳ ê³¡
Ġíķ´ ëªħ
ìĽĮ ëĵľ
Ġinvestig ators
Ġë¯¸ ìĬ¤íĬ¸
ë¶Ģ ëŀ´
ĠìŀĲ ìĤ¬
ĠìĭłìĥĿ ìķĦ
w ere
ì¸ Ħ
Ġì¶ľ íĺĪ
Ġë³µ ìĤ¬
Ġìĸĳ ëıĦ
Ġ: :
ĠìłĦë§Ŀ ëĮĢ
Ġìĸĳ ì¹ĺ
Ġìºĺ ë¦¬
ĠìķĪ ëĵľ
ĠíĻľ ê¸°
ĠìĦł ê¸ĢëĿ¼ìĬ¤
Ġíķľ ëĿ¼
Ġëĭ¤ ì¹ĺ
Ġìĥģ ìĿ¸
ĠM IT
ì½Ķ ìĺ¬
Ġclear ance
ëª¨ ë¡ľ
ê·¸ëŁ¬ ë©´
ĠìĪĺ ëŁī
Ġì§Ģ ê¸°
ĠìłĪ ê°ľ
IN S
ĠíĺĦ íĸī
Ġíİĺ ìĿ¸íĬ¸
Ġê·¹ ëĭ¨
Ġê´ĳ ìĹŃ
Ġìłĵ ê°ĢëĿ½
Ġìĥģ ê¸Ī
ĠìŀĲ ì¹«
Ġíķľê°Ģ ëĵĿ
ì½Ķ ìĿ¸
Ġexpect ing
ĠìĤ¬ ëª¨
Ġë¹µ ì§ĳ
Ġìŀ¥ ìĿ¸
Ġë¯ Ģ
ĠìĺĪ ê¸Ī
íĤ¤ ìĬ¤
Ġë¦¬ ëĵľ
ë¨¸ ìĬ¤
Ġëª¨ íĺķ
ĠìłĦ ë°©
Ġë Ĺ
ĠìĦł êµĲ
ĠOF F
Ġê³ł ìĿ¸
Ġì²ĺ ì§Ģ
Ġì¹´ ìĿ´
ĠíĻľ ì§Ŀ
ì§Ħ íĸī
Ġì£¼ ìŀħ
Ġex terior
ĠëĬĺìĸ´ ëĤ¬
ĠO D
íķĺ ëĭĪ
Ġëģ¼ ìĽĮ
U V
ĠëıĮ ìŀĶì¹ĺ
íĸ ĩ
ation ally
Ġíķ´ ì¤įëĭĪëĭ¤
ĠR B
ĠD ifferent
Ġëĵ± ê¸°
Ġìĵ´ ëĭ¤
Ġìĺ¬ëĿ¼ ê°Ī
Ġíİ¸ íĸĪ
ìļ© ì°¨
ĠëıĻ ë§¹
é ķ
ĠíĽĦ ì¶Ķ
ëŁ¬ ìĽĮìĦľ
ĠA RE
Ġì±Į ë¦°ì§Ģ
Ġfor Each
Ġíķ´ ì¹ĺ
Ġrestr ict
Ġë²¨ íĬ¸
Ġìĭ¤ ê¸°
ìĬ¤íĭ° ë²Į
ĠíĹ¤ ìĸ´ì§Ģ
ëĮĢ ìĭł
ĠëĬĶëį° ëıĦ
ĠìĨĮ íĻĢ
Ġinvest ing
Ġë©´ ìłľ
Ġëĭ¬ëĿ¼ ì§Ī
ê¸ į
ĠìĨĮ ìļ©
ĠìķĦ ìĤŃ
ĠPro gress
ì¶ §
ëĵ £
ĠëĦ ¹
Ġconsult ation
Ġ ëłĽ
ĠJ P
Ġëĭ¨ ë§Ľ
ĠìłĦë¬¸ ìĿĺ
ĠìĹ¬ íĥľ
Ġdesign ers
Ġìĸ´ì© ľ
Ġíĸī ë³´
Ġë¡ ¬
ĠìĨį ìĦ±
ìĹ° êµ¬
Ġì§Ģ ìłĢë¶Ħ
ĠìĿ¼ë³¸ ìĸ´
Ġì·¨ íķ´
ĠìĬ¤ì¼Ģ ì¤Ħ
ìĤ¬ íļĮ
ĠìĿ¼ ìĿ¼
Ġì¼ Ħ
ìļĶ ê¸°
ĠëĦĺ ì³Ĳ
ĠìĿ´ ë©ĶìĿ¼
Ġíľ´ ì§Ģ
Ġpsych ology
Ġë³Ħ ê±°
o j
Ġinclus ive
Ġê³µ ì²ľ
Ġë¶Ħ ìĭĿ
ĠìľĦ íĥģ
ĠëĮĢ ë²ķìĽĲ
ĠH F
Ġê°Ĳ ìĪĺ
w ould
ëĶ ´
Ġì¹ĺ ìķ½
è »
Ġschedul ing
Ġëĭ¹ ë©´
Ġëħ¸ëŀĺ ë°©
ĠìĤ° ë¦¼
Ġìº Ħ
Ġë Ŀµ
Ġê³ł ëĤľ
Ġê·¸ ìķ¼ë§Ĳë¡ľ
ĠëĮĢ ìĦ¸
Ġë¶ķ ê´´
Ġê³ ½
Ġëĭ Į
Ġreported ly
ëłĪ ìĿ¸ì§Ģ
Ġì°¾ìķĦ ìĺ¨
ĠìĿ¼ ìĪĺë¡Ŀ
Ġcondition ing
Ġë³´ ìŀĦ
Ġê²¬ ê³¼
Ġì¢Į ìłĪ
Ġimp ressed
ĠF TA
Ġê½ĥ ëĭ¤ë°ľ
ìĤ Ĳ
ĠìķĦ ìļ¸ëłĽ
Ġê¸° ëĳ¥
Ġìĩ Ħ
A I
Ġë¯¸ íĮħ
Ġíĺĳ ë°ķ
Ġthrough put
Ġìłľì¡° ìĹħ
ĠêµĲìľ¡ ë¶Ģ
Ġëħ¸ ëŀĳ
ĠëĮĢ íĮĮ
ĠíĽĦ ëĭ¤ëĭ¥
ëĦ¤ ìĭľìķĦ
ê·¸ ë£¹
Ġì°¨ ê·¼
ë¸Ķ ëŁ¬
ĠëıĮ ìĿ´
Ġsustain ability
ĠìŀĶ ì¹ĺ
Ġëĸł ëĵ¤
ĠR P
Ġíķĺ ìľĦ
ìļĶ ë¦¬
ê¿Ī ì¹ĺ
Ġì° Ŀ
ê²½ê¸° ëıĦ
ĠëĤ´ ìĪĺ
Ġì£¼ ë¥ĺ
Ġìŀĺ ëĿ¼ìĦľ
íİĺ ìĿ´ìĬ¤
Ġprotes ts
Ġëķħ ì½©
ĠìłĢ ìłĪë¡ľ
Ġmodel ed
ĠìķĦ ëĬĳ
Ġë³´ ë¬¼
Ġreceip t
ĠëıĮìķĦ ê°Ī
Ġë¶Ģ ìłģ
Ġíķ´ ìĦ¤
ĠìĥĿ ê°ķ
ĠìĤ° íķĺ
Ġë¹Ħ ë¡Ģ
Ġë§Ĳ íĪ¬
Ġëĸ¨ ë¦¬
Ġëį° ìļĶ
ĠìĨĲ íĿ¥ë¯¼
Ġsuper vision
Ġìŀ¡ ì§Ģ
Ġwarn ings
ĠêµŃë°© ë¶Ģ
Ġadjust ing
Ġëª° ìķĦ
ĠìĽĲ ê°Ģ
Ġìĺ¬ëĿ¼ ê°Ħ
Ġìĥģ ìĿĺ
graph y
Ġíļ¨ ìĨĮ
Ġë§Ĳ ëł¤
ë²Ħ ê·¸
ĠProduc ts
ê¸Ī ìľµ
ĠIN T
ĠìĦł íĸī
ĠìĬ¤ ëħ¸
Ġë©Ķ ëĶĶ
Ġíķ´ ë°©
Ġëª© ìĤ´
ĠN L
ĠëĮĢ ì£¼
ĠìĻĢ íĶĮ
f ound
ĠìĽĲ íķľ
Ġì¢ĭìķĦ íķ´ìĦľ
ê±° ëł¸
Ġë§ ´
ëıĦ ì°©
Ġê·¼ ëĮĢ
Ġarbitr ation
ĠìķĦëĭĮ ê°ĢìļĶ
ĠB U
Ġc itation
Ġvolunte er
ê³Ħ ìłĪ
ĠíĨł ìĬ¤íĬ¸
Ġìķ¡ ìĥģ
Ġìŀ¡ íĺĢ
Ġë²łìĿ´ ì§ķ
ĠíĬ¸ ëĿ¼
M R
Ġìłķì¹ĺ ìĿ¸
ĠìĤ´ ë¦¼
ĠíķĺìĪĺ êµ¬
ì²´ ìĿ¸
Ġunder ground
ĠëŁ¬ ìī¬
ìĿ¼ ìļĶìĿ¼
Ġëĭ¨ íĺ¸ë°ķ
S everal
ĠíĽĦ ë°©
ĠíĨł íģ¬
ĠìĥĿ ìĨĮ
ĠìĹ¬ ìĤ¬
ĠL L
íĹ Ĳ
tim ore
ëľ °
Ġíŀĺ ìŀħ
ë¦ ħ
ĠìĦł ìłľ
ĠìĭĿ ê¸°
Ġíķł ê»ĺìļĶ
ĠìĦ± ë³Ħ
ĠíķĻ ëł¥
ĠìĦł ì¶ľ
Ġê±° ìĬ¬
ëĵ Ī
Ġìŀ¥ ë²½
Ġint end
Ġíİĺ ìĬ¤íĭ°ë²Į
Ġìłľ ê³ł
Ġíĺ¸ ìłĦ
ëĮĢ ìļĶ
ëķ Ĳ
Ġstrength s
ëĦ ¥
" #
Ġì§Ģ ê°ģ
ĠìłĲ íĶĦ
Ġë¹Ħ ë¡ľ
ìĹ¬ ì£¼
Ġpers pectives
Ġíķ´ ì¤ĺ
Ġìŀħ ìĸĳ
Ġre treat
ĠìĻĢ ìĤ¬ë¹Ħ
O ption
ĠJ T
Ġì¤ĳ ë¦½
Ġë§ī íŀĺ
ĠìĬ¤ ìĬ¹
Ġì²Ń ëĭ´
ĠìĤ¬ëĿ¼ ì§Ħ
ĠìĿ´ ëģĦ
ĠìºĲ ë¦¬ìĸ´
ĠG W
Ġê³¼ íķĺ
ĠìĬ¤íĥĢíĬ¸ ìĹħ
ĠíĤ¤ ì¹ľ
ëłģ íģ¬
ìį ©
Ġìĭ« ìĸ´
ëį° ìļĶ
Ġíĸī ì§Ħ
ab out
Ġì¶ķ ìłģ
Ġë¯¸ ë¤Ħ
ê» Ħ
ĠI Q
Ġconver ter
Ġì¹¨ ë¬µ
ë°Ľ ì¹¨
ëķĮ ë¬¸
Ġìĭ ¯
Ġorganis ations
Ġìĥ ¹
Ġresearch er
Ġë¯¸ ì§Ģ
ĠëĤĺëĪ Į
Ġë©Ķ ë°Ģ
Ġcorre ctions
Ġtransp arency
Ġê¶ģê¸Ī ì¦Ŀ
ĠìĬ¬ ë¦¼
ĠìĿ¸ ìĦ±
ĠìĤ° ëª¨
ĠB I
Ġìĺ¬ëĿ¼ ìĻĢ
ëĭ¹ ìĭľ
Ġì§Ħ íĿ¥
Ġë¨¸ ëĭĪ
ĠíķĻ ìĪł
ĠCommer ce
ĠêµŃ ëĭ¹
Ġtransf ers
ĠìĥĿ íģ¬ë¦¼
Ġìľł ëł¥
Ġëĸ¨ìĸ´ ìł¸ìĦľ
ĠëĮĢ ìĻ¸
Ġrespond ing
ç ½
æ ŀ
ĠIntell igence
Ġterror ist
ìµľ ê³ł
om eters
ĠD EL
Ġê³ł ìĬ¤
ĠìĿ¼ ê´Ģ
Ġìķ¼ ìĭĿ
ĠPro perties
ìłķ ë¦¬
Ġë©´ìĦ¸ ìłĲ
Ġw ished
Ġëħ¸ëŀĢ ìĥī
ìĪĺ ë¦¬
ĠëĨĢ ëŀį
Ġíķ´ ë¦¬
Ġst unning
ĠìłĦ ëĿ¼
ëĵŃ ëĭĪëĭ¤
ĠìĬ¤ ë©°
ĠìĬĪ íĮħ
ê³µ ê°Ħ
Ġëªħ ìĭľ
Ġë°ķ ìłķ
ë¸Ķ ë¦¬
Ġìļ° ìľĦ
ĠíĨµ ìĺģ
i ography
Ġëİ Į
Ġê³µ íľ´ìĿ¼
Ġê²½ ì¹ĺ
ìłĢ ìĬ¤
ĠO B
ĠíķĦ ìŀĲ
ĠëĳĲ ê»į
ëĤ´ ëł¤
ĠìĿ´ ë¸Į
ĠìĤ¬ ìĺ¨
Ġê·¸ë§Į ëĳĲ
Ġemerg ence
field s
Ġê°ķ ì¢Į
Ġëĭ¨ ë°ľ
ĠëĤľ ë°©
Ġíı¬ ê·¼
ĠíĴį ìĦł
íķ¸ ëĵľ
Ġê²¨ìļ¸ ì²ł
Ġìľł ë°©
Ġìĺ¨ ìłĦíŀĪ
Ġì¶ľ íĩ´ê·¼
cl osure
ell ence
ë¥´ ë¥µ
Ġëª» ì§Ģ
ĠíĭĢ ë¦¬
ê°ķ ìķĦì§Ģ
ĠíĪ ´
ê³łìĸĳ ìĿ´
ĠëĳĲêº¼ ìļ´
Ġìª½ ì§Ģ
Ġêµ° ìĪĺ
Y Y
Ġì°¬ ìĸĳ
ĠëĤ© íĴĪ
ìĨĮ ê¸Ī
Ġë©Ģ ì©¡
ĠíĶĦë¦¬ë¯¸ ìĸ´
ĠìĻ¸ ë©´
ĠìĺĪ ìĦł
Ġelectro ly
ĠìłĦ ìĦł
Ġê³¨íĶĦ ìŀ¥
Ġë²łìĿ´ ì»¨
ĠíĥĢ ìłĲ
Ġstrength en
Ġì¶Ķ ì²¨
ê¿ į
Ġì¶Ķ ì¸¡
Ġë°ľ ì¹ĺ
ĠìĨĮ ìħľ
Ġultras ound
Ġë¬¼ ìĶ¬
Ġíķľ ìĿĺìĽĲ
Ġswitch es
re ction
Ġë§ī ë§ī
ĠìĽĮ íĤ¹
Ġê²¬ íķ´
Ġê¼¬ ë§Ī
ĠP OS
Ġëª° ìŀħ
Ġal together
Ġmunicip al
Ġë¦¬ ìķĦ
Ġë°Ģ ì°©
ĠìķĦ ëĤĺ
Ġìĺ¬ ë¦½ëĭĪëĭ¤
V M
ĠìłĪ ë§Ŀ
ĠìĪĺ ëª©
ĠëĿ¼ìĿ¸ ìĹħ
Ġì¹´ íħĮ
ì¡° ìĦł
Ġconclud es
Ġì¦Ŀê¶Į ìĤ¬
Ġìľł ë¬´
Ġìķ¼ ìĥĿ
ì¨ ĭ
ĠìĶ ½
Ġëªħ ìĨĮ
ĠìĦ± ìĪĻ
Ġh iding
ìłĦ êµŃ
ĠíĶĮëŀĺ ëĦĪ
w estern
ĠD F
ìĹ Į
Ġìµľ ê°ķ
ë¤ ĺ
Ġëĵľ ë¡ł
ĠìĿ´ìĸ´ ì§Ħ
ìī Ĳ
Ġì¿¼ íĦ°
Ġget Element
ìĸ´ ë¡ľ
Ġì¹ĺ ëªħ
Ġëĭ¬ ëł¸
Ġíķľ ë¯¸
Ġì¡° íķŃ
ĠíķĻ ë¬¸
ĠProced ure
ìĺĽ ëĤł
Ġìŀħ ìłĲ
ìĺģ êµŃ
Ġì§ĳ ìĤ¬
v oid
Ġíĥľ ìļ°
Ġê»į ëį°ê¸°
Ġíĥľ íıī
ĠìĿ¼ ìĽĲ
ĠK S
Ġsegment ation
ìķ¼ ì§Ģ
Ġì²ł ìĪĺ
ìłķ íĻķ
Ġë¶Ī ë¹Ľ
ĠëĳĺëŁ¬ ìĭ¼
ĠE CT
Ġëĸł ìĦľ
ĠëģĦ ëįķ
Ġì±Ħ íĮħ
Ġë©ķ ìĭľì½Ķ
ĠV IP
Ġì§Ħ íĨµ
Ġì¹µ íħĮìĿ¼
ĠíŀĪ íĬ¸
ìĿ´ ê±¸
Th rough
Ġcommand er
Ġclean ed
ĠF ellow
Ġê²ł ìĸ´ìļĶ
ëĭ¤ ë¥´
ĠëĨį ìĤ°ë¬¼
Ġìĭľ íĿ¥
ĠìļĶ íķľ
Ġê±´ ìĪĺ
the ir
ĠìĽĮ ìĭľ
Ġë ĩ¨
è Ń
Ġmin istry
Ġê³łëĵ± íķĻìĥĿ
Ġíķ© ì³Ĳ
é ļ
ĠìĤ¬ ì£¼
Ġquestion ed
å ¥
ĠM echan
ĠìĺĪ ëĬ¥
Ġë¹Ħ ìľł
ëłī ìħĺ
ê³¡ ëıĻ
Ġíľ´ê²Į ìĨĮ
ĠìķĦ ìĿ¼ëŀľëĵľ
Ġimp orted
Ġìĭł ìŀĦ
Ġtransplant ation
ĠíĥĦ ìĪĺíĻĶë¬¼
ĠëĳĲëł¤ ìĽĮ
Ġinf ectious
Ġì£¼ ìĦĿ
ĠQ R
Ġë¶Ħ ìĤ°
Ġworld s
Ġìķŀ ìŀ¥
ë§¤ ìļ´
V A
ĠëıĦ ëĦĽ
Ġnovel s
Ġenrich ed
Ġì¤Ģ ìĪĺ
ĠëĤł ëĿ¼
Ġìĭľ ìłķ
Ġlower ed
ĠìĿ´ ìĻķ
Ġë°Ķ ê¾¼
ĠìĽ¨ìĿ´ ë¸Į
end icular
ĠìķĦ ê»´
Ġìĥ¤ ë¸Į
ĠìĬ ¥
ĠìĨĮ ìĻ¸
Ġp ension
ĠëĤ´ ë¹Ħ
íĨł ìļĶìĿ¼
Ġë¦¬ íı¬íĬ¸
ĠìĿ¸ ë¯¼
ĠC ertain
ê°Ħ ìŀ¥
ĠìĬ¬ ë¦¬
Ġìľ¼ ëĿ¼
ĠìĿ¼ íĻĺ
Ġìĥ¤ë¸Į ìĥ¤ë¸Į
Ġëª¨ ìľł
ìľł ìĤ°
ĠìĦľ ëŀį
Ġì§Ģ ëĬ¥
Ġìļ° ìĹ°
Ġtransform ations
Ġìĭ¤ ì¢ħ
Ġê¹Ģ íĺĦ
Ġê°Ħ ë¶Ģ
ìĬ¤íĬ¸ ëĿ¼
Ġë§ŀ ìĦľ
Ġì¤ĳ ë¬¸
Ġê°ľ ìŀ¥
íĨł ë¡Ŀ
Ġë¬¸íĻĶ ìŀ¬
ĠìĦ± ëıĦ
V E
Ġin ability
Ġì´Ŀ ìŀ¬
Ġì§Ģ ì³Ĳ
Ġdiscuss es
ĠìĿ´ ë¶Ħ
ĠD N
Ġìĸ¼ íģ°
Ġê» Ģ
Ġëĭ¬ ìķĦ
ì ¬
in ction
Ġë°ľ ëłĪ
ĠìĦľ ìļ´
Ġìĭ± ê°Ģíı¬ë¥´
Ġê³ł ê¹ĥ
ĠL M
ìŀĲëıĻ ì°¨
ĠëĬĲê»´ ì§Ī
ĠìĻ¸ ìļ°
Ġìłķ íĨµ
Ġì§Ħ ìĥģ
Ġtempor arily
ìĸ´ ì¨Įëĵł
ĠëĤ¯ ìĦł
Ġëª¨ ê¸Ī
Pe ople
Ġremind ed
Ġindict ment
Ġê°Ģìł¸ ìĺ¨
ĠìĬ¤ íĭ¸
íķĦ ìļĶ
íĹ ¬
ĠìķĪ ëıĻ
Ġíİ¼ ì³¤
ĠëĤł ì¹´
Ġìĺ¤ ëĶĶìĺ¤
ì§Ģ ìĹŃ
d et
Ġë°ĺ ë°ķ
Ġbe ating
Ġì¹ĺë£Į ë²ķ
Ġíĺ¸ ëĳĲ
Ġgovern ed
Ġì°© ìĪĺ
Ġë¶Ģ ì´Ŀë¦¬
ĠìĪĺ ìľĦ
Ġexclud ing
Ġìĭ¤ ìłĦ
Ġstrong est
Ġë° §
ĠìŀĦ ì°¨
ë¶Ģ ëĵľ
Ġê°ģ êµŃ
ĠìłĦ ëıĦ
Ġìļ´ëıĻ ìŀ¥
ì£¼ ìĿ¸
ëľ ¸
Ġêµ¬ íķł
Ġê±° ëĭĪ
Ġìłľ ê²Į
Ġì§ĳ ê°Ĵ
ĠìłĢ ëŁ¬
ĠìĦľ ê¸°
H aving
G M
ĠëģĿ ëĤ¬
ìĹĳ ìĬ¤
Ġcompet ent
Ġê°Ħ ì§ģ
Ġneighbor ing
Ġê±° ëĴĢ
ĠìķĦ íĶĮ
Ġëª¨ ëĵĪ
Ġdemonstr ation
ĠìĥĿ ê³Ħ
ĠìĤ¬ ê±°ë¦¬
Ġëĵľ ìĦ¸ìļĶ
Ġìĸ¼ ë¦¬
Ġê´ĳ íĻĶë¬¸
Ġì²ľ ìĸµ
ĠíĴį ë¯¸
Ġë³´ìĿ¼ ëŁ¬
ìĤ¬ ìĹħ
ĠíĻĺ ê¸ī
ĠëłĪ ìĿ´ìĸ´
ĠëıĮìķĦ ìĺ¬
Ġëŀ ¬
Ġìłķ íĸĪ
Ġê²½ ìĤ¬
ĠíĥĦ íķµ
ail and
ì°¨ ìĿ´ì¦Ī
ĠëłĮ ì§Ģ
Ġappropri ately
H P
Ġê³¼ ìĻ¸
Ġê°Ħ íĺ¸
Ġìĸ´ ì§¸
ë¸Įë¦¬ ëĵľ
ĠìłĲ íı¬
Ġíıī ìĸĳ
Ġìĭľ ëĦĪì§Ģ
Ġë³´ìĹ¬ ì¤Ģ
ìłĪ ê¸°
ĠëıĮìķĦ ìĻĢìĦľ
cript or
Ġë¹¨ê°Ħ ìĥī
Ġë¬¸ ë²ķ
ĠíĺĪ ëĭ¹
ĠìĨĲ ë°Ķëĭ¥
ĠI RS
Ġê¸° ì¡°
ĠM ission
êµ¬ ë§¤
Ġëª© ê²©
ĠíĤ¤ ë³´ëĵľ
íıī ê°Ģ
ĠëĨĴ ìĺĢ
Ġcreat or
ë» ĳ
ĠíĿĺëŁ¬ ê°Ģ
Ġê¸° ìłĪ
Ġhydro ly
Ġseven th
Ġëªħ ìĦ±
ë§Ī ìĿ¼
ĠíĥĲ ë°©
Ġì¡¸ ëĿ¼
ĠìĻľ ê³¡
êµ¬ ìłķ
Ġëªħ ëıĻ
ĠëĬĲê»´ ì§Ħëĭ¤
Ĳ ĥ
Ġìĭľ êµŃ
Ġì¡° ë¡Ģ
ĠìĿ´ ì£¼
ĠìĬ¤ íĢĺìĸ´
ĠìĽ¬ ë§Į
Ġë§ŀ ëĮĢ
Ġê·¸ì¹ĺ ë§Į
Ġíĥľìĸĳ ê´ĳ
Ġë¯¸ìĹŃ êµŃ
Ġìĺ¤ ëĭĪ
Ġcollabor ative
ĠëĤĺ ëħ¸
Ġê³łëĵ± ìĸ´
Ġìŀħ ì²´
Ġìĸĳ ë³´
ìĿ´ ëıĻ
ĠíĶ¼ íĬ¸
Ġìĺ¨ ëĭ¤ê³ł
ìĪ ²
Ġíĥľ ê·¸
ìĬµ ê¸°
i ances
ĠëĬĲ ë¦¬
ĠìĦłì§Ħ êµŃ
ĠìĿ´ ë£¬
Ġtradition s
Ġë³Ģ íķ¨
Ġê¹Ģ ëıĻ
Ġìŀħ íŀĪ
Ġhydro x
R C
Ġr ivers
Ġinflu ential
Ġë¬´ ìļ©
íĨł ë§ĪíĨł
ê² ī
ê³µ ìĽĲ
Ġê³¨ ëĿ¼ìĦľ
Ġìĭ¤ ê¹ĮìļĶ
ĠM aterials
f irst
Ġêµ¬ ë§Į
ĠíĹĪ íĹĪ
ĠìĹħ ë¡ľëĵľ
ĠìĦ¤ ê±°ì§Ģ
Ġìłĳê·¼ ìĦ±
Ġìĭ¸ ìĿ´
à º
Ġì¶ľ êµŃ
ëĶ° ë¡ľ
ë°© ìĨ¡
Ġsurprising ly
Ġover set
Ġì¶Ķ ëĿ½
Ġìķł ìĿ¸
ĠìĿ´íĥľ ìĽĲ
Ġê²Į ìĿ´íĬ¸
ĠëıĦ ìķ½
ìĻ¸ êµŃ
Ġvisual ization
Ġì°¨ ì£¼
ĠíĴį ê¸°
P ublic
ĠíĶ¼ íģ¬
ì¶Ķ ê°Ģ
Ġìĭł ìĿ¸
Ġìĺ¤ë¦¬ì§Ģ ëĦĲ
ĠìĬ¤íĮĮ ê²Įíĭ°
ĠìĬ¤ íħĿ
Ġìĭľ ì¹´
Ġstress ed
ĠìĪĺ ì¶ķ
Ġind ent
ĠíĬ¸ ë¡ľ
ĠíĮ¨ ì¹ĺ
Ġê²½ ìľł
Ġìķħ ë§Ī
= >
Ġcontinu ity
Ġëª©ìłģ ì§Ģ
Ġëµ Ļ
Ġë£¨ íĬ¸
Ġcompat ibility
Ġê²½ ê³¼
c ount
SE LECT
Ġinf usion
Ġíķĺ ì²´
Ġì°¾ìķĦ ë³¼
ìŀĲ ê¾¸
Ġreserv es
ĠìķĦìĿ´ íĮ¨ëĵľ
Ġíľ´ ìĸĳ
ĠìŀĲ íļĮìĤ¬
Ġìĥī ëĭ¤ë¥¸
íģ ĺ
ĠìĽĲ ì¡°
ĠìĬ¹ ì§Ħ
Ġì¤ĳ íĻĶ
ĠìĪĺ ìłĢ
ĠO thers
ĠëĨĴ ìĿ¼
Ġd ancing
Ġcont ing
ĠìĿ¸ ëĤ´
ìĨĮ ê°ľ
Ġëĭ¤ê°Ģ ìĻĶ
Ġì²Ń ìĤ¬
ĠëĤĺ ìĿ´íĬ¸
Ġì£¼ ë¬´
Ġsuccess ive
ìĸ¼ ë¥¸
ĠëıĦ ë¯¼
ĠAll iance
ëľ ¬
Ġíķľëĭ¤ ë©°
Ġì¤Ħ ê²Į
Ġë³¼ ê±°ë¦¬
Ġê±´ì¶ķ ë¬¼
Ġíķ´ ë³¸ëĭ¤
Ġê¸Ī ê°ķ
Ġìµľ ëĭ¤
ĠìĨĶ ìĨĶ
Ġê°ģ ì§Ģ
ter ing
ĠìĤ¬ëĿ¼ ìł¸
Ġspread s
Ġê¸ī íķľ
Ġìĵ ±
ìĦľ ë¹ĦìĬ¤
ì£¼ ìĨĮ
ë§Ī ëĬĺ
F i
ĠV C
ĠìłĦ ìĹ¼
íŀĺ ëĵ¤
Ġì»¤ ìĬ¤
ĠìĹ¬ë¦Ħ ì²ł
Ġëª¨ ìĿĢ
Ġë¬¼ íļĮ
ì§Ģ ëıĦ
ìĿ¸ íħĮë¦¬ìĸ´
Ġíĺ¸ ëŀĳìĿ´
Ġë³´íĹĺ ê¸Ī
Ġê±´ ëĦ¤
Ġìĺģ êµ¬
ĠíĶ¼ íķł
ĠìķĮ ì½Ķìĺ¬
Ġintroduc es
ĠëĮĢíķ´ ìĦł
íĺĦ ìĭ¤
Ġìĭľ ê°Ģ
Ġëª¨ ìĹ¬ìĦľ
Ġìŀ¥ ë³´
ĠíĮ¨ ë°Ģë¦¬
ĠíĨł íķĳ
Ġë§Īì¹¨ ëĤ´
Ġë¬¼ ëł¤
S ummary
Ġattend ance
Ġë©Ķ íĥĢ
ë³µ ì§Ģ
Ġoccasion al
ë¦¬ ìķĪ
ĠUnivers al
ë° ĭ
ĠìĬ¤ì¼Ģ ìĿ¼
Ġë§¤ìļ´ ë§Ľ
Ġa uction
Ġìĥģ ìłĲ
ĠT G
ĠëĤ¨ ìª½
ĠìĻķ êµŃ
Ġë²Ħ ë¦°ëĭ¤
ĠëģĮ ëł¤
Ġìļ© ìĹŃ
ĠëĤĺ ëĤł
Ġdisplay ing
ì· Į
Ġë³´ ì¡°ê¸Ī
t ended
ing ing
ìĤ° ì§Ģ
ĠìķĪ ê²¨
ê¸° ìĸµ
Ġë¶Ģ íĮ¨
ëķ Ģ
Ġëĵ¤ ëłĢ
Ġë³µ ë¶Ģ
Ġìľł ë£Į
Ġê¸°ëĭ¤ëł¤ ìķ¼
ëłĪìĬ¤ íħĮ
íķ´ ëĭ¹
ĠëŀŃ íĤ¹
ì ¾
Ġê³µ íĹĮ
Ġìļ° íİ¸
Ġì¡° ìľ¨
Ġê°Ĳ ì¶Ķ
Ġd aughters
ĠìķĦì£¼ ë¨¸ëĭĪ
Ġìį¨ ëıĦ
Ġìĭľ ëŁ½
ĠíħĮ ìĿ´íģ¬
ĠëĤ ¡
Ġë°ĺ íķ´
ĠëĬĲëĤĢ ëĭ¤
Ġê½ĥ ì§ĳ
Ġë§ī ëĮĢ
Ġì¦Ŀëªħ ìĦľ
ĠC AN
Ġs isters
Ġëĭ¹ íķ´
Ġin appropriate
Ġê¸¸ ê±°ë¦¬
Ġìķł êµĲ
Ġê·Ģ êµŃ
Ġì¤Ģ ê³µ
ìŀĲ ìľł
ĠìĥĿ ìķł
ëłĪìĬ¤íħĮ ë¡¤
Ġíı¬ íĦ¸
íĻĺ ìŀĲ
Ġëĭ¤ ìłķ
íĶĮ ë¦ŃìĬ¤
ìŀĲ ì¹ĺ
Ġìł ¼
ëįĶ ê¸°
Ġassign ments
ì´Ŀ ìŀ¥
Ġëħ¸ ìĽĲ
Ġì°¬ ìĬ¤
ë³´ íĹĺ
ĠìĤ´ íķ´
ìĦľìļ¸ ìĭľ
ëĮ ĵ
ê± ±
ĠíķĻ ëĮĢ
ĠìĦł ìłĦ
ĠêµĲ ì°¨
íķ ı
ĠE F
Ġìĥģ ê¶Į
Ġë°Ģíģ¬ íĭ°
Ġlegisl ature
Ġì°¹ ìĮĢ
ê¸° ëĭ¤ë¦¬
ìĤ¬ ìĿ´ì¦Ī
ĠëĮĢ ì§Ģ
Ġì°¨ìĿ´ ìłĲ
Ġur inary
ĠìĦł ìĦł
ĠìĿ¼ ê³±
Ġìłķ ìŀĲ
Ġperturb ation
ĠìĨĮ ìłķ
ĠíĨµ ë¡ľ
Ġrecall ed
Ġì¤ĳêµŃ ìĿ¸
Ġëį°ëł¤ ê°Ģ
ĠìŀĬ ìĸ´ë²Ħ
Ġì²Ń ìĸĳ
ĠìķĦíĭ° ìĬ¤íĬ¸
Ġë°Ķë¹ł ìĦľ
Ġíģ¬ ëłĪ
ĠW A
Ġinterview ed
ĠëĳĶ íĻĶ
Ġíı¬ìĬ¤ ì½Ķ
Ġpossess ed
ĠT aking
ìĺ¤ë¥¸ ìª½
Ġìĸ´ìļ¸ ëł¤
ëª¨ ë¥´
Ġwhere ver
ĠìĥĿ ê¹Ģ
Ġì´Ľ ë¶Ī
Ġì¤Ħ ì¤Ħ
ê²° ë¡ł
Ġë¬´íķľ ë¦¬íķĦ
m aster
Ġabnormal ities
ĠG OP
Ġëħ¸ ìĺĪ
Ġêµ¬ìĦĿ êµ¬ìĦĿ
ĠíĥĪ ê±°
Ġcelebr ation
Ġtradition ally
ëĭ¨ ìłĲ
Ġres ize
ĠíĻĶ íĻĺ
targ et
ĠìŀĲ ëŀĢ
Ġì§Ĳ ìŀĳ
ç ·
ĠìĿ´ ëŀ¬
Ġtrans cripts
ĠíĬľ ë¸Į
Ġëªħ ìĥģ
Ġë²ł ìĿ´ì§Ģ
ĠìłĦ ëĭ¹
Ġë¶Ģ ìĸĳ
ĠìĬ¬ ë¡ľ
ĠëıĻ ëĮĢë¬¸
Ġcontr ac
Ġë¶Ħ ìĪĺ
Ġauthor ization
Ġê±° ì¹ł
Ġobserv ing
Ġìŀħ ë¬¸
ì»¤ ìĬ¤
b efore
ĠìĤ° ìłķ
Ġì§Ģ íį¼
ĠìĿ¸ ìłĳ
Ġìłķ êµĲ
Ġcontract or
ĠìĿ´ëªħ ë°ķ
ĠìķĦë¬´ ëłĩ
Ġê¸° ëł¥
ê² ¸
S O
Ġêµ¬ ë¡ľ
Ġíħ ħ
ìĺ¤ íĶĪ
ĠìĬ¤ ì½ĺ
Ġëª© íı¬
Ġì½ľëĿ¼ ë³´
ì²Ń ìĨĮ
Ġpreserv ation
ĠìĿ¼ëŁ¬ ìĬ¤íĬ¸
ĠëıĻ ìĦł
Ġë¨¹ ìĹ¬
ĠL TE
il ateral
Ġì± ł
Ġë¬¸ ëªħ
Ġìŀ¬ íķ´
ĠëıĻ êµ´
íı¬ ëıĻ
ĠìĤ ¿
Ġëķ¡ ê²¨
ëģ¼ ë¦¬
Ġìķ¼ ê²łëĭ¤
Ġíķĺ ìĸĹ
ĠìĽĲ ë³¸
ë¶ĢìĿ¸ ê³¼
ĠìĹĲ ë²Ħ
ĠìĥĪ ìĤ¼
ĠìĬ¤íĥĢìĿ¼ ë§ģ
Ġì²Ńìłķ ê¸°
ëİ Į
ë¯¸ ì§Ģ
ĠìķĦìķ¼ ì§Ģ
íĺĦ ëıĻ
Ġsupplement ed
Ġì¢Į ì¸¡
ĠíĶĮëłĪìĿ´ ìĸ´
Ġë² Ļ
ĠëĤł ìķĦê°Ģ
Ġequival ence
ĠìĨĲ ìĪĺ
ë¿ Ĳ
Ġëº Ģ
ĠìĤ¬ ë©´
Ġë¬¼ ê¸°
Ġb ending
ĠíŀĪ ìĸ´ë¡ľ
Ġìķ¡ ìłķ
ĠìĪ¨ ê¸°
ĠíĶĦ ëłĪìĬ¤
ĠìĿ´ ìĭĿ
Ġì§ľìŀ¥ ë©´
ĠìĿ´ê±¸ ë¡ľ
ĠìĨĮ ë©¸
ĠëĬĺìĸ´ ëĤł
ĠìĿ´ ëĶ°
X T
Ġì°¨ ê¸°
ĠìĤ° ë¶ĢìĿ¸ê³¼
Ġtravel ed
ĠGP U
Ġchromat ography
íķĻ ìŀĲ
Ġexceed ed
Ġëª© ëıĻ
ĠìĤ° ëľ»
ĠìĹī ë§Ŀ
ì¶§ ê°Ģë£¨
Ġcontinu um
Ġperman ently
ĠC hemical
ìŀĳ ê°Ģ
Ġì°¨ ì§Ī
Ġíı¬ì§Ģ ìħĺ
ë ®
ë©Ķ ìĿ¸
Ġì¹¨ ì°©
ê²° ê³¼
ĠìĮ ©
ĠìłĦ ìĿ¼
Ġwarrant y
end ence
ĠìŀĲ ìĺģìĹħ
Ġë§¤ ìĽĶ
ìĥĪ ë¡ľ
ĠìĦ± ë¦½
ĠíķĺìĿ´ ë¸Įë¦¬ëĵľ
Ġëª¨ìķĦ ìĦľ
Ġê¶Į ìľĦ
ë¸Ķ ë£¨
Ġg aining
Ġmunicip ality
ĠCO M
Ġexperiment ally
Ġìĺ¤ ëİħ
ìķĦ ê¹Į
ĠìĹ° ìĭĿ
Ġë¶Ģ ìŀ¬
íĥĢ ë¦¬
Ġíĺ¸ ëĤ¨
Ġcomment ed
ë§¨ ëĤł
Ġ/ /
Ġpsych iatric
Ġì¤ĳ ë¶Ģ
ĠëĶ° ëĵ¯
Ġë³´íĺ¸ ìŀĲ
Select or
ìĦ¸ ìĿ´
ĠíĽĦ ìĨį
Ġìĸĳ íĺ¸
êµ¬ ìŀ¥
ì¹´ ì¹´ìĺ¤
Ġìķŀ ë¨¸ë¦¬
Ġì§Ģ ê·¹
Ġíķĺ íķĦ
Ġë īĺ
ail ure
Ġìķŀ ìĦł
ĠíĻķ ì¶©
Ġìŀħ íĺĢ
Ġë§ĿìĦ¤ ìĿ´
Ġë§Ŀ ê°Ģ
ĠIndustr ial
è ¿
ĠìĪĺ ëıĻ
Ġê¶ģ íķ©
ĠV ector
ĠP romise
Ġnormal ization
Ġì²ľ ì§Ģ
ĠA W
Ġìŀ¥ê¸° ê°Ħ
Ġë³´ê±´ ìĨĮ
íĶĮ ëŁ¬ìĬ¤
Ġëª¨ëĭĪíĦ° ë§ģ
ĠCommun ications
Ġstress es
ê·¸ ëŁ´
ĠL PS
ĠêµĲíĨµ ë¶Ģ
ĠíĶĦëŀľ ì°¨ìĿ´ì¦Ī
ĠìĹ¬ ìłķ
Ġretrie val
Ġëħ¸ë¬´ íĺĦ
íľ´ ê°Ģ
ĠE lectric
Ġë³¸ ëĬ¥
ĠM K
Ġtrans ported
ĠìŀĲ ë°ľ
Ġinvest ed
ìĸ´ ëĨĵ
ìĸ´ë¦° ìĿ´
Ġë¦¼ íĶĦ
Ġí į½
ĠìĬ¹ ê°Ŀ
Ġyield ed
ĠAltern atively
Ġenter prises
Ġê¶Į íķ´
Ġì°Į ê°ľ
Ġíķ´ìŀ¥ êµŃ
íĨ¡ ìĬ¤
ë³¶ìĿĮ ë°¥
Ġrevers al
ĠD H
Ġìŀ¬ íĺĦ
Ġìķŀ ìĦ¸
ĠëıĮ ë³´
Ġinstrument al
Ġê·¸ ë£¨
Ġëĭ¤ ë¦ħëĭĪëĭ¤
Ġgener ators
ĠIM F
Ġë³´ íĸī
Ġë°° ìĭł
ĠëŁ¬ ëĭĿ
ĠìĽĲ ëĮĢ
Ġinterf ere
ĠìĨĮ ìķ¡
Ġìŀ¬ê±´ ì¶ķ
Ġhypothes es
Ġê¸Ģ ìĵ°ê¸°
Ġìŀħ ìŀĲ
ë¯¸ ìĦ¸
Ġaccommod ation
ê·¸ ìłĢ
Ġëĸłìĺ¬ ëŀĲ
ĠC ategory
Ġover lo
ĠíĹ ī
ĠëĨĢ ëŀĢ
Ġaccompany ing
Ġëĭ¨ ë§Ĳ
æ Ħ
ĠëĵĿ íħľ
ĠíĤ ·
ĠìŀĲì¡´ ìĭ¬
ëħ¸ ìĨĮ
Ġíĥľ ìķĦ
Ġpreserv ing
ĠìĺĪë»Ĳ ìļĶ
ĠìĸĳëħĲ ìŀ¥
ĠìĹ £
Ġëª¨ ìĿ¸
P O
ìłĦ ëĤł
Ġê±´ ëĮĢ
Ġì²Ń ìĤ°
B N
velop ment
Ġë¶ĪëŁ¬ ìĦľ
Ġë ¾°
ĠìĨĮëĵĿ ìĦ¸
Ġê´Ģ ìĹ¬
Ġrefuge es
ê²¨ ìļ°
Ġbroad ly
ĠìłĬ ìĿĢìĿ´
ĠType Error
l ocal
Ġë°ľ ë¦¬
ìħĶ ëĦĲ
ì²ľ ëıĻ
Ġëĵ¤ ìľ¼ë©°
ĠëĨĢ ëŀ¬
ĠìĦ¸ ë©´
ê³Ħ íĥķ
ĠìłĦ ìķ¡
ĠìĿ¸ëıĦ ëĦ¤ìĭľìķĦ
Ġë°ľìłĦ ìĨĮ
Ġíķĺ ìĽĲ
Ġë¦¬ëįĶ ìĭŃ
Ġì§Ģ ëĤł
ĠìĬ¤ ìľĻ
ìĨ Ł
Ġìļ° ì²´
Ġë¬´ ìłľ
ìĸ Ħ
g iving
ĠëįĶ ëŁ½
Ġê¸° ì¶ľ
Ġinform al
Ġë³ĳ ìĤ¬
ĠëĮĢ ê±°
ĠëĤ¨ ë§¤
ĠìĨĮ ëĤĺë¬´
Ġì¶ľ ìĥĿ
Ġê¹Ģ ìŀ¥
ê½ ģ
Ġíĺ¸ ìĬ¤
Ġìłľ ëĦ¤
Ġ tended
Ġautom ation
Ġle verage
ĠíĥĢ ëĭ¹
Ġ ìģĺ
Ġëĵľ ë¬¼
Ġê¸ī ëĿ½
ĠTh ailand
ĠëıĦ ë°ľ
Ġìļ© ëıĪ
Ġe arning
ĠN J
ìĭł ê²½
ĠìĭĿ ìĬµê´Ģ
Ġë¦¬ ìĸ´
êµ¬ ë¦Ħ
ê³ł ìĥĿ
Ġíı¬ ì°©
Ġê¹Ģìłķ ìĿĢ
ĠìĽĲ ê²©
ĠOR DER
Ġoverse as
Ġë¶Ģ ìĤ¬ìŀ¥
ë©Ķ ìĿ´
Ġë¯¸ ì³Ĳ
ë§¹ ìĿ´
Ġexpress ly
Ġê°Ģ ëĶĶ
à §
ìłľ ëĮĢë¡ľ
Ġë¹ĦíĬ¸ ì½ĶìĿ¸
ëıĦ ê·¸
êµ¬ ë©į
ë°Ķ ìĿ´íĬ¸
Ġìľł ìĦł
ëħĦ ê¸°
ëįĶ ìĬ¤
Ġ ìµ¸
ĠìĿ¼ ì¶ľ
Ġl ighter
Ġì°¸ ìĤ¬
Ġìľ¡ ì¦Ļ
Ġëħ¸ ìĿĦ
ìĭľ ê³µ
PD ATE
ĠìŀĲ ìĪĺ
Ġemphas ize
ìĭľ íĬ¸
Ġlabel ing
Ġìķħ ìĦ¸
ì¦Ĳ ê±°ìļ´
ĠConfig uration
ĠíĮĲë§¤ ëŁī
Ġìĭľ ëĮģ
ìłķ ê·ľ
Ġì« Ļ
Ġì£¼ë¨¹ ë°¥
N F
Ġê³łë§Ī ìļ´
ĠíĭĢ ë¦°
S C
ĠíĨµìĭł ìĤ¬
ĠìĶ ģ
Ġë¶Ģ ìĭľ
Ġvulner ability
Ġëĭ¤ ê±°ëĤĺ
ë§¤ ëıĦ
Ġíĭ´ íĬ¸
ëĦ¤ ìŀĦ
ĠìĬ¤ ë¦¬
ĠëĤ¸ ëĭ¤
Ġê·¼ ëł¥
Ġê³¼ ìŀī
Ġì¡° ì¢ħ
Ġíķ´ êµ°
ĠìĨĮ ìĦ¸ì§Ģ
ĠìĿĢê·¼ íŀĪ
Ġëĭ¤ ë°©
ë¨¼ ìĬ¤
ĠìĿ´ ê¸¸
Ġíĺ¼ ìĿ¸
Ġìļ© ì§Ģ
Ġì¡° ìĥģ
ì¹´ ëıĦ
ê¸Ī ì¹ĺ
Ġ# ################
Ġì¹¼ ëĿ¼
Ġë¨¸ ê¸Ī
Ġì¹´ ì¸ł
ë¬´ ëł¤
Ġcontem pl
ê¶ Ĳ
íı´ ë¦¬ìĺ¤
Ġë¶ĢëģĦ ëŁ½
ĠëĶĶ ì¦ĪëĭĪ
ìĺ µëĭĪëĭ¤
Ġê¹Ģ ìŀ¬
Ġfound ing
ĠB H
Ġtransf ected
ê°ķ ìĽĲ
ĠíĺĦëĮĢ ìĿ¸
ë²ķ ìĿ¸
Ġíĺķ íİ¸
Ġë´Ĳìķ¼ ê²ł
Ġentreprene ur
Further more
Ġë³µ ëıĦ
ĠM aking
Ġìł¸ ìļĶ
ĠëĤŃ ë§Į
Ġexceed s
Ġíĥľ ìĽĮ
ĠChristian ity
Ġì°¨ ëıĮ
íģ¬ë¦¬ìĬ¤ ë§ĪìĬ¤
Ġscient ist
Ġê°ľ ì²Ļ
ĠëıĦ ìĪĺ
Ġìĭľ íĤ´
Ġê° ł
Ġíĥľ ìĸ´ëĤ¬
Ġë°ĺ ëĤ©
ìĪĺ ìĺģ
Ġì°¨ ìĦł
Ġëĭ¤ìĿ´ ìĨĮ
A PI
ê²Į íĬ¸
ĠK O
Ġëģ¼ ì¹ĺ
ĠíĮĮ ìĤ°
ĠìĨĮ ëŁī
ê°Ĳ ê¸°
Ġë¶ģ êµ¬
Ġìĺ¤ë©Ķ ê°Ģ
ì° Ķ
Ġorgan ize
Ġìķ½ ìĦ¸
ĠìĪĺ ëł´
ĠìĻł ë§Į
Ġíģ¬ë£¨ ì¦Ī
Ġëĵ¤ìĹ¬ ëĭ¤ë³´
æ ´
Ġë ¤
ĠìĹĶ ëĶ©
ìĿ¼ ë¶Ģ
Ġìŀ¥ ìĭľê°Ħ
Ġindirect ly
ê·¸ ë¦ĩ
Ġë³´ ìĤ´
Ġun related
ĠìĦ± ë²Ķì£Ħ
ĠM F
Ġnon pro
I K
Ġgovernment al
Ġì¼ ł
ĠìĹ° ë¹Ħ
Ġcontr action
Ġë¬¸ ìĭł
ĠìĽĲ íĸĪ
ëıĻ ìŀĲ
Ġdisapp ointed
ĠìĻĢ ìļ°
Ġëĵ¤ìĸ´ ëıĦ
ĠìĹ¬ ìĻķ
ìłĦ ëĵľ
ê·¸ ëĦ¤
ĠìĪĺ ê±°
Ġindex es
ìĹĲ ìĬ¤
ê·ľ ëª¨
Ġìº £
Ġë³´ìĹ¬ ì¤Ģëĭ¤
Ġimp lements
Ġpredict or
Ġëĵľ ë¦°ëĭ¤
Ġê·¸ ìłľ
ĠìĤ´íİ´ ë³¼
ĠìĹ° ê³ł
Ġê·¸ ëłĪ
Ġus eless
ĠëģĶ ì°į
Ġë¦¬ ë°Ķ
ĠíĬ¸ ëłģíģ¬
Ĳ ì§Ģ
Ġì¶ľ ìłľ
ë§ ĳ
Ġê¸° ìĦ¸
ĠìĤ¼ ì§Ħ
íķĳ íģ¬
ĠìľĪ ëıĦìļ°
ëĮĢ ì¤ĳ
Ġê´Ģ ìŀ¥
Ġëĭ¨ ìłķ
Ġë¶Ħ ë§Ĳ
ĠJ O
ìĭĿ ëĭ¹
ĠìľĦ ìª½
ë°Ķ êµ¬ëĭĪ
ĠëĳĲ íĨµ
ĠíļĮ ìĥī
Ġëĭ¤ëĭĪ ìĹĺ
ë³´ ëĿ¼
ĠíķĻ ìĤ¬
ĠìłĦ ìĤ¬
Ġì°¨ê·¼ ì°¨ê·¼
ĠìĤ¬ ì§Ģ
Ġë³´ ìłĦ
ì° Ŀ
ĠìľłëĭĪ íı¼
Ġê³Ħ ìħĶìĦľ
Ġë³Ģ íķ´
êµ¬ ëł¤
Ġexp ose
Ġë²½ ì§Ģ
ĠìĿ¼ íļĮ
Ġê¸°ëĭ¤ ë¦´
ĠìĹ° ìĤ°
ìĦł íĥĿ
Ġë³¸ ì²´
ĠìĽĲ ìľł
ĠëıĻ ìķĦ
ĠëĦĪ ë¨¸
ĠG U
Ġëĭ¤ìĭľ ê¸Ī
ĠHistor ic
å £
ĠìķĦ ë²Ħëĭĺ
ê¶Į ìŀĲ
Ġì°¨ ìĦ¸ëĮĢ
ĠìĽĢì§ģ ìĿ¼
Ġimprison ment
ĠìĤ½ ìŀħ
ê³¨ ëª©
ĠëĤ´ ìĭł
Ġì¦Ŀ ëĮĢ
Ġë³Ģ íĺ¸
Ġíİ¸ ê²¬
Ġsimilar ities
ĠT ables
Ġë£¨ ìĿ´
ĠíĬľ ëĭĿ
Ġsound ed
ê³ł ìĨį
Ġ- ------
ìĶ ½
Ġunder m
inter est
ìħĶ ë¦¬
Ġcolleg es
Ġìĭľì²Ń ìŀĲ
Ġíĺĳ ëıĻ
Ġë°Ķ ë¹´
ĠíĺĦ ë¯¸
ĠìĤ¬ ìĭľ
è ³
Ġëªħ íķ¨
ë£¨ ë¯¸
ê°ģ ê°ģ
ĠìĻĢìĿ´ íĮĮìĿ´
Ġìłķ ìĤ°
Ġë¦½ ìĬ¤íĭ±
Ġìľł ë§Ŀ
Ġsh ipped
ĠWH ERE
Ġprior ities
Ġêµ¬ ìłĪ
Ġì²Ńë¬¸ íļĮ
Ġë§Ī ë¸Ķ
Ġë¶Ģ ìĨį
Ġë¬´ ëł¥
Ġìĭ¤ íĥľ
Ġëį ±
íİ Ģ
Ġë³µ ìĬµ
Ġre lying
Ġìłľ ì²ł
ĠìľĦ íķ¨
ĠíĥĲ ìĥī
ì§Ģ ìĽĲ
Ġê³łê¹ĥ ì§ĳ
ìķĦ ìī¬
ê½ ¤
ìĻĢ ìĿ¸
ĠëĳĺëŁ¬ ìĭ¸
Ġë¹ Ķ
Ġíĺ¸íĿ¡ ê¸°
Th ough
ĠA verage
ì¡° ìĭ¬
Ġìĺģ ê°Ĳ
ĠT ABLE
Ġin timate
Ġë²ł ëĦ¤
ëĮĢ íķĻ
Ġìĸ ½
ëķ ¡
Ġpath ological
ĠìĽĲ ì²ľ
Ġê°ľ ë¯¸
Ġì¹´íİĺ ìĿ¸
ìĭľ ìĦ¤
Ġd urable
Ġ ê¶Ī
ĠëĤ Ģ
Ġë¯¸ ë¯¸
Ġíĺ¸ íĺ¸
Ġì§ĢëıĦ ë¶Ģ
Ġì²Ń ëŁī
Ġì£¼ ìŀ¬
ĠêµŃ ì±Ħ
Ġë¯¸ ìĬ¤
Ġê°Ģ ê¾¸
Ġlower ing
Ġexplan ations
C B
íı¬ ë¨¼ìĬ¤
Ġfunctional ities
Ġëį°ëł¤ ëĭ¤
ĠìĪĺ ìĬµ
W elcome
Ġintegr ating
Ġtrans c
Ġconstruc ts
ëıĻ ëĦ¤
Ġì¶Ķ ìĽł
Ġì¤ĺ ëıĦ
Ġë°° íı¬
Ġì¨ į
Ġë°ĺ íĻĺ
Ġê¹¨ëģĹ ìĿ´
Ġì°¾ìķĦ ëĤ´
Ġrefer enced
Ġìŀ¬ ì§ģ
Ġíķ´ ì²´
ì»¤ íĬ¸
Ġtraject ories
ìĽĶ ìļĶìĿ¼
Ġpreval ent
ĠìĿ¸ ìłľ
Ġìĸ´ëĬĲ ëį§
ĠëıĻ ìłĦ
Ġincorpor ating
Ġharass ment
ĠìĿ¼ë³¸ ìĿ¸
Ġëĵ¤ìĸ´ê°Ħ ëĭ¤
Ġprison er
Ġê³ĦëŀĢ ì°ľ
A meric
Ġì½ľ ëłĪìĬ¤íħĮë¡¤
F ROM
ĠíļĮ íĶ¼
Ġê´´ ë¬¼
ĠCR E
Ġsubst an
Ġìĺ¤íĨł ë°ĶìĿ´
ĠíķĻ ìĹħ
Ġíķ´ ê³ł
ĠëłĪ ìĬ¤
ë³´ ëĭ¤
ĠìĬ¹ ìļ©ì°¨
Ġìŀł ìĪĺ
ç ¤
ê°ķ ìłķ
Ġìĺ¤ ëĿ½
Ġë¦¬ ëĵ¬
ĠìĬ¤íĮĮ ìĿ´
Ġë°ľ ìĥī
ĠìĺģíĻĶ ê´Ģ
ìĿĮ ìķħ
Ġë Ŀ
ì´Ī ì½Ķ
ĠëıĦ ëĳĳ
ĠL ength
Ġìĭł ì§Ģ
Ġalgebra ic
ĠS IM
ĠìĿ´ ìĺģ
Ġwealth y
Ġë¹Ħë¡ľ ìĨĮ
Ġì²¼ ìĭľ
ëĨĴ ìĿ´
Ġinter c
ĠìĹĲ íĶĦ
W arning
Ġìľ¼ëł¤ ëĬĶ
Ġë³Ģ íĸĪ
ìĽĮ ëĤĻ
Ġë§ī íĺĢ
ĠìŀĶ ìŀĶ
D D
ĠìĨľ ìĶ¨
Ġê´ĢìłĪ ìĹ¼
Ġìķ½ íĴĪ
ĠíķĺìĹ¬ ê¸Ī
Ġì¡° ìĿ´
Ġë³´ ëĭµ
ĠíĭĢ ë¦¼
Ġíķ´ê²° ì±ħ
Ġìĺ® ê²¼
S ession
ĠD V
Ġpenetr ation
Ġê°Ģ íķĺ
Ġìĺģ ìĪĺì¦Ŀ
Ġtranscription al
W hether
Ġê¸°ëħĲ íĴĪ
ĠìĿ´ ì¢ħ
ë¬´ ìĭ¤
Ġgravit ational
Ġdevelop s
ìĿ´ ìļ©
w indow
Ġë¿ ħ
Ġë©Ķ ìĦ¸ì§Ģ
Ġì¶©ìłĦ ê¸°
ĠëĮĢ ìĿ¸
ìŀ¬ ë¯¸
Ġgroup ed
Ġë¹Ħ ìļ°
Ġcommerc ially
ë§Ī ë¦¬
ĠëĮĢ ë¦½
Ġpreced ent
Ġprepar ations
ĠB J
ê¼¬ ë¦¬
ch arge
ë©Ģ ë¦¬
ĠP W
Ġë°° ê¸°
ĠìĹĶ ì§Ģ
Ġëª¨ìŀĲ ëĿ¼
Ġw ikipedia
ëĬĲ ë¦¬
ĠêµŃ ê²½
ëĳĲ ë¥´
ì¬ Ĳ
Ġadjust ments
ĠíķŃê³µ ê¸°
ĠìĪĺ ì²ľ
Ġêµ¬ ìĽĮìĦľ
Ġeditor ial
Ġfor all
êµ¬ ê²½
ë²ł ë¥´
Ġhonest ly
ĠëıĦ ë°°
Ġì±ħ ìłķ
ìĿ´ ìķ¼
Ġì¢ħ ìĤ¬ìŀĲ
Ġë²Į ìĸ´ì§Ħ
Ġê³ł ë¡ľ
Ġì³Ĳ ìĦľ
ĠTrans fer
ĠêµŃ ìĦ¸
ĠëĮĢ ë¥Ļ
ti tions
ìĬ¬ ëĿ¼
Ġal titude
Ġì§Ģì§Ģ ìľ¨
Ġë°¤ ìĥĪ
top ic
Ġìļ¸ ìĿĮ
Ġì§Ħ ëĭ¤ê³ł
Ġass ass
: :
Ġë°Ķ ëĬĺ
Ġìľł ìĦ±
ĠëĤĺ ëĵ¤ìĿ´
Ġë³´ ë¦Ħ
Ġê´ĳ ìķĪ
ì§ ł
Ġê³ģëĵ¤ ìĹ¬
ì§Ī ëŁ¬
ëĿ¼ìĿ´ ìĸ¸
ĠëĮĢë¦¬ ìłĲ
Ġstr and
ìłľ ëª©
Ġì»¬ ëłīìħĺ
Ġìŀ¥íķĻ ê¸Ī
Ġíħ ĥ
ĠO M
ìķĪ ìłĦ
Ġë¸Ķ ë§ģ
ĠìĻķ ë³µ
Ġê°ķëĤ¨ ìĹŃ
ĠíķŃê³µ ìĤ¬
ĠíĮĮëŀĢ ìĥī
Ġab used
emeter y
ĠíĻĶ ìĤ´
Ġpancreat ic
ë§Ī ë¥´
Ġê³ł ëŀĺ
Ġshield s
íĴĢ ìĿ´
ĠìĪĺ ì¹Ļ
Ġê´Ģë¦¬ ìŀĲ
ĠíĮĲ êµĲ
Ġë§Ī ìĿ¼
Ġë¸Ķë£¨ íĪ¬ìĬ¤
Ġtransform s
Ġê¸ī ìĨį
Ġëł Ĳ
Ġë²Ķ íį¼
Ġfabric ation
ĠM MP
ĠíĦ° ì§Ī
ìĥĿ ìĿ¼
Ġtable ts
Ġinvest or
Ġê¸° ìģľ
A h
Ġë¯¸ ìĬ¤íĦ°
Ġë§Ĳ ëĿ¼
Ġë¶Ģ ìĹĮ
ì§ §
ê¹¨ ëģĹ
Ġì¹ĺ ëŁ¬
Ġdepth s
Ġíħį ìĬ¤
ĠëĬ ĳ
ĠëĮĢ ëĮĢ
Ġíķł ëł¤ê³ł
ĠëĨį ë¯¼
Ġíİĺ ë¥´
Ġëĳĺ ëłĪ
ëŁ¬ ê¸°
ĠìłĦ ê³¨
ĠìļĶê¸Ī ìłľ
ĠìĿ´ ìĺ¨
Ġav g
ìĿ´ë²Ħ ìĦ¯
Ġì½Ķì½Ķ ëĦĽ
Ġ ì¡
Ġë³´ ì»¬
íļ¨ ê³¼
ê³¼ ê±°
ìĺģìĹħ ìĭľê°Ħ
Ġìĭłì²Ń ìĦľ
Ġê³¼ ëĭ¤
Ġtouch ing
Ġíı¬íĬ¸ íı´ë¦¬ìĺ¤
Ġë± ī
Ġcontroll ers
ë²Ħ ëł¸
re lation
ĠìĬ¤ íĨ¤
ĠìĦ¸ ìĦ¸
Ġëĭ¬ëĿ¼ ìĦľ
Ġdispos al
Ġì°¾ìķĦ ê°Ķ
ĠìĿ´ìĸ´ ìł¸
Ġìĭł ì´Į
ë° ´
Ġê°Ģë§¹ ìłĲ
be ing
Ġdynam ically
Ġë³Ħ ëªħ
ĠíĥĲ êµ¬
Ġìĸ´ìĿ´ ìĹĨ
Ġê³µ ë°±
Ġpers istence
ìĥ ĲëŁ¬ëĵľ
Ġìĺ¤ ìĤ¬ì¹´
Ļ ¨
ound ing
ç ¥
Ġì§ĳ ê¶Į
ĠìĤ° íĥĢ
Ġtim eline
ĠíĿĲ íĿĲ
Ġë¶Ī ì¾Į
ìķĪ ì£¼
ĠìĹ°íķ© íļĮ
Ġlearn ers
ĠìĤ¬ ëªħ
Ġenrich ment
Ġê¾ Ģ
ĠìĨĮìľł ìŀĲ
Ġì§Ģ ëĤ¸
Ġê·¸ ìª½
ĠìĹħ ìĨĮ
ĠC AD
Ġìĭ¤ íĻĶ
c ience
ĠíĮ¨ ëŁ¬
Ġì°¨ ì¢ħ
Ġëĵ± ìĭ¬
Ġestim ating
Ġìłľ ìĤ¬
ĠìĿ´ë¤Ħ ì¡Į
Ġì»¤ ì¡Į
ê± į
ëłĪìĿ´ íĦ°
Ġsh aking
ëıĦ ìĽĢ
Ġìķŀ ëĴ¤
f loat
Ġì±Ħ ì·¨
Ġìĭľ ëĵľ
ĠìĦ±íĺķ ìĻ¸ê³¼
ë§Ī ë¬´ë¦¬
Ġformul as
Ġê³łìĬ¤ ëŀĢíŀĪ
ĠìĦł ë°ĺ
ìľł ëªħ
Ġëł Ļ
Ġì¹´íħĮ ê³łë¦¬
Ġì¼ Ī
ĠìĽĲ ë§Ŀ
Ġë§¤ ë¦½
Ġíį¼ íı¬ë¨¼ìĬ¤
H y
ì¼Ģ ìĸ´
Ġíĩ´ ìĤ¬
Ġê°Ģíķ´ ìŀĲ
Ġê·ľ ëªħ
ĠëĤ´ìļ© ë¬¼
êµ ¿
ëŀĺ ìļĶ
Ġëıħ ê°Ĳ
ĠëıĮ ë´Ħ
Ġì§Ģ ëª©
Ġìŀ¥ë¡Ģ ìĭĿìŀ¥
ĠK IA
ĠìĬ¤ ìºĶ
ĠíķŃ ìĤ°
Ġê¸īê²© íŀĪ
b ecause
Ġì§Ħ ìĿ´
ìĥģ ìĦł
ĠëıĮìķĦ ê°Ķ
ëĳ ¬
ĠíĽ Ĺ
ĠëĶ° ëģĪ
ĠS amsung
Ġìĺ¤ ìĤ°
ĠìĦľ íı¬íĦ°
ìłĢ ëł´
Ġìĭľ ëĭ¬ë¦¬
ĠìĨĮ ë¦Ħ
ĠíĹ¤ ìĿ´
êµ ³
Ġê²Įìĭľ ë¬¼
Ġreduc tions
Ġcheck point
Ġind igenous
Ġ ìİ
ĠìķĦìī¬ ìĽĮ
Ġê³ł ìļ´
Ġì£¼ ê³ł
íĥĢ ë¥´
Ġëµ Ī
ë¯¸ íĦ°
Ġreform s
Ġëĵ± êµĲ
ĠPublic ation
ĠìĪĺ íĺ¸
Ġê° ¸
ĠíĻĶ íķ©
ĠìĽĲ ìŀĳ
S M
Ġìµľ ìļ°ìĦł
ê³ł ê¸ī
ĠìĤ° ì§Ģ
Ġmethyl ation
Ġclick ed
Ġë¶Ħ íı¬
Ġíģ¬ë¦¼ ì¹ĺì¦Ī
Ġ################# ########
ĠëĵľëŁ¬ ëĥĪ
ĠëıĦ ë§Ī
ë¶Ģ ë¡ľ
ìĪľ ê°Ħ
C OM
ĠìĤ¬ ìĹŃ
Ġcompl ained
ìĥģ ëĮĢ
ìĪĺ ëıĦ
Ġë¬´ìĦľ ìĽł
Ġíĸīìłķ ë¶Ģ
ë§ŀ ìĿ´
ĠêµĲ íĽĪ
Ġë°© ìĺģ
Ġìļķ ì¡°
ë§ µ
ĠL B
ĠV ancouver
ĠìĦľ ìĭĿ
Ġê°Ħ ëĭ¤ëĬĶ
ĠëĤ¯ ìĦ¤
Ġìĭ¤ ìłķ
ĠêµŃ ìłģ
ëĳĲ ê¸°
Ġìłģ ìĭľ
ĠëĿ¼ ë²¨
ê·¸ ê±´
ĠìĹ° ìĿ´
Ġë°© ë©´
ĠëıĦ íı¬
Ġmultiv ariate
Ġê·¹ ìĭ¬
ìŀĦ ìŀĲ
ĠìľĦ ìĦ±
Ġenthus i
m aking
ëı Ķ
íħĮ ìĿ´ëĦĪ
ĠY ellow
ë¶Ģ ë¦¬
Ġaccess ories
Ġë°Ķ ë¦¬
ëģ ½
ì¤ĳ ìļĶ
ĠëĶĶ ìł¤
Ġì¦Ĳ ê²¼
ĠëıĻ ë°±
ĠìĹĲíĶ¼ ìĨĮëĵľ
ê³¼ ìĿ¼
Ġëıħ ìłĲ
ĠëĤ´ ëĭ¤
íİĺ ìĿ´
êµŃ ìłľ
Ġun treated
Ġlog istic
ĠìĦľ ë¶ĢíĦ°
ì§Ħ êµ¬
Ġì£¼ ìľł
Ġì¦Ĳê±° ìĽĮ
Ġìłķíķ´ ìł¸
Ġìĭľ ë°ľ
se e
Ġì¤ĳ ê¸°
ìĤ ¶
Ġë°° ìĹ´
ê·¸ ìłľ
ä ¿
Ġë°Ķ êµ¬ëĭĪ
ĠìķĦëŀĺ ìª½
Ġd rought
Ġìłķ ë¬¸
ĠK BO
Ġteach es
Ġê°ľ ì¡°
ĠëĴ· ë°Ľì¹¨
ĠíĻĶ ë³´
Ġconsult ing
Ġquestion ing
Ġì° ¼
Ġë§¤ìļ´ íĥķ
Ġwork force
Ġëıħ ìĨĮ
ĠìĹ¬ ìłĦ
Ġë¿ Ķ
íĺķ ë¬¼
Ġìĭ¤ ì»·
Ġì¤ĳê°ľ ìĤ¬
ĠìĿ¼ìĿ¼ ìĿ´
ê³ł ëĵ±
ĠìĪĺ ë£Į
ê¸° ëħĲ
Ġpeculi ar
æ ¬
ìķħ ìĤ°
ac ements
Ġc ation
Ġë¯¸ëĦ¤ ëŀĦ
Ġë¬´ ëį¤
Ġê°Ģ íıī
Ġfi xture
Ġëĭ´ ìŀĦ
Ġcollect or
íĶĦ ëŀĳ
ìĿ¼ ìĥģ
Ġê±¸ ë¦¼
Ġê´Ģ íķ´ìĦľ
ĠìĪľ íķľ
ĠëĨį ëĭ´
ĠìĤ¬ ë§ī
ĠìĹ¬ëŁ¬ ëª¨ë¡ľ
æ ĥ
Ġíģ¬ ëĿ¼
Ġê¸Ī íĺ¸
Ġêµ¬ì²Ń ìŀ¥
ell ers
ĠìķĦ ë¡ľë§Ī
ĠëĮĢ ê°ľ
Ġê²½ ìľĦ
ĠëıĻ íĺ¸
ĠíĹĮ ìĭł
ĠëģĪ ìłģ
Ġë» ĺ
Ġì§Ħ ìŀĳ
Ġìĸĳ ìŀĲ
ê°Ģ ê¹Į
Ġì¶Ķ ê²©
ĠìĥĿê¸´ ëĭ¤
ĠDemocr at
ĠíĺĲ ìĺ¤
ig ation
ĠëĮĢ ìĦľ
ĠR I
Ġìłķìĭł ìĹĨ
Ġì¤ĳ ì§Ģ
ë§Į ì¡±
Ġëĭ¤ ì±Ħ
Ġë°°ê³ł íĮĮìĦľ
Ġë¹Ħ ë¦°
ĠëĳĲ ëłµ
Ġaccess ing
Ġproceed ed
ĠíļĮ ë¡ľ
Ġë³´ ì¢Į
ĠG I
Ġì²ł íļĮ
à «
ĠS OC
ĠëĦ· íĶĮë¦ŃìĬ¤
Ġì¹ľ ì²Ļ
ĠíĥĲ ì§Ģ
Ġwitness ed
ë¶Ģ ëĭ´
Ġê³¼ ìĭ¤
ĠìĬ¤íĥł ëĵľ
Ġcovari ance
ëĮĢ ìĤ¬
ĠS olution
ĠëĤ´ ì§Ģ
ĠìŀĲ ëĦ¤
ĠêµĲ ëĮĢ
íĻĶ ìĿ´íĬ¸
Ġë¦¬ ìĽĲ
Ġlight ly
Ġê³ł ìĤ¬
ĠìĹī ìĹī
Ġìŀ¥ ë§Į
Ġë²ł ìĸ´
Ġpresent ly
ĠíĿ¥ ìĽĲ
Ġíĸĩ ë³ķ
Ġì§Ģ íĤ¬
ĠëĮĢ êµŃ
Ġevalu ations
Ġê³µ ìĺĪ
Ġattack ing
ĠìłĦ ìĽĶ
Ġê¹Ģ ì§Ħ
Ġê°Ģ ì¤ĳ
Ġê¼½ íŀĪ
ĠëıĪ ê°ĢìĬ¤
Ġíı´ ëįĶ
ìĿ´ ìŀĲ
ĠApplic ations
ĠìĤ´ìķĦ ê°Ī
ì¤ĳ ìķĻ
ĠMV P
ë²Ħ íĦ°
Ġëª¨ íĹĺ
Ġresp ected
Ġì´Īë¡Ŀ ìĥī
ĠíĤ¤ ìļ¸
ĠìĿ´ ëħ¸
ĠíĨłë¡ł íļĮ
ĠìĭĿ ëŁī
Ġì·¨ íķľ
ĠëĿ¼ìļ´ ì§Ģ
Ġì§Ī íĪ¬
arent ly
ĠìĨĮ ì§Ħ
ĠëĦĪ ìĬ¤
Ġë°Ķ ê²ĮíĬ¸
Ġê·Ģ ê±¸ìĿ´
íĭ° ëĤĺ
ëª¨ ìĬ¤
Ġpertin ent
Ġì¹¨ íĪ¬
Ġê³µ ìĹħ
Ġíŀ Ŀ
ĠìĤ¬ ì´Į
Ġdef ective
Ġsymbol ic
Ġê¹Ĭ ìĪĻ
ìłĦ ì£¼
ì§Ģ ìĺ¤
ĠëłĪ ìłĦëĵľ
Ġì¡° ë¦¼
Ġê¹Ķ ëł¤
Ġtechn ically
Ġë¡ľ ì¼ĵ
Ġw ounds
Ġë¸Ķ ë¦¬
D F
Ġëĵľëŀĺ ê³¤
y ield
ĠìĨĮ ìĥģ
ĠìĪĺ ìľ¡
ìķĶ ëıĻ
Ġê¸°ìĸµ ëĤĺ
íķ į
ĠTC P
ë¶Ģ ëĵ¤
ĠëĵľëĿ¼ìĿ´ ë²Ħ
Ġê² Ķ
ëĭ¨ ìĪľ
ê¸Ī ë¦¬
ĠëĤĺ ëŃĩ
Ġê¹¨ ì§Ģ
ĠìĹŃ ìĦ¸
ł Ģ
or p
ĠìķĦ ìĭľìķĪ
ĠìĻĦ ê³µ
ail ability
ê±´ ì¡°
Ġë°ĶëĢ Ķ
Ġê²½ ê´Ģ
Ġëıħ ëıĦ
ìĥĿ ëªħ
Ġext inction
ĠìĽĥ ê¸´
ëĿ¼ ìĿ´ìĬ¤
Ġlight weight
Ġcompos er
Ġì§Ī ê°Ĳ
Ġìŀ¬íĮĲ ë¶Ģ
Ġê°ľ ê·¸
Ġëª¨ ë¹Į
ĠìłĪ ìłľ
ĠPro duction
ĠìķĦ ë³´
ĠìĿ´ íĦ°
Ġdisturb ance
Ġë©ĺ íĥĪ
Ġì© Ķ
íĳ ¹
Ġë°° ìĽĢ
m ade
ìį ¸
Ġë²Ķ ìĿ¸
k w
Ġì¯ Ķ
ĠëĤĺ ëĪĪ
Ġíķĺ íĸ¥
Ġíıīìĥģ ìĭľ
Ġìķ½ ìŀĲ
Ġê²Į ìŀ¬
Ġres ection
ĠR H
Ġë°ľ íĨ±
ĠíĮĮ ê³ł
ë¦¬ ë·°
ĠëĤ¨ êµ¬
Ġë¸Ķë¡Ŀ ì²´ìĿ¸
Ġì¹¨ ìĭ¤
Ġëĭ¹ëĩ¨ ë³ĳ
Ġdel ivers
Ġë» Ĳ
Ġë§ĪìĿ´ ëĦĪìĬ¤
ĠìĬµ ê¸°
Ġê·¼ ìłĳ
ìĿĢ ìĥī
Ġê²½ ë³´
Ġëĸł ëĤł
ĠíĽ ħ
Ġê°Ģ ìĤ°
íİ ĳ
ĠíĶ¼ê³ł ìĿ¸
st ation
ĠìĤ¬ ì°°
íİĺ ëĿ¼
Ġìķ½ ìłķ
Ġì¡° ìĦ¸
íģĺ ëŁ¼
Ġê²¬ ìĿ¸
Ġillustr ation
Ġê´Ģ ëħĲ
ĠíħĢ ë¸ĶëŁ¬
Ġì¹ľ íĻĶ
ĠëıĻ ìª½
ĠìļĶ ìłķ
Ġëħ¼ ìŁģ
th em
ĠìŀĦ íķĺ
ìĹ £
íķ´ ìĻ¸
Ġì§Ģ ë²ķ
Ġp ockets
ĠëĤ´ëł¤ ê°Ķ
ĠìłĦ ì²ł
Ġíķľ ìłģ
ì¾ ħ
Ġëĭ¨ ê°Ģ
íĶĮ ëłīìĬ¤
Ġì§Ħ íķ´
Ġë²Ī ê°ľ
ĠëıĦ ëª¨
Ġë¶Ħ ìĹ´
ĠëĳĲê·¼ ëĳĲê·¼
Ġê» Į
ĠìĹ¼ ëĳĲ
Ġëª¨ ë²Ķ
íĹĪ ë¦¬
Ġë²Ħíħ ¨
ĠìĿ¸ ê²©
Ġpath ology
ĠëĦĺìĸ´ ìĦľ
ĠìĦ± ìĤ°
ĠìĤ¬ìĹħ ë¹Ħ
ĠìķĦ ë²ł
ĠìĺĪ ìĭĿ
ĠRepresent ative
Ġë²Į ìĺĢ
ĠíĬ¸ ëŀĺ
ĠëıĻ ìłĲ
ĠìłĦ ìĪł
ĠìŀĲë¶Ģ ìĭ¬
Ġëĵľ ë¡ľ
Ġì±ħìŀĦ ìŀĲ
ĠíĹ¤ ë§¤
Ġì¶Ķ ëª¨
Ġaccess ibility
g lobal
Ġë§Į ëģ½
Ġìķķ ì¶ķ
Ġcontin ually
ê°Ģ ìĬ´
Ġìĭľ ìĿ¼
Ġê³ł ìĦ±
ĠìĹħ ìŀĲ
ìŀ Į
Ġnumer ic
ĠìĹ° ì²´
Ġë°Ķ ìĬ¤
ĠìĦł íģ¬ë¦¼
ìĺ¤ ìĿ¼
Ġíĥ Ń
ĠB N
Ġì§Ģ ë¶Ģ
ìĸ´ ì§Ħëĭ¤
sh ould
Ġcont end
ìı ł
ĠConsider ing
ĠR N
Ġnormal ize
ĠìĽĲìŀĲ ëł¥
Ġì¹´ íĬ¸
Ġíĺ¸ ê°Ĳ
ĠìķĦë§Ī ì¡´
Ġpropor tions
A F
Ġê³µ ìĿµ
ì£¼ ë¡ľ
ĠëĴ· ëª¨ìĬµ
onstruct or
Ġêµ´ ëŁ¬
ĠìĿ´ ë£°
ĠíĶ¼ ìĿĺìŀĲ
Ġdef ending
Ġíĥľ ê¶Į
ĠìĿ´ ìĥī
ê°Ī ìĿ´
Ġêµ¬ ìŀ¥
ëĤĺ ë¨¸ì§Ģ
ê´Ģ ê³Ħ
ìĺ¤ ì¹´
ĠSchool s
ĠìĲ ¬
Ġë¯¼ ìĥĿ
ë¹Ħ ìĬ·
ĠìĤ¼ ê³Ħíĥķ
ë°Ķ ë¥´
Ġcon ception
ĠëŁŃ ìħĶë¦¬
Ġì£¼ ìĹ°
ë¹ł ë¥´
ĠT L
ĠìłĦ ë¬´
ĠêµĲ ë³µ
Ġìłķìĭł ìĹĨìĿ´
Ġconf id
Ġê¸° ìĬ¤
Ġë°ķ íĺĢ
ç ©
ĠíĮĿ ìĹħ
ĠìĿ´ëĿ¼ íģ¬
ìĭľ ë§Ī
Ġapprec iation
ìĨ¡ ìĿ´
Ġê°ģ ë³Ħ
ĠìķĦê°Ģ ìĶ¨
Ġê°Ħ ëŀµ
ĠìĺĪ ìĭľ
ĠëĿ¼ ìŀĦ
êµŃ ê°Ģ
ĠíĦ° ì¡Į
íĴ ĭ
ìłĢ ëłĩê²Į
ĠëłĪ ìĺ¤
ĠP osition
ĠìĿ¼ ìłĦ
ĠíĿĺ ëł¤
ĠìĹ¬ ê°Ŀ
ĠëĮĢ ìĽĲ
Ġë°° ë¶Ģ
ĠëįĶ êµ°
Ġë¶ģ ìłģ
ĠìĦŀ ìĹ¬
ĠìĮį ëĳ¥ìĿ´
Ġorgan izing
ìĸ´ ë¥¸
Ġcontrad iction
ĠëıĻ ìĦľ
Ġë©Ģë¦¬ ìĦľ
ĠëĮĢ êµĲ
Ġê³µ ìŀĳ
Ġë°Ķ ë¥¼
Ġë°ĺ ë°ĺ
Ġstat istic
ì§ĳ íĬ¸
Ġë³ĳ ëł¥
ĠìĦłì°© ìĪľ
Ġìĺ¤ ìĦ¸
ĠìĬµ ëıĦ
V C
Ġìĸ´ ìĬ¤
Ġnew est
ê¹ ģëĭĪëĭ¤
Ġë§ī íĮĲ
the astern
Ġë©Ķ íĥĪ
á ¹
Ġbelong ed
Ġìŀ¥ ìķħ
ĠE ither
Ġìĺ¨ íĨµ
Ġë§Ī ìĤ°
-------- -
ĠìĤ¬ ë§Ī
Ġmarket place
Ġìĸ´ëł¤ ìļ°
å Ģ
ĠC AT
ont ent
ëĦ¤ ì¦Ī
ĠìĻ¸ íĺķ
Ġì§Ģ ê²Ģ
êµ ½
X G
ĠëĮĢ ëª©
ë ĩ
ĠP ackage
ĠíĮĮ ë§Ī
ĠêµĲìľ¡ ê°Ĳ
ëĵľëł¤ ìļĶ
ĠìĿ´ìĬ¬ ëŀĮ
Ġìĸ´ë¦° ìķĦìĿ´
Ġbackground s
Ġëª¨íĦ° ìĬ¤
ĠìĹ ¥
y our
s ource
Ġìļ´ íķŃ
ĠW D
Ġpers ist
Ġfin est
Ġass ure
Ġëĭ¨ íİ¸
Ġphosph at
Ġì»´ ë°±
Ġê²¨ ëĥ¥
Ġë¯¸ ëł¨
ĠëıĦ ëĤ´
Ġpath ogenesis
ìłĪ ëĮĢ
Ġìĵ¸ ëį°
ĠìĪĺ ìĹ¬
Ġì¤ĳ ëħĦ
Ġearthqu ake
Ġë¬´ ìĭ¬
ĠíĨµ ëĭŃ
ê±´ ë¬¼
ì§Ģ ìĿ¸
íĶĦëłĪ ìĨĮ
ëĤł ëĵľ
ĠìĻ¸ ê³½
ĠíĬ¸ ìľĪ
Ġë¶Ī ë¡ľ
Ġì½Ķ ëĶ©
Ġëħ¹ íĻĶ
ĠìłĢ ìĨĮëĵĿ
Ġìŀ¡ íŀĮ
Ġë¡ľ ëĺĲ
ì£¼ì°¨ ìŀ¥
ê¹ ħ
Ġë°Ķ ìļ¸
ĠíĢ´ ì¦Ī
ĠíĿĳ ìŀĲ
ĠìĿ´ ì¼Ģ
ë§¤ ìļ°
ĠìĿ¸ ìŀĲ
ĠíıŃ ìĹ¼
Ġë¶Ħ ìĤ¬
Ġë³Ģ ìĿ´
Ġë§¥ ëĿ½
Ġë¶Ģ íĴĢ
Ġpropos es
ìĦ¤ ëªħ
Ġê°ľ ìĪĺ
ë¸Ķ ë¦¿
Ġcount less
ĠìĻľëĥĲ ë©´
í į½
Ġì§Ģì¼ľ ìķ¼
Ġë°¸ ë¦¬
Ġìľł ë¶Ģ
ë©´ ì¦Ŀ
ĠìĦł íĴįê¸°
Ġì»¤ë®¤ëĭĪ ì¼ĢìĿ´ìħĺ
Ġíķ« ëıĦê·¸
Ġëĭ¹ìĦł ìĿ¸
ĠA J
ê³ł êµ¬ë§Ī
ì¡° ìĤ¬
Ġìłķ ê°Ī
Ġse lectively
ĠìĬ¹ ë¬´ìĽĲ
Ġìĺ¤ ëįĶ
st atus
ĠL F
ĠìŀĶ ìĨĮë¦¬
Ġincorpor ation
ĠíĴĪ ì¢ħ
Ġìŀł ìŀĲë¦¬
ĠM unicip
ìķ¼ ì±Ħ
Ġíĥľ ê·¹
ç Ń
Ġë°ľ ìĹ´
Ġë¶Ģ ëŀ´
Ġë§ĪìĿĮ ëĮĢë¡ľ
Ġìĭľìĥģ ìĭĿ
ìŀĦ ìĬ¤
Ġëĵľëł¤ ìķ¼
íĭ° ì¦Į
Ġëľ¨ ëģĪ
Ġfraction al
ĠìŃī ìŃī
Ġì°Ŀ ì°Ŀ
ar ound
Ġê°Ģë¥´ ì¹¨
Ġë¡ľ ìłľ
ìĿ´ ìłĦ
ĠëĤĺ ìĤ¬
ĠPortug al
ĠìĦ¹ ìĭľ
Ġë¶ģ ìª½
ĠìķĦ ìĿ¸
Ġê³ł ìĦł
Ġconvinc ing
Ġë¬µ ì§ģ
ëĭĪ ë°ľ
ë°Ģ íŀĪ
ac cept
é ł
lection s
ĠìĦ¸ ìĪĺ
Th ose
ĠíĽĦ ë©´
Ġëª¨ ë¦ħëĭĪëĭ¤
Ġ_________________ ________
Ġëħ¼ ìĪł
ĠìĤ´ìķĦ ëĤĺ
ĠC W
Ġëĭ¤ ê¸°
Ġpolymer ase
Ġìĥģ ì°¨ë¦¼
ĠíĻĺ ìĬ¹
ëĥ īìŀ¥ê³ł
Ġì£¼ê³ł ë°Ľ
ìŀĸ ìķĦ
Ġìļ´ ë°ĺ
ĠíĬ¹ ê²Ģ
Ġëĭ¬ëĿ¼ ì¡Į
ì¼ Ī
Ġë¡ľê·¸ ìĿ¸
ĠëĮĢ ìĪĺ
ĠF O
ëĭ¤ ëĤĺ
Ġíķľ ìĥģ
Ġë§ĪìĿĮ ë¨¹
Ġë¶Ģ íķ©
Ġinform ative
Ġê²¸ ìĨĲ
Ġë´ ĩ
ĠëĤ® ì¶°
ĠëĤ¨ìĸĳ ì£¼
ĠëĽ°ìĸ´ ëĦĺ
ĠìĤ°ìĹħ ëĭ¨ì§Ģ
Ġë³¼ ê»ĺìļĶ
ĠëĮĢ ëªħ
íĶĮëłĪìĿ´ ìħĺ
Ġìŀ¬ íķĻ
Ġcon ceived
S P
Ġê°Ĳ ì¶ķ
Ġsystem atically
Ġê²° ë§Ĳ
ë¡ľ ìĽĮ
Method s
Ġus b
Ġestablish ments
ê·¼ ì²ĺ
ĠìĿ´ ëħĲ
Ġìĵ° ë¦¬
Ġëĭ¹ íķł
Ġë¶Ļ ìĺĢ
Ġë¹Ħ ê²°
Ġë¸ĮëĿ¼ ìļ°
Ġìĭł ìĦ±
Ġìĥģ ìĺģ
Ġhistor ically
ë¬´ ê¸°
Ġë°¥ ì§ĳ
ĠìĦľ ìĪł
Ġìĺ Ĳ
Ġìĭł ëĭ¤ëĬĶ
ë¬´ ì§Ħ
ĠìĬĪ ê°Ģ
ĠìłĦ íķľ
Ġ ëłĢ
å İ
ound ed
Ġìļ° ìĬ¤
Ġìľł ìłģ
ĠìĥĿê²¨ ëĤĺ
ì°¨ ë¡Ģ
Ġun limited
Ġê°Ĳ íŀĪ
ĠìĺĪ ë¬¼
Ġë¸Ķ ëŁ¬
Ġì¦Ŀ ìĸ¸
ì¶© ë¶Ħ
Ġdeliber ately
pr ising
Ġë°° ë³Ģ
Ġëªħ ë°±
ìĸ´ ë¦´
Ġì¡° ë§Ŀ
Ġìĺ¤ ìħĺ
ĠëĮĢìļ© ëŁī
Ġë¶Ģ ëıĦ
ëĳ ł
Ġconf idential
ĠD NS
ĠíķŃ ìĿĺ
ìķĦ ìī½
ĠìĿ´ ëª©
Ġoscill ations
Ġì¢ħ ìĸĳ
it ance
ĠK C
ì¹´ ìĿ´
ĠìĹ¬ ì¹ľ
Ġìķ¡ ì²´
ĠëĤĺ ìĬ¤
Ġë¶Ģëĭ´ ê°Ĳ
Ġìļ° íļĮ
Ġë§Ŀ ì¹ĺ
ĠëĤ¨ ìķĦ
ĠëĭŃ ê³łê¸°
Ġê·¼ ìĽĲ
Ġíķ¨ ë¶Ģë¡ľ
ĠëĮĢ ìĦ±
Ġì°¾ìķĦ ìĻĢ
ì§ĢëĤľ ë²Ī
ìĥĿ ë¬¼
em ption
ĠìĦł íı¬
Ġë§¤ ëģĦ
Ġì½Ķ ìĬ¤íĬ¸
Ġê·ĢìĹ¬ ìĽł
ê²½ ë¶ģ
ĠëıĦ ë°ķ
Ġstr anger
ĠëĤĺìĺ¨ ëĭ¤ê³ł
ĠW elcome
Ġê²½ê¸° ëł¥
ëį° ìĬ¤
ĠìĪĺ ìĭł
ĠëĮĢì£¼ ì£¼
ĠX L
ĠìĦł ì§Ģ
Ġinter rupted
Ġë°°ê³ł íĶĦ
Ġë°© ì½ķ
Ġë§Ī ìĬ¤
ê· Ħ
ĠìĹĲ ìĿ´ëĵľ
Ġalleg es
p arent
Ġê³µëª¨ ìłĦ
Ġdisput es
Ġê²¬ ê³ł
Ġìŀ¬ íĥĿ
ĠëĤ´ ëĭ¬
ĠëŁ¬ ìĬ¤
ĠíĶ¼ íģ´
ĠìŁ ¤
Ġìĭ¤ ìĻ¸
ì¡° ìļ©
ì¹´ ë©ĶëĿ¼
ìķĦëĭĪ ë©´
ul ators
Ġì¤ĳ ê²¬
Ġëĭ¨ ìĭĿ
Ġwhisper ed
Ġë¬¼ ê²°
ĠV P
Ġíķł ë¡ľ
ĠëĮĢ ìĻķ
Ġëĵ¤ ëł¤ìĦľ
Ġíķľ ìĸĳ
ĠìħĶ íĭĢ
ĠìĹ° ìĦ¸
íĸī ìĤ¬
with standing
ìłķ ë³´
Ġë©į ì²Ń
ĠìĿĮì£¼ ìļ´ìłĦ
Ġëŀ¨ íĶĦ
ê·¸ ëĿ¼
Ġìī¬ ìĽĮ
Ġì°¨ ê°ĳ
Ġìļ° íģ¬ëĿ¼
Ġë¶Ī íĮĲ
Ġê¶ģ ê·¹
Ġì§ĢëĤĺ ê°Ħ
ĠìĭľëĤĺ ë¦¬ìĺ¤
ĠëĴ¤ ì§Ģ
Ġëĭ¨ë§Ĳ ê¸°
ìĸ´ ì£¼
ĠìļĶ ìĿ¼
il iation
Ġìŀħìŀ¥ ë£Į
Ġì»¤ë¦¬ íģĺëŁ¼
ĠëĮĢ íĶ¼
ĠíĶĦë¡ľ ìĦ¸ìĬ¤
ì§ģ ìŀ¥
ĠíİĮ íĶĦ
ì½Ķ ëĵľ
ĠìĽĥ ê²¨
Ġê²¹ ì¹ĺ
Ġmarked ly
Ġê²½ìĺģ ìŀĲ
ë°Ķ ëĶĶ
Ġìľł ìŀĲ
Ġìĭ¤ ìĿĢ
Ġì§ģ ë©´
Ġê°ľë°ľ ìŀĲ
ĠìĨĮ íıŃ
Ġë¶Ģ íķĺ
ì¤Ħ ê¸°
Ġì½Ķ ì¹Ń
Ġl ately
ĠìĤ¬ ë°©
ĠëģĿ ëĤł
íĹ¤ ìĸ´
Ġê¸Ī ìĹ°
Ġìłľ ìŀĲë¦¬
ĠíĽĦ ì¿ł
íĭ° ìķĦ
Ġìĸĳ íıī
Ġìĭł ìķ½
ì²Ń ê¸°
Ġinterp olation
ĠëłĮíĬ¸ ì¹´
Ġê³µ ìĺģ
Ġ ë¦ī
ĠìĹ ®
Ġst ance
Ġê³ł íĶĦ
Ġì§Ģê·¹ íŀĪ
ĠìłĪ ìĭ¤
Ġê¸¸ ëŁ¬
Ġë³¼ íĬ¸
ĠíĮĲ íĥĢ
Ġì¦Ŀ ìĿ¸
Ġì²´íģ¬ ìĿ¸
Ġë°ĽìķĦëĵ¤ ìĹ¬
Ġìĺ¤ ë¯¸
Ġë²Ī ì©į
art ments
ystem s
ĠP N
Ġê¹Ģ ê²½
è ĩ
Ġëª¨ ìĦ¸
S I
Ġê¹Į ëĭŃ
ĠëĿ¼ëĬĶ ëį°
in testinal
Ġactiv ist
ĠìĹ¬ ìļ°
Ġë¬´ ëĵľ
Ġassert True
Ġìłĳ ëª©
Ġìľł ì¾Į
Ġìķ½ íĻĶ
Ġk ubuntu
Ġê³µ ì§ģ
Ġìĺģ íķĺ
ĠëıĻ ìĥģ
Ġë¹Ħ ë§Į
ĠìĦľ ìª½
Ġê²Į ìľ¼
ĠëłĪ ìĿ¼
ĠíĮĢ ìĽĲ
Ġíħĥ ë°Ń
ĠëĤ´ ìĭľê²½
ĠìĻķ ì°½
Ġê°ľ ì²´
Ġê°Ĳ ì¹ł
ê²½ ìłľ
Ġappro ve
Ġb oring
ìļ° ìľł
Ġê¸°ë»Ĳ íķĺ
ĠìĺĪ ë³´
ìļĶ ê±°
ë¯ Ģ
é Ł
ìĿ¸ ìĽĲ
ĠCommun ication
Ġíĩ´ ìĽĲ
ì² ¼
Ġìĺ¤ ë§Į
ëĦ¤ ìĬ¤
D H
Ġì°° ëĤĺ
ĠëĦĺ ê²¼
Ġì£¼ íķľ
ĠëĦ¤ ë¹Ħ
ìĿ´ ëŀĺ
Ġìłĳ ìĸ´ëĵ¤
ì¶ľ ìĤ°
ĠìľĦ ìĥģ
E F
Ġì»¨ íħĮìĿ´ëĦĪ
æ ±
Ġì¹ľ íķĺ
ĠìĮį ìļ©
ĠìŀĲ ìĦĿ
ë¯¸ ìĬ¤
Ġìŀ¬ ìĽĲ
treat ment
Ġìĭ £
Ġíĺ¸ ìĿĳ
ë°Ķ ìľĦ
Ġsepar ating
Ġì½§ ë¬¼
Ġìłģ ê¸Ī
ìŀħ ìŀ¥
Ġì§Ħìłķ íķľ
ĠíĮĮìĿ¸ ìķłíĶĮ
íĮ ¥
ĠìĶ¹ íŀĪ
Ġíķĺ ë¶Ģ
Ġìŀ¬ ìĪĺ
Ġíİ¼ì³Ĳ ì§Ģ
Ġê³µ ìļ©
ĠíĶ¼ ì¹ĺ
Ġë©´ ëĭ´
Ġì¹ĺ ê°Ģ
Ġíħį ìĬ¤íĬ¸
ĠíĺĦ ìĪĺ
ìĽĥ ìĿĮ
ĠCommun ist
R P
Ġíĳľ ëªħ
ĠíĨµ ì¹ĺ
in formation
ê°Ħ ë§ĮìĹĲ
ĠëĦĺ ë²Ħ
ĠëįĶ ìĽł
Ġë³Ģ íķľ
ĠìļĶ ë¡ľ
ĠíħĮ ìĿ¼
ĠìĦ¸ë©´ ëĮĢ
Ġcoord inated
Ġë¦¬ ëĭĪ
Ġê±¸ ë§ŀ
Ġëĵ¤ìĸ´ ìķ¼
Ġìĺģ ë¦¬
Ġê´ĳ êµĲ
Ġê¸° ìĦ±
Ġê°ķ ë³Ģ
ê·¸ ëĤł
ĠìĻ¸êµŃ ìĸ´
Ġíķľ ê»ı
Ġìĥģ ìļ©
ĠëĦ ¨
Ġëª¨ ë¦¬
ĠìĬµ ëĵĿ
ĠìĬ¤ ì³Ĳ
ë± ī
ĠW ikipedia
ë¹¨ ê°Ħ
Ġbelie ving
Ġë³´ëĿ¼ ìĥī
atter ed
Ġë¬¼ ê°Ĳ
Ġset Status
ĠëĤĺëĪł ìĦľ
ì¹´ íĨ¡
ĠëĮĢ ë©´
ìĺ¤ ì§ķìĸ´
Ġë²Ħ ë¦ĩ
ê·¸ ëĤĺë§Ī
ĠëĨĶ ìĦľ
ĠíĹ ¨
ê²¨ ìļ´
ĠëĤ¨ ìĤ°
Ġê³¨ ê²©
Ġëħ¸ ëĿ¼
Ġtes tosterone
Ġë°ľ ìŀĲ
Ġë°ľ ëłĮ
ĠìĥĿê°ģ ëĤ¬
ach ers
ì¹ ©ëĭĪëĭ¤
Ġë°ĺ ê°Ģìļ´
íĭ° ìĬ¤
Ġë¦¬ë²Ħ íĴĢ
ìĥĿ ìłľ
ëıĦ ìĭľ
ĠE ST
ĠëĨĶ ëĳĲ
Ġin active
Ġëĭ¹ ìĽĲ
ëĬĲ ëĤĮ
Ġë¹Ħ ë²ķ
Ġíı¬ ì°¨
ëĤ Ħ
ĠìķĦë¥´ ë°ĶìĿ´íĬ¸
P ersonal
ìĪŃ ìĿ´
Ġë°ľ ê¸¸
Ġê¸´ìŀ¥ ê°Ĳ
Ġëĭī ëĦ¤ìŀĦ
ëłĪ ëĤĺ
Ġê¸ī íŀĪ
Ġìĵ° ëŁ¬
oint ment
Ġintention ally
ĠëĿ¼ ìĬ¤
ëĪ ħ
ĠíĿĲ ë¦¬
Ġìłľ ëª¨
Ġë¬¼ ëĨĢ
Ġìĭł ëħĲ
Ġì¶ľ ê°Ħ
ëĮĢ ì¶©
ĠìĦ¼íĬ¸ ëŁ´
Ġì»¤ íĬ¸
Ġì§ĳ ëĵ¤ìĿ´
Ġì§Ģ ì²´
Ġìĭľ ìĭł
Ġíı¬ì¼ĵ ëª¬
ĠíĮĮ ëŀĳ
Ġëĭ¬ íĸĪ
ĠJ J
overn ment
ì½ľ ëĿ¼
Ġìĺ¤ íĥĢ
Ġë°ĶìĿ´ ëĵł
ìĿ´ìķ¼ ê¸°
ë¦¿ ì§Ģ
ĠëĵĢ ìĸ¼
ĠìļĶ ëł¹
ìĪĺ ì§Ģ
ĠëĪĦ êµ°
Ġë°© ìľĦ
Ġscreen ed
Ġë¬´ ì£Ħ
ĠìĿ¸ ìĤ¼
Ġê±° ì§Ģ
Ġì¦ī ìĦĿ
ìŀĦ ìĭł
Ġìŀ¥ íĦ°
à µ
ĠìłĦ ìĤ°
Ġê±´ëĦĪ íİ¸
Ġëª¨ìĿĺ ê³łìĤ¬
Ġë¶Ģ ìĹħ
Ġìĭ¤ ì²´
ë¶ģ êµ¬
ĠìķĮ ì½ľ
Ġê·¼ ëŀĺ
Ġconcat en
à ³
ĠìĿ¸ ê°ķ
Ġë¶ĢìĤ° ê´ĳìĹŃìĭľ
Ġê±°ëŀĺ ìĿ¼
Ġëĭ¨ê¸° ê°Ħ
Ġê³µ ìĦ¸
ĠìłĢ ì£¼
ìĸ´ ë¶Ļ
Ġê´Ģ ì¤ĳ
Ġìķ¼ ê¸°
Ġìĸ´ë¦¬ ìĦĿ
Ġê·¸ë¦¬ ìĽĮ
ìłľ ë°ľ
ìĬ¤íĬ¸ ëłĪìĬ¤
ĠìĿ¼ ê°Ħ
ĠëĤ´ êµ¬
Ġë¶Ħ ìŀĲ
ĠëıĻ ê³Ħ
Ġë¶Ģëĵľ ëŁ¬ìĽĮ
Ġìļ°ì²´ êµŃ
or ption
ê°Ģ ë°©
wh o
ĠìĪĺ íıī
Ġreserv ation
ĠìĿ¼ìľ¼ ì¼ľ
ìĤ¬ ìĬ¤
ê¾ ¹
ĠSN P
Ġframe works
in arily
Ġê°ķ ê²½
Ġê·ĢìĹ¬ ìĽĢ
íķĺ ìĸĢ
ìĹ° íķ©
ĠìķĮ ì°¬
Ġcheck out
Ġëĭ´ ê·¸
ìŀł ê¹Ĳ
ìłĢ ëŀĺ
ĠíĽĦ íĽĦ
Ġë¹Ħ ì¶°
ĠìĬ¹ ì°¨
ĠìĬ¤íĶĦ ëłĪìĿ´
ĠëĮĢ ì¹ĺ
ĠìĬĪ ì¦Ī
Ġì°¨ ìĿµ
Ġëĵľ ìħ¨
ĠìĻ¸êµĲ ë¶Ģ
anc ers
ì§Ħ ìĭ¬
ê·¸ ëĤĺìłĢëĤĺ
ĠìĦ± ìłĦ
ê°Ħ íĮĲ
Ġê°ĲìŀĲ íĬĢê¹Ģ
Ġìŀħ ê°Ģ
íį¼ ëŁ°ìĬ¤
ìı Ļ
ìĨĮ íĨµ
Ġíĺ¸ ìŀ¬
Ġë°Ģ ìłĳ
ë¹Ħ ì¹ĺ
ìł¸ ìļĶ
ĠF X
Ġrecycl ing
ĠìĽĲ ìĦľ
ë°° ê³ł
Ġphotograph er
Ġdiscrim in
Ġê±° ìłĲ
Ġê³ł ìŀĳ
ĠêµŃ ë©´
Ġë§Ĳ ë¦°
Ġíķł êº¼
ĠëĶ° ìĬ¤
Ġìŀ £
Ġìĥģ ìĭľ
è Ī
Ġë§¤ ì§Ħ
Ġìŀ¥ ê±°ë¦¬
Ġê°Ģ íĮĮ
Ġì¤ĳ ìĭľ
ĠìķĪíĥĢê¹Į ìļ´
ĠìĦ¸ ìŀħ
Ġobserv ational
ê¸Ī ìļĶìĿ¼
Ġê³µê²© ìĪĺ
Ġë°ĺì§Ŀ ë°ĺì§Ŀ
ĠìĨ ¥
Ġë¶Ģëŀ´ ë¶Ģëŀ´
ĠìĹĳ ìĨĮ
ĠìĹĶì§Ģ ëĭĪìĸ´
ìłķê·ľ ì§ģ
ì¢ħ ìĿ´
Ġì²ł ê°ķ
ĠíĿĺ ëłĢ
ê·¸ë¦¬ êµ¬
ĠìķĦëĭĲ ê¹ĮìļĶ
ĠH L
ĠìĿ¼ ì£¼
ìľ¤ ê¸°
Ġë²Į ìĸ´ì¡Į
Ġopen ly
ĠìĿ¸ ì¢ħ
ê°Ģ ëĬ¥
ĠìĦŀ ìĿ¸
ĠM OU
Ġsuccess or
ĠìķĦ ë°Ķ
íĥĿ ìĭľ
ĠëıĻ ë¶ģ
ĠC NS
Ġíķ´ìĻ¸ ìĹ¬íĸī
Ġfrustr ation
ĠëĤ´ëł¤ ìĻĶ
è ģ
Ġparam etric
êº¼ íĴĢ
Ġê°ķ íĸī
Ġcertain ty
ê¹ į
ĠìĿ´ ë»¤
Ġê¹Į ìļĶ
ne xt
Ġì¶ķ ìĤ°
s he
ĠìłĢ ëĦĲ
Ġë³¸ ìĹ°
ĠíĪ¬ ìĬ¤
Ġì¶© ë§Į
ĠìłĢ ê²Į
Ġìĭľ ë¹Ħ
Ġachieve ments
ten ess
S D
ì²´ ìĬ¤íĦ°
ĠíķĻ ë¶Ģ
ĠìĹ° ê³¨
Ġìĺ¬ ëłĪ
Ġë³µ ìŀ¥
Ġíį¼ ìĬ¤íĬ¸
pe tition
Ġcontam inated
Ġíĥ± íģ¬
Ġì¤ĳ íķĻìĥĿ
ì¶© ë§Ŀ
ĠìĤ¬ìļ© ë²ķ
ĠìĦľì´Ī êµ¬
ĠK R
ìĿĦ ê¹Į
Ġê³µê¸° ìĹħ
ìķĦ ë¨¹
ĠìĹ° ì¤ĳ
Ġë¶Ħ ë°°
ĠNone theless
Ġê´Ģ íķł
Ġêµ¬ íĺ¸
ë§¤ ê¸°
T N
ĠM EM
Ġcondition ed
ĠíĬ¹ ê°Ģ
ĠëĬĶ ëĶĶ
ĠíĥĢ ìľ¨
Ġìŀ¬ íħĮíģ¬
Ġin version
D ue
ĠìķĪ ë§Ī
Ġc ables
Ġìĭł ëıĦ
Ġì¤Ģë¹Ħ ë¬¼
Ġê³¡ ìĦł
Ġë°ĺ ê²¨
ĠìĽĢì§ģ ìĹ¬
Ġì±ħ ìŀ¥
Ġparti tions
ĠêµĲ ìĭľ
Ġíĺ¸ ë¡ľ
Ġë³Ģ íĻĺ
ĠìĬ¤ìĽ¨ ëį´
Ġìļ° ëĮĢ
ê³µ ìłķ
ìłķ ìĥģ
am ation
ĠìĤ¬ëŀĳ ëĭĪ
ĠìķĶ ê¸°
Ġê°Ĳ ë©´
Ġcontem pt
Ġì§Ģ ëĿ¼
ëĤ´ ìļ©
ĠëĤľ ëĭ¤ê³ł
ĠëĤľ ê°Ĳ
ìĥ Į
Ġê°Ģë¡ľ ìĪĺ
ë§Ī ëĭ¤
Ġë¬´ìĦľ ìĽĮìĦľ
ĠìĿ´ ìĻĦ
Ġë¶ĢëĮĢ ì°Įê°ľ
ç §
Ġì´Ī ìĽĶ
Ġischem ic
ĠìłĦ ìĪĺ
Ġíķ´ ëıħ
ìĿĺ ìĭĿ
íĻ ī
Ġwatch es
Ġë¶Ģíĥģ ëĵľëł¤ìļĶ
ëıħ ìĿ¼
ĠìķĮ ëľ°
ë¡ľ ëĶĶ
Ġì¶ľíĮĲ ìĤ¬
Ġê°Ģ ë§Ī
ĠìĻ¸ ìĥģ
ĠìĽħ ìŀ¥
Ġë°Ķ ì§Ŀ
Ġíķľ íĮĲ
ĠAny one
Addition al
ì´Ī ëĵ±
ĠìĿĮ ìĽĲ
ĠìĪĻ ì£¼
ĠìĨį íķľ
ê²½ ì£¼
Ġì£¼ íĻ©
ĠìĺĪ ìĸ¸
Ġë°Ķë¡ľ ìŀ¡
Ġlaunch ing
Ġìĸ´ ì¹ĺ
ĠK N
ET E
ĠìĹ° ëıĦ
ëŃ ĺ
ĠìĤ´ ê¹Į
Ġìĭľ ê¸Īì¹ĺ
Ġanaly st
ĠëĤĺ ìķĦì§Ģ
Ġì¶© ëıĻ
Ġëĵ¤ìĹ¬ ëĭ¤
Ġë³´ ë³µ
ĠëĺĲ ëŀĺ
Ġdiffer ed
ì½ľ ë¦¬
ìŀĲ ë£Į
Ġìķķ êµ¬ìłķ
Ġun ified
Ġlength y
ëĭ¬ ëĭ¬
Ġì§Ī ëłĢ
ê¸° ìĪł
Ġrational e
íĻį ëĮĢ
ë°ĺ ëĮĢ
Ġëĭ¨ ìĹ°
Ġë¹¨ ëĮĢ
Ġcompet ence
Ġretail ers
Ġë³´ íĬ¸
Ġê²¬ ìłľ
Ġì§ĳ íķ©
ê´Ģ ê´ĳ
Ġë§¤ ëģĪ
íħĮ ëŀĳ
ĠìĨĮ ë°Ķ
um ption
ĠíĬ¸ ëŀľ
Ġê´´ë¡Ń íŀĪ
Ġë³´ìĿ¸ ëĭ¤ê³ł
íĤ µëĭĪëĭ¤
Ġenthusias m
ĠëłĪ ê³ł
ĠíĪ¬ ëį°ìĿ´
ìĸ´ ì°¨íĶ¼
Ġf ighters
Ġëĵ¤ ë¦°
Ġìŀħ ìĨĮë¬¸
Ġtransmit ter
Ġìłģ íŀĮ
am ination
Ġrequest ing
ìĤ ¿
Ġë°Ģ ì§ĳ
Ġì© Į
Ġsynchron ization
Ġë°ľ ì£¼
Ġìĥģ íļĮ
Ġlisten ers
ĠìĪľ ì¢ħ
m ake
Ġëª¹ ìĭľ
PL C
Ġíı¬ ëĵľ
Ġìĭ¤ ìĤ¬
Ġcommission ed
ì¡° ê°ľ
ë¯¸ ëŀĺ
Ġê·¸ëĿ¼ ìļ´ëĵľ
Ġë§Īì£¼ ì¹ĺ
Ġëĭ¤ ìľĹ
Ġë¹Ħ ìĽĮ
Ġpresent ations
ĠíĪ¬ êµ¬
Ġê³µ ì¡´
Ġcon duction
ìĺģ íĸ¥
Ġìıł ìıł
ëįĶ ëĿ¼
ĠìĿ´ ìĤ°
According ly
ìĤ¼ìĦ± ìłĦìŀĲ
Ġìŀł ìŀĲ
Ġupload ed
Ġe ternal
Ġì²ł íĮĲ
ĠíĽĦ ëĶ±
ĠëĪĪ ëıĻìŀĲ
Ġìĭ«ìĸ´ íķĺ
íĮ© íĬ¸
Ġcontin ent
Ġê¸°ëĭ¤ ë¦°
Ġê²Ģ ì¶ľ
Ġìłķ ìĭľ
íĶĦëŀĳ ìĬ¤
Ġimp osing
ĠíĤ¬ ë¡ľ
ĠìĽ¨ ìĸ´
ë²Ħ íĬ¸
Ġìľ¤ ê³½
ĠìĦ¤ ëłĺ
Ġìĺģ ì£¼
Ġë²ķ ëł¹
Ġì¤ĳ ëŁī
Ġê²° ëĭ¨
Ġë³Ħ ë¯¸
à ¨
ì²ĺ ë¦¬
ĠìķĦìĿ´ ì½ĺ
Ġêµ¬ ìĪĺ
Ġì¼Ģ ìŀĮ
Ġì¹¨ ìŀħ
ëį ®
Ġf ighter
ë§ī ìĿ´
Ġë¯¸ë¦¬ ë¯¸ë¦¬
Ġë¦¬ ì¹ĺ
Ġê¼Ń ê¼Ń
Ġcounsel ing
Ġanaly se
Ġunder graduate
Ġëıĭ ë³´
Ġë²ł íĥĢ
Ġë°© ì¶ľ
ĠH K
Ġìľł ì¡±
ĠìŀĲ ë©°
ĠíĻ© ëĭ¹
Ġwavelength s
Ġinhib its
Ġê¹Ģ ìĹ°
Ġëįĺ ì¡Į
ìĬ¤ ë§ĪíĬ¸
ë§ī ìĥģ
Ġw inding
Ġê² Ĳ
imension al
ëłĪìĿ´ ìĭľìķĦ
Ġê³µ ì¡°
ĠêµĲ ìĽĲ
ìĥī ìĥģ
ĠTransport ation
Ġíĥľíıī ìĸĳ
Ġobj ections
ĠíĨł ë¡Ŀ
Ġquanti fication
Ġrecogn izing
Ġê°Ĳ ìĺ¥
Ġëĭ¨ ì¶Ķ
íħį ìĬ¤
ĠìĤ¬ë¬´ ì´Ŀìŀ¥
è §
ĠíĮ¨ ìĬ¤íĬ¸
Ġtrans g
ë°± íĺĦ
Ġê°Ķëĭ¤ ìĻĶ
Ġìĺ¤ë°Ķ ë§Ī
Ġê´Ģìĭ¬ ìĤ¬
ĠìķĦì¿ł ìķĦ
ĠëıĮëł¤ ì£¼
ĠëĤĺ ìĿ¸
Ġì§ģ ìĺģ
ĠíķĺëĿ½ ìĦ¸
Ġë°ľ íĮĲ
per ature
Ġmurder ed
Ġê³ł ì¶§ê°Ģë£¨
Ġìĺģ ë¬¸
ĠìĿµ ìĤ°
ĠML B
Ġë¬¼ ìĿĮ
ĠO A
ĠìŀĦëĮĢ ë£Į
ìļ´ ëĭ¤
Ġê³Ħ ê¸ī
ĠíĨł ìĬ¤
Ġì²´ ì§Ģë°©
Ġë°Ģ ëıĦ
ĠìĤ¬ ê²©
ĠíĮĶ ë¦¬
Ġì§Ģ íĽĪ
ĠX P
Ġì¤ĳ ì¦Ŀ
Ġì¤ĳ ìĦ±
Ġì¦Ŀ ìĹ¬
ĠMountain s
Ġíİ Ń
ĠìĻ¸ ê³¼
ì²ľ ìĭľ
ìĸĳ íĮĮ
h igh
Ġcommunic ating
ĠStruct ure
ĠìĻģ ìĬ¤
ĠìĶ ģëĭĪëĭ¤
ê°± ìĿ´
æ ¸
ĠìĿ´ ì§ĳíĬ¸
ëĳĲ ìĤ°
íĥĢ ìļ´
Ġê°Ī ëŀĺ
Ġë¬´ íĬ¼
íħĮ ìĿ´ìħĺ
Ġê°Ģëł¤ ìĽĢ
vertis ement
Ġê¸Ģ ìİĦ
Ġê±´ ìĿĺ
Ġsw elling
ĠëĶ° ë¦Ħ
ĠíĻķ ê³ł
Ġëª¨ ìĪľ
ì²ľ ì§Ģ
Ġìķ½ ìłĲ
ĠC AM
ĠConserv ative
Ġimplement ations
Ġì´Īì½ľ ëłĽ
ĠìĦľ ë¦¬
Ġìĭľ ë©ĺíĬ¸
ìĪĺ ê¸°
Ġê·Ģ ìĹ¼
Ġíĥľ ë¸Ķë¦¿
ĠLegisl ature
ĠëĮĢê¸° ìĭ¤
ĠìĿ¼ìľ¼ íĤ¬
Ġê¼¬ ë°ķ
Ġì¹¨ êµ¬
Ġë¶Ģ ë¥¸ëĭ¤
Ġì»¤ ì§Ī
Ġëįľ ëįľ
ĠìŀĶ ìĿ¸
Ġë§ī íŀĮ
Ġs izing
Ġgr inding
Ġun used
Ġcon ferences
Ġë¶Ģ ìĪĺ
Ġê°Ģë²¼ ìĽĮ
ìĨĮ ìĹ°
ëĤĺ ìĻĢ
Ġë¬´ì§Ģ ê°ľ
ĠíĥĢ ë¡ľ
ĠìķĦ ìŀĲ
ĠìĬ¬ ì©į
Ġdetermin istic
ĠìĿ¼ ê°ģ
ĠëĿ¼ ëĿ¼
ĠD OC
á ŀ
Ġcompet ed
Ġìł¸ ìķ¼
ĠìĪĺ ìĥī
Ġoffer ings
ê³µ ê¸°
íĥľ ë£Į
ë¶ ĵ
Ġretain ing
Ġtreat s
ì²© ìŀ¥
ì¹ĺ ë§Ī
íĪ ´
Ġìłľ ê²©
ĠìĨį ìĺ·
ĠëıĻëĤ¨ ìķĦ
ĠìĤ° ë¶Ī
ìŀ¥ ëĤľ
Ġw iring
Ġëªħ ìĤ¬
ĠK M
ĠìĨĮ ëĿ¼
Ġìĥģëĭ¹ ìĪĺ
Ġê²½ ìĪĺ
Ġëħ¸ëıĻ ë¶Ģ
ì¦Ŀ ìĥģ
Ġë§Ī ë¦¬ìķĦ
ĠìĭľëģĦ ëŁ½
ê° Ľ
ĠìĤ°ì±ħ ë¡ľ
Ġfront al
Ġë§Ī ì§Ħ
ĠíĮĮ íĮĮ
íĺ¸ íĿ¡
ĠìīĲ ìĿ´íģ¬
ĠìĨĲ ìŀ¡
ëĤĺìĿ´ íĭ°
íĤ ¥
Ġê°Ģì¹ĺ ê´Ģ
Ġindic ative
Ġë¶Ģ ëŁ¬
ĠëĮĢ ì°½
Ġíľĺ ë°ľ
ĠìŀĲë³¸ ì£¼ìĿĺ
ĠPro test
Ġë¬´ ìĤ°
ì¶Ķ íĸī
m ay
Ġìĺ¤ íİĺëĿ¼
Ġìĺ· ìŀ¥
ĠB order
l ights
ëĪĪ ë¬¼
ë¿Į ë¦¬
ĠìĪĺ ì§ģ
ĠëıĻ ëıĻ
Ġë§¤ ëĦĪ
ĠìĬ¤ì¼Ģ ì¹ĺ
Ġê³łìĸĳ ìĭľ
Ġìº ī
Ġinter cept
Ġìŀ¬ ìļ°
L O
ĠíķĻëħĦ ëıĦ
Ġê°ķ ìĦľêµ¬
Ġê³µ ì§ģìŀĲ
ĠëĤ´ ë±ī
ìĵ ´
ĠëģĮìĸ´ ìĺ¬
be en
ĠíĬĢ ê²¨
Ġìĵ¸ ëª¨
Ġì·¨ íķł
Ġhe ights
ĠìĭĿ ìļ©
Ġê³¨ ìłĪ
ëľ¨ ëł¸
Ġíģ¼ ì§ģ
Ġíķ´ ë´Ĳìķ¼
ìį ¬
ëļľ ê»ĳ
Ġì´Ī ëĶ©
ĠíķŃ ìĨĮ
ĠíĹĪ ë¬´
ĠìĥĿ ìĭł
ĠìĹ° íķĺ
ĠìĪĺ ëħĦ
Ġì°¬ ë¬¼
Ġrecons tructed
Ġreflection s
Ġë¶ķ ìĸ´
ĠíĥĢ íĪ¬
Ġrecomb ination
ĠìĪĺ íĺľ
Ġestablish es
atter ing
Ġìĺ¤ëŀĺ ìĺ¤ëŀĺ
ĠO O
Ġë±ĥ ìĤ´
Ġìĺ¤ ëĦĪ
Ġê¸Ģ ë¦¬
ëĵľëĿ¼ ë§Ī
Ġíķĺ ìĻĢìĿ´
ĠH V
Ġíı¬ë¥´ íĪ¬
entific ation
Ġelectr ically
ĠëĵľëłĪ ìĭ±
ĠìĥĿ ìĪĺ
Ġë§Ī ëł¥
Ġinherit ance
Ġì¢ħ ìłĦ
ëıĻ ìĺģìĥģ
ëĦĲ ëĵľ
íļĮ ìĽĲ
Ġê°ģ ê¸°
ĠìĺģíĻĶ ìłľ
Ġpresum ption
ĠíıŃ ìĬ¤
íı¬ íķŃ
Ġê¹į ëĳĲê¸°
íģ¬ ë¦¬íĬ¸
ĠíĨµ íĴį
ĠêµŃ ë¹Ħ
Ġë°© ê´ĳ
Ġrecurs ive
ĠSome one
ĠëŃī ì¹ĺ
Ġíį¼ ìł¸
ĠëĮĢëĭ¨ íŀĪ
ĠìĦłìĪĺ ëĭ¨
Ġë» £
ĠìĹŃ ë¥ĺ
Ġì°½ ë¦½
ĠìĿ¸ ê±´
ĠíĥĢìŀĦ ìĬ¤
Ġìłķ ìłľ
Ġìĭł ëĤ¬
Ġimplant ation
Ġì°© ê³µ
Ġë§Ī ëħĢ
ìŀ¬ ë°Į
App ellant
ĠìĽĲ ê¸Ī
Ġmultiplic ation
Ġë¹Ħ ê·¹
ĠìĹĲ ëĶĶ
Ġentertain ing
ĠëĶ ĺ
Ġê¹¨ ìļ°
Ġgeneral ization
Ġìľł ëĤĺìĿ´íĭ°
print f
ĠìķĦë³´ ì¹´ëıĦ
ĠíħĮ ëĭĪìĬ¤
Ġìĸ´ëĳĲ ìĽĮ
ĠìĹ¬ ëŁ¿
Ġì´Ī ìĿ´ìĬ¤
Ġê±´ ë§Į
Ġconfirm ing
ĠëĥīëıĻ ìĭ¤
Ġìĭł ëį°
ìĭĿ ë¬¼
Ġì§ ĸ
Ġpredic ts
Ġë¹Ħ ìłķê·ľì§ģ
ĠV ision
Ġunderstand s
ĠìĤ¼ ì´Į
C G
Ġíģ ½
Ġê²ł ëĭ¤ëĬĶ
Ġë°° êµ¬
ìĦ± ìĿ´
ĠëĤĺ ìĹ´
ĠìĹ° ì¤Ģ
Ġë¦¬ ëĶ©
Ġê°Ī ë¦Ń
Ġë¯¸ ë°±
ĠìĿ¸ ê³¼
ĠíĥĪ íĩ´
ĠìĿ¼ìľ¼ íĤ¨
Ġë§Īíı¬ êµ¬
ĠRespond ent
Ġìĭľ ìķĦ
ĠëļĿ ë°°ê¸°
Ġìľł ì§Ħ
Ġíķ´ íĤ¹
Ġth under
Ġë³Ģ ëªħ
ê·¼ ë¬´
ê³ł ëŀĺ
R ender
Ġadmin ister
Ġë¸Į ë¦¿ì§Ģ
ç Ł
ĠRepresent atives
ë°ĶëĿ¼ ê¸°
Ġì¡Į ìĸ´ìļĶ
Ġë§Ĳ ë¯¸
Ġì£¼ íĮĮ
ĠìĻ¸ ë¡Ń
ĠíķŃ ìĥĿìłľ
Ġëªħ ë¬¸
ĠìĶģ ìĵ¸
ĠReview s
Ġì£½ ìĹ¬
ĠPublish ing
Ġse aling
Ġëĭ¬ ê¹Į
ĠìĤ¬ìĿ´ ëĭ¤
Ġsmooth ly
Ġdesign ation
ĠëĦ¥ ìĦ¼
Ġintern ationally
ĠíĭĪ íĭĪ
Ġì¢ħë¡ľ êµ¬
ĠíĶĦë¦° íĬ¸
ĠíĻĶ íķ´
Ġê¹Ģ ì§Ģ
Ġserial ize
ëį° ë¦¬
ĠAD HD
Ġanalys ts
Ġë²Į ë¦¬
Ġìŀ¥ ëł¤
Ġê³¼ íĥľë£Į
ìĤ¬ ìłĦ
Ġconclud ing
ç Ļ
ĠìĤ¬ìĿ´ íģ´
Ġìŀ¬ë¯¸ ìĹĨ
Ġê°Ģìł¸ ìķ¼
Ġoverexp ression
Ġê²½ì°° ê´Ģ
Ġd imethyl
Ġë¶Ģì§ĢëŁ° íŀĪ
ì§ĢëĤľ ì£¼
Ġêµ¬ ëıĻ
ĠìĬ¤íĮ Ł
ĠíĤ¤ ìĽĢ
Ġìĸ´ ê¸ĭ
Ġëĸł ìĺ¤
ìĿ´ ìģĺ
Ġê½ Ī
ĠìĮĪ ìŀ¥
ĠëĿ¼ ê³¤
ĠëĬ¥ ìĦł
Ġíģ¬ ëŀĺ
íŀĪ íŀĪ
Ġê°ĳ ìĥģìĦł
ĠìķĦìĿ´ ìĸ¸
Ġsummar ize
ì£¼ ë°©
ìķĦ ì°Į
Ġë¶Ī ê¸Ī
Ġtreat y
Ġìłķ íĻ©
Ġpar ity
ë¬´ ëĬ¬
ĠG RO
ĠHispan ic
Ġshare holders
ĠëĦ¤ ëª¨
ìłĦë¬¸ ê°Ģ
Ġneighborhood s
Ġíıī ìķĪ
Ġì¢ħ ìķĦë¦¬
ĠíĨµ ì§¸
ìĽ °
Ġìµľ ìļ°
Ġê¹Įëĭ¤ ë¡ľìļ´
Ġê³µ êµ°
ĠM atter
Config uration
ĠëĤĺ ê°Ħëĭ¤
ĠíĮ¬ ì¸ł
Ġê±´ì¡° ê¸°
ĠëĮĢ ê°ķ
Ġ ëłīìĬ¤
Ġë©ĶìĿ´ ì»¤
ĠìĤ¬ ëĭ¤ë¦¬
ĠìĦ± ìĤ¬
Ġê±°ëŀĺ ëŁī
Ġì¡°ê·¸ ë§Į
Ġë¬¼ ëĵ¤
Ġìĭ¬ íķ´ìĦľ
Ġì¹ĺ ìĨŁ
Ġtraged y
Ġìĭ¬ ìĥģ
Ġsubscri ber
ĠìĿ´ë¤Ħ ì§Ī
Ġê²Į ìļĶ
Ġê¹Ģ ê¸°
ĠíĤ ´
Ġas ynchron
Ġìķħ ì·¨
Ġgastro intestinal
ĠìĻĶ ìľ¼ëĭĪ
Ġê´Ģ ëĤ´
Ġìľ¡ êµ°
ĠM OS
ĠëıĦë§Ŀ ê°Ģ
ê±° ì§Ħ
Ļ ĩ
ĠíĮĮ ìŀ¥
Ġìĭľ ìĭĿ
ĠíķĺìĿ´ ëĿ¼ìĿ´íĬ¸
G RO
Ġê¸°ëħĲ ìĿ¼
ìĬ¤ ì¼Ģ
Ġëĭ¨ ë¬´ì§Ģ
ìĬ ¥
ë¥¸ ìŀĲ
ìĨĮ ê³łê¸°
Ġì¹¼ ì¹¼
Ġë³´ ì²Ńê¸°
Ġìĭłë¶Ħ ì¦Ŀ
Ġtrack ed
ê°Ģ ì£½
ĠìĦľ ë°©
Ġyoung est
Ġval uation
ĠE PS
Ġìķł ìļ©
Ġë²Ī ìĭĿ
Ġcultiv ation
ĠìĹ´ ë¦´
ëĿ¼ íģ´
Ġë°Ģ ë¦°
Ġpossess es
Ġtransform ing
IC S
ìłĢ ê±°
ê° ¤
ĠìĽ į
Ġë§Įì¡± ê°Ĳ
Ġëį° ìĬ¤íģ¬
íĿ Ļ
Ġê² ľ
íĶĮ ëłĪ
íĮĮ íĬ¸
Ġë¯¸ ìķĦ
Ġcontin uation
ë¶Ģ ì¡±
ĠëĲĺ ëıĮìķĦ
ĠìĹ° ìĨĮ
ĠìłĦ ì§ģ
ë²ł ìĿ´ìĬ¤
Ġterrit ories
Ġì¶Ķ ê²½
ĠêµĲ ê°Ĳ
Ġê°Ĳì¹ł ë§Ľ
ĠëĶ°ëĿ¼ ìĺ¤
Ġì°¨ ë¦¼
ĠProcess ing
ĠëĤĺ íĬ¸
Ġë§¤ ìĭ¤
Ġë¹Ħ íĭĢ
ĠìŀĦ ìĿĺ
ĠT K
ìĬ¤ ëŁ¬ìļ´
Ġëĭ¤ê°Ģ ìĺ¬
Ġë¯¸ ëª¨
Ġê¹Ģ ìļ©
Ġë°Ķ ìĿ´íģ¬
Ġê°Īë¹Ħ ì°ľ
Ġíķ´ ì¤Ģëĭ¤
ĠíĺĦ ì§ģ
ĠëĬĲê»´ ìł¸ìĦľ
ĠìŀĲ ë¹Ħ
ê¿ Ķ
th ink
ĠìĹĲ ë¥´
Ġëį° ì½Ķ
Ġcon gression
ĠìķĦ ìĺ¤
Ġìĺ¨ ìłĦ
Ġíķ© ìŀĳ
Ġëª¨ ìĺĢ
ĠAT M
ĠSS L
Ġprompt ly
Ġë©Ķ ë¦¬íĬ¸
ĠìĿ´ë»Ĳ ìļĶ
Ġass urance
ĠíĪ¬ ìĹ¬
ì¶Ķ ìĦĿ
Ġìĸ´ëĸ¤ ì§Ģ
Ġë°ĺëĮĢ íİ¸
Ġcon fer
Ġëĭ¬ ëł¥
Ġë§Ī ë§Ī
ìľĦ ìĽĲ
Ġë°© ì¶©ë§Ŀ
Ġì±Ļê²¨ ìĦľ
Ġê³ł ìĭ¬
Ġinstruct or
Ġë²Ī ê°Ī
ĠëĤĺëĪ ´
Ġìķł ìį¨
ĠêµŃìłķ ìĽĲ
Ġìłķ ë³µ
ìķĦ ìĤŃ
ĠìĬ¤ë¬´ ëĶĶ
Ġìĥ¤ ëĦ¬
ë²Ħ ëł¤
ìĽĶ ëıĻ
Ġìļ´ìłĦ ìĦĿ
Ġì§Ħ ëĭ¤ëĬĶ
oc hemical
ĠìĿ¼íļĮ ìļ©
Ġë¬´ ê¶ģ
Ġtheore tically
Ġìłĸ ë³ĳ
Ġëĥ īìŀ¥
íĸ Ħ
Ġl aughter
ĠD ictionary
Ġì¶© ìĦ±
ĠìĪĻ ëł¨
Ġê³łë§Ī ìĽł
ĠìĪĺìĽĲ ìĭľ
ĠëĮĢ ë¬¸
Ġ--------- -
Ġ ì³
ĠìĤ¬ íĿĺ
Ġì²ł ë¶Ħ
Ġë°ľ ë°Ķëĭ¥
Ġì½Ķ ëģ¼ë¦¬
íĪ Ń
Ġëıħ ìŀ¬
Ġyield ing
Ġëŀ ı
Ġstatic method
Ġintern ally
ĠN GO
e tical
íĸī ìľĦ
Ġìļ° ìĥģ
Ġìµľ íĽĦ
ĠìĨ¡íĮĮ êµ¬
ĠVal ent
Ġì¶ľ ìŀĲ
ĠB irmingham
A X
Ġcross es
Ġìĸ´ ë¨¸
ĠëłĪ ìłĢ
Ġdispers ed
S R
è ī
Ġê½ĥ ìŀİ
Ġê³ł ì¡°
Ġì¹´ ë¥´
Ġë£¨ íĥĢ
ĠëĭŃ ê°ķìłķ
Ġë¹łìł¸ ëĤĺê°Ģ
oin ter
ë§ £
ìĳ ¤
Ġê´Ģê³Ħ ìĹĨìĿ´
ĠíĻĶ ëł¥
ĠìķĪ êµ¬
Ġis omorphism
ìĬ¤ íı¬
Ġê¹Ģ ìĥģ
ĠíĪ¬ ì²Ļ
Ġì£¼ ìĽĮ
ĠìĿ´ ê²¼
Ġìłľ ìŀĦìĬ¤
ëĸ¡ ë³¶ìĿ´
Ġê´ĳ ìĸ´
ìĹ¬ ê²¨
ìĸ´ ìķ¼
ĠìĿ¸ ì¡°
Ġê°ľ ê°ķ
ìĭł ëĤĺ
Ġê±´ ìł¸
ĠìĹŃ ìłĲ
ĠC ultural
Ġìĸ´ ìĦł
ë£¨ë¯¸ ëĬĦ
Ġupgrad ed
ĠStrateg y
Ġhighlight ing
ĠìĿ´ ëĨĪ
ĠSS D
Ġwork out
ĠìĦ± ì¶Ķíĸī
ĠìķĦ ìĦ¸
Ġê°ģ ìĿ¸
ĠëģĬ ìĿ´
An alysis
êµŃ ìŀ¥
Ġëĭ¨ íĸī
ì´ ĺ
Ġë¶Ģ ê²°
Ġìĺ¬ëł¤ ìķ¼
ĠíĬ¸ëłĪìĿ´ ëĦĪ
Ġëĵľ ë¬¸
Ġë¶Ħ ìĭ¤
Ġìķ¼ ê·¼
Ġìĥģ ì²´
ĠëĤĺíĥĢ ëĤľëĭ¤
ìĭľ ìĪł
ëĶ° ëģĪ
ĠíŀĪ ë¡ľ
Ġë¬» íĺĢ
ê°ľ ë°ľ
íĹ¤ íĹ¤
ĠëĤ¨ ê¸¸
Ġfound ations
Ġinflu encing
ëĮĢíķľ ë¯¼êµŃ
ĠN B
ĠìĥĪ ìĭ¹
Ġë§Ī ì°°
ĠíĬ¸ë¦¬ íĶĮ
íĶĦ ëĿ¼ìĿ´
ĠìķĪëĵľ ë¡ľìĿ´ëĵľ
ĠëĳĲ ë¦¬
Ġíķĺ ëĤ¨
Ġëĵľ ëŁ¼
Ġê²° íķį
Ġë¬´ íļ¨
ìĦ¤ íĥķ
Ġíļ¨ ëł¥
ĠëĨ¨ ëĬĶëį°
ĠëĮĢ íķŃ
ĠíĦ° ì§Ħ
N ational
M ix
íģ¬ ê¸°
ĠëĩĮ ë¬¼
Ġë¬¼ ì²´
Ġtransl ations
Ġê³ł ìĿĺ
Ġì¤Ħìĸ´ ëĵľ
Ġìħ° íĶĦ
Ġattain ed
Ġê¼¬ ë§ī
ĠR ivers
Ġì¹´ ëĭĪë°ľ
ĠS AT
Ġëĭ¤ ë£¬
è ©
ĠH I
ĠíĶĦë¦° íĦ°
Ġì¶© ì£¼
ëª¨ ëĭĪ
ìĩ¼ íķĳ
Ġì§ľ ìŀĶ
ëıĻ ìĽĲ
Ġë¬¼ ëĨĢìĿ´
ĠëıĦ ìĥī
æ ¼
Ġëª¨ ìĿĮ
Ġclean er
ĠìĹ¼ ìĨĮ
ë¯¼ ì§Ģ
ĠíķĦ ë§ģ
ĠëıĻ ê²°
ëıĻ ë¬¼
Ġdirect ing
ê³µ ìĹ°
ĠíĺĦ ìĹŃ
Ġê²½ íĿ¬
Ġê°Ģë¦¬ íĤ¤
ĠëıĦ ì¶ľ
ìĬ¤íĨł ë¦¬
Ġìĸ´ íľĺ
ĠëıĮ ì¶ľ
ĠC MS
Ġìŀ¬ ë²Į
ì§Ģ ëĮĢ
Ġinterpret ations
Ġêº¼ ì§Ģ
Ġíı¬ ëłĪ
ĠInvest ment
Ġcongression al
ê¸Ī ìĨį
Ġë°ĺìĺģ êµ¬
Ġë°ķ ì°¬
Ġê¸° ìĥĿ
Ġê°ĲìŀĲ íĥķ
Ġê°Ħ ì£¼
ĠS MS
ì¢ħ ìĽĲ
ê°Ĳ ìĽĲ
Ġsubdiv ision
ĠU FC
Ġëħ¸ ë¥´
ĠíĬľ ë²Ħ
Ġê°Ī ì§Ģ
ĠëĮĢ ì¶Ķ
ĠìĥĿíĻľ ë¹Ħ
ĠìłĲ ëł¹
Ġíı¬ ê´Ħ
ĠìĽĲ ìĤ°ì§Ģ
ĠìļĶ ë²Ī
ĠëĤ´ ê¸°
ê¾¸ ë¡ľ
Ġì°¾ìķĦ ê°Ħ
íģ¬ ìĬ¤
Ġhybrid ization
ê²½ ëĤ¨
Ġanalog y
íĮĮ ìĿ´ìĸ´
Ġê°Ĳ ê²©
Ġê±° ëĳĶ
Ġintens ities
arg ing
ĠëģĿ ëĥĪ
Ġìĸĳ ì¸¡
ĠëŃĺ ê¹Į
Ġcomplic ation
ĠëĮĢ ìŀħ
ìĤ° ìĦ±
Ġìłķ ìĦ¸
ĠìķĪ ê±´
ĠF W
ĠìĬ¤íħĮ ìĿ´
Ġë¡¤ ëŁ¬
Ġë§ŀ ì·Ħ
Ġìŀĥìĸ´ë²Ħ ë¦°
Ġê¸° ê°ģ
ê¹Ģ ë°¥
ĠíĹ·ê°Ī ë¦¬
Ġë§¤ ëĭĪìķĦ
ĠìłĦ ì§Ħ
Ġë¶Ī ë©´ì¦Ŀ
Ġìĭľ ì²´
ĠíĻĺ íķĺ
ê³Ħ ìķ½
Ġë¦¬ ìĺ¤
ĠíĨµ íĸī
ĠìŀĲ ìŀĲ
ê°Ģ ìłķ
ìĿ´ ë©´
m ock
Ġê·ľ ê²©
Ġê±¸ ìľ¼ë©´
ìĭ¸ ìĽĢ
Ġê³¼ ìĭľ
Ġv intage
Ġìĭł ëħĦ
ĠìĨĮ ëĭ¤
ĠìŀĬ íĺĢ
Ġë¶Ļ ìĿ¸
Ġìłķ ìłĲ
Ġdiffer ing
ĠíĢĺ ìĬ¤íĬ¸
Ġê°Ħ ê°Ħ
ĠêµĲ ìĦŃ
Ġë¨¸ë¦¿ ê²°
Ġë²ł íħĮëŀĳ
Ġë¶ĢìĤ° ìĭľ
ë²¤ ìħĺ
ĠPC A
ĠìĬ¬ë¦¬ íį¼
ĠìłĦ ìŀ¥
ĠìĹŃ íķĻ
Ġê°Ģ ë¬¸
ĠíĮĮ ìłĦ
Ġìĥģ ë¶Ģ
Ġfootball ers
ë¿ Ķ
uclide an
tract ing
ĠìĬ¤ ë§ĪìĿ¼
Ġë©´ ëıĦ
ìķħ ê´Ģ
ë® ¬
ĠG D
ĠíĻĪ íĶĮëŁ¬ìĬ¤
Ġì§Ħì§ľ ë¡ľ
ĠìĭĿ ëıĦ
Ġëħ¸ ëł¤
Ġë³Ħ ê°ľ
Ġexceed ing
Ġë©¸ ë§Ŀ
ĠìķħìĦ¸ ìĤ¬ë¦¬
Ġê³ł ìĿ´
Ġ- -------
ëªħ ëıĻ
ĠíĬ¹ ë¡Ģ
ĠíĻĶ ê°Ģ
Ġìºĺë¦¬ íı¬
Ġtouch es
Ġconf inement
ĠM H
ìłĦ ê³¨
Ġenroll ment
ĠìĿ¼ ìĭĿ
ë¹Ħ ìłĦ
Ġì°ľ ì§Ī
Ġëª¨ ìħĶ
Ġìłķ ê´Ģ
Ġë½Ģ ë½Ģ
Ġíķ´ ëĤ´
ë°Ķ ê¸Ģ
Ġstat ue
ĠV PN
Ġfundament ally
ìĿ´ ìĤ¬
æ ¨
ĠíļĮìĿĺ ìĭ¤
ìĤ´ ìĿ´
ìĪ ¯
ĠìĿ¸ ëªħ
ë²Ħ ë¦°
å ł
Ġst aging
íĨ¨ ë¦Ń
Ġì¤Ħ ì§Ģ
Ġìį¨ ìļĶ
Ġìŀ¥ ìĦ±
Ġê°ĦìłĪ íŀĪ
Ġbreath e
Ġìī¼ íĦ°
Ġê¸° íĬ¹
Ġíĺ¸ ëĸ¡
Ġì¹´ ìĬ¤
ĠìķĦ ì§Ģ
ĠëĨį ë¶Ģ
ĠS AP
Ġê³¤ ì¶©
ĠìķĦ ëĵľ
íİ¸ íķĺ
ĠëĮĢ ì¡°
ĠP TS
Ġìŀĳ ìłķ
ĠëĪĪ ë¶Ģ
Ġê´ĳ ëĮĢ
Ġdel ighted
c ation
Ġdefin itive
ĠíĶĦë¡ľ ê·¸ëŀĺ
ĠìĹ¬ ëĮĢ
ĠìĿ´ìłľ ìĦľìķ¼
Ġìĭľì¹´ ê³ł
ĠëıĻ ë¬¸
Ġë§Ī ìĪł
ì¿ µ
oo thing
Ġë¶Ħ ì£¼
Ġì¤Ģ ëĭµëĭĪëĭ¤
ĠET F
Ġì§Ħ ìłĦ
Ġspecial ty
ĠM IB
íĹ ī
ê·¸ ê±¸
Ġìĭ¤ íģ¬
Ġì§Ī ëŁ¬
ĠD MS
ì´ ¬ìĺģ
Ġìĺģ íĨµ
ë²Ķ ìľĦ
ë¹Ħ ëĵľ
ĠëĦĺìĸ´ ê°Ķ
ëŀĺ ì¹ĺ
Ġimmun os
ĠìĽ ľ
Ġë³µ ë¬´
Ġëº Ħ
ĠìĨįìĥģ íķĺ
ìĺ¤ ëŀľ
Ġë¦¬ ì½Ķ
ë±ħ ìĿ´
ĠíĹ¬ ê¸°
Ġstr ive
ì¶ľ ê·¼
ĠìĻĢ ìļĶ
Ġëį° ë¯¸ì§Ģ
ĠìĨĲ ê¼½
Ġìĸ´ì©Į ëĭ¤
Ġë¶Ģ ì©į
Ġë´Ĳ ëĿ¼
Ġìłľ ìķķ
ĠíĥĪ ìĥī
êµ¬ ìĹŃ
Ġê´ĳ ë³µ
ĠG F
Ġì½ĺ íģ¬ë¦¬íĬ¸
ĠìĽĲ íĻĶ
ĠìłĢ ì§Ī
Ġìľł ìĿ¸
Ġê°Ģ ìĬµê¸°
ìħ Ī
Ġìĺ¬ëĿ¼ ìĻĢìĦľ
ĠíĥĢìĿ´ ê±°
Ġíķ©ê²© ìŀĲ
ĠëĤ´ëł¤ ìĻĢ
Ġê³µ ë³µ
Ġpresum ed
Ġìĸ´ìļ¸ ëł¸
Ġìĥģ íĳľ
Ġì»¤íĶĮ ë§ģ
ĠEx cept
Ġëľ¬ ê¸Ī
Ġ ì¬Ĳ
ĠìĿ¸ ëįķ
ĠëĳĲ ë¥´
Ġë°ľ ëł¹
Ġì§Ģ íĺķ
Ġë¬¸ìłľ ì§ĳ
Ġëª¨ ë¦Ħ
ìĤ° ì±ħ
Ġspring framework
etric s
ĠM igration
Ġë§Ŀ ìĽĲ
ĠëĽ° ìĸ´ëĵ¤
ĠíĿ¥ íĸī
Ġadministr ators
Ġë¡ľ ìĸĦ
Ġê°Ģìł¸ ìĻĢ
Ġì»¤íĶ¼ ìĪį
íķĺíķĺ íķĺ
Ġavoid ance
Ġìķŀìŀ¥ ìĦľ
Ġêµ¬ ìĬ¬
Ġìĥī ì¹ł
Ġë§Į ì£¼
Ġë©Ķ ìĭľ
Ġê´Ģ íķĺ
ĠëĤ© ì¹ĺ
Ġë²Ħ ëĶĶ
ĠêµĲ ìŀ¥
ĠíĮĮ ìĹ´
Ġë¹Ī ëıĦ
ê³Ħ ëıĻ
ĠìıĻ ìıĻ
ĠëĦĺìĸ´ ê°Ī
Ġpublish ers
ĠìĿ¸ê±´ ë¹Ħ
ì²Ń ì£¼
Ġtrain er
ĠëĶ± ì§Ģ
E lements
Ġìĭ¬ë¦¬ íķĻ
íĺ¹ìĭľ ëĤĺ
Ġindic ations
Ġinter le
Ġëĭ¤ íģĲ
Ġìŀ¬ ë¬¼
Ġê¸° ì¢ħ
ìĿ¸ ê¸°
Ġìĭł íķĻ
ĠH ousing
ç Ħ
Ġë°ľ ëıĻ
U F
Ġë©ĺ ë¶ķ
Ġaccount ability
ìĤ° ìĹŃ
Ġground ed
ĠëĤĺìĿ´ íĤ¤
ĠìĨĮ ìĭľì§Ģ
ĠíĮĮ ìĿ´íĮħ
ìĤ¬ ìĿ´ëĵľ
Ġì°¨ ê°Ģ
Ġëĵľë¦´ ê¹Į
Ġì¤ĳ íĺķ
ĠAS P
Ġì« ĳ
Ġcounter part
Ġê´ĳ ê²½
ĠëĮĢ ë¶Ģ
ìĺĪ ìĪĺ
M O
Ġìī °
Ġëª½ ê³¨
H Q
Ġê·Ģ ì¡±
Ġíļ¡ ëĭ¨
Ġìľł íĪ¬
Ġê·¸ê±¸ ë¡ľ
otechn ology
ĠìĤ¬ ëĵľ
Ģ à¸
Ġshort est
Ġsupplement al
Ġremind s
ĠìķĪ ê³¼
Ġì£¼ ìĸ´ì§Ģ
graph ic
ĠìĤ´ ë¡±
ìłĦ ìĭľ
Ġê¶Į íķĺ
ĠíĿĳ ìĿ¸
ĠëıĦ ìŀĲê¸°
Addition ally
Ġê³ł íĮĮ
Ġë³¸ ìĦł
ĠêµŃë¯¼ ìĿĢíĸī
ĠìłĲ ë§ī
ĠV ERSION
ĠìĹ¬ ë³´
Ġê·Ģ ê°Ģ
Ġderiv ation
ĠìĹĲ ëĶĶìħĺ
Ġê¹ ħ
ĠìĦľ ìĽĲ
ìŀ¬ íĮĲ
Ġin organic
ë©ĭ ì§Ħ
ê·¸ ê±°
Ġmin isters
Ġëĭ¨ íĺ¸
Ġì»¨ ë²¤ìħĺ
ì»¬ ëŁ¬
Ġeconom ically
S ocial
Ġìķ¤ ëĵľ
Ġìª¼ ê°ľ
ĠK E
Ġcustom ize
ĠíļĮ ì°¨
ì§ĢëĤľ ëĭ¬
Ġìĭł ìĦ¸
Ġëªħ ë¶Ħ
ë°Ľ ìĿ´
top ath
ĠíħĮ ìĬ¬ëĿ¼
ĠíĥĢ ê³ł
íİĻ íĬ¸
Ġmetaph or
Ġíļ¡ ëł¹
pl ings
ĠB W
Ġì¶¤ ì¶Ķ
ĠìĤ¬ ì§ģ
íĪ¬ ë¦¬
Ġalleg ing
Ġìļ° ë¬¼
ĠìĹ° ì°¨
ĠëĭĪ ì¦Ī
ĠëĨĵ ìĿ¸
Ġì¹ľ ê·¼
ëıĦ ìĦľ
Current ly
ëŀŃ ìĿ´
Ġtherap ist
ì²ľ ìķĪ
Ġê·¸ë¦¬ íķĺìĹ¬
Ġê¸° ì¦Ŀ
Ġì²ľ íķĺ
Ġìłĳ íķł
Ġìĭłíķľ ìĿĢíĸī
Ġnumer ically
Ġêµ īìŀ¥
Ġê¸Ī ìĥĪ
Ġê¹Ģ ìĪĺ
ĠW AS
Ġattrib utable
Ġdownload s
Ġìłľ ìľ¡
Ġë´Ĳìķ¼ê²ł ìĸ´ìļĶ
Ġë¶Ģ ì¼Ģ
Ġëĥ ħëĭĪëĭ¤
ìķĦ ë©Ķ
ëĭ¤ ëħĢ
Ġmultiple x
Ġre imburs
Ġë¹¨ ê°ķ
ìļ´ëį° ìĿ´ìħĺ
ĠíĻĢ ëĶ©
ë°Ķ íĢ´
Ġì¡° ìĨį
ê¸° êµ¬
Ġì¹ĺ ìĽĮ
Ġë¡ľë§¨ ìĬ¤
Ġìĺ¨ ìĭ¤
Ġê³µìĹ° ìŀ¥
ĠíķĺìĿ´ ëĭīìĬ¤
Ġíıī ìłĲ
ĠìĦ±ëĤ¨ ìĭľ
Ġê¹Įëĭ¤ ë¡Ń
Ġsurround ings
ĠìķĦ êµ¬
Ġëĭ¬ëĿ¼ ë¶Ļ
ì§ ĸ
ĠìŀĲ ìŀĳ
Ġdirection al
ëķ ł
Ġë°ĶìĤŃ ë°ĶìĤŃ
Ġë¶Ī ìĭł
Ġë°Ķ ì§Ī
Ġaffirm ative
Ġëª© ìŀ¬
ĠëĦĺ ìĸ´ì§Ģ
Ġantagon ist
ëĵ¤ ë¦¬
ìłĪ ë¯¸
Ġaccident ally
ĠëĶĶ ìķĦ
ĠëĤ´ ë³´
ĠD X
Ġë³´ íĥľ
ë°Ķ ë¦¬
Ġdevast ating
ĠìŁģ ìłĲ
ĠìķĮ ëĿ¼
Ġbe autifully
ĠìĦ¤ êµĲ
ĠíĹĪ ìłĦ
Ġvolunt arily
WH ERE
ĠìĬ¤ë©° ëĵ¤
Ġ** ********
Ġê¸Ģ ëĿ¼ìĬ¤
ĠëĮĢë¦¬ ìĦĿ
Ġê³µíĨµ ìłĲ
Ġì²´ ë¥ĺ
Ġêº¼ ëĥĪ
ĠThrough out
ìĸ¼ ìĿĮ
acter ial
ĠíĴį ìļĶ
Ġìłķ ë§¥
Ġìŀ¡ ì±Ħ
ëıĦ ë¡Ŀ
Ġë¶Ģ ëŁ¬ìĽĮ
ëħ¸ ìĿ´
ĠìľĮ ë¦¬
Ġ ëł¸
Ġset ter
ĠìĿĺë¢° ìĿ¸
Ġê· ĵ
ĠìĿ´ ìĪľ
ìłľ ìĿ´
ìķł ê¸°
ì¶ĺ ê¸°
Ġíķĺ êµ¬
ĠëĨį ì¶ķ
ĠìĬ¤ ë¬¼
ëļ ¤
ĠìķĦ íĻī
Ġë¶Ī ìĪľ
Ġë²½ íĻĶ
íį¼ ëĭĪ
Ġê³Ħ ìĦ¸ìļĶ
ëª¨ ìŀĲ
ĠìĹ¬ ëıĻìĥĿ
æ ı
Ġë³´ìĿ´ ìĬ¤
ĠìĦŃ ìĦŃ
f usion
ĠìłģìłĪ íŀĪ
ê¸° ìĹĲ
ĠìĿ´ìķ¼ ë§Ĳë¡ľ
ìķ ¨
Ġí īģ
ëıĻ ê¸Ģ
Ġì²Ń ì²©ìŀ¥
ĠìĤ¬ ëĭ¹
Ġì¤Ħ ìĦľ
ìķ¼ ë§Ī
ëĤĺ ë¹Ħ
Ġëĳ¥ ìĿ´
Intern ational
Ġì¤ĳ ìŀ¬
å Ĥ
Ġì§ģ ê´Ģ
Ġë¯¸ íĿ¡
ĠìĦ¸ ë°Ģ
Ġìľł ëĭĽ
Ġì§Ģ ëĤ¼
Ġbiomark ers
ĠìĦľ íķĳ
ĠíĻĺ ìłĦ
ë£ »
Ġstabil ization
Ġsupposed ly
Ġê¸¸ ëĵľ
ĠArchitect ure
ĠN intendo
ĠëĨį ìķ½
Ġë²ķ ì¡°
ê·¸ëŁ¬ ëĭĪê¹Į
ĠíĴĢ ëł¤
Ġìłĳ ì°©
ìĿ´ ëĤĺ
Ġwhat soever
Ġê´ĳ ìĹŃìĭľ
ĠInter face
ĠìłľëĦ¤ ìĭľìĬ¤
Ġalbum in
ĠìĤ´ìķĦ ìĺ¨
ë§Į ëĤĺ
Ġìĺ¤ ìĬ¤íĬ¸
ĠìĹ° ìĦ¸ëĮĢ
ĠëıĻ ì§Ģ
Ġì£Ħ ëĭ¤
íĽĦ ê¸°
ĠìºĲ ìĭľ
ĠíĮĿ ì½ĺ
Ġtim ber
ĠìĤ¬ ë¦½
ĠE aster
Ġë§Ĳ ëłĪìĿ´ìĭľìķĦ
Ġfinanc ially
ì¶ķ êµ¬
ĠëĤĻ ì°°
íĪ¬ ìŀĲ
ì°½ ìĽĲ
Ġoscill ation
ä ¼
Ġë¯¸ ìĦ±
ë¦¬ìĬ¤ íĥĢ
Ġpolymer ization
Ġadvertis ement
ĠíĶĦëĿ¼ ìŀĲ
ĠìĿ´ ëĭĪ
Ġíı¬íĨł ìĥµ
Ġë¦¬ íĶĦíĬ¸
ĠìķĪ íĭ°
ìĭľ ê³Ħ
Ġíħį ìĤ¬ìĬ¤
íı¬ ëıĦ
ìł Ĭ
Ġimplic ation
Ġê¹Ģ ê´ĳ
ë² Ĺ
Ġë°ľ ëŀĲ
Ġì²Ń ëĿ¼
Ġëĭ¬ëĿ¼ ìļĶ
íĶ¼ ëĭĪ
Ġëĵ¤ìĸ´ ìĦł
Ġëĭ¤ëħĢ ìķ¼
Ġëĥī ê°ģ
Ġë¶Ī íĥĢ
íĤ¤ íį¼
ìĦ¸ ë¯¸
Ġë°Ķ ëŀ¨
Ġre activity
Ġìĸ´ ìĭľ
Ġë²½ ëıĮ
ĠìĽĥ ê²¼
Ġë§Į ë£Į
ĠìĿ´ìĤ¬ íļĮ
ëĤĺ ìļĶ
íħĲ ëį°
Ġë°ĺì§Ŀ ìĿ´
ê³¼ ìŀĲ
ìĹŃ ìĤ¬
Ġë§Ĳ ëŀĳ
ĠëĤĺ ëĭĪ
Ġë°ĺ ê¸°
Ġìłķ ìĦĿ
Ġìķ½ ìŀ¬
Ġë°Ķ ê¸Ģ
ĠìĿ´ ë¥¼
ĠíĶ¼ íĦ°
ĠìĿ´ ë¹¨
Ġperiod ically
ê¸° ëĬ¥
Ġë¶Ģëĭ´ ê¸Ī
ë§¤ ì½¤
Ġê³¼ ìĸ¸
Ġê°Ģ ìĭ¤
ìŀ¥ ìĸ´
Ġíģ½ ëĭĪëĭ¤
ĠíĶĮëŀ« íı¼
ĠíļĮ ê°ľ
Ġê¸°ìķĦ ì°¨
Ġbureauc r
Ġtrans istors
Ġëĭ¹ ê²¨
ĠëģĮ ë¦¬
ĠëĪĪ ìĹ¬ê²¨
Ġê¸°ê´Ģ ì§Ģ
ĠPhilosoph y
ĠìºĲ ìĬ¤íĮħ
ĠìĬ¤ìľĦ íĬ¸
Ġì² ©
íĥ± ê¸Ģ
Ġë§ĪìļĶ ëĦ¤ì¦Ī
Ġíı° íĬ¸
Ġimmun ohisto
íķ¸ëĵľ íı°
ĠìĨĮ ê·ľëª¨
ĠíĶĦëĿ¼ìĿ´ ë¹Ĺ
ĠìķĮìķĦ ë³¸
ĠE Q
ĠíĻķ ë¦½
W rapper
ĠíĬ¸ ë¦¼
Ġëª¨ ëħ¸
ĠP arent
ì¡° ëªħ
é ¦
ĠM ental
Ġëº Ĳ
ìĸ´ ê¹¨
ĠDE F
ĠìŀĶ ìĹ¬
ĠìĨĮ ìļ¸
Ġë£¨ ìĪĺ
Ġìŀł ìłķ
ortun e
ĠD Q
Ġì±Ļ ê²¼
Ġëı¼ì§Ģ ê°Īë¹Ħ
Ġìĺģ íĨł
ëĲľ ìŀ¥
ì¤ĳ ê³ł
ĠëĳĲ ìĦ¸
Ġenthusi astic
Ġexplos ive
Ġinhib iting
ĠìĪĺ ìĨ¡
ĠìĿ´ ì¤Ģ
ëĮĢ êµĲ
Ġìĭľíĸī ëł¹
ĠíķŃ êµ¬
Ġdisput ed
Ġincrement al
Ġëĭ¬ íķľëĭ¤
od o
ĠìĪĺ ì¡±
Ġtransform er
ĠíĮĶ ê¿Īì¹ĺ
Ġschedul er
ê¹¨ ë¹Ħ
Ġëªħ ìĭ¬
Ġìĭł ì§Ħ
Ġë¶Ģ íĶ¼
Ġê´Ģ íĸī
ĠìľĦ ëł¥
Ġsome time
Ġaltern ating
Ġë¯ Ħ
Ġd angers
Ġmerchand ise
ëĦ ¨
Ġë¶Ģ ì¢ħ
Ġê¿ °
Ġcircumst ance
ĠìĿ´ ìĬ¤íĬ¸
Ġstrength ening
ĠìľłìĤ° ìĨĮ
æ ¯
Ġëĭ¤ìĬ¤ ë¦¬
Ġíķ´ ë´ĲëıĦ
Ġìĸ´ ëķł
ĠìķĦ ìĹ°
umber ed
ì²ľ êµ¬
ĠìĦ± ìļ°
ĠA X
ĠìĿ´ ì¦Ī
ĠìĹ½ ìĦľ
Ġë¯¸êµŃ ìĿ¸
ĠìķĦ ìĤ¬
Ġëĭ Ľ
Ġíį¼ ì¦Ĳ
Ġse lectivity
êµ³ ìĿ´
ĠìĿ¸ íĶĮëłĪìĿ´ìħĺ
ĠìŀĲ ëŀĲ
Ġë¯¸ ìĥĿë¬¼
ĠëĤ´ ê³¼
Ġê´ĢëŀĮ ê°Ŀ
Ġì¦Ŀ ìĭĿ
Ġì§Ĳ ìĬ¹
ëı ĭ
Ġë°© ê³¼
ëĶĶ ìĬ¤
ìĬ¹ ë¶Ģ
Ġdeterior ation
Ġìłķê·ľ ì§ģ
Ġë°ľ ê°Ħ
Ġê³µ ìĪĺ
Ġe clipse
ìĬ¤ íĭ´
ìĦ ¹
ìĨĲ ê°ĢëĿ½
Ġê°Ħ ìĦŃ
Ġê°ĲìĹ¼ ë³ĳ
Ġinstance of
ì±ħ ê°Ĳ
ëįĶ ìļ´
Ġë¶Ģ ëĶĶ
thern et
Ġì¶ľê·¼ ê¸¸
Ġì¦Ŀ ë§Ĳ
ë¹Ħ íĸī
Ġë§Į ìĦ¸
Ġë³Ģ ìĨį
Ġê³ł íĴĪ
ê°ģ ìŀĲ
sw itch
Ġentire ty
Ġêº¼ ëł¤
Ġì§ģ ì§Ħ
ĠíĮĮ ìĿ´íĶĦ
Ġë¶Ģíĥģ ëĵľ
Ġê¸ ĭ
Ġì¢ĭìķĦ íķľëĭ¤
ëľ¨ ëł¤
Ġê³łë§ĪìĽĮ ìļĶ
Ġëĭ¤ ì£ł
W riter
Ġinter im
Ġíķľ ìĭ¬
Ġíĩ´ íĸī
Ġê¸°ëĭ¤ ë¦¼
Ġë¡ľ ë§Ŀ
Ġë³´ íĥ
Ġë¬´ ë°©
ìĤ¬ ê³¼
ì·¨ ìĹħ
ĠìŀĦì°¨ ìĿ¸
ĠíĮĲíĥĢ ì§Ģ
Ġìĸ´ íķĻìĽĲ
Ġë©ĶìĿ´ íĶĮ
ĠAcadem ic
Ġappend ix
Ġradical s
ĠìĿ¸ ìľĦ
Ġê°Ģ ëŀĺ
ĠìĦľê·Ģ íı¬
ĠëįĶ ëŁ¬ìļ´
Ġìĵ¸ ìĵ¸
ĠíĥĢ ìĪĺ
Ġperturb ations
ì²ľ ìĹ°
ĠìĪĺ ìłĦ
Ġdiscipl inary
ëı Ĺ
ĠìĺĪìĤ° ìķĪ
Ġíķ´ ìĦł
Ġìĭ¹ ìĭ¹
ĠO LED
Ġíķ© ë²ķ
ĠìĿĳê¸ī ìĭ¤
ĠëĤ´ ìłķ
è ²
ĠêµĲ ëıĦ
ĠìĦ± ì§Ģ
íĭ° ë¹Ħ
Ġëĳ¥ ê¸Ģ
ĠíĻĢ ë¦¬
ĠìĬ¤ íĥĪ
Ġrespond s
« Ķ
ĠëĨ¨ ëĭ¤
Ġì¤Ħ ê¹Į
ìĹ¬ê¸° ìłĢê¸°
ĠëĳĲ ëĩĮ
Ġëį° ìĬ¤
Ġìĥģ ìĽĲ
ë¹Ħ íĥĢë¯¼
em ail
Ġf athers
ĠF N
Ġê³łìĨį ëıĦë¡ľ
Ġì¡° ìĪĺ
Ġë§ĺ ê»ı
ĠëģĦ ìłģ
Ġê°Ħ ëĭ¤ë©´
Ġê¸° ëĤ´
Ġres ent
ĠëĤ´ëł¤ ëĭ¤
ë³¸ ë¶Ģ
ĠìĤ° ì¶ľ
Ġëº ¨
ĠìĿ´ ëĮĢ
Ġplant ing
ìłķ ìĭĿ
ĠíĽ ĳ
ìĹ¬ ìľł
Ġì° »
Ġìĸ´ íķĻ
Ġìĺģ ëĤ¨
Ġë°ĶìĿ´ ìĺ¬
Ġincons ist
P arent
Ġìĸ Ģ
ĠëıĦ ì²Ń
Ġëª¸ íĨµ
Ġlog istics
Ġê¾¸ë©° ìł¸
Ġì¡´ìŀ¬ ê°Ĳ
ì§Ģíķĺ ì²ł
Ġë§¤ ì¹Ń
Ġëªħ ëª©
æ ®
Ġëĭ¨ëĭ¨ íŀĪ
ĠìĨĮ ìĭ¬
ë¹Ļ ìĪĺ
Ġelectro static
Ġëĭ¤ëħĢ ìĻĢ
ĠíĤ¤ ìļ´
Ġê±° ê¾¸ë¡ľ
ìĬ¤íĥĢ ìĿ¼
Ġty rosine
ë§Į ê°Ĳ
Ġê°ľ êµ¬ë¦¬
P erson
Ġì°¬ ìĹ´
graph s
Ġì»´ íį¼ëĭĪ
Ġf ights
ĠíļĮ ëıĻ
Ġìļ¸ íĬ¸ëĿ¼
Ġmore over
ĠI CC
ĠìĨĲ ëĵ±
ĠëıĻ ìĤ°
ĠìĹĲ ëĵĢ
ĠìłĪ ìŀĦ
ĠF light
Ġë¶Ħ ëĭ´
Ġìĭł íĥģ
Ġtermin ology
Ġë§ĪëĿ¼ íĨ¤
Ġë¬´ ìĬ¤
ĠìĪĻ ìĿ´
Ġê±¸ ì¹ľ
Ġë°Ķ ë¹Ħ
Ġê³ł ëª¨
ìĸ¸ ìłłê°Ģ
Ġcommod ity
ĠëĪĪ ë§¤
Ġì¢Ģ ì²ĺëŁ¼
Ġìĺ¬ëĿ¼ ìĦľ
ĠìĹĶ ìł¤
ìĪ «
Ġindex ed
Ġìłķ ëıĻ
íģ´ ëŁ½
ĠU L
ĠV T
íĽ ¨
Ġë¹ ¤
ì§Ģ ëĤĺ
ĠíķŃ ë¬¸
ĠíĥĢ ìĦĿ
ëĭ¨ ëĭ¤
ĠK G
ĠëıĦ ë¯¸
ĠëĤ¨ íķľ
Ġë°ĿíĺĢ ì¡Į
Ġìĭ¬ ë¯¸
ìĿ¸ ìĤ¬
Ġapplic ability
Ġfootball er
Ġëħ¹ ìĹ¬
Ġì§Ģ ìļ©
Ġê´Ģ ê±´
Ġëĵ± ì§Ģ
ĠëĶĶ ë°Ķ
ĠëĳĲ ìľł
ĠíĮ °
Ġnineteen th
G lobal
Ġì±Ļ ê¸¸
ĠëıĮ ëł¤ìĦľ
Ġre inst
Ġìĺ¬ë°Ķ ë¥´
Ġì°Į ë¥´
Ġê¹ ¼
Ġë§Ŀ íĸĪ
Ġëĸ¡ ê°Īë¹Ħ
Ġíŀĺ ìĵ°
Ġìĺģ ëıĻ
Ġìŀī íģ¬
ĠìĬ¤ ì»¤íĬ¸
H I
ìĦ± ìĿ¸
Ġê²½ ìĤ°
ë¶Ħ ìĸĳ
Ġì·¨ íĸĪ
Ġë½Ĳ ëĤ´
ë°Ķ ë¥¸
ìĻ¸ ë¶Ģ
Ġdisturb ances
ëł¤ ë©´
ĠìĺĪ ìģ¨
Ġëĭ¤ ëŁī
ç İ
ĠìĹ¬íĸī ê°Ŀ
ĠíĽ ł
Ġêµ¬ ìĤ¬
Ġquestion naires
ë¡ľê·¸ ëŀ¨
ĠìĦ¸ëĿ¼ ë¯¹
Ġì´ī ê°Ĳ
ĠR PG
Ġsettle ments
Ġê°± ëħĦê¸°
Ġë¶Ģ ì¸ł
ìĿ¸ ë¬¼
Ġëĭ¤ìĿ´ ë¹Ļ
Ġë¹Ľ ê¹Ķ
Ġê¿ ĩ
êµŃ ë°¥
Ġëĭ¤ íĪ¼
ëĵł ê°Ģ
Ġë§Ī ìļ´ëĵľ
ìĨĮ ìĭľ
ĠJ D
Ġê´Ģ ìķħ
Ġconject ure
ĠìķĮ ë£¨ë¯¸ëĬĦ
Ġl ending
ë µ
Ġdirect ories
Ġcompeti tions
g ood
Ġì½Ķ ìĹĳìĬ¤
Ġactiv ating
Ġìłģ ìĦ±
Ġìĸĳ ì£¼
Ġbranch ing
ì½ §
L ow
ëĬĲ ëģ¼
Ġì¼ĢìĿ´ë¸Ķ ì¹´
Ġëŀľ ëį¤
ĠìķĮ ëŀĮ
Ġexp iration
it ating
Ġì°¨ ë§Ī
Ġë§ŀ ë¬¼
ìľł ìĺĪ
C J
Ġëĭ¤ê³ł ìļĶ
ĠëĤ© ëĵĿ
ĠìŀĦëĮĢ ì°¨
Ġë°° ëĵľ
Ġíİ¸ íķł
ĠëĬĲëĥĲ ê³ł
Ġrecomm ends
ĠìĤ° ìŀ¬
ëĥ ħëĭĪëĭ¤
Ġë¬¸ íķŃ
g ot
Ġattack er
Ġëª¨ìĸĳ ìĥĪ
Ġë°© ê¸°
ç Ī
Ġë°± ìłľ
Ġë²Ĺ ìĸ´ëĤł
Ġë°± ìķħê´Ģ
ĠëĲĲ ìĹĪ
Ġë¶Ī ëł¤
ìº ¬
ĠT I
ĠëıĦ ëĭ¤
Ġìĸ´ëĸł ìĦ¸ìļĶ
ĠëĬĳ ëĮĢ
Ġë°ĺ íĮĶ
ëĭ¹ ìŀ¥
Ġíĺ¸ ì¶ľ
Ġë¹ ½
Ġë§¨ ì²´ìĬ¤íĦ°
ê³ł ìĨĮ
Ġinter change
ì¤ ¬
Ġê´Ģë¦¬ ë²ķ
or tions
Ġíİ¸íķ´ ìļĶ
ì»´ íĵ¨íĦ°
Ġíķłë¡ľ ìľĪ
Ġëį° íģ¬
ĠëĤ ±
ê·¸ ëĮĢ
ĠêµĲ íĻ©
Ġìľł ìĭ¬
ĠìĪĺìĥģ ìŀĲ
ĠìĪĺë¹Ħ ìĪĺ
ĠíıĲ ëł´
ĠëŃī ì³Ĳ
ìĿ´ ì¹ĺ
Ġê³łìĨį ëıĦ
ĠìĹ° ìĭł
Ġdissip ation
ĠìĦ¤ ëĤł
Ġë¹Ħ ìĸ´
Ġì²Ń ë°Ķì§Ģ
íĶĦ ëŀĢ
Ġìĸĳ ìĸĳ
Ġê±° ì°½
Ġì¡° ê²½
ĠìĤ¼ ê°Ģ
Ġê³¨ íĤ¤íį¼
ĠP OP
ĠìĪĺ ìĦł
Ġë¨¸ë¬¼ ëłĢ
Ġë©° ëĬĲë¦¬
E V
Ġun accept
Ġcomput ations
ĠíļĮ ìĥģ
ìĿ´ íķ´
Ġë´Ħ ëĤł
ëıĻ ëł¥
Ġì¤ĳ ìĸ¼
Ġì½Ķ ë¯¸
ĠìĨĮ ì§ĳ
ĠëĤ¨ ìļ©
Ġê¸Ī ìĦ¸
Ġdefine Property
Ġì°½ êµ¬
ĠëªħíĻķ íŀĪ
ê¸° íĥĢ
ëį Ł
ĠìĪł ìĪł
ĠVal idation
ĠìĪĺ ê¸°
Ġê°Ģìł¸ ìĺ¬
ĠìĪĺìłľ ë¹Ħ
ĠìĦ¸ ìķ¡
Ġì£¼ ìĭľ
ìĿ¸íĦ° ë·°
Ġíİĺ ë¦¬
Ġìļ° ì¦Ī
ĠëĳĲëł¤ ìĽĮíķĺ
Ġë±ĥ ìĨį
ĠëıĦìļ° ë¯¸
ĠëĵľëĿ¼ êµ¬ìļĶ
ìŀĲ ìłĦê±°
Ġsurvey ed
Ġì£¼ ëĭĪìĸ´
ì«Ģ ëĵĿ
ĠëıħìĦľ ìĭ¤
ĠìĪĻ ì§Ģ
Ġë³´ ê¸Ģ
y ear
Ġë²Ħ ê·¸
Ġê´ĳ ë²ĶìľĦ
ĠëĦīëĦī íŀĪ
Ġìłĵ ê°Ī
Ġê²¬ ëİĮ
ĠêµĲ ìĸĳ
atter y
ëįĺ ì§Ģ
ĠìĬ¤íħĮ ìĿ´íĬ¸
Ġì¢ħ ìĤ¬
ĠìĪĻ ì·¨
Ġì²ĺ íķľ
ĠíĮĮ ê²©
ĠëĤ´ ëĨ¨
Ġìĭ¬ íĸĪ
Ġë©Ķë¥´ ìĬ¤
ëĤ ļ
æ Į
è «
Ġafford ed
Ġìłľì¡° ìĤ¬
ĠìĿ¼ ê´Ħ
ĠìĨĲ ë°ľ
ì´Ŀ ìķ¡
ĠëĤĻ ìĹ½
ĠìĥĿìĤ° ëŁī
Ġíķ© ê³Ħ
ĠìłĦìŀĲ ëłĪìĿ¸ì§Ģ
Ġêµ¬ ìĹ¬
ĠëŃĶ ëį°
ĠíĻį ì°¨
Ġê³ł ëıħ
Ġì¿¨ ë§ģ
íĶĮ ëŁ¬
Ġíķĺ ë¦¬
ë¬¸ ìĿĺ
ë²Į ìĿ´
ĠìĹ° ì´Ī
Ġì¹¼ ëŁ¼
Ġprior i
Ġìĺģìĸĳ ë¶Ħ
Ġê°ķ ìłķ
ĠìĻ¸ ë¡ľìĽĢ
ĠëıĦ íĨ°
ĠíķĦ ëıħ
ĠêµŃ íĻĶ
Ġlist ings
Ġë¶Ī ìĸ´
ĠìĨĮë¬¸ ëĤľ
Ġê´ĳ ìĤ°
Ġê°Ģ ë³¸
» ¿
Ġê²½ íĻĶ
ĠíĶ¼ë¶Ģ ìĹ¼
Ġë³¼ ìĿ¼
Ġtr illion
ĠìĽĲ ìĪŃìĿ´
ë°± íĻĶìłĲ
Ġë¶Ģ ìĭĿ
Ġê·¸ë¦¬ êµ¬
ĠN uclear
Ġê²½ íĴĪ
ĠìĨĮ ê·¹
Ġíĳ¸ ëĶ©
Ġì§Ģ ì¼°
ĠìĬ¤íģ¬ ëŀĺì¹ĺ
Ġê³¡ ë¬¼
ì Ĵ
Ġremember ing
ĠTh under
ĠìĨĮ ë°ķ
ĠìķĮìķĦ ì£¼
ĠìĦ¸ íĽĪ
Ġìĸ´ ë²Ħ
Ġê°ĢëĶĶ ê±´
ĠíĥĢ ìĺ¬
Ġì§ĢìĽĲ ìŀĲ
ìĹĲ ë¥´
Ġìĭ¬ íĺĪ
ë§¤ ë§¤
Ġê°ľ íķĻ
Ġtr acing
Ġë¯¸ëģĦ ëŁ¼
ĠìĪľ ì°¨
Ġëĺ ĺ
ê³ł ë§Ī
ĠìĨĲ ìĥī
Ġíĳ¹ ìĭł
ĠìĨ¡ ê¸Ī
Ġíıī ìĺ¨
C onstraint
ìķĦ ëĤĺ
ĠíĭĪ ìĥĪ
Ġproof s
ĠìŀĲ ë§ī
Some times
cknowled g
Ġaddition s
ĠíĥĦ ìĦ±
ìı ĺ
irection al
Ġìĭł ëıĻ
Ġdef ended
Ġconver ge
ĠíĥĿ ì§Ģ
Ġë Ļĩ
ĠìľłëĭĪ íģ¬
Ġíķľ ìĿ¸
Ġê¹¨ëĭ¬ ìĿĮ
ĠëĨĶ ìķ¼
ĠëĤ¨ ëĭ¤ë¥¸
ĠíĻĺê²½ ë¶Ģ
Ġìľł ìĥģ
Ġ ì¼ĵ
f ind
Ġì§Ħ ê³µ
ĠìŀĲìĿ´ ìĸ¸
Ġin ferences
ĠìķŀìĦ¸ ìĽĮ
ĠíĻį íķ©
ì²ľ êµ°
ĠíĺĦìĪĺ ë§ī
ĠìĹ¬ ìļ´
ĠíĴĪ ê²©
Ġì¹ľìłĪ íŀĪ
ìĪĺ ìłķ
Ġëĭµ ìŀ¥
Ġr ighteous
Ġëª»ì§Ģ ìķĬ
ìĹ° ìĸ´
ĠìŀĲ êµ¬ìļĶ
c ould
Ġë°ķ ì°¨
Ġìı ´
Ġíķ©ë³ĳ ì¦Ŀ
Ġsupplement ation
Ġê¼¬ ë§¹ìĿ´
íħĶ ëĿ¼
ëĮķ ìĿ´
ë¬´ ì¡°ê±´
ìĤ¼ ê²¹ìĤ´
ĠíħĮìĿ´íģ¬ ìķĦìĽĥ
ĠíĻĶ ëĤĺ
D T
Ġìĸĳ ë©´
ĠìĹ° íķĦ
Ġëª» íķ¨
ĠìĬ¤íİĺ ìĿ´ìĬ¤
Ġecosystem s
Ġëª¨ë¥¸ ëĭ¤ëĬĶ
Ġdisturb ing
ĠB G
ìħĶ ìķ¼
ophage al
ìµľ ëĮĢíķľ
ĠíĮĮ ìļ´ëį°ìĿ´ìħĺ
Ġì¹Ļ ì¹Ļ
ĠíĶĦëłĮ ì¹ĺ
Ġìĭľ ìĹ°
Ġëĭ¤ ìļ°
ìĸ´ ë³´
ĠìĿĢ íıī
ĠìĹ¬íĸī ìĤ¬
íı´ ë¦¬
ë¸Į ëŀľëĵľ
Ġìķ¡ ìĪĺ
ĠìĨĮ ëĭĪ
Ġupload s
ê°ľ ìŀ¥
ĠíħĮ ëĳĲë¦¬
Ġì§ĳ ìĸ´ëĦ£
Ġë¬´ ì§Ħ
è ¼
ìĭ ¶
ì¼ Ħ
Ġsm oothing
Ġê´ĳìķĪ ë¦¬
ĠìĬ´ ëĭ¤
Ġscream ing
Ġë¶Ģ ìľł
Ġë¯¸ ìĿ¸
Ġíķ´ ë²ķ
Ġê·¹ ì°¬
Ġì¤Ħ ëĪĪ
ìŀĦ ê¸Ī
ë¬ »
Ġcelebr ating
Ġë©ľ ë¡ľëĶĶ
Ġrecover ing
ĠC atherine
ĠìĬ¤ íħĲ
Ġhypoth etical
Ġìłľì£¼ ìĭľ
Ġë¦¬ ëī´
Ġë§Ī ìļ´
ĠíĻĺ ìłĪê¸°
Ġë°Ķê¿Ķ ìķ¼
ĠëĤľ ë¯¼
ëĿ¼ìĿ´ íĮ¬
Ġdownload ing
Ġë¬µ ë¬µ
Ġreinforce ment
ìħĢ ëŁ¬
Ġìķł ìĵ°
ĠìķĪ ìĵ°
Ġê¸° íķĺ
ĠìĿ´ ë§Įíģ¼
Ġìļ¸ ëł¤
ĠìĹ´ íĴį
Ġstr ipped
Ġíĭ ¸
Ġëĺĳ ë°Ķë¡ľ
Ġíķĺ ìĭ¬
Ġë§¡ ê¸¸
Ġëĭ¤ëħĢ ìĻĢìĦľ
Ġìĭľíģ¬ ë¦¿
at ement
Ġì²´ ìĿ¸ì§Ģ
ĠU M
Ġì§ĢëĤĺ ì¹ľ
ĠìķĦìļ° ëĶĶ
ìĥĪ íķ´
Ġë²ł ë²ł
Ġopen ings
ĠìłĪ ë²½
Ġì£Ħ ì±ħê°Ĳ
Ġì±Ħë¬´ ìŀĲ
ĠìĦ¬ ê¸°
ìĭł ë°ľ
ĠìĦ¸ìĿ´ ë¸Į
Ġê·¸ëŀĺ íĶĦ
V S
Ġë¬´ ìĪĺ
Ġdefend er
Ġíĸī íĥľ
Ġê°ĳìŀĳ ìĬ¤ëŁ½
Ġì½ °
ìķĦìĿ´ìĬ¤ íģ¬ë¦¼
Ġë¹Ī ë²Ī
N a
end encies
Ġrecruit ing
ĠìĪĺëª© ìĽĲ
Ġìİ Ī
it ems
ëıĦ ìĸ´
ĠìĦľ ìłģ
Ġê²¹ ì³Ĳ
Ġìŀ¬ ì¦Ī
Ġìĭ¸ ìĿ¸
ĠH PLC
Ġìłķ ìļ°
ĠëıĻ ì°½
Ġíģ¬ íģ¬
Ġê¿ Ķ
ĠE W
ĠìĦ¼ íĭ°
ìķ¼ ìĻ¸
Ġë» ĳ
ĠìĦľ ìĤ°
Ġë¬´ ëĭ¨
ĠìŀĲ íĥľ
Ġfact ories
Ġëĭ´ ê°Ģ
Ġê±° ìĦ¸
ĠíĥĢ íĺĳ
Ġìľł ìĺĪ
Ġcondem n
ĠColumb us
Ġê±´ êµŃ
Ġíĺ¸ íĻĺ
Ġê·¸ëŀĺìĦľ ìĿ¸ì§Ģ
Ġappoint ments
Ġíķ´ ì¤Ģ
ëĵ¤ ìĹ¬
Ġì¤Ģ ëĭ¤ë©´
cept or
Ġë¯¸ ì²ĺ
ĠìļĶ ìļĶ
D O
ĠíĶĮ ë¦¬
íİ Į
Ġsegreg ation
ĠëĿ¼ ìĿ´ìĬ¤
Ġìłķ ìľł
Ġìľł ë¬¼
Ġë§Į ìĦĿ
Ġê·Ģ íķĺ
Ġfiction al
Ġover ly
Ġì¡° ìķ½
Ġìĺ¤ íĤ¤
ĠìķĪ ëĿ½
ìĬ¬ ë¦¬
Ġì¡° ëł¥
Ġê¸° ìķ½
Ġì¶ľ íĺĦ
ĠìĿ´ ìĨ¡
Ġëħ¸ ëĭĪ
to ok
Ġcontact ing
ìļ ¤
ĠëĮĢíķľ íķŃê³µ
ĠìĿ¼ ëªħ
ĠB inary
Ġê¶ģ ìłĦ
ĠìĹ¬íĸī ìŀĲ
ĠìĻ¼ ìĨĲ
ĠíĶĦëłĮ ì¦Ī
ĠìļĶ ê²ĥ
ĠëŁ¬ ë¸Ķë¦¬
ìĶ ¹
ĠíĥĿ íķĺ
ĠF IT
Ġë°° ë¶Ħ
Ġë¦¬ ìĦľ
ê¸Ī ë°©
ìķ µ
ĠíĬ¸ëłĪìĿ´ ëĵľ
Ġë¨¸ ìĬ¤
Ġimplicit ly
Pre vious
ĠíĬ¹ ìĥī
ëŀŃ íģ¬
ĠH G
ëĶĶ ìĽĢ
ĠíĶ¼ë¡ľ ê°Ĳ
Ġimp lying
ĠìĿ´ ì§Ħ
ê°Ħ ìĭĿ
Ġë³Ģíĺ¸ ìĿ¸
Ġê¼¬ ì§ĳ
Ġëĭ¹ ëĤ´
en tions
Ġë¸Įë¡ľ ì½ľë¦¬
Ġë°ľìŀĲ êµŃ
ĠìĿĺìĤ¬ ìĨĮíĨµ
ìĦ¸ ìĦľ
ĠìłĢì§Ģ ë¥¸
Ġgroup ing
Ġìĭľ ë¦½
Ġpass port
Ġëħ¸ ë¥¸ìŀĲ
Ġab lation
OR DER
ĠíĽĦ ë¬¸
Ġê²°ìĬ¹ ìłĦ
Ġìĸĳ ìĪĺ
Ġíĺ¸ ì¡°
ĠëıĦ ë§¤
ber ger
ĠíĥĪ ì·¨
ĠëĳĲ ëĵľë¦¬
Ġì½ĶìĬ¤íĬ¸ ì½Ķ
ut ations
Ġêµ¬ì¡° ë¬¼
ê³µ ìŀĲ
Ġìļķ ìĦ¤
ĠíĶĦ ë¡ł
Ġëģ¼ ìļ°
ĠìĻĦ ì¹ĺ
Ġê¸° ë¦¬
ĠíĨł ëĭĪ
Ġì¤ĳìķĻ ìĿĢíĸī
êµŃ íļĮ
Ġoptim istic
Ġëĭ¤ ì¤ĳ
ĠëĬĲ ë¦°
Ġëıħ íķ´
ĠSecond ly
Ġê³Ħ ëŁī
Ġconver ts
Ġnumber ed
ĠìĭĿ ìłĦ
Ġë°ľ ê°ĢëĿ½
Ġemotion ally
Ġíķĺ íĶĦ
ĠíĽĦ ìĨĲ
Ġëĳ¬ ìķ¼
ĠëįĶìļ± ìĿ´
ĠíĬ¸ë¦¬ íĬ¸
ĠìĤ¬ ìĦ¤
Ġë°Ľ ì³Ĳ
if ference
ĠëĪ ħ
Ġíķĺ ìļ°
Ġê°Ī ë§¤ê¸°
ĠìĿ´ ìľ¤
Ġì¸¡ ê·¼
Ġcorrid or
Ġíķ´ ë°ĶëĿ¼ê¸°
ë¸Į ë¦Ń
Ġbreak through
Ġìŀ¬ ì°¨
Ġëĭ¨ ìłĪ
Ġëĭ¤ íĪ¬
ĠìŀĲ ì°¨
ĠKT X
ìĸ´ ëł¤
ĠìłĦ êµĲ
ĠíĮ© íĨłë¦¬
Ġë¬ ½
ĠìķĮ ëł¸
ĠìĹ° íĥĦ
Ġë°Ķ ìļ°
Ġë°ĺ ìŀ¥
ĠëĤĺíĥĢ ëĤ©ëĭĪëĭ¤
Ġtrack er
Ġfacilit ating
æ İ
Ġì© Ŀ
Ġsuper b
ĠìĿĳ ëª¨
K B
ìŀ Ĭ
Ġë§ŀ ì¶ľ
ĠìĻĦ ì£¼
Ġhands ome
ìķĦ ìĺ¤
Ġë°ĽìķĦëĵ¤ ìĿ¼
ĠìºĲ ì£¼ìĸ¼
ëĥĦ ìĥĪ
ë§Ĳ ëĿ¼
ĠìĦ¸ìŀħ ìŀĲ
el astic
ê³Ħ ëĭ¨
ĠìĦł ê°Ģ
ìĺģ ìĸĳ
Ġdiffer entially
ĠíĥĢ ì½Ķ
Ġìŀĩ ëĶ°
Ġgener a
ëłģ ìĿ´
Ġë§Ī ì¹ł
S uccess
ì²´ íģ¬
Ġrestr ictive
Ġëĭ¹ ìĤ¬
ĠìĨĮ ëĤĺ
ĠëŁ¬ ì§Ģ
Ġê¸°ìĸµ ëł¥
Ġë°©ìĤ¬ ìĦł
Ġíĥ± íĥ±
ĠAny way
ê³Ħ ìĤ°
Ġëĭ¬ ìĿ¸
Ġcelebr ity
Ġê²° íķ¨
Ġdiscover ing
Ġstarts with
Ġê¹Ģíĥľ íĺķ
Ġì¶Ķ ë¦¬
Ġëŀ «
ĠëĮĢ ëĤĺë¬´
Ġìĭľ íĤµëĭĪëĭ¤
Ġì²ľ ìłķ
bet ween
ĠìĿ¸ ë¬¸
Ġover weight
s ession
Ġê¹Į ë¥´
ĠìĨĮ ëł¨
ĠíķĺìĸĢ ìĥī
ĠìĥĿê°ģ ëĤł
ĠìĤ¬ ê³ĦìłĪ
Ġëįĺëį° ìļĶ
Ġë°° ëŁ´
Ġëª¸ ìĤ´
ĠëĨį ìĸ´
Ġê²Ģ ìĪĺ
ìļ° ìĻĢ
ëį ±
ëĶĶ ìłĢíĬ¸
ĠL IM
ë§Ľ ì§ĳ
ĠAR M
ìŀĲ ìŀ¬
ĠíĨł ìĿ´
Ġëıħ íķĻ
ĠíĨł íĥĪ
Ġex ogenous
O ctober
Ġis otropic
ĠëıĻë¬¼ ìĽĲ
ĠìĤ¼ êµŃ
ìĿ´ ëĭ¤
ĠìĽĲ ìĪĺ
ĠR iemann
¦ Ĥ
Ġì§ĳìķĪ ìĿ¼
Ġunder take
ĠìŀĲ ìĨĲ
Ġê±´ ìĦ±
ĠìłĪ ìłķ
ĠB inding
Ġì´Ī ìĥģ
Ġê´ĳ ìĸĳ
ìĭ¤ íĹĺ
Ġendors ed
ĠìĹĦ ëĳĲ
Ġëħ¸ëıĻ ì¡°íķ©
ĠìŀĲ ê°Ģ
ĠìĹĳìĬ¤ íı¬
ìºł íķĳ
ëħ¸ ìĬ¤
ĠìĿ¼ ë¦¬
fact or
ì§Ģ ëĤĺê°Ģ
ĠíĽĪ íĽĪ
ĠëĺĲ ëł·
ê²Ģ ìĥī
Ġíģ¬ ë¡¬
ĠìłĦìĭľ ê´Ģ
ĠìĿ¼ ë³´
Ġê±°ì¹ĺ ëĮĢ
Ġpath ogenic
ì¹´ ìķ¼
Ġlong rightarrow
Ġì¿¼ íĬ¸
ĠF ortunately
Y C
ìĽ ¬
Ġë°± ìĪĺ
Ġê´ Į
ê°Ģ ìĦ±
Ġfinish es
Ġê°Ī ë¦¬
Ġíľ´ ì§ģ
ëłĪ ëª¬
Ġëĥī ìłķ
Ġë¬¼ëŁ¬ ëĤĺ
Ġíį¼ ìĬ¤
Ġë¯¼ ìĨį
Ġë©Ķ ëĭ¬
Ġinfring ement
íĺĳ íļĮ
ê³łë¦¬ ì¦ĺ
ìĿ¼ ìĤ°
ĠThe ore
ĠíĽĶ ì³Ĳ
Ġê°Ģìł¸ëĭ¤ ì£¼
Ġas type
Ġê´Ģë¦¬ ìĤ¬
Ġë¨¸ë¬¼ ëŁ¬
ĠìŀĦ ìļ©
ì§ ¬
ĠìĿĮ ë°ĺ
ĠëĦĺ ëĤĺ
Ġë¨¸ë¬´ ë¥´
ĠìĻ¸ ì³¤
Ġìķħ ìŀ¬
Ġë¬´ ìĭ¤
Ġë§Į ì°¬
ê´Ģ ìĭ¬
Ġì¶Ķ íĸī
Ġê°ķ íĸĪ
ĠìĤ¬ ìłľ
ĠìĬ¤ì½Ķ ìĸ´
Ġë°ľ ìĿĺ
Ġíĸ¥ ê¸ĭ
Ġë°± ê³¼
ĠVenezuel a
íĺĦ ìŀ¥
( )
Ġthere to
Ġíķ¨ ë°ķ
Ġë§¤ ê°ľ
ĠíĮĮ íĶĦë¦¬ì¹´
Ġê·¼ ìĭ¬
Ġë¯¼ ìłķ
Ġs ights
Ġcomple teness
ĠC VD
ĠìĿ´ ëĦĪ
Ġìĸ Ħ
Ġëĭ¬ëł¤ ê°Ķ
Ġíĳľ ê³ł
Ġê±° ëĿ¼
ë£¨ ìĬ¤
Ġë´ī ìĩĦ
Ġì°½ íĶ¼
Ġì±Ħ ìļ¸
Ġprote ase
ĠìĹ° ëª»
Ġì¹ĺ ê³ł
Ġìľł ê°Ĳ
Ġê³ł íĮĮìĦľ
Ġëª¨ íħĶ
ĠëıĦ ìķĪ
íĮ½ ìĿ´
Ġë¯¸ ëĤĺë¦¬
ĠìĬ¤íĮ ¸
ĠìĿ¸ íħĶ
Ġê±¸ ëŁ¬
ĠíķŃ ë§Į
Ġrequ is
ìĭŃ ìŀĲ
Ġìľł ê°Ģì¡±
ê·¸ëŁ¬ ëĭ¤
Ġìĸ´ íķĦ
Ġê» ı
ĠëıĮ ëıĮ
ì¿ł ë²Ħ
ĠE uclidean
Ġlong itude
ot ation
ĠìķĮ ë¡ľ
ê±° ìĭ¤
Ġclass method
u ously
ĠìķĦ ëŀį
íĶĦ íĦ°
ĠëıĻ ëŀĺ
ĠëĦ ¬
Ġë¹¨ ê°Ľ
Ġë°°ë¶Ī ëŁ¬ìĦľ
Ġìľł ë¶Ħ
Ġì¥ ´
Ġorigin ating
M iddle
==================== ==
ĠìĬ¤ëħ¸ ìļ°
Ġë¹Ī ê³¤
ĠìĤ° ìķħ
Ġcoord inator
Ġblack s
ĠìĦł ëĮĢ
ĠìĥĪì½¤ ëĭ¬ì½¤
ĠíĮ¬ íĭ°
ĠN PC
Ġì±Ħ ìĽł
Ġíķľ ìĤ°
ĠA BS
s ay
Ġ="../../ ../../
ĠìĿ´ë£¨ ìĸ´ì§Ī
ĠB K
Ġsuper conduc
ĠJO IN
ë¬´ ë£Į
ì¡° ë§Įê°Ħ
Ġìĸ´ì© Ĳì§Ģ
Ġë°°ìĽĮ ìķ¼
Ġêµ¬ íĨł
ĠìĹĩ ê°Ī
ëª¨ ë°ĶìĿ¼
Ġëĭ¤ ìłĢìĬ¤
Ġíķ© ëĭĪê¹Į
Ġë°Ķì§Ģ ëĿ½
íıī ìĥĿ
ëĶ §
Ġê·¸ ì§Ģ
ĠìķĮìķĦ ì°¨
Ġì§ĢëĤĺ ê°Ī
ĠìĹ¬ íķĻìĥĿ
Ġëħ¸ ë²¨
Ġstr angers
ĠëıĻíĺ¸ íļĮ
ĠìĤ¬ íĺķ
ĠìĿ´ ë°©
Ġìĭł ë¦¼
Ġyear ly
ĠB TS
Ġë³´ ì²ł
Ġì£Ħ ìĿ¸
ë¥¼ ë¦°
Ġë§ĪìĿ´ íģ´
ĠíĮĲ ëĭ¤
ìĦ¸ íĬ¸
ĠI celand
Ġê³¨ëª© ê¸¸
ĠêµŃìĦ¸ ì²Ń
Ġê¸° ëŁī
ĠëĦĺìĸ´ ìĦ°
Ġëĭ¤ ë¤Ħ
Ġíĳľì§Ģ íĮĲ
ìĨĲ ëĭĺ
Ġinstall er
Ġë£¨ ìĿ´ìĬ¤
ĠS ustain
ĠëĤ¨ ì§ĵ
Ġëĵ¤ ê¹¨
Ġìļ° ëıĦ
Ġê·¸ ëĤĺìłĢëĤĺ
Ġìľł ìĪĺ
ìĬ¤ íĶ¼
ìĨĶ ë¦°
Ġcommand ed
Ġìŀħ ëĮĢ
V R
ĠìķĦìī¬ ìĽĮìĦľ
Ġë°° íĭĢ
Ġëħ¸ ì´Ŀ
ë¦¬ ì¹¸
ëĮ Ħ
Ġíķ´ ìĺ¨
Ġë¶Ļ ìŀĦ
Ġë°° ìĦł
Ġë°Ķê¸Ģ ë°Ķê¸Ģ
Ġìĭľê°Ħ íĳľ
Ġë°Ķê¹¥ ìª½
ëª¨ ëĭĿ
ìĭł ë¬¸
ĠìĿ¸ ìĬ¹
Ġë¶Ģ ìĤ¬
ĠìĿ´ ë³ĳ
ĠìĹĲìĬ¤ íĶĦëłĪìĨĮ
íı¬ íĨł
ĠíĮĮ ìĥĿ
ĠíĿ¥ êµŃ
Ġìĸ´ëĸł ìĭł
Ġê¸°ëĭ¤ ë¦½ëĭĪëĭ¤
Ġìī¬ ìĽł
ĠëĨĢëŁ¬ ìĺ¤
íİ Ĳ
Ġadvertis ements
ìĻ¸ ê´Ģ
Ġì£¼ ëĭ¹
ĠëıĻ ê²½
ĠG G
ë¡ľ ëĭĪ
Ġë§ĪìĿĮ ìĨį
Ġíı´ ë¦¬ìĬ¤
Ġëĭµ íĸĪ
ĠëŁ° ëĭĿ
Ġìĭ¬ ë¶Ģ
Ġcommit ments
Ġhuman itarian
Ġmanifest ations
Ġconven tions
ëıĦ ìłĦ
Ġìķŀ ëĭ¹
ĠìĬ¬ ëĿ¼ìĿ´
íĮ¨ ìĬ¤
Ġë£¨ íĭ´
ëĵľ ëłĪ
ìĦ¤ ì¹ĺ
ĠìľĦ ë²ķ
W C
ĠìĪ¨ ì§Ħ
Ġìłķíĺķ ìĻ¸ê³¼
Ġê²ł ì£ł
ĠìĭĿ íĽĦ
Ġìĺ¨ ìĪĺ
ĠíĿ¡ ìĤ¬
Ġíİ¼ì³Ĳ ì§Ħ
ë¬¼ ê°Ģ
Ġê³µ ë²ķ
ìłĦ ëł¥
ĠìĬ¤ ìĻĢ
Ġìŀłìŀ¬ ëł¥
ĠíĻĺ íĺ¸
ĠíĺĳëıĻ ì¡°íķ©
Ġë¶Ī íıī
Ġ----------------- -------
ĠìĥĿ ìĭĿ
ĠíĶĦëĿ¼ ìŀĦ
ĠëĳĲ ëĳ¥
ĠìĦĿ ìĤ¬
ĠëĪĪ ëĨĴìĿ´
ĠìķĦë¯¸ ëħ¸
ĠK D
Ġcompl aining
Ġë§ī ìĹ°
Ġë¯¼ ìĭ¬
ĠìĿ´ì¼Ģ ìķĦ
Ġì¢ĭìķĦ íķł
Ġê°ĢìłĦ ìłľíĴĪ
ĠìĹħ ìłģ
ĠìĽ¨ ìĬ¤íĬ¸
Ġê±´ìĦ¤ ìĤ¬
Ġë¹Ħ ëĭ¨
ë´ ħëĭĪëĭ¤
Ġíķĺ ìĤ°
ê·¸ ëłĪ
Ġcon gestion
ë¦° ëĭ¤ê³ł
ĠCertain ly
Ġìĭ¤ ëªħ
Ġê³µê²© ëł¥
Ġtransf ection
Ġê·¼ êµĲ
íĽĦ ìĭĿ
Ġìŀ¥ íĮĲ
M ember
êµ¬ ìĦ±
Ġpharmac ological
Ġë¶Ģ ì¹¨
Ġremodel ing
ĠíĶĦëĿ¼ ìĿ´ìĸ´
ìļ´ ìĦľ
ĠF actory
ĠìķĮ ëłī
Ġê·¼ìľ¡ íĨµ
Ġìļ° ìĦ¸
Ġì´Ŀ ìķ¡
ĠíıŃ ëĦĵ
ĠëĤłì¹´ ë¡ľìļ´
Ġìľ¼ ëľ¸
Ġìĭľ ìĭľ
ĠìĤ´ìķĦ ìĻĶ
Ġê°ľ íĹĮ
Ġë²Ħëł¤ ìķ¼
Ġìĺģ ë¡±
Ġnation ally
ĠJ enkins
Ġë³Ħ ë£¨
íĶĮ ëĿ¼
Ġë³¸ ìĭĿ
Ġíģ¬ë¦¬ìĬ¤ íĥĪ
Ġattrac tions
Ġë¬µ ìĥģ
Ġexp osing
Ġuncover ed
Ġcoord s
Ġë°ĺ íķĺ
ìłķ ìĽĲ
Ġìĭł ìłĦ
Ġìĺ¨ ëĭ¤ëĬĶ
ëĤĺ ìĻĶ
Ġìĥ¤ ìĺ¤
Ġíľĺë°ľ ìľł
Ġì»¤ ë¨¸ìĬ¤
ì¹´ ìĬ¤
ĠìĤ¬ ì¶ĺê¸°
ë° Ŀ
e lectr
ĠëĤ´ ë¥Ļ
ĠíĹĪ ë¬¼
Ġlabor atories
Ġë°Ķê¿Ķ ìĦľ
ë°Ķ íĥķ
ĠV O
Ġê±¸ ë¦°ëĭ¤
Ġë²ķë¬´ ë²ķìĿ¸
ê·¸ ëŀ¬
Ġëĭ¤ ê°ģ
ĠìĹ° ìĿ¼
ëĪ Į
ĠsetMax Access
ĠM OT
ĠìĿ´ëŀĺ ìłĢëŀĺ
ĠìĺĨ ì§ĳ
d ynamic
Ġê³łëł¤ ëĮĢ
ĠìĦ¸ ëĭ¨
Ġíļį ê¸°
ĠëĨĵ ì¹ł
d one
ìĺ¨ ëĿ¼ìĿ¸
Ġíķĺ ì°¨
ìłģ ìľ¼ë¡ľ
Ġë¹¼ ë¨¹
Ġë¨¸ ê·¸
ê± ·
ìħī íĬ¸
ĠìĿĦ ëł¤ê³ł
Ġíİ¸ ëıĦ
Ġë°ĺê°Ģ ìĽł
Ġë°ľ íĺĦ
ĠìŀĲ ë¦½
ĠëĮĢ ê²Į
Ġìĸĳ ì§Ģ
Ġìĸĳ ìŀ¬
æ ĭ
ìłĦ ë¶ģ
Ġsuperfic ial
Ġanalog ue
íģ¬ ë¦¬
Ġpredecess or
Ġadvance ment
Ġì·¨ ì§ģ
Ġë²Į ìĿ¸
Ġíĺ¹ ìĹ¬
ìķĦ ëĭĮ
ĠíĮĮìĬ¤ íħĶ
Ġê¸° ë§Ĳ
íĿĲ íĿĲ
Ġê³µ íĮĲ
ĠìĤ¬ì§Ħ ê´Ģ
ĠëıĻ ë°©
ĠG V
ĠíħĮ ìĿ´
ì§Ģ ìĪĺ
ĠìĨĮ íĴį
ë§Ī ìĭľ
Ġì¤ĺìķ¼ ì§Ģ
ĠIllustr ation
Ġbroadcast ing
Ġíĸī ìĦ±
ĠíĦ¸ ìĸ´ëĨĵ
Ġë§Īë²ķ ìĤ¬
Ġìŀ¬ ìķĻ
Ġìŀĳ ë¬¼
Ġdetrim ental
ĠìĦĿ íĥĦ
ĠìĭľìĦ¤ ë¬¼
æ ģ
Ġvisual ize
ĠíĶ¼ íĮħ
Ġíķ´ ëĥĪ
Ġsocial ist
Ġì¢ħ ìŀĲ
Ġìĸĳ ë°ĺ
ĠìĿĺ ìķĦ
ĠíĻį ìĪĺ
Ġê°ĸ ì·Ħ
Ġë§Ŀ íķĺ
Ġis omorphic
Ġmagnific ent
Ġë¬´ìłľ íķľ
M aterials
Ġìŀħì£¼ ë¯¼
ëŃ Ħ
Ġëĭ¤ë¦Ħ ìĹĨ
ĠëĮĢ ëĨĵ
ìģ ©ëĭĪëĭ¤
ĠE lection
Ġëį© ì¹ĺ
íİ¸ ìĿĺ
ĠìĹ£ ì§Ģ
Ġfound ers
Ġì£¼ìľł ìĨĮ
Ġëĭ¹ ì§Ħ
Ġrefrig erator
ë± ĥ
ĠìĹ´ ë¬´
Ġì¤ĳ ìĭĿ
Ġë²łìĿ´ ê¸Ģ
êº¼ ê¸°
ĠìºĲ ìĬ¬
ë¶Ģ ì²ľ
ĠíĬ¸ ìĿ¸
ìĦ± ê¸°
Ġuncons titutional
ë³µ ê¶ģ
Ġëĭ¤ëĭĪ ê¹Į
Ġë¹łì§Ĳ ìĹĨìĿ´
ĠëĤľ ìĨĮ
ìĪĺ ìŀħ
Ġë® ¬
Ġshe ath
ĠíĿĺ ëł¸
ĠíħĮ ìĿ¼ëŁ¬
Ġíķľ ê°ĢìļĶ
ëī´ ìļķ
Ġfrustr ating
ĠëłĪ íĦ°
ĠìĬ¤ ëª°
ĠëĤł ìĶ¬
Ġtermin us
Ġnegoti ation
Ġê²¬ ëĶľ
ìĭ¬ ìŀ¥
Ģë¡ľ ë¡ľ
Ġë³µ ìłľ
Ġêµ¬ íĺķ
Ġì°½ìĹħ ìŀĲ
Ġíĺ¸ íıī
ìĪĺ ìłľ
Ġëĭ´ ìļĶ
ĠIC U
ĠìķĮ ê³łë¦¬ì¦ĺ
ĠëıĻ ê¸Ģ
Ġëģĵ ìĿ¸
ê·¸ ë¦°
Ġê²° ìĤ°
ìĿ´ ëª¨
ìĿ¸ ê³µ
Ġconf ession
ìĦ± ê³µ
Ġë¶ĢëĶª íŀĪ
N ovember
ĠêµĲ ë³´
ë§ģ íģ¬
ìĤ¬ íĥķ
Ġë¦¬ìĦľ ì¹ĺ
ĠìĹ° íķľ
ĠìĬ¤íĥĢ ëĶĶìĽĢ
ĠR X
ĠíĤ¤ ìĽł
ìĿ´ ëłĩ
ĠThanks giving
Ġêµ¬ ìļ°
ë§Ī ëĭ¹
ĠëĤĺìĻĢ ìķ¼
Ġê°Īë¹Ħ íĥķ
ĠìķĦê¹Į ìļ´
Ġì²ĺ ìŀ¥
Ġìľł ê´Ģ
ĠìĹ¬ ëĬĲ
ìĹ° ëĿ½
ĠìĿ¼ìľ¼ ì¼°
Ġíı¬ ì²ľ
Ġë´īìĤ¬ ìŀĲ
ì§Ħ ìłķ
Ġìĭľ ë¦¬ìķĦ
Ġë¶Ī ìĥģ
Ġ********** ************
Ġë¬´ëįĶ ìľĦ
ìľĦìĽĲ íļĮ
Ġì²¨ê°Ģ ë¬¼
Ġê²½ìĥģ ë¶ģëıĦ
ĠíĻ© íĥľ
ĠëıĦ ë©´
ĠìĿĺ ìĿĺ
ĠìĪľ ìĤŃ
ĠëĬĲê»´ ì§ĳëĭĪëĭ¤
Ġì»¤ ì§Ħ
ĠìĹĲ ë¦Ń
ĠíĿ¬ìĥĿ ìŀĲ
p tomatic
op eration
Ġìĳ¥ ìĳ¥
Ġíķ© ëĭ¹
Ġê¹ľ ëĨĢ
ĠIP O
íĤ¤ìĬ¤ íĥĦ
Ġì¹ĺ ë°Ģ
ĠìŀĲ íĮĲ
Ġun authorized
ìŀ¥ ë©´
ĠN G
ĠìĪĻ ë©´
ìĥģ íĥľ
Ġë¯¼ ìĤ¬
ĠëĪĪ ê°Ģ
ĠìĻĦë²½ íŀĪ
el iness
ĠíĨµ ì§Ģ
ìĿ¸ ëıĦ
Ġneglig ent
ĠìĬ¤íħĮ ìĿ¸
Ŀ £
ìĹĲ ìĦľ
ĠëĲĺ ìĤ´
Ġìļ´ ìĦ¸
Ġìľł íı¬
Ġìĭ¬ ìĭł
Ġê¸Ģ ê·Ģ
Ġíķĺ ìķĦ
ìĹħ ìĽĲ
ĠìĹŃ ìĤ¼
íħ ģ
Ġê±° ë¯¸
Ġinitial ization
Ġì¡° ë¥ĺ
ĠëıĮìķĦ ê°Ħ
Ġìĭł ìŀĲ
ĠìĿ¼ ëª°
Ġìĥģëĭ´ ìĽĲ
ĠìĤ¬ìĭľ ë¯¸
Ġëĵ¤ìĸ´ ê°Ĳ
Ġìĵ° ëŁ¬ì§Ģ
Ġê²½ìĥģ ëĤ¨ëıĦ
Ġë°± ìĪĻ
ëª¨ ëį¸
íĳľ ìłķ
Ġdegrad ed
Ġê²½ ìĭł
Ġarbitr arily
Ġë²Ħ ëĵľ
ì§Ģ ê¸Ģ
ĠìĦĢ ëıĦìļ°
ìķĦ ë¥´
ĠìĹ¬ ëįŁ
Ġë¹¼ ë¹¼
Ġë°© íķľ
Ġë¡¯ëį° ìĽĶëĵľ
Ġíı¬ë¥´íĪ¬ ê°Ī
Ġìĭ¤ íļ¨
ĠìĥĪìļ° íĬĢê¹Ģ
Ġê¸Ī íĴĪ
ìłĢ ëŁŃ
ĠìĪľ íķĺ
Ġìĥģ íĮĲ
ê³µ ëĭ¨
ĠìĪ¨ê²¨ ì§Ħ
ê²½ ìĪĺ
ë°ĳ ë°ĺì°¬
Ġì±ħìŀĦ ê°Ĳ
Ġê±¸ìĸ´ ê°Ķ
ê±° ìļ¸
ìķĦ íĮĮíĬ¸
Ġë³¸ ëĭ¤ê³ł
Ġê°ĪìķĦ íĥĢ
ì© Į
ĠëĿ¼ ë¯¸
ĠìĨĲ ìŀĲ
ĠìĿ¸ì²ľ ê´ĳìĹŃìĭľ
ĠëĿ Ī
Ġíķĺ ì²ľ
Ġdrastic ally
Ġprobabil istic
Ġfashion ed
Ġìĭľ ëĭ¬
ìŀĺ ëª»
ìķĦìĿ´ íı°
Ġì¡° ë³Ħ
ĠìĿ´ ë¥¸ëĭ¤
Ġêµ° ì¹¨
íĶĦ ëłĪìĬ¤
op acity
ìĿ¼ ëĵľ
Ġíİĺ íį¼
Ġìļ¸ ì»¥
Ġë§Ī ê·¸ëĦ¤
Ġê°ĩ íĺĢ
ĠI U
ë¹Ħ ë¹Ķ
ëį ¥
íİ Ħ
íģ¬ ë¡ľ
ĠíĴĢ ëł¸
ĠìĿ¸ì§Ģ ëıĦ
re ation
Ġê´Ģ ë£Į
Ġì¥ Ķ
tell ing
ĠëĿ¼ ìļ°
Ġë¡ľë§¨ íĭ±
ê² Ķ
Ġê³ł êµ¬ëł¤
ĠëıĮìķĦëĭ¤ ëħĶ
ìĽ¨ ëĶ©
Ġì§ģ ìĦł
Ġmicro phone
Ġì½Ķ ëħ¸
Ġë¬´ê±° ìĽĮ
ĠW arning
Ġëĭ¬ ë¹Ľ
ì£¼ ìļĶ
Ġëĵ ¦
Americ an
ĠìĪĺ ì°¨ë¡Ģ
Ġíľ© ìĵ¸
ĠìıŁìķĦ ìł¸
ìĨĮ ì£¼
Ġmunicip alities
ĠìĪľ ì¡°
ëĤļ ìĭľ
Ġë¶Ģíĥģëĵľ ë¦½ëĭĪëĭ¤
Ġtravel ers
ĠëĪĮëŁ¬ ìĦľ
ĠëĬĲ ê¸ĭ
Ġì²´ìĿ¸ ìłĲ
ĠE G
ĠíĨł ì¢ħ
Ġremark ed
Ġë£¨ ëĤĺ
Ġì£¼ ìĹŃ
Ġìĩł ê³łê¸°
Ġìľł ìĦ¸
ĠConserv ation
Ġíľ© ìĭ¸
Ġì§ľ ë¦¿
Ġìŀ¥ ìķĦì°Į
ĠìłĦ êµ¬
ĠìĤ° íĻĶ
ì¤ į
Ġíģ´ ëłĪ
Ġê¹Ģ ìĦł
ëŀĢ ëıĦ
Ġìļ© ìłĳ
Ġë¨¼ ê°Ģ
H F
Ġì¹ĺë£Į ë¹Ħ
Ġíİ Ļ
Ġexp osures
ĠëĿ¼ ì§Ģ
ëŁ¬ ë¸Į
ëĮĵ ê¸Ģ
fore ach
ë°Ķ ê²Ĳ
íĻĶ ê³¼
Ġê²½ ìĥī
Ġë¹Ħ ìķĦ
ëĿ¼ìĿ´ ëĤĺ
Ġë¯¸ ìĸĢ
Ġelectro chemical
Ġdiscrimin atory
Ġì§Ī ì£¼
Ġì¶ľ íķĺ
ĠG ender
Ġweakness es
Ġì¤Ħ ê±°ë¦¬
Ġëĭ¨ ìŀĲ
íļĮ ìłĦ
ĠëĳĲ ìĸ´
int endent
ĠPrincip al
Ġm itigation
Ġelectroph oresis
Ġíķłê¹Į ë´Ĳ
ĠK F
ĠìĹ° ë£¨
Ġconting ent
ìŀ¬ ìĿ¸
Ġdispro portion
ëŃ ī
Ġëª¨ íĭ°ë¸Į
ĠìĽĲíķľ ëĭ¤ë©´
ĠëĤ´ ìļĶ
ĠN I
Ġëįĺì§Ģ ëĿ¼
ì§ĳ ì¤ĳ
ìĪĺ ë¶Ħ
ĠëıĦ íĨłë¦¬
ĠìķĦ íĤ¤
ë§Ĳ ìĶĢ
ìĭŃ ë¦¬
ì¢Į ìĦĿ
Ġëª» íķ©ëĭĪëĭ¤
Ġìķł ì°©
Ġexpend itures
ì£¼ ë¦Ħ
Ġê³ł ìķķ
íģ´ ë¦¬
Ġìķ½ ê´Ģ
ĠìĹ¬ ê°Ģ
ìł¯ ë°¤
Ġdesper ately
Ġì§Ģ ìĺ¤
ê·¸ ë§Ī
ĠìĬ¬ ë¦½
Ġê¸Ģ ë£¨
Ġë¶ģ ì¸¡
Ġë³´ ìķ½
Ġì§Ģ ëŀĦ
Ġíĩ´ ìŀ¥
Ġê¶Į ìĹŃ
Ġì¹¨ ìĪĺ
Ġë©Ķ ìĿ´íĬ¸
Ġì°Į êº¼ê¸°
s uccess
íĽ ¼
ĠíħĮíģ¬ ëħ¸
Ġìľł ì£Ħ
Ġìľ¡ ë°ķ
Ġì£¼ ìĦ¸
Ġë¹Ħ ëªħ
ĠìĹĲìĬ¤ íħĮ
Ġprogress ively
ìĻ¸êµŃ ìĿ¸
ul ously
Ġì½Ķ ë¥´
Ġprogram m
ë¹Ħ ìļ©
d id
ĠìĹĺ ì§Ģ
Ġë¶Ļ ë°ķìĿ´
Ġìłķ ëł¬
Ġcomple tes
Ġì´Ŀ ì´Ŀ
Ġsound ing
Ġì«Ģ ì«Ģ
ĠìĬ¤ ìľĹ
Ġì¶ľ ìĽĲ
êº¼ ìĿ´
ĠëĦ¤ìĿ´ ë¹Ħ
ĠAction Parsnip
Ġë³´ ìĺ¨
Ġìĭ¤ ë¡ľ
ĠìĿ¼ìłľ íŀĪ
ë°° ëĭ¬
Ġê°Ģ ë°ľ
Ġê³¼ ìĹ´
Ġpl atinum
Ġíį½ íį½
ĠF ailure
Ġcontin ental
ĠìķĦëĭ Ļ
ĠëĤĺìĺ¨ ëĭ¤ëĬĶ
Ġf idelity
ĠëłĪìĿ´ìĸ´ ëĵľ
Ġê¸°ë¦Ħ ê¸°
Ġíķľ ì§Ħ
Ġë°°ê³ł íĮĮ
Ġë³¸ íļĮìĿĺ
Ġìĺ¬ ëĵľ
Ġë²ł íĴĢ
ê°Ķ ëĭ¤
ìŀĲ ëĿ½
Ġíķ´ ëĨ¨
ĠL NG
Ġíĳľ ì°½
ĠëįĶ êµ¬ëĤĺ
Ġëģ¼ ëĭĪ
Ġíĺķ ê´ĳ
ĠìĦ¸ê³Ħ ê´Ģ
Ġíı´ ëŀĢëĵľ
Ġìłĳ íķľ
ĠëĤ´ ìĦ±
ĠìĦ± ëª¨
Ġëĵľ ìĭł
ĠëĿ¼ê³ł ìļĶ
ìĽĮ ìķ¼
Ġìŀł ê¸Ī
ĠInstall ation
r ation
Ġì»µ ëĿ¼ë©´
Ġì¡° íĺķë¬¼
ë°ĺ ëĸ¼
Ġë°Ģ ìĸĳ
Ġtherm odynamic
Ġìĸĳ ê·¹
ì§Ģ ëħ¸
ĠìķĦ ë¶Ģì§Ģ
Ġë¶Ī ëĭŃ
Ġpreced ed
ĠëĪĮ ëłĢ
Ġë°© íĻ©
Ġenjoy ment
Ac cept
Ġê¸° íĶ¼
ĠíĻĢ ëįĶ
ĠF inding
Ġradio therapy
Ġëŀ Ļ
transfer ase
ĠìĿ´ ìłĲ
Ġalleg ation
ìĭľ ë¯¼
Ġëª© ìŀ¥
Ġíķ´ ëĤ¼
Ġë²Ħ íĭ¸
íĮĮ íĭ°
ĠìĹ° ëĭ¤
Ġê¹Ģ ì¤Ģ
ĠìĿ´ ìĿ´
Ġíİĺ ìĿ¸
ĠìŀĲ íĥĿ
ĠìĬ¤íĤ¨ ì¼Ģìĸ´
ĠëĤĺ ê¸°
ĠìĻĦìĦ± ëıĦ
Ġì¢ħ ê°Ģ
ĠëĤ´ìĦ¸ ìļ°
ìĺĪ ìĪł
ìį °
Ġì²Ļ ì²Ļ
ë§Ī ìĬ¤íģ¬
ìļ° ë§Ī
Ġìĵ¸ëį° ìĹĨ
V ector
ìķĪ ëıĻ
Ġë§Ī ê³¡
Ġsexual ity
Ġë¹ĦëĮĢ ì¹Ń
Ġê·¸ëł¤ ìł¸
Ġcarbox y
ĠìĿ´ ìģ¨
tract or
ëĦ¤ ìĿ´ìħĺ
Ġexpress es
force ment
ë¹Ħ ìĺ¤
Ġexp orted
ì° Ĳ
Ġcon gress
Ġunder way
ĠìĨĮ ê²¬
íĽĪ ëł¨
Ġì°¨ ì°¨
Ġêº¼ ìł¸
Ġëĭ ³
Ġíİĺ ìĬ¤
Ġíıī ìĪĺ
Ġì»¤ ëħķ
ìłĢ ìļ°
Ġìŀ¥ ëĭ¨ìłĲ
ĠìĽĮëĤĻ ìĹĲ
Ġê°Ģ ìĨĶë¦°
ê·¸ëŁ¬ ëĭ¤ê°Ģ
ĠëĤ Ħ
Ġimproper ly
Ġìľł ëĭ¤
Ġìŀł ìŀł
Ġë¹Ħ ì§Ģ
ĠìĹī ëļ±
ìĥģ ê°Ģ
Ġexhib iting
ĠìĽĮ ì»¤
Ġbe verage
W T
ĠíĶ¼ ìĭ±
Ġsh elves
Ġtrigger ing
Ġb izarre
ì½Ķ ëĭĪ
Ġì¶Ķ ìĤ°
Ġì²ĺ ì¹ĺ
Ġë§ī íĺĶ
Ġcompar atively
Ġê·¸ ëŀľ
Ġtr action
ĠíĸĪ ìŀĸìķĦ
Ġíĥľ ìķĪ
ĠíĶĮëłĪìĿ´ íĬ¸
ĠProceed ings
ìĤ¬ ê°ģ
ê²Ģ ìĤ¬
Ġê²½ìłľ íķĻ
Ġm ating
Ġinflu x
ë¦½ ìĦł
Ġfi xtures
íĨµ ì¦Ŀ
Ġaccident al
p arents
ĠìĤ¬ëĿ¼ ì§Ī
ëĳĺ ê¸°
ĠìĦľ ìĿ´
ì¶Ķ ìĸµ
ĠìĿ¼ ê°Ģ
ë°© íĸ¥
ĠìĽĢì§ģ ìĺĢ
Ġìĥģìĥģ ëł¥
Ġê°Ħ ìĤ¬
íĿ ī
ĠíĨł ë¡ľ
ë¹ł ë¥¸
Ġë¡ľ ì»¬
Ġcompreh ension
ĠìĪĺ ìĹ¼
Ġborrow ed
ĠëĪĦ ìĽł
Ġrelativ istic
Ġë²Ĺ ìĸ´ëĤľ
Ġìĸ´ ë¯¸
ë¬´ ëĭĪ
ĠìļĶ ëŀĺ
Ġìĸ´ëł¤ ìĦľ
R F
ĠìĤ¬ ìĪĺ
ì§Ģ êµ¬
ĠíĦ° ë³´
ĠìŀĲ ìłķ
ĠíĬ¹ íĺľ
Ġìĭľ ìķĪ
ĠëıĻê·¸ ëŀĢ
Ġì¡° ì§Ĳ
Ġcompress or
ĠíĢ µ
Ġê°Ģ ëĬĺ
ĠëıĦ ëĿ¼ì§Ģ
Ġì½ĺ ìħīíĬ¸
ĠëĿ¼ìĿ´ ìĸ¸
Ġìłĳ íķ´
Ġwith stand
Ġmention ing
Ġìĵ° ìĺĢ
Ġìĭľ ëł¨
Ġì£¼íĮĮ ìĪĺ
ĠëĤ¨ íķ´
Ġdiscrim inate
Ġbound ing
íķ© ê²©
Ġìıł ë¦¬
Ġì¦Ŀ ìĦľ
ĠíĿ¬ ë¯¸
ĠìĦĿ ë¥ĺ
ĠëĪĦêµ° ì§Ģ
ìķĦ ëĿ¼
ëĤ´ ê¸°
ĠìķĪ ìĭĿ
ĠìĦľ ìŀ¬
ĠPro jects
Ġíİ¸ ë°±
ĠìķĦëĤĺ ìļ´ìĦľ
Ġì§ķ ìĪĺ
ë°ľ ìłĦ
ĠìĻ¸ ìŀ¥
ĠìĬ¤ íĨ±
Ġrefuge e
Ġì¡° ìłľ
Ġë§Ī ëª¨
ìĹ ¿
Ġìĭłìļ© ì¹´ëĵľ
ìķ¼ ëĵ¤
ìĨĮ ë¹Ħ
ĠìľĦ ëĵľ
Ġê³° ëıĮìĿ´
ë²¤ ëįĶ
Ġìłķ ë¬´
Ġêµ¬ íĸĪ
ĠìķĪ ë¶Ģ
ĠìĿĢ íķĺ
Ġìŀ¡ íĺĶ
Ġê½ģ ê½ģ
Ġteach ings
ĠìĿĺ ëĮĢ
ĠíĻĶ ìĤ°
ĠìĻĶ ëĭ¤
Ġëıħ ìĦ±
ê²½ ë¶Ģ
Ġíķľ ë¥ĺ
Ġë°° íĽĦ
Ġì¢ħ ê²°
ĠìĹŃ ìĦ¤
Ġw onders
Ġíĸ¥ ëıĦ
Ġê·¹ íŀĪ
ĠëĨĢ ë¦¬
Ġ--------- ------
Ġê´Ģë¦¬ ë¹Ħ
íĭ° ì½ĺ
ĠK CC
Ġëĳ¥ ê·¼
ĠìķĦëĭĻ ëĭĪê¹Į
Ġgithub usercontent
ĠëĦ¤ ìŀĦ
D L
ĠëĮĢ íĻĺ
Ġëªħ ëŀĢ
Ġê³µ ìŀĲ
Ġë¯¼ ì¤ĳ
Ġìł¤ ëĿ¼
ĠëĵľëŁ¬ ëĤľ
Ġìī¬ ìĽĮìļĶ
êµĲ ì°¨
ë³´ ìĹ¬
ìĻĢ ìļ°
Ġì¹´ íĥĢë¥´
ĠíĽ ¤
Ġì´Ī ìŀ¥
ĠëĮĢ ëıĻ
ĠìĪĺ ìŀ¥
Ġê³ł ë£¨
Ġprosper ity
ĠìĻ¸ ë¬´
Ġìĸ´ìĭľ ìĬ¤íĬ¸
ticular ly
Ġspokes person
Ġìłľ ëĭĪ
Ġquick er
Ġse ating
Ġì¼Ģ ë¯¸
Ġëª¨ íĨł
ĠìŁģ ìĹ¬
Ġdrople ts
ëĤ¨ ìĦ±
Ġconstitu ent
Ġêµ° ë¶Ģ
Ġì¦Ŀ íıŃ
ĠëĳĶ ëĭ¤
S L
Ġë°ĺ ìłĲ
ê°ķìĽĲ ëıĦ
ĠëıĦ ë´ī
Ġì¡¸ ë¦¬
Ġìľł ë¨¸
ĠìĽĲ ë¬¸
Ġëĵ¤ëł¤ ìĺ¤
Ġë°§ ëį°ë¦¬
ĠJ C
Ġdisapp ointment
Ġv entral
ì¶Ķ ìļ´
ĠìĪĺ íĬ¸
Ġìķł ìĻĦ
ĠìķĦê¹Į ìĽĮìĦľ
Ġher oin
ìĺĪ ìĥģ
Ġìĭł ìŀ¬
em porary
Ġëĸ¨ìĸ´ ì§Ħëĭ¤
ëħ¸ íĬ¸
ĠK A
Ġì² ¸
ĠìĦł ìĿ¸
ĠëĮĢë¦¬ ìĿ¸
ìĸ´ ë¨¸ëĭĺ
Ġëĵ± ìĽĲ
Ġanatom y
ĠìĦ¸ ìĿ¸íĬ¸
Ġë³´ íĨ¡ìĬ¤
Ġíĵ¨ ìĸ´
Ġê²° ìĭ¤
ĠíĭĢ ëł¸
Ġget ter
Ġëª¨ ëª¨
ĠíŀĪ íĦ°
Į íĹ¨
ĠìĨį ìĿ´
Ġextract ing
ĠìĿ´ ìĽĲ
Ġë²¤ íĬ¸
Ġdeterm inations
ĠíĻĶ ì°½
ëĵľ ëĿ¼ìĿ´
Ġc asing
ëĮĢ ë°ķ
Ġexerc ising
Ġë°©ë¬¸ ê°Ŀ
Ġexplan atory
ĠëıĮ ë¦´
Ġíķĺ ë²Ħ
ĠìĹĲ ëĵľ
Ġê¹Ģ ë³ĳ
Ġharvest ing
Ġëĭ¤ ìł¸
Ġë©´ ë°ľ
ĠíķľêµŃ ìĿĢíĸī
Ġìĭľê°Ħ ëĮĢ
ĠFirst ly
ĠGT X
ìĹħ ìŀĲ
ë² Ļ
Ġê°ģ ìĦ±
Ġë¬¼ìĸ´ ë´Ĳ
ĠíĿł ì§ĳ
work ing
ê¸° ë¶Ģ
Ġê¹ľ ì°į
Ġê°ķ ëıĻ
Ġë¡¯ëį° ë§ĪíĬ¸
Ġillustr ations
ìĿ¼ ì°į
ĠëĤ´ ìĭ¬
Ġcompetit or
íķ´ ìļĶ
Ġíķ¸ëĵľ íģ¬ë¦¼
ĠìķĮìķĦ ëĵ£
ĠìĦł ì²ľ
ëª¨ íĨł
Ġfin ances
Ġë°Ķ ì¹ĺ
Ġover turn
Ġëĭµ ë¡Ģ
æ ħ
ë£¨ íĶĦ
ìĿĺ ë¯¸
ë¹Ħíĸī ê¸°
Ġë¹ ķ
ë²ł ìĬ¤
ĠìĮ ī
Ġíŀĺ ì°¨
ĠìŀĳìĦ± ìŀĲ
Ġëĭ´ ëĤł
Ġìĸ ķ
Ġìłľì£¼ íĬ¹ë³ĦìŀĲì¹ĺëıĦ
ĠìłĦ ìķķ
Ġìĭł ì²ľì§Ģ
Ġconduct ance
ì¢ħ ë¥ĺ
ì¢ ģ
íĮĮ ìĬ¤
ĠíĽĦ ì§Ħ
ĠìĦ¸ ë¦¬
Ġìĺ¤ ëıĻ
Ġìļ¸ íĥĢë¦¬
Ġnucle ic
ĠíķĦ ìĤ¬
ìĭľ ëĮĢ
ìĥģ íĻ©
Ġê³Ħ ìĬ¹
ĠDevelop er
Ġìĺ¤ ì¼Ģ
ë¹Ħ êµĲ
ĠíĶĮ ëŁ¬
ĠíĶĮ ëĿ¼ìĿ´
ĠM X
Ġê¼¬ ìĺ¥
Ġìĭ¤ ë¦°
Ġì£¼ ì¶¤
Ġê¸°ëħĲ ê´Ģ
Ġcytotox ic
ĠìºĲ ì¹ĺ
Ġìĭł íĿ¥
êµĲ ìĪĺ
å Ĩ
ĠK itchen
Ġìĺ¤ ì¼ĢìĿ´
Ġìŀħ ìĪĺ
Ġì§Ŀ ê¿į
Ġìĭ¤ ëł¤
Ġê³ł ë¹Ħ
Ġê°Ģ ìĹ´
Ġì¶Ķ ìĥģ
Ġê³Ħíļį ìĦľ
Ġit erate
Ġíıī ë©´
ë§Ī ë£¨
ĠëĤĺ ë¥´
ĠìºĲ ë¦¬
Ġìĺģ ìŀ¬
Ġincomp atible
ìłĦ ë°ĺ
Ġì¡° ê¸ī
ĠìĦłê±° ë²ķ
íĥĿ ë°°
Ġì§Ģë¦¬ ìĤ°
ìĭł ìĦł
Ġíı¬ ë¡ľ
Ġë°° ìĸĳ
Ġëª¨ ìĦľë¦¬
Ġì§ĢëĤĺ ì¹ł
ĠìĺĢ ìĹĪ
Ġì¢ Ĩ
Ġì§Ī ìĿĺ
ĠíĿ¬ ê·Ģ
ĠìľĮë¦¬ ìĹĦ
Ġíķľ ìĹĨìĿ´
ĠëįĶ ëĵ¬
Ġê±° ëł¤
Ġê²Ģ ê±°
Ġê°ľ ê´Ģ
ĠR PM
ĠíĶ¼ íĭ°
Ġìľłë¦¬ ì°½
Ġê¾¸ ë¦¬
Ġê°Ģìł¸ ê°Ķ
Ġë³ĳ ìĭł
Ġtransl ational
Ġì°¾ìķĦ ìĺ¬
Ġìĭ¤ ìĥģ
ĠìĿĺë£Į ë¹Ħ
Ġìľł ëł¹
Ġì½ľ ëĵľ
ĠëĨĢ ëŀĺ
Ġê¸° ìłĲ
íĻĪ íİĺìĿ´ì§Ģ
ê¸° ëĭ¤
Ġincorrect ly
Ġë§ī ë°Ķì§Ģ
ìļ° ì£¼
Ġìļ° ëŁ¬
ĠìŀĲëĿ¼ ëĤĺ
Ġcluster ed
Ġë³´ ëĦĪìĬ¤
ìłĪ ìĿ´
Ġê°Ĳ ê·¤
íĮĲ ë§¤
ê·¸ ë§Į
ëĵľ ê¸°
Ġëª¨ ìħĺ
ĠìĤ¬ ì¹ĺ
Ġdiagn ose
Ġìŀ¡ íĭ°
Ġê´ĳì£¼ ìĭľ
Ġìłľ ìĻķ
Ġim balance
ĠìķĶ ìĭľ
Ġì¹´ëĿ¼ ë©ľ
Ġê°ķ íķ´ìĦľ
Ġë°ķ ìĦ±
ìŀ £
ĠëĮĢ ìĹŃ
Ġìłķ ìĦł
ab lished
Ġëĸ¨ìĸ´ ëľ¨ë¦¬
Ġíİĳ íİĳ
M B
ë§ ¡
ĠìŀĬìĸ´ë²Ħ ë¦¬
Ġë°Ķ ê°Ģì§Ģ
ìĿ¼ ìĸ´ëĤĺ
ĠíıĲ ìĹħ
Ġìĭł ìĽĲ
Ġobj ected
prising ly
Ġê°Ģ ì¶ķ
ìĦľ ëıĦ
Ġê²½ìĺģ ì§Ħ
ì ®
Ġë³¼ ë§ģ
Ġì¹ľ ìĪĻ
Ġìŀħ ëĭ¨
Ġresign ation
Ġë¯¸ ëĶĶ
ê¸° ê³Ħ
Ġhospital ization
Ġì±Ħ ìļ´
ĠìłĦìĹ¼ ë³ĳ
Ġë°© ìĿĮ
Ġê²¨ ìŀĲ
Ġsovereign ty
ĠìĪĺëĤ© ìŀ¥
Ġnomine e
ëĦ¤ ë§Ī
Ġpassword s
ĠíĻĢëĶ© ìĬ¤
ĠêµŃ ìĤ¬
Ġìłķ ì§Ħ
Ġíķľ íħĲ
Ġtrans pl
ê°Ĳ ëıħ
Ġì¢Į ìĭĿ
ìļ´ ëĮĢ
ìĦ¸ ìĽĶ
Ġattach ments
ê°Ĳ ì¹ĺ
Ġë§Ī ëĤĺ
Ġlearn s
Ġë°ĭ ë°ĭ
ê°ķ ë¦ī
Ġendors ement
íħ ħ
Ġëĵ±ë¡Ŀ ê¸Ī
ĠìĺĪ ëŀĳ
Ġëĭ¨ ë©´
ĠìĹĺ ëłĪ
Ġrecogn ise
er tion
Ġconf ess
ĠìłĢ ê±´
s ervice
Ġ ë¦Ħ
ë¯¸ ìķ¼
Ġëª¨ ìļķ
Ġmethod ologies
ë¦¬ ìĸ¼
ĠìķĻ ê¸Ī
ê³µ ì£¼
ĠìĿ¼ ëł¨
Ġthem ed
Ġê°Ģë¡ľìĪĺ ê¸¸
Ġêµ¬ ë¥´
Ġun pleasant
ìħĢ íĶĦ
ĠíĦ± ê´ĢìłĪ
Ġì¹´ ìĭľíĬ¸
í Ĳģ
Ġìĸĳ ì§Ī
ìķĮ ëł¤
ĠìķĮëł¤ ì¤Ģ
ĠìĦľ ëĮĢë¬¸
Ġì¤Ħ ìĺĢ
Ġcolor ing
ê¼¬ ì¹ĺ
êµĲ íļĮ
Ġê³Ħê¸° íĮĲ
Ġíĳľ ì¶ľ
Ġë¡ľ ìĽł
Ġë³´ìĬ¤ íĦ´
ĠT J
ĠB achelor
ìłķ ìĦ±
ĠìĹ¬ ê³ł
ë§ī ìĹ¼
Ġêµ¬ ë¶Ģ
íĦ° ì¹´
ĠìĪĺìĺģ ë³µ
ĠíĹĪ ê¸°
Ġë°©ë¬¸ ìŀĲ
ĠìĬ¬ íİĲ
Ġint ends
ĠìĤ¬ ìľ¡
Ġê¸° ë»¤
ĠëĴ¤ ìł¸
ĠìĤ¬ ëĤĺ
ëŁ¬ ì¹ĺ
ëŁ¬ ìĭľìķĦ
Ġìļ° íķľ
ĠíıŃ ìļ°
Ġelastic ity
or ously
ĠíķľëĿ¼ ìĤ°
Ġhippocamp us
Ġav iation
ê´Ģ ëł¨
Ġë°¸ ë¸Į
ĠëĶ ¤
Ġê³µ íıī
Ġë°± ìĹħ
Ġconsol idation
ict ure
aster y
Ġìŀ¥ ëĤ´
ĠíĨł ìĸĳ
ĠìĦł ìłĲ
Ġretail er
ĠíĻĶìŀ¥ ëĮĢ
ĠO L
ĠTrans action
Ġillness es
Ġì¶Ķ ìĿ´
Ġthreat en
Ġconvey ed
Ġblock ade
Ġinstant aneous
ëĮĢ ìŀ¥
ur face
Ġìĺ¤ ë§Ī
ĠíĮĲë§¤ ìŀĲ
ĠëĤ Į
ĠìĿ´ ë¤ĺ
ìĨĮ ì¤ĳ
Ġìĺ¤ ëĿ¼
Ġìĵ° ìĿ¼
Ġìĺ¤ë¥¸ ìĨĲ
Ġmethod ological
ĠìĹ¬ ëł¥
Ġë³ĳ ìĭ¤
ëľ¨ ë¦°
Ġë°ĺ íĴĪ
Ġíı Ī
ustom ed
Ġìłķ ìľ¡
ìĹĲìĸ´ ì»¨
B iography
Ġë¹Ħë¦° ëĤ´
ĠìĹ¬ ê¸¸
Ġmanifest ation
Ġëįĺ ì§Ħ
Ġì§ķ ì§ķ
Ġë°± ìĿ¸
Ġë¬´ ìĬ¹ë¶Ģ
Ġcommission er
ĠìķĦë¯¸ëħ¸ ìĤ°
Ġë¶Ħ ë§Į
ì¶Ķ ìĸ´
Ġë¬´ ìĥī
ĠíķŃ ì²´
Ġcapital ist
Ġìĭľ ëĵ¤
ĠëĦ Ľ
ì¹¼ êµŃìĪĺ
Ġìĺ¤ ëĶĶìħĺ
ĠíĬ¹ ê¸ī
==================== =
Ġê°Ģ ëĿ½
ĠëĦ ĭ
ĠìĹŃ ëıĻ
ĠêµĲ ìĹŃ
ìĭł ìłĢ
Ġê²° ìĦ±
Ġê·¸ë¦¬ ìĽĢ
ĠëĮĢ ê´Ģ
Ġíĩ´ ì¹ĺ
ĠëĤĺ ë¦¬
ĠìĨĮì¤ĳ íŀĪ
ĠìĿ´ íĻĶ
ĠìĺĪ ë³µ
ĠìĪĺ ì§Ī
ê°Ģ ì¹ĺ
Ġì±Ļê²¨ ìķ¼
Ġê¸° ì§Ī
Ġìŀ¥ ëĭ´
ëĪĦ ë¦¬
ĠìĤ¬ ìĬ´
ĠëĩĮ ì¡¸
ĠìĦłíĺ¸ ëıĦ
ëľ ¯
Ġë¦¬ íį¼
tr icted
Ġì°į íŀĮ
Ġhas OwnProperty
Ġdistingu ishing
ìĨĮ íĻĶ
Ġìĵ° ìĿ¸
Ġunder taking
Ġtransg ender
Ġë§Ī ë¦°
ĠëĬ¥ ëıĻ
íķ´ ë¬¼
ì± Ļ
Ġë¯¸ ë¬ĺ
Ġë³ĳ ë³Ģ
ĠRO I
Ġë¶Ī ìĸ´ëĦ£
Ġìĭľê°Ģ ì´Ŀìķ¡
ë³Ħ ë¡ľ
Ġë²Ĺ ê¸°
ëģ ĵ
Ġìłķ ê°Ģ
ì´Ī ê¸°
Ġê³Ħìķ½ ê¸Ī
ĠëıĦ ëĿ¼
íĢ Ħ
ëĺ ĺ
ê±° ë¦¼
Ġìľłë°© ìķĶ
Ġì²Ļ íķĺ
ĠëĤĻ ìĦľ
Ġê°Ģì§Ģ ëŁ°
Ġìī ĺ
Ġì§ĳ ê²Į
Ġê¹ ¬
Ġemerg es
Ġinf initely
ê°Ģ ìĭľ
ĠìĿĳëĭµ ìŀĲ
Ġmulti plicity
Ġìķ¼ ìĭľìŀ¥
Ġë§¤ ìłĲ
ĠíĻĺ ìŀ¥
Ġìķħ ìĺģíĸ¥
íķ´ ìł¸
ĠìĹ´ íĿĺ
Ġtransduc er
íĳľ ìĨĮ
ìĿ´ ë²¤íĬ¸
ķ ëĭĪëĭ¤
Ġê²° ìĦĿ
Ġê°ķ ìĬµ
Ġëĭ¤ê°Ģ ìĺ¨
ì¨ į
ĠëĬ¦ ìŀł
ression al
Ġëĭ¤ ë°ľ
Ġìŀł ëĵł
ĠíĽĦ ëĿ¼ìĿ´íĮ¬
Ġíķĺ ìĦ¸
Ġíĺĳ ì°¬
Ġìĭľ ìĸ´ë¨¸ëĭĪ
Ġë¸Į ëłĪëĵľ
l iness
ì°Į ê°Ĳì¹ĺ
Ġìĺ® ê¸´
ĠëĮĢ ë¦¼
Ġëĭ¤ ì³¤
ĠìĬ¬ ê¸°
ĠìĿ¸ ë¬¸íķĻ
ĠìĶ¨ ë°ľ
ĠProgram s
Ġê¹ ģëĭĪëĭ¤
ĠëĤĺìķĦ ê°Ī
Ġëĵ¤ ë¦´
Ġë¶Ļ ìĹ¬ìĦľ
Ġsh ining
ĠíĸĪ ìľ¼ë©´
ĠC onstraint
ĠE BS
íĺĪ ê´Ģ
Ġë¸Ķ ëŀĳ
ĠìĦľ ë¥¸
Ġpar ade
Ġencour agement
Ġcontract ing
íľ´ ëĮĢ
ĠëıĦ ëŀĺ
Ġìĥ ¥
Ġrefresh ing
ĠìĿ¼ ê³¼
Ġë§Į ë¬¼
ìłĦ ì§Ģ
ì¦Ī ìĿĮ
Ġcon formation
ìķĪ ìª½
ĠíĮĶ ìŀĲ
ĠìĹ´ ìķħ
ìĸ´ ë§ģ
ëĮ Ķ
Ġì§ģ ê±°ëŀĺ
ĠìĽĲìŀĲ ìŀ¬
ì¹´ì¹´ìĺ¤ íĨ¡
ĠíĥĲ ìĤ¬
ĠíķĦ ë¦½
ĠìĥĿë¦¬ íĨµ
ĠìŀĲ ì§Ħ
Ġì²Ń íķĺ
Ġë¹Ħë¹Ķ êµŃìĪĺ
Ġíķł íħĲëį°
ĠëĤ´ ìī¬
ograph ically
Ġaltern atively
ì»¤ íĶĮ
Ġê¾¹ ê¾¹
Ġì§Ģ íĥ±
íĸ¥ ê¸°
M aster
Ġì²Ń êµŃìŀ¥
ìĸ´ ëĳĲ
Ġíķľ ìłĦ
Ġìĭł ìŀĳ
Ġselection s
ëĿ¼ ëħ¸
ter min
ìĦ¼ íĭ°ë¸Į
Ġêµ¬ ìĽł
ĠìĿ¼ìĸ´ ìĦľ
Ġì¢ħ ìĹħìĽĲ
ë» Ķ
Ġìı ľ
Ġì»¤ ë¦¬ìĸ´
Ġì½Ķë¯¸ ëĶĶ
Ġë°° ëĤŃ
ĠR angers
Ġprohib ition
ĠêµĲ êµ¬
Ġê³ł ë¦½
Ġëĭ¤ ìļ©
Ġë°ĶëĿ¼ ë³¼
Ġê¹Į ë§Į
Ġobtain s
Ġê¼½ íŀĮëĭ¤
Ġê°Ģ íĨ¨ë¦Ń
ĠíĿĳ ë°±
íķĻ ëħĦ
ìķĪ ê²½
ĠìĦľ ìŀ¥
ĠëıĻ ìļĶ
Ġclear er
Ġoption ally
Ġdistill ed
ëļľ ê¸°
ne apolis
Ġë¾° ì¡±
ĠìĪ² ê¸¸
ĠìłĢ ë§Īëĭ¤
ĠìĹ°ìĬµ ìŀ¥
Ġincumb ent
ìĿ´ íĭĢ
Ġê·¼ íĻ©
ĠìĽĮ ëĦĪ
ìĥĿ ìĤ°
Ġhospit ality
Ġìĸĳ ìĨĲ
ĠìĦľ ëĳĲë¥´
ìĿ´ ë¦¬
ĠìĦ¸ ë¡Ģ
ĠìķĪ ëıĦ
ĠP AT
ĠìĽį ìĬ¤
Ġì°¾ìķĦ ëµ
ĠëĤł ëł¸
ĠëįĶêµ° ëĭ¤ëĤĺ
Ġíĭ° ìĬĪ
Ġìºĺë¦¬íı¬ ëĭĪìķĦ
ĠK P
ë¶ ī
Ġjurisdiction al
Ġsculpt ure
Ġëį°ëł¤ ìĺ¤
i ologic
Ġë²Ħ íĤ·
ĠìĥĿ ìłĦ
ĠC ities
Ġinsign ificant
ĠëĬĲê»´ ì§Ħ
ĠìĬ¤ ë¦´
ĠìĬ¤íĬ¸ ë¡ľ
ĠìĿ¸ëįķ ìħĺ
Ġëįĺ ìłĦ
Ġë¬ĺ íķľ
Ġëĭ¤ëħĢ ìĦľ
Ġë³ĳ ìĹŃ
ĠìĪ¨ ì§Ģ
Ġì§Ń ì§¤
Ġìĸ´ì§¸ ìĦľ
ĠíĶ¼ ìĸ´
Ġpro jective
Ġê·¸ëł¤ ì§Ħ
Ġì»¬ ë¦¬
ĠíĬ¹ ìĦł
Ġë¯¸ ìĪĻ
ìĨ ľ
ìĪľ íĻĺ
Ġìĸ´ëĸłìĭł ê°ĢìļĶ
ìĻ ĵ
ĠìĹ° ëĤ´
Some thing
Ġë¦¬ëª¨ ì»¨
ìĥģ ìŀĲ
s truct
ëĶ± íŀĪ
Ġë©Ī ì¶ľ
ĠíĮ½ íĮ½
Ġë§Ľ ê¹Ķ
ĠìĦł ë¶Ī
Ġassist ing
Ġë¨¹ ìĿ¼
Ġê¼Ń ëĮĢê¸°
ìĿ´ íĥľ
T uesday
ĠìĥĿëªħ ì²´
ĠíıŃ ëĿ½
Ġíı¬ ë§Įê°Ĳ
ĠìłĢìĨĮëĵĿ ì¸µ
Ġë°° ê¼½
ograph er
Ġì²ĺ íķ´
ĠìĿ´ìĤ° íĻĶ
Ġìĥģ ìłķ
T G
ëŀĦ ëĿ¼
Ġê°Ģ ëŃĦ
Ġìĭł ê°ĢìļĶ
Ġìŀ¥ ì¤ĳ
Ġì£¼ìĿĺ ë³´
Ġê·¸ ë¬¼
ĠìĤ¬ëł¹ ê´Ģ
ìłķ ìĹŃ
Ġíķĺ ê°Ŀ
Ġíı¬ ìĪĺ
Ġíľ Ļ
ĠíĿī ëĤ´
ĠìĿ´ ìĨĮ
ìĹĲ ìĿ´íĦ°
Ġentang lement
Ġê¹Ģ íĿ¬
method s
ĠR acing
Ġìķł ìĽĶ
Ġê±´ ëĵľë¦¬
ĠìľĦ ë¡Ģ
ĠìŀĶ ë¥ĺ
Ġíĥľê·¹ ê¸°
ĠëĤĺ ì£¼
ê¸Ī ëĭĪ
ĠR ating
Ġìŀ¥ ë¡ľ
Ġê°Ģ ëĤĺ
ë§Ī ì°¨
ĠëĶ¸ ìķĦìĿ´
Ex amples
ë¶Ģ ëıĻìĤ°
íĪ¬ ë§¨
ìŀ¥ ê¸°
Ġë¸ĶëĿ¼ ìļ°ìĬ¤
íĻį ì½©
Ġëª¨ ì¢ħ
Ġs ailing
ĠìĿ´ íĺĦ
ĠìĺĪ ìģł
Ġê¹Ģ ìĬ¹
cl inical
Ġë³¸ ìĦ±
ĠìĿ¸ ìĦ¼íĭ°ë¸Į
Ġcancel ed
ë³´ ëłĪ
ĠìĬ¤íĬ¸ ëĿ¼ìĿ´
Ġê°Ģìł¸ ìĻĢìĦľ
ĠìĹ° ìľł
it atively
Ġê°ģ ê´ĳ
Ġì±ħ ìŀĲ
ĠìĪĺ ìĤ°ë¬¼
Ġreview ers
ìĿ´ íĥĪ
Ġë§Īëķħ íŀĪ
Ġë¹Ħ ìĹĶ
Ġë¹¨ ê°ľ
Ġìķ½ ìĤ¬
M apping
ì½Ķ ì½Ķ
Ġë°Ľ ì¹¨
Ġìłķ ìłģ
Ġover time
Ġthe ology
ĠìĽĲ ìłĲ
ĠíĶ¼íģ¬ ëĭī
ĠíĮ ¸
ë³´ ê¸°
Ġê³° íĥķ
ëª «
Ġìľł íķľ
Ġê°Ĳ ì°°
Ġë³´ì¢Į ê´Ģ
Ġì²´ ì¡°
ë§Ī ëĿ¼
Ġì§Ģë°© ìĤ°
Ġíģ¬ëĿ¼ ìļ´
ĠëĤ´ ë¦¼
ëįĶ ìľĦ
i ative
ĠìĿ´íĥľ ë¦¬
Ġëĵ¤ ëŁ¬ìĦľ
ĠìĤ¬ ìĥĿíĻľ
ĠìĽĲ ë§Į
Ġëģ Ļ
Ġìķł íĶĦíĦ°
ĠS OD
Ġavoid s
Ġëª¨ íĺ¸
Ġíĳ¸ ìĦĿ
ĠìľĦ ìŀĦ
Ġassign ing
Ġìĸ´ëł¤ ìĽĮìĦľ
Ġíİ į
Ġìľł ê³µìŀĲ
ê³¼ íķĻ
Ġassert Raises
Ġì²Ń ëł´
Ġreview er
ĠProgram me
íĶ¼ ê³¤
Ġì£¼ ìłĲ
ĠíĤ¬ ëŁ¬
ĠO ST
tr ained
Ġíķľ íĮĮ
Ġë°ľ ëŀĦ
ëħĦ ìŀĲ
ĠìłĢ ê±¸
ìŀĲ ìĽĲ
ìĹ° ë§Ĳ
ĠëĮĢ íĮ¨
Ġìµľ ìĪľ
ĠìĦ±ìŀ¥ ê¸°
ĠëĤĺíĬ¸ ë¥¨
Ġìĭł ì¡°
Ġìľ¼ ë£¨
Ġì§Ģ ë¡±
ĠìŀĲ ê°ģ
ìĹ¬ ìĪĺ
Ġë°° íķ©
ëŀ ı
Ġgener ality
Ġoptim izing
Ġë²ł ë¥¼ë¦°
Ġë°Ķ ëĳĳ
ĠëĲĺ ìĥĪ
ĠìĤ¼ íĤ¤
ĠìĿ¼ ìĥĿ
ĠíĻį ì¡°
Ġì§Ģê¸Ī ê»ı
Th ursday
Ġë¬µë¬µ íŀĪ
Ġì§Ī ê¹Į
ë°´ ëĵľ
Ġde ferred
Ġconform al
ĠíĻį ìĦ±
Ġëĭ¤ ì¹ľ
ĠìĦł ìĽĲ
íı¬ ìĿ¸íĬ¸
Ġì°Į íĳ¸
ĠëĤĺ ìľĦ
Ġapolog ize
ĠíĻ© ìĤ¬
ĠDE P
íĮĮ ìĬ¤íĥĢ
Ġphotograph ic
Ġreward ing
ëĿ¼ ë§Ī
Ġì°¨ ê³¡
Ġpublic ity
Ġì°½ ë°ĸ
ìĬ¤íħĮ ìĿ´íģ¬
Ġê¸° ìĿ¸
Ġì°¸ìĦĿ ìŀĲ
ê³¨ íĶĦ
ĠIntegr ation
ìĥģ ëĭ¹
ĠëıĻ ë§¥
Ġregular ity
Ġëģĵ ìĹ¬ìĦľ
Ġbehaviour al
Ġíķ© ìĤ°
Ġìľł ê²©
Ġ ëŁ´
ê¼Ń ì§Ģ
ĠAdministr ative
ëĤĺ ê°Ķ
Ġë©ľ ëĿ¼
Ġìĸĳ ê³łê¸°
Ġê¿Ģ ìŀł
ëĬ¥ ëł¥
Ġìĭ¬ íķł
Ġperform ers
Ġë¸ĮëĿ¼ìļ° ëĭĪ
J O
ĠíĶ¼ ì¹´
b est
Ġë¹¡ ë¹¡
Ġar ange
Ġar tillery
Ġê°ķ ìŀĲ
Ġëĭ¤ìĭľ ë§Ī
Ġìĺ¤ ìĬ¤
íķľ ìª½
ĠëĮĢ ëĳĲ
Ġìķ¼ ë§Ī
å ĥ
min ent
en vironment
Ġconvenient ly
Ġê°Ģ ëĭ¥
Ġìļ° íĺ¸
íĿĶ ëĵ¤
Ġëª¨ ëĳł
Ġpartition ing
ĠìĥģìĦ¸ íŀĪ
ĠAny thing
ĠëĮĢ ë³¸
Ġëªħ ê°Ģ
ĠìĦ± ì°°
Ġíľĺ íĬ¸
Ġìłľ ì¹ĺ
Ġì§Ģì§Ģ ìŀĲ
ĠìĿ¸ íĮĮ
ĠíĪ¬ ìĦ±ìĿ´
Ġìłķ ê¸Ģ
Ġíķľ ëĮĢ
ĠìĤ¬ ìķħ
ĠU PDATE
ì° ¡
Ġíİ¼ ì¹ł
ĠìĬ¤íħĮ ìĿ´ì§Ģ
Ġì¢ħ ìĿ¸
Ġíķ´ ëĭµ
Ġallow ance
with out
C AR
ë¬´ ìĤ¬
ĠF ashion
Ġë¯¸ íĬ¸
Ġìĥģ ê¸ī
ì¹ĺ ëħ¸
ĠìĽĶ ê°Ħ
Ġìľ ½
Ġë°ľ ìĤ°
Ġê²½ ì§ģ
ĠíĬ¹ ì§ĳ
Ġìľł ìłķ
Ġë¶ĦíĻį ìĥī
ĠëĦ¤ ìĺ¤
ĠëģĬ ê¸°
Ġretain s
Ġëį© ëĭ¬
Ġê²½ íĺ¸
Ġìĺ ħ
Ġë¶ĢëģĦ ëŁ¬ìĽĮ
ìĦ± ë¶Ħ
ìĽĲ ìĿ¸
Ġìĭ¤ ì§Ģ
ĠëłĮ íĦ°ì¹´
ĠìĿ¼ ëĭ¹
ĠìĬ¹ ê°ķ
ë£¨ ë£©
Ġfabric s
Ġê±° íķĺ
Ġë¦¬ ë¹Ļ
Ġíķ´ ìĤ°
ĠìłĢì§Ģ ë¥´
Ġoccur rences
ìĸ¸ ìĬ¤
Ġex claimed
Ġì§Ģ ì§Ī
Ġì°¨ ì²´
ĠìĿ¼ ìĦł
ĠìĿ´ ê²½
Ġì£¼ ë¬¼
Ġworth while
Ġìķķ ë¥ĺ
ĠìĬ ī
Ġë²ķ ìłľ
Ġë²ł ëĿ¼
ĠëĤ´ ê°ģ
Ġê°ķ êµ¬
ĠìķĦ ëł¨
Ġì°© ìĦĿ
Ġë©ľ ë¡ł
ĠëĨį ë¦¼
Ġsevent y
ë²¨ íĬ¸
Ġquery Selector
ì¹ĺ ë¯¸
ĠìĪĺ ìĭĿ
Ġplastic ity
Ġëī´ ëĶľ
Ġìķł êµŃ
Ġë¬´ ìĸ¼
ĠëĿ¼ ìĭĿ
ëłĪ ìĿ¼
Ġê¸°ìļ¸ ìĹ¬
Ġíĩ´ê·¼ ê¸¸
ĠìĦ¼ ì¹ĺ
Ġliquid ity
Ġproduc tions
ëĿ¼ìĿ´ ëĦĪ
Ġì§Ģ ìľ¼
Ġìĸµ ìķķ
ëŁ¬ ìļ°
Ġjurisd ictions
Ġìĸ´ëĶ ¨
Ġë°ķ ìĺģ
Ġê¸Ī ê°ĲìĽĲ
Ġë§Ĳ ì°¨
Ġê²½ ì¶Ķ
ĠìĦł ìŀ¥
íħĮ ìĿ´
v ascular
Ġê³µ ë¡ľ
ĠëĤ´ ë²Ħëł¤
ĠêµŃ ê³ł
ìĤ¿ ì§Ĳ
ëŀĢ ìĬ¤
Ġê²½ ë¶Ģ
Ġb achelor
ĠT LS
Ġphilosoph er
Ġfinger print
ĠíĹ ¥
Ġëĭ¤ ë¬¼
ëŁ° íĬ¸
Ġê°Ģ ë¯¸
ĠìļĶ íĬ¸
Ġë¶Ī ê¸¸
Ġíŀĺëĵł ëį°
ĠíĿĲ íĬ¸
ĠíĮĮ ì¸ł
ĠíĽĹ ëĤł
ĠëĤ´ ê³µ
Ġcircum ference
Ġanticip ation
Ġê±° ëł¸
ĠëıĮ ìĨ¥
Ġìĥ ¬
Ġdisconn ected
Ġë³Ģ ìĥī
Ġnot withstanding
Ġë¶Ī íĥľ
i ating
Ġëĵ¤ëł¤ ì£¼
íģ´ ë¦°
ëĭ¬ ëŀĺ
Ġìľ¡ ë¥ĺ
ĠìłĪ ëĭ¨
ì»¨ ëĮĢ
Ġinstall ations
Ġìĭľ íķľ
Ġf ountain
ìŀ¥ íĮĲ
Ġë°©íĸ¥ ìłľ
Ġíķĺ ëħ¸ìĿ´
ĠëĮĢêµ¬ ìĭľ
ë¬´ ëĿ¼
íķĺ ìļ°ìĬ¤
íĪ¬ ëªħ
Ġë¹¼ ëĤ´
ĠEx ternal
Ġì°į íŀĪ
Ġêº¼ ë¦¬
Ġíĳľ ìłģ
ìķĦë¬´ ê²ĥ
Ġìĥ Ĳ
Ġì»¤ ìł¸
ĠìĿĦ ëŀĺ
Ġìŀ¡ìķĦ ë¨¹
ë§ĺ ëķĮ
íĺĦ ì§Ģ
Ġëª¨ ì²ĺëŁ¼
Ġë¦¬ íĭĢ
ĠìĨĮê°ľ ìĦľ
Ġìłķ ë¡Ģ
ĠêµŃ ìķħ
ĠìĥĿ ê¹ģëĭĪëĭ¤
Ġdiagn ostics
ìĭľ íĭ°
Ġenvironment ally
Ġdehydro genase
Ġë® ĮíĹ¨
Ġê°ģ ë§ī
ëĵ¤ ëłĪ
P ublished
Ġì°¨ ìĿ¸
Ġfor wards
Ġë³Ģ ìłľ
Ġtu ition
Ġë½ ģ
ĠìĪĺ êµŃ
Ġì²´ ëĤ©
Ġë°± ì¢ħìĽĲ
ĠìĹ° ëĤ¨ëıĻ
Ġìľł ìĬ¹
Ġëİ ĥ
ê³± ì°½
íķĻ ìĬµ
ç ¯
Ġconcer ts
Ġê½ Ŀ
Ġtrans duction
ĠìĥĿ ì²´
Ġë»Ĳ ê·¼
ĠíĤ¤ ìľĦ
ĠìķĦ ë¹Ħ
ĠëıĻ ê±°
ĠFunction al
Ġparagraph s
ĠìŀĲ ë¥¸
ĠìĹ¬ë¦Ħ íľ´ê°Ģ
Ġìĸ´ëĸ¨ ì§Ģ
---------------- ------
ĠìŀĲ êµ¬
Ġìĺ¤ëŀĺ ê°Ģ
Ġíį¼ ìĭľ
ĠíĿĶëĵ¤ ë¦¼
Ġì°¢ ìĸ´ì§Ģ
Ġíĳ¸ë¥´ ì§Ģìĺ¤
Ġë¬¸ ìĸĳ
Ġë¬¸ íĹĮ
Ġweight ing
ĠìĤ¬ ìĭł
ĠIT S
ĠìĬ¥ ìĬ¥
B D
ìĦ¸ íĥģ
Ġëĭ¨ ë¹Ħ
ê¸° ìķĦ
Ġresid ing
Ġë§¤ëģĦ ëŁ½
Ġëª° ëĳĲ
p ackage
Ġëĭ¤ ìĭł
Ġíķł ëĭ¹
ĠíıŃ ìĭł
Ġë³´ìĿ¸ ëĭ¤ëĬĶ
Ġpossess ing
ĠëĤ´ ë³´ëĤ´
ĠìĤ¬ê°ģ ì§ĢëĮĢ
Ġëĵ±ë¡Ŀ ì¦Ŀ
Ġcommun ist
ĠìĦ¼ íħĢ
ĠìĦłíĥĿ ì§Ģ
ĠE lementary
Ġìĸ´ì©Į êµ¬
Ġì£¼ ìĥģ
Ġêµ¬ ê¸ī
Ġì§Ī ê¸°
ë¹Ħ ìĭ¼
Ġì¹ĺ ë¥¸
ĠìĿ¸ì²ľ ìĭľ
Ġë³µ ê¶Į
Ġincomp et
ë¯¸ ì¹ľ
é ĺ
ìĬĲ ë¦°
íģ´ ë¡ľ
ĠíĿ¡ ì¡±
ĠìĿĺìĻ¸ ë¡ľ
Ġcalcul us
Ġinterfer ing
Ġíı¬ìŀ¥ ì§Ģ
ĠëłĪ íĬ¸
Ġê³Ħ íĨµ
ë¦¬ ì¡°
ĠìłĦ ì°¨
ĠM IM
Ġìĭľ ë®¬
Ġë³¸ ê´Ģ
ĠE MS
Ġìķ¼ ëĵľ
Ġê°Ģìł¸ ê°Ī
Ġê¹¨ ìķĮ
Ġê³Ħ ë°ľ
ĠìłĦ ë¦½ìĦł
Ġupgrad ing
ë¬´ ìĨĮ
Ġê°ķ ìĪĺ
ê±° ìŀ¥
ĠìĦ± ìĽĲ
ĠìĿ¸ ìłĪë¯¸
Ġì¤ĳ ìĽĲ
ĠPeters on
ol utions
ĠìĿ¼ ìĪĺ
ĠìĨĮë°© ìĦľ
ĠìĦľê·Ģ íı¬ìĭľ
Ġë²¨ ëĿ¼
v ector
Ġì¤ĳìĭ¬ ì§Ģ
ìº ¡
ĠëıĦ ê¹¨ë¹Ħ
å »
ĠìĦ±ìĪĺ ê¸°
êµŃ íĨł
Ġì°½ìĽĲ ìĭľ
ĠìĪĺ ë²ķ
Ġë¡ľ ëĿ¼
Ġdismiss ing
ĠìĦ± ê¸ī
Ġíģ´ ë¦½
ĠMin neapolis
ĠìĿ´ ë¹Ħ
Ġscroll ing
ĠëģĮìĸ´ ìĺ¬ë¦¬
ĠFunction s
Ġexhaus tion
im etric
ĠëĮĢ íı¬
Ġê³ł ìĺ¨
Ġë³µ ìĭ±
Ġdemonstr ations
Ġê°ķ ë°ķ
Ġëħ ķ
Ġìŀħì£¼ ìŀĲ
t rench
ĠëłĪ ì§Ģ
ĠìĦ¤ê³Ħ ìĤ¬
ëĭĪ ìĸ¸
Ġíķ© ì°½
ĠëĮĢ ë§Ŀ
ĠíĮĶ ëļĿ
ë°° ìĨ¡
Ġwidth s
Ġíķ© ì¹ĺ
Ġdisappear ance
re port
es timate
Ġíķ´ ëıĻ
Ġë©´ ëª¨
Ġê½ĥ ê²Į
ĠìķĦíģ¬ ë¦´
Ġë¿Į ëł¤ìĦľ
íĬ ¬
Ġë°ĺ ìĭł
Ġì§Ģ ìľ¼ë©°
ĠìĨĮ ìĿ´
ĠìķĦë¬´ ê±°
ê¼¬ ë°ķ
íİ¸ìĿĺ ìłĲ
ì£¼ íĸī
Ġì²Ń ì·¨
Ġìļ° ìĽĶ
ĠìľĦ ì¡°
Ġê·¼ ìĤ¬
iffer ential
W idgets
ĠìºĶ ëĶĶ
ĠSupport ing
ĠìĹĺ ë¦¬íĬ¸
Ġìĭłë°ľ ìŀ¥
c ertain
Ġì¹ł ë¦¬
ë³´ íĺ¸
ĠëĿ¼ ëĭĪê¹Į
ĠPC B
ìŀĲìĦ¸ íŀĪ
ĠìłĦ ê²©
Ġê·¹ ëıĦ
Ġê³µê°Ĳ ëĮĢ
Ġcatalog ue
Ġìķ¼ ìĭ¬
Ġë²ł ìĿ¼
Ġìłľ ì²ľ
ĠìłĦ ê´ĳ
ìĿ¸ ìĥģ
ë¸Į ë¡ľ
Ġëĭ¨ì²´ ìŀ¥
ĠìĬ¬ ëĿ¼ìĿ´ìĬ¤
ì¶© ë¶ģ
Ġìŀł ìĺ·
ĠìĹ¬ ê°Ħ
ì¿ ¼
Ġì»¤ìĬ¤ íħĢ
Ġun ilateral
Ġìŀ¥ ìĿ´
ë°© ë²ķ
ĠëĤ¨ ëıĻìĥĿ
íĺĪ ìķķ
Ġì§ģ ì¢ħ
hand le
Ġë°ľ ìĥģ
Ġê¾¸ ëł¤
Ġin ception
Ġon board
ĠìĪĺìĦ± êµ¬
ìŀ¬ ëĭ¨
Ġëł ĺ
ë¦° ëĭ¤ëĬĶ
Ġìķ¼ ìŀĲ
oth ers
Ġapproxim ations
Ġë³¸ ê°Ģ
ĠAuthor ization
Ġìĸ¸ë¡ł ìĤ¬
Ġboard ing
ĠEconom y
Ġíķĺ ìĿ´ëĵľ
Ġì½¤ íĶĮëłīìĬ¤
ĠëĤĺëŃĩ ìŀİ
ĠC Y
ĠëĦĵ íĺĢ
ĠìĿĮ íĸ¥
Ġpreserv es
Ġ' ../../
Ġë°© ìłĦ
ĠìĦ± ë§¤ë§¤
Ġrender er
Ġë¶Ī íĻ©
Ġë°ķìłķ íĿ¬
Ġë©Ķ ìĭłìłĢ
Ġattract ing
ĠU A
ĠìĦľ íĺĦ
Ġê³¼ ì²ľ
ĠíĶĮ ëłĪìĿ¸
ĠíĻĶ ëģĪ
Ġìłķ ìłķ
Ġì½ĺ ìĦ¼íĬ¸
Ġëŀĺ ìī¬
Ġìļ° ëŁŃ
íħĮ ë¦¬ìķĦ
ĠëĤ ĳ
Ġtransl ocation
ê°Ģ ë¡ľ
at ization
Ġì½¤ ë¹Ħ
Ġìļ© ìĿĺìŀĲ
Ġìĭ¸ ìļ¸
ĠìłĦëĿ¼ ëĤ¨ëıĦ
ì´Į ëıĻ
ê¼ ´
Ġë¶Ģëĵľ ëŁ¬ìĽĢ
Ġëĥħ ëĭ¤
íİľ ìħĺ
Ġëį´ ë§Īíģ¬
ĠìŀĲ ì§Ī
bre aking
ëĭ¤ ëĵľ
ë³´ ëĶĶìķĦ
ĠìĨĮ ìŀĲ
ĠíĬĢ ê¸´
e lement
ìĦ± ëĮĢ
Ġsingular ity
Ġì£¼ìłĢ ìķī
ë¦´ ëĿ¼
ĠìĪĺ ì¡°
ëĭ¹ ê·¼
æ Ĭ
Ġë¶Ī ë¬¸
ëĶ ķ
ĠíķĻ ì°½
ë³´ ëĵ¤
ì´Ī ë¡Ŀ
ĠìŀĶ ìķ¡
ear ance
Ġë¯¸ìĸĢ ë§Ī
ì§Ģ ë§Ī
Ġê°ĲìĹ¼ ìŀĲ
Ġl ender
Ġstabil ize
ìĭł ìĪĺ
ĠìĭľíĹĺ ìŀ¥
Ġreason ed
Ġneighbour ing
Ġinterpre ter
Ġw ilderness
Ġdoesn t
ĠìĦ¸ìłķ ìłľ
ĠìĽĥ ê²¨ìĦľ
Ġpersec ution
ĠìłĦìĭľ ìŀ¥
Ġì½Ķ ìķŀ
Ġê¶¤ ëıĦ
ĠìĹ¬ ê²¼
ĠìķĦìĿ´ íĮĮíģ¬
ĠìĻ¸ ê³Ħ
---------------- -
ì£¼ ë¯¼
Ġìłľ ëķĮ
Ġdisapp ointing
ĠëıĦ ëĦĲëĵľ
ĠìĤ¬ ëĨĵ
Ġstand point
í ĵ
Ġëª¨ëį¸ ë§ģ
ĠíĽĦ ëĿ¼ìĿ´ëĵľ
ĠíĹ¬ ë¡ľ
ĠìķĦë©Ķ ë¦¬ì¹¸
ëħ¸ ëŀĢ
Ġëĭ¤ê°Ģ ìĻĢ
ê¸° ìķ¼
ĠF G
Ġì²ľ ì£¼
Ġfunction ally
Ġê¸°ìĥģ ì²Ń
Ġê¸° êº¼ìĿ´
ĠìĺĪ ê°Ĳ
Ġë¬¸íĻĶ ìľłìĤ°
Ġíķ´ ìŀĦ
ĠìĤ¬ìļ© ëŁī
C M
Ġ ì¼°
ĠíĬ¸ë¡ľ íĶ¼
Ġìĭľ íķ©
ê¸ī íķĺ
ìłĦ ëıĻ
Ġreject ing
ĠëŁ¬ ë²Ħ
ë§¤ ëħĦ
ĠìĹ° ìķĪ
ê·¸ ê³³
ìŀ¥ ìĨĮ
ĠíĬĢ ê¸°
ĠëįĶ ëŁ¬ìĽĮ
ìŀ¥ ì¹ĺ
ìķ¼ êµ¬
U X
Ġstring ent
Ġìĺ¤ë¦¬ ìĺ¨
Ġíķĺëĵľ ìĽ¨ìĸ´
ê²Į ìĿ´ìħĺ
Ġíĥľ ë°±
Ġëĭ¹ëĭ¹ íŀĪ
ĠëĬĲ ëł¤
ëĮĢ íĺķ
Ġëĵ¤ìĸ´ìĺ¨ ëĭ¤
ĠìĹĦ ì¤ĳ
Ġë¹Ħë²¼ ìĦľ
ë¿ ħ
Ġìĺ¬ëł¤ ìł¸
Ġconserv atives
ĠíĶĮëŀĺ ìĭľ
ĠEngine er
ĠëıĻ íı¬
ĠëĨį ì§Ģ
ĠìĿ´ìĪľ ìĭł
ĠìĿ´ìĸ´ ì§Ħëĭ¤
s um
Ġê¸Ī ìĿ¼
Ġìĭ¤ ìĨį
Ġìŀ¥ ë¶Ģ
Ġì£¼ ê¶Į
H M
Ġìłľ ìĿĺ
ĠìĬ¤ íı°
ĠëĤ© ìŀĳ
ĠL N
ĠMibTable Column
ìį ½
Ġìŀ¥ìķł ë¬¼
ìĹ° íľ´
Ġíķł ë¦¬
Ġë³¸ ëĵľ
ĠëĲĺ íĴĢìĿ´
Ġì¢ħ ê°ķ
Ġëĭ¹ ëıĦ
Ġê¸¸ ê°Ģ
íķ´ íķĺ
ĠíĬ¸ëĿ¼ ìļ°ë§Ī
Ġì°¨ëıĮ ë°ķìĿ´
Ġë©Ī ì·Ħ
ĠìĦ¸ ë¶Ħ
ĠìľĦ ìŀĲë£Į
ìĥ ·
Ġeffect or
ê¸° ëıĦ
Ġë§¤ìĪĺ ìĦ¸
Ġíķ´ìķ¼ ê²łëĭ¤
ìłľ ìŀĳ
Ġinvari ance
Ġuniform ity
N OS
Ġê³µ ìĨĮ
Ġì£¼ ê³µ
Ġë£¨ ìĭľ
ĠìĦł íķľ
ì°¨ ê¸°
ĠìĤ° íķĻ
ĠìĹ¬ ë¦¬
ĠìĿ´ ì§ģ
Ġêµ¬ íķľ
ĠìĹ´ ëŀĮ
ĠEx port
ê°Ĳ ëıĻ
Ġëħ¸ ìĬ¤
ĠíĮ¨ ë¸Įë¦Ń
Ġì²Ń ê°ģ
ìľł íĸī
Ġìŀ¥ ëª¨
Ġì£½ ìĿ¼
ìĭĿ íĴĪ
Ġsuccess es
ìľĦ ìĥĿ
Ġìĸ´ì§Ģ ëŁ½
Ġauthor ize
íĽ¨ ìĶ¬
Ġ trench
Ġì§Ģ ë¡ľ
Ġì¤ĳêµŃ ì§ĳ
Ġìłľ ë¹Ħ
ë³¶ìĿĮ íĥķ
êµ° ëį°
ĠíħĮë§Ī íĮĮíģ¬
ĠìĬ¬ë¡ľ ê±´
Ġvolcan ic
Ġprofession ally
Ġê·¸ ëĭĪê¹Į
Ġì§ĳíĸī ìľłìĺĪ
Ġë³¸ ë¡ł
ĠìĻ¸ ìĭł
Ġë°ĶëŀĦ ê²ĮìļĶ
Ġìłķ ê±°ìŀ¥
Ġëªħ ìĸ¸
ont ally
ĠìĿ´ ìĺ¤
Ġsubscri ptions
ĠëĶĶ ëłī
ĠAltern ative
íĨµ ê³Ħ
Ġm appings
ĠíĮĮ ëıĻ
ĠëĿ¼ìĿ´ ë²Į
Ġê°ĢìĿ´ëĵľ ëĿ¼ìĿ¸
ĠëĤ¨ ë¯¸
ĠëĤ¬ ìĹĪ
ĠëĴ¤ ë¡ľ
Ġbe verages
ê°ľ ë´ī
Ġëĸł ë¨¹
ì¡° ë¬¼
Ġêµ´ ë¦¬
pass word
ë¯¸ ìļ©
Ġ.......... ........
Ġì´Ī ì¡°
ĠíĦ° íĬ¸
íŀ Ľ
ĠIndian apolis
F M
ĠìķĦ ìĭľ
Ġê°ķëł¥ íŀĪ
Ġì²´ ìĸ´
ĠíĽĪ ìłľ
W P
Ġëį° ìĽĮ
ĠìĹ° ê½ĥ
ĠìĦ¸ ë¥´
ĠìĨį ìĤŃ
Ġê¸° ìĿ¼
Ġthere on
ĠìĤ¬ìļ° ëĤĺ
Ġinterven e
cont in
Ġë¬ĺ ì§Ģ
Ġì¤Ħì¤Ħ ìĿ´
ĠìĨĲ ë§Ľ
ĠíĪ¬ íķĺ
Ġlong time
C RE
Ġë°ķ ì§Ħ
Ġë°ķ ìĽĲ
ìº ī
ĠìŁģ ë°ĺ
ìĺ¤ ë¡±
Ġphosphat ase
Ġconstruc tions
ĠìĪł ìķĪì£¼
Ġbenef iciaries
ĠíĿĲ ë¦°
c aster
ë©´ ìĹŃ
Ġê²Į ìĿĦ
ĠìķĦë°Ķ íĥĢ
ìŀħ ë§Ľ
ĠìķĦìĿ´ ìľł
ĠìĹĲ ìĦ¸ìĿ´
Ġê°ķ ëĭ¹
Ġìĭľ ìĨį
Ġsuburb an
Ġì¢Į íĮĮ
Ġìľł íĿ¥
ìĬ¤ íĤ¨
ĠìĿ¸ íı¬
Ġë¹Ī íĺĪ
ĠìĨĮ ìĸĳ
ìķĮ ìķĦë³´
M RI
Ġì¼Ģ ìĿ¸
ëıĦ ë¥´
Ġëª¨ ìĬ¤íģ¬
Ġë²ķìĿ¸ ìĦ¸
Ġë§ŀìĿ´ íķ´
ì¶©ë¶Ħ íŀĪ
DE X
ìĬ¤ ëŁ°
Ġê¹Ģ ì£¼
ê¸Ģ ë¡ľ
ĠE PL
Ġì§ĦíĨµ ìłľ
ëıĦ ëĳĳ
ĠìĿ´ ë¡Ģ
Custom er
Ġë²ł ìĬ¤
ìĸ´ ëłµ
ĠìĪĺ ìĹĨìĿ´
Ġsuper v
Ġreserv ations
Ġì´Ī ë²Į
Ġë©ĭ ìł¸
j udgment
ĠìĬ¤ ëª¨
ĠëıĻ ìłķ
Ġìĭ¤ ì¦Ŀ
Ġer ected
ìĺģ ìĽħ
ĠìĦŀ ìĿ´
íķ´ ì§Ħ
Ġíı´ ëĿ¼
Ġì±Ħê¶Į ìŀĲ
Ġë³´ íĽĪ
ì´ī ì´ī
Ġê°ķ ê°Ħ
ĠëŃ £
com ings
ìĹĶ ì§Ħ
Ġê³µ íĻ©
Ġìķŀ ëĭĪ
Ġê³µ ë¬¸
ë¦¬ ëĤĺ
Ġnegoti ating
ĠH Q
ĠìĤ´ íı¬ìĭľ
ĠìĨį ìĨį
ĠìĻ¸ ëŀĺ
ĠìĤ¬ íı¬
Ġë¬¸ ê²½
Ġëĭ¤ ëĭ¤
Ġìĭ¸ ìĽł
ĠF iction
ìĬĪ íį¼
ĠìķĦ ë°ĺëĸ¼
Ġinterconn ected
Ġsh ipment
Ġê¸°ë¦Ħ ì§Ħ
Ġê¶Į ìĿµ
Ġhand ic
ĠìĦ± ìĭ¬
Ġìĺģ ìľĦ
ĠìķĪ ëª©
ĠëĤĻ ê´Ģ
Ġì¡° ìĭ¬íŀĪ
ĠíĻĶ ëĤ´
ë³ĳ ëĮĢ
Ġê±¸ ëłĪ
Ġëĭ¥ ì¹ĺ
Ġnot eworthy
ëŀĺ ê¸°
Ġìĺ¬ ë¦°ëĭ¤
ĠìłĢ ì¡°
ê° ¯
Ġë©į íķĺëĭĪ
ĠìĨĮ ëªħ
ĠëĤĺ ìļ°
Ġì¡° ë¬¸
ìĪĺ ëıĻ
Ġê²Ģ ìĿĢìĥī
Ġëį°ëł¤ ìĻĶ
ĠìķĮë¡ľ ìĹĲ
ê³łìĨį ëıĦë¡ľ
ĠíĻĶ ëįķ
ëī´ ìĸ¼
Ġë§ĺ ëĮĢë¡ľ
Ġìĺ¬ ìĬ¤íĥĢ
ĠëĮĢëĨĵ ê³ł
Ġìķ½ ì´Ī
ĠíĥĢê³ł ëĤľ
ìłĢ ëŁ°
ĠíĸīìĤ¬ ìŀ¥
ĠìŀĦ ë°ķ
Ġë°Ķ ë¦¬ìĬ¤íĥĢ
Ġì°©ìļ© ê°Ĳ
Ġìĸ´ ìĦ¤
Ġê³§ ìŀ¥
Ġëª»íķľ ëĭ¤ë©´
ĠëĤĺìĬ¤ ëĭ¥
ĠSC I
ĠìŀĶ ëĭ¤
Ġê°Ģë¦¬ ë¹Ħ
Ġêµ¬ë§¤ ìŀĲ
ìķĦìī¬ ìļ´
Ġspace time
Ġì»¨ íį¼ëŁ°ìĬ¤
ìĿ´ëŀĺ ìĦľ
ç ģ
Ġì§Ħ ìķķ
Ġë§Ĳ ê¸°
Ġexception ally
Ġëĸ ³
Ġë¯¸ ìĽĮ
H B
Ġìłķ ìłĦ
Ġìª¼ ê¸Ī
ì¶ľ ë°ľ
ê±° íĴĪ
ç ¦
Ġê²½ ìĹ°
ìĭł ë£Į
Ġë°Ģ ë©´
S ources
Ġconfront ation
ĠìĽĲ ìĨĮ
Ġì¢ħ ì¡±
Ġëĸ¨ ë¦¼
ĠDocument ation
ìĤ¬ íĤ¤
Ġancest or
Ġìĺ¤ë¥´ ë§ī
Ġëĸł ìĺ¤ë¥¸
ĠíķŃ ìķĦë¦¬
Ġê·Ģ ì¤ĳ
ĠìłĢ ê°Ĳ
ĠëĦĺìĸ´ ìĦł
ĠìĤ° ëĭ¤ëĬĶ
Ġìĺ¤ë¥¸ ëĭ¤
Ġìĸ´ëĶĺ ì§Ģ
ê³Ħ íļį
ĠëıĻë°ĺ ìŀĲ
ĠíĿĲ ëł¤
ĠInvestig ation
ĠëıĻê·¸ ëĿ¼ë¯¸
Ġë§¨ íĪ¬ë§¨
ĠìĪ¨ ìī¬
ëĭ¤ ìĦ¯
Ġìķħ ìĸ´
Ġê¸Ī ê³ł
ĠëĪĦ ëĿ½
ĠíĨł ëĭ¥
ĠìĦ± ìĦľ
íħĮ ë¥´
ĠìĥĿê°ģ ëĤľëĭ¤
ĠVietnam ese
ìĪĺ ìķĦ
Ġë°° ëŀĢ
Ġë³Ģ íķł
Ġlearn t
Ġê°Ģ ìļ´
ĠìĽĮíģ¬ ìĪį
ĠíĹĮ íĺĪ
res ource
Ġê²½ ìłĦ
ĠìĿ´ ìĤ¿ì§Ĳ
ìĪĺ ëĬ¥
ë¦¬ ê·¸
ĠëģĿ ëĤ¸
Ġforecast ing
Ġìłķ ë¦½
ĠíıŃ ìĭĿ
Ġì¹¨ ëŀµ
Ġìķ½ ì¹¨
ĠìĿµ ëªħ
ìĿ¼ ìłķ
ìĮ Į
Ġëľ» ê¹Ĭ
Ġìŀ¥ ë³ĳ
Ġìķħ ëª½
Ġê³µ ëĮĢ
ĠíĬ ķ
ĠO G
-------- ------
ĠìĹ° ìķ½
Ġresearch ing
Ġl ively
Ġë³´íĺ¸ ë²ķ
Ġval ence
ìĪĺ íķĻ
ĠëıĦ ë¬´ì§Ģ
ĠìķĪ ì°©
ëª¨ ìĸĳ
ĠìĦľ ìļĶ
Ġíķľ ë°ľ
ĠìĭŃ ìĭľ
Ġë²½ ê±¸ìĿ´
us ement
ĠìŀĲ ë°Ķ
ĠëĤ¨ ìĽĲ
Ġì²ĺ ëħĢ
ëį± ìĬ¤
ĠíĶĦë¦° íĮħ
ĠìĹ° ëĭ¬
ĠìĹ´ ìĦł
Ġê³¼ê°Ĳ íŀĪ
Ġíļ¨ ìĦ±
Ġìĥ¤ ìĿ¸
Ġë°ķ íĥĪ
ĠMin ing
íģ¬ ëĿ¼ìĿ´ëĤĺ
as tructure
Ġrecall s
Ġê³ł ìĤ¬ë¦¬
ĠëĿ¼ìĿ´ ëįĶ
Ġëĭ´ ê¶Ī
ĠìĻĶëĭ¤ ê°Ķëĭ¤
Ġê°Ģ ëĭ´
Ġsecret ly
ëĭ¤ ìŀĦ
Ġì¹ĺ ìķĪ
Ġcorrect ing
ĠìĪĺ ì²©
Ġfe ather
ĠêµĲ ë¶Ģ
Ġì²Ńì£¼ ìĭľ
Ġtr apping
Ġì¡°ê·¸ ë§Ī
ĠìĦ¸ ìħĺ
íĤ¤ ìķĦ
Ġcentrifug ed
U PDATE
Ġcoun tryside
Ġcytotox icity
Ġë°© ìĦĿ
S aturday
ĠER P
Ġíļ¨ ìŀĲ
Ġë³¼ íİľ
Ġìĥģ ê³ł
Ġìĺ¤ íģ¬
Ġëħ¹ ìĿ´
ĠìĬ¤íħĮ ìĿ´ìħĺ
ĠêµĲ íĨł
ĠëĦĵ íŀĪ
Ġë¦´ ë¦¬
ìĬ¤íĬ¸ ë¡ľ
Ġradio active
ĠëĿ¼ ì¦Ī
Ġrespons iveness
ĠìĻĢ ìĿ´ëĵľ
do es
Ġë°ľ ì½ĶëĭĪ
Ġíİ¸ íķ´ìĦľ
Ġê»´ ìĦľ
V V
ĠìĦĿ ê³ł
ĠìĪľ ë¡Ģ
Ġprogress ed
Ġíģ´ ëŁ¬ì¹ĺ
ent ation
ĠëĨĢ ëŀĦ
Ġsh outing
Ġartic ulated
Ġë§Ī ìĿ¼ë¦¬
Ġê°Ī ì¦Ŀ
Ġìĩ¼ íĬ¸
êº ½
Ġë¦´ ëłĪìĿ´
ĠìĿ´ëª¨ íĭ°ì½ĺ
Ġfurther more
Ġë¹Ī íĭĪ
ĠìĤ´ ë¦°
Ġìĺ® ê¸¸
ĠC LE
ĠComput ing
Ġê¸° ì²´
ëıĻ ê°ķ
Ġì²Ń íĥģ
Ġë¿Į ë¦°
ìĹ¬ ëĵľë¦Ħ
Ġíĺ¸ íĪ¬
ĠìĿ´ìŀĲ ì¹´ìķ¼
Ġì¹ĺ ì£¼
Ġsecure ly
Ġë½ Ģë¡ľë¡ľ
ĠëıĮìķĦ ìĦľ
ĠìĦ¹ ìĬ¤
Ġíķ´ìķ¼ ì£ł
Ġë§¤ íĻĶ
ìķĦ íĶĦ
Ġdefend ers
ĠM RS
ĠìĭłìĨį íŀĪ
ĠìĮĪ ë°¥
Ġì¤ĳê°Ħ ì¤ĳê°Ħ
ê°Ģ ìļ´ëį°
ĠìķĦìĿ´ ë³´ë¦¬
Ġìĺ¤ì¼Ģ ìĬ¤íĬ¸ëĿ¼
Ġê²ī ìłĪìĿ´
ĠìĻ¸ ë²½
ĠíĪ¬ ìį¸
Ġë°© ìĭ¬
ĠìĽĲ ëıĻëł¥
Ġëĵľë¡ľ ìŀī
Ġë³´ëĵľ ê²ĮìŀĦ
ĠCG V
Ġíıī íĺķ
ĠìĨĮíĻĶ ê¸°
Ġëª¨ ëłĪ
Ġìĥ¤ìĽĮ ìĭ¤
Ġquantit atively
ĠìĶĮ ìĽĮ
ê¾¸ ìĹŃ
ì²ľ ìŀ¥
Ġë²Ķì£Ħ ìŀĲ
Ġìļ¸ ë¦¼
Ġì°Ķ ëŁ¬
O fficial
Ġpers isted
Ġprohib it
Ġresearch ed
ĠíıŃ ë¡ľ
ĠëĶ ķ
Ġì§ĢìĹŃ êµ¬
ĠìĤ´ ë¦´
Ġë¬´ëĦĪ ìł¸
Ġì¤ĳ ìĤ°
Ġíı¬ ìĥģ
ĠìķĶ ìĤ´
ë± Ģ
ĠíĿ¬ ìĨĮ
ill ation
ĠíĹ¤ìĸ´ ì¡Į
ĠíĬ¹ ê¸°
ê¸Ģ ê³ł
ĠíĨł íķĺ
D W
ĠìĪĺ ë°ĺ
ĠC emetery
ëľ¨ ëģĪ
Ġin activation
Ġday light
ìĭľ ê³ł
ĠíķľêµŃ ìĤ¬
ĠëıĮëł¤ ë°Ľ
ĠëĤĺ ìļ©
ĠìĪł ìŀĲë¦¬
ĠìĿĳ ëĮĢ
ê°Ģ ë¥´
ë§Ī ì¼ĵ
Ġìķ½ ìĭĿ
Ŀ ı
ĠìĦľ ëĬĺ
Ġìŀ¥ ë°Ķêµ¬ëĭĪ
ĠIN F
Ġê±°ëĵŃ ëĤĺ
ì§ķ ê¸Ī
Ġì±Ļ ê¸´
ĠìĦ¤ ëłģ
ë¬´ íķľ
ë³´ ê±´
Ġë²¨ ê¸°ìĹĲ
Ġpoison ing
ĠìĬ¹ ìŀĲ
Ġawait ing
Ġpersonal ities
Ġì¢ħìĿ´ ì»µ
ĠI PS
ĠíĻĶ ëĳĲ
Ġíı¬ íĦ°
ĠMonitor ing
Ġimmun ore
Ġíĺ¸ íĶĦ
ëĨ Ķ
Ġdrople t
ĠìĽĶ ëĵ±
ëłĮ íĨł
é ħ
Ġimp ressions
Ġë¶ĢëģĦ ëŁ¬ìļ´
ĠíĶĮëŀľ íĬ¸
Ġë¹Ħ ë£Į
Ġëģ Ĺ
Ġíĳľ ë³¸
ĠìĽ° ë¹Ļ
Ġíĵ¨ ìłĢ
ìľł íĬľë¸Į
ĠíĨ¡íĨ¡ íŀĪ
ĠëļĿ ëļĿ
ĠëģĮìĸ´ ìķĪ
íĺ¸ ì£¼
Ġst umbled
Ġê°ķ ëıĻêµ¬
Ġshort comings
Ġê°Ħ ìĨĮ
Ġë¬¸ ê±´
ìĦ¸ ì¢ħ
ĠìĿ´ë¤Ħì§Ģ ëĬĶ
Ġëľ¨ê±° ìĽĮ
ç ®
ìĭľ ë¦¬
ĠìĬ¹ ë¥ł
Ġê²Ģìĥī ìĸ´
ĠìĽĲ ì¹ĺ
ĠìĤŃ ê°Ĳ
ì¢ħ ìĿ¼
ĠíĽĦ ìŀĲ
ç ±
ĠP arents
ĠìĦł ëľ»
Ġìłķ ì°¨
Ġinform ational
Ġìĺ¬ ìĿ¸ìĽĲ
Ġì§Ģ ëıħ
Ġëĭ¬ íĮ½ìĿ´
ê¸° ì´Ī
Ġë³¼ ìĪĺë¡Ŀ
ĠêµŃ ê¸°
Ġë¯¿ ê¸°
ìľł ì§Ģ
L ock
ĠìļĶêµ¬ ë¥´íĬ¸
íķľ íĻĶ
Ġìĸ´ìļ¸ ëł¤ìĦľ
ĠìĬ¤ íİĢ
ĠM Z
Ġë¹Ħ ëĳĺê¸°
ë¶Ī íİ¸
ĠìĬ¤íģ¬ ëŀ©
ê½ Ĥ
íĪ¬ ìĪĺ
Ġë§¤ ëĵŃ
Ġê°Ī ëĿ¼ì§Ģ
Ġê¸Īê°ķ ìĤ°
Ġíİ ©
ĠìŀĲ ìĥĿ
Ġencompass es
Ġë Ģ
Ġë£° ë£¨
us ers
ĠìĿ¼ ë¶Ģë¶Ħ
al dehyde
Ġë°Ģ ìĸ´ëĤ´
Ġë§Ī íĭ´
Ġpetition ers
Ġimp urities
Ġìŀ¬ ëŀĺ
Ġìŀħìŀ¥ ê¶Į
ĠìłĢ ìĦľ
ëª¨ ëłĪ
ĠëĿ¼ ë²¤ëįĶ
ĠëģĿ íĮĲ
ĠëĤ´ëł¤ ìĻĢìĦľ
Ġë¶Ļ ëĵ¤
Ġê³µìĤ° ëĭ¹
Ġjunction s
Ġë¸Į ëłĪ
ĠìĬ¤íĬ¸ ë¦¬
ĠìĽĲ ìĭľ
ĠíķĻ ê¸ī
ê³µ ì¦Ŀ
Ġì£¼ìĭĿ íļĮìĤ¬
íĶĦëĿ¼ìĿ´ ì¦Ī
Ġë°ĺ ìŀħ
ëĦĺ ê¸°
e on
Ġëª¨ ìĬ¤
ë¦¬ê³ł ê¸°
Ġì§Ģ íĤ´
op tion
ì²ĺ ë¶Ħ
Ġê²½ ë³µê¶ģ
Ġorient ations
Ġpartic ulate
ëģ Ļ
ĠìĦ± íĿ¬
Ġcontrad ictory
ĠëıĦ ìļ¸
ëª¨ ë¦¬
ì¹´ ëĿ¼
ì§Ģ ìļ°
Ġë°Ķ ìĿ´ìĸ´
Ġìľ¡ ì§Ģ
ĠíĨµ ì°°
ĠëłĪ ìĿ´íģ¬
ĠìĺĨ êµ¬ë¦¬
ĠíķŃ ê·ł
Ġcentrifug ation
ĠìĥĿ íĻĶ
yn thetic
ë¦¿ ìĪĺ
ĠëĮķ ëĮķìĿ´
Ġê³µ íĹĪ
Ġìĸ´ëķĮ ìļĶ
ìļ° ìļ¸
Ġreward ed
è µ
Ġtheir s
Ġìľ¡ ìĥģ
Ġê±¸ ìļĶ
ëŀ įëĭĪëĭ¤
ê¹ħ ìĬ¤
Ġë¶ķìĸ´ ë¹µ
íĦ´ íĬ¸
Ġíķľ ëª«
íĳ¸ ëĵľ
ëĭ¹ ëıĻ
Ġë²łìĿ´ ì§ģ
ëĿ¼ ê¸°
Ġreimburs ement
Ġê¸° ìĬ¹
ëĥī ëıĻ
ĠëĹ Ħ
s ystem
E lectr
íĬ¸ ìĿ¸
Ġíģ´ ëłĪìĿ´
Ġë²Ī ìĺģ
ê³µ ê°Ĳ
ë¯¸ ìĪł
ë§Ĳ ëŀĳ
ĠU X
ĠíĪŃ íĪŃ
Ġweaken ed
ĠìĽĶ ëĤ¨
ĠíĥĲ íĹĺ
ì§ ļ
Ġhonest y
ĠëĦĺ ê¸´
ìŀħ ìĪł
Ġì±Ħ ê´ĳ
Ġc uring
Ġeffic iencies
Ġê·Ģ ì°¨
Ġê±¸ ì¹ĺ
Ġì§ģ ê²°
ĠSV M
Ġë§Ī ëĵ¤
Ġc ottage
Ġìĭľ ì§Ħ
Ġë§Īê·¸ëĦ¤ ìĬĺ
Ġë¯¼ ìĦĿ
ĠíĻĶìĦ± ìĭľ
ĠëıĦë§Ŀ ì¹ĺ
íķł ìķĦë²Ħì§Ģ
ĠëłĪ ë²Ħ
ĠPrevious ly
ìķĪ ìĭ¬
Ġì´Ŀ ë¬´
Ġì«ĵ ê²¨
ĠìķĦ ë©ĺ
ĠìĿ´ ìĿ¸
Ġìĸ´ê¸ĭ ëĤĺ
Ġê·¼ ìłĪ
ĠëŃĺ ê¹ĮìļĶ
arn ings
Ġê²½ ëŁī
ì Ŀı
ì°¨ ëĿ¼ë¦¬
ë¬´ ìĭľ
Ġspeech es
ĠëĤ´ëł¤ ìĺ¨
Ġì¹´ìļ´ íĬ¸
Ġfundra ising
ĠìĹĳ ìħĢ
ĠëıĮìĿ´ ì¼ľ
ìĿ¼ ê¸°
Ġhis topath
ëĵ± ìĤ°
Ġê°Ħê°Ħ íŀĪ
ĠìĦ¸ ëģ¼
Ġind ist
Ġê°Ħ ê³¼
Ġëĸ¡ êµŃ
Ġìķł íĺ¸ë°ķ
ìĦ ŀ
Ġthick er
ĠëĩĮì¡¸ ì¤ĳ
Ġìĭľë¦¬ ìĸ¼
ëĤĺ ìĺ¨
Ġìľ¡ ìĭł
Ġíĺ¸ ê°Ģ
ì¤ĳ ëıħ
c ustom
Ġëĭ¤ ë£°
Ġë§Ŀ íķł
ìĭľ ê¸°
Ġê²½ìĺģ íķĻ
Ġëħ¸ ë¸Ķ
Ġëĵ¤ ë¥´
ëħĦ ì¸µ
Ġprocure ment
Ġquanti zation
ĠìĬ¤ ì¹ĺ
íĥĢ íİĺ
Ġë©ĺíĨł ë§ģ
ĠëĬĺ ë¦´
Ĩ ¢
ìĺ¬ëĿ¼ ê°Ģ
Ġë¯¸ ì¦Ī
l ocation
Ġê²ĮìŀĦ ì¦Ī
ĠìłĦíĪ¬ ê¸°
Ġì§Ģ ë©´
ĠìľĹ ë¶Ģë¶Ħ
Ġto LowerCase
Ġì¢ĭìķĦ íķ´
Ġë¹Ħ ë°©
Ġë¸Ķ ë£¸
Ġë°ľëĿ¼ ìĦľ
ĠíĨłë¡ł íĨł
Ġregular ization
íķĺ ê³ł
ĠChurch ill
Ġc ortisol
Ġê¸° ëıĻ
Ġê³łë§Ī ìĽĢ
Ġë¨¸ íķĢ
ĠíĶĦ ëŀĢ
ì§Ģ ê·¼
ĠëĽ°ìĸ´ ëĭ¤ëĭĪ
Ġê°ľ ìĹħ
ĠëĨĵ ì³¤
Ġëĭ¤ ëĤŃ
Ġê´Ģ íĨµ
ìħĭ ì§¸
ĠNo tification
ĠContin ental
Ġëĭ¤ ìļĶ
Ġcylind ers
ĠE clipse
ĠìĨĮê°ľ íĮħ
Ġì¢ħ ìĭĿ
Ġë¬´ íĻĶê³¼
Ġê³µìłķ ìľĦ
ĠMunicip al
Ġê° Ń
ë» £
ì²« ëĤł
Ġbother ed
ë¶Ī ë¦¬
ĠìłĪ ì¹ľ
Ġíıī ì´Į
ìĿĺ ìĭ¤
Ġìķ¼êµ¬ ìŀ¥
ëįĺ ê°Ģ
ëĶ± ì§Ģ
Ġabrupt ly
ĠìĽĲ ìĭ¬
Ġtechn icians
ĠëĦ· ì§¸
ĠìĿ´ êµŃ
Ġë°¥ ìĨ¥
Ġê¸ī ê°Ĳ
Ġì¢ĭìķĦ íĸĪ
ĠëıĻê·¸ ëŀĹ
Ġì»¤ ë¸Į
Ġim minent
f ielder
Ġbenef iciary
ê¸° ê¸Ī
ĠF U
Ġìķ¼ ëĵ¤
Ġindisp ensable
ĠCR M
Ġê¸´ ë°Ģ
ĠëģĿ ëĤ¼
è £
ĠìĹ° ìĩĦ
D uration
ë³´ ìĭł
Ġëĭ¨ ìĸĳ
Ġc emetery
ĠìĥĪ ê¸°
Ġìĸ´ íķŃ
Ġì¤Ħ ê³§
ê¸° ì°¨
Ġë§¥ ë¶ģ
ĠíıŃìĬ¤ ë°Ķê²Ĳ
Ġì£¼íĻ© ìĥī
ĠëĤ´ëł¤ ê°Ī
ì¸ °
ëŀľ ìĦľ
ĠìŀĳìĹħ ìĭ¤
Ġë¶Ħ ë³Ħ
ĠìĿ´ ìĦĿ
ĠìĬ¤ì¼ĢìĿ¼ ë§ģ
ĠìłĦ ì²ĺ
Ġgr ating
ĠëĤ´ ìĸ´ì£¼
Ġê°Ħ ê²°
ĠìłĦ ì§ĳ
ĠíĽĦì¿ł ìĺ¤ì¹´
Ġì²Ń ê³Ħ
Ġì¡° ìĽĲ
Ġíĵ¨ ìłĦ
Ġabsorb ance
Ġëĭ¨ ìĦľ
ĠëĬĲ ëĿ¼ê³ł
ĠëŁŃ íĤ¤
-------- -------
Ġëĵ¤ìĸ´ ìĦ°
Ġì½ľ ë¡ľ
Ġëµ Ĳ
Ġëª¨ë¹Į ë¦¬íĭ°
Ġl enders
Ġo mission
Ġë§Į ëĬ¥
Ġíį¼ìĭľ íĶ½
íķĺ íĬ¼
íİ «
ĠS NA
ìļ´ ìĺģ
Ġê¹Ģ ì²ľ
ĠThere after
ĠëĤĺ ê°ĳëĭĪëĭ¤
Ġì§ °
Ġê³Ħ ìĸĳ
ĠìĥĿ ë§¥ì£¼
Ġì¹ĺì¦Ī ì¼ĢìĿ´íģ¬
ëĭ¤ ê³µì¦Ŀ
ì´Ī ë°¥
íĹĪ ê°Ģ
Ġìķł ëĵľ
ìĬ¤ íĥĦ
ĠíĶĮëŁ¬ ê·¸
ĠíİĺìĿ´ íį¼
Ġê²° ìŀ¬
ì½Ķ ë¡¬
ĠìĹ° ëĳĲ
Ġìŀ¥ ëŀĺ
ê»į ì§Ī
Ġë»ĳ ë»ĳ
íĺ¸ ëıĻ
Ġìłģ ëĮĢ
ìĤ° ìĨĮ
Ġtransport ing
ìĬĲ ë¦¬
d irect
ê³µ ê°ľ
Ġë§Ī ìŀĲ
Ġë¬´ ìĦ±
Ġì½Ķ ëłĪ
Ġconcurrent ly
Ġì§Ī ì§Ī
ĠëĽ°ìĸ´ ëĨĢ
Ġvulner abilities
ĠìĿ¼ ì¡°
ĠíĶĦë¡ł íĬ¸
ert ation
Ġë§Ŀ ìĥģ
ĠëĳĺëłĪ ê¸¸
ĠìĬ¬ ëĿ¼ìĿ´ëĵľ
ë°ĺ ì§Ģ
ĠRoberts on
Ġw aking
Ġë§¤ ëī´ìĸ¼
Ġë¬» ìĸ´ëĤĺ
Ġhippocamp al
ĠíĺĦê´Ģ ë¬¸
ĠìĿ¸ ìĬĲë¦°
Ġëĵľ ëĤĺ
íĸĩ ë¹Ľ
Ġë£¨ ë¹Ħ
ĠìĦľ ë¹Ļ
Ġë¶Ī ì°¸
ĠAndrew s
ĠB BQ
ìĽĲ ë£Į
Ġìĵ´ ëĭ¤ê³ł
Ġor ally
ĠíħĶëłĪ ë¹ĦìłĦ
ĠFA Q
ĠíĬ¸ ë£¨
ĠìĿµìĬ¤ íĶĦëłĪìĬ¤
Ġë°ĺ ê²©
ìĤ¬ ì§Ģ
ê·¸ëŀĺ ìķ¼
ĠíĻĶë¬¼ ì°¨
Ġmechan ically
ĠíħĲ ìħĺ
ë°© íķĻ
Ġìĥģ ìĸ´
Ġíķľ ìĭľ
Ġprohib its
ĠíĮ¡ íĮ¡
Ġì°¾ìķĦëµ Ļ
Ġì§ģ íĸī
ĠìŀĲ ê°Ī
Ġë¥´ ëħ¸
ĠD K
ĠìĪĺ ì»·
æ º
Ġëħ¸ ìĪĻ
Ġë¦¬ ë¸Į
ĠìĤ¬íļĮ ìĥĿíĻľ
ë¶Ī ê³łê¸°
ĠìĦ¸ ìļ¸
ĠìĻķ ìĦ±
íĮĮ ëŀĢ
Ġimp risoned
ĠìłĲ íį¼
Ġdissem ination
ĠëĤĺ ë§Į
Ġì£½ ìĿ¸
ĠìĿĺ ìłľ
Ġìŀ¥ë¡Ģ ìĭĿ
Ġëĭ´ ìĸĳ
Ġìĸ´ ê¸ĪëĭĪ
Ġì²´ ì½Ķ
Ġëĭ¨ ìĹ´
Ġì°¸ ëª¨
ĠìĦ¸ ìľ¨
Ġíĭ° ìĬ¤
Ġìľł ì±Ħ
Ġë¡ľ ì§Ģ
Ġê°Ķëĭ¤ ìĺ¤
Ġë²ķ ê·ľ
ë¸Ķ ë¡ľ
Ġë¬´ëįĶ ìļ´
Ġrestr icting
Ġì¦Ŀ ë¹Ļ
Ġìĥģ ë´ī
Ġto uring
Ġíķ´ ê²½
ì²ł ëıĦ
ë¯¸ìĦ¸ ë¨¼ì§Ģ
Ġì·¨ ì¹¨
ĠìĪĺ ìķ¡
ëłĪ íĬ¸
Ġëĭ¹ì²¨ ìŀĲ
Ġê´Ģ ìĥģ
ĠEx ercise
F W
ìĭł ì²Ń
ĠìķĦ ì¹ĺ
ĠLegisl ative
ĠëģĪ ëĭ¤
Ġacadem y
Ġêµ¬ ì°Į
Ġë²Ħ íĶĦ
ĠìĿ´ëł¥ ìĦľ
Ġë¶Ģ ìĬ¤íĦ°
Ġêµ¬ ì§ģ
ĠìĺĲ ë¡ľìļ°
Ġì¹¸ ë§īìĿ´
Ġë© §
il ight
arg ement
Ġresp iration
Ġpremium s
ĠìĤ¬ ì¿ł
Ġì¦Ŀ ìĺ¤
Ġë¶Ļ ìĿ¼
ĠìĦł ì¡°
ìĭľ ì¦Į
ëĭ¤ ëħĶ
Ġê°Ģ ìŀĲ
ìĿ´ ìŀ¬
ĠM apping
Ġíİ¸ ìĭĿ
Ġë°© íĻĶ
Ġìĵ° ëŁ¬ìł¸
Ġíķł ëŀĺ
ì¤Ģ íĳľ
Ġíıī ë¡ł
ĠìłĢ ëŀĺ
Ġìĺ¤ ë¬ĺ
ĠíĺĦ ìłĢíŀĪ
Ġëĭ¤ëĭĮ ëĭ¤
ĠìĦľ ìłķ
ĠíĬ¹ ê¶Į
ì¡° ê°ģ
Ġìµľìļ° ìĪĺ
Ġimmers ed
ance ment
ë© §
Ġìľ¡ ê°ľìŀ¥
Ġê³ł ìķ¡
Ġë¶Ģ ìŀĦ
Ġìľł ì°©
Ġpro claimed
ĠëĬ¥ ìĪĻ
ĠíĬ¸ ëĿ¼ìĿ´
ìĭł ë¶Ģ
ĠíĬ¸ ë¦½
ĠëĦ¤ ìĿ´íĬ¸
ìĦ¸ ìŀĲ
ĠëıĦ ì£¼
Ġì²ľ ìĭĿ
Ġê°ķ ë¬¼
ëª¨ ë°ľ
Ġëª¨ìŀĲ ìĿ´íģ¬
Ġìĭ¬ ìķ¼
ĠìķĶ ì»·
Ġëĥī íģ¼
Ġtunnel ing
Ġimp urity
health y
Ġê±° ë¥´
ĠëĮĢ ë²ķ
ĠP AS
ĠìĥĢ ìĸ´ìļĶ
Ġì§Ģ ì³ĲìĦľ
Ġìĸ´ë²Ħ ìĿ´ëĤł
ĠíŀĻ íķ©
ìľ¼ ë¯Ģë¡ľ
Ġê·¸ëĿ¼ íĶ¼
Ġhyper ledger
ìĦł ëıĻ
ĠìĭľëĤĺ ëª¬
Ġë§ĪìħĶ ìķ¼
Ġì¶Ķ ìļ¸
Ġì²´íģ¬ ìķĦìĽĥ
ëĤł ë¦¬
ĠìĬ¤ ëĭĪ
Ġì´Ī ëĿ¼
Ġë²Ķ ì£¼
Ġepidem iological
Ġde formed
ì°¸ ì¹ĺ
Ġê°ķ ìłĦ
ĠC IS
Ġtim est
Ġì¶© ëĭ¹
ĠíĴĢ ë¦°
ĠìŀĦ ì§Ħ
ĠìĽĲ íķł
ĠìĨĮíĻĢ íŀĪ
Ġì¢ħ ëĮĢ
Ġìľ¼ ìľ¼
ĠëĿ¼ìĿ´ ìĺ¨
Ġê°Ģ ë³´
ĠíĥĿ íĸĪ
Ġìĸ´ ìľł
ìĹĲ ëĦĪì§Ģ
ì¶© ëĤ¨
ĠW TO
Ġdistinct ly
ĠëĤ´ ëĭ¤ë³´
Ġì½Ķ ë¯¹
Ġë§Ī ì¤ĳ
Ġborrow ing
ĠìĤ¬ ë²Ķ
ĠìĦ± ëĮĢ
ĠNapole on
Ġë¬´ ìķĪ
ĠL X
Ġìŀĺ ëŀĲ
Ġë°ĺ íĸĪ
Ġthread ed
Ġset Attribute
Ġauthentic ity
Ġdispar ity
ëŁ¬ ìĭľ
ĠDESCRIPT OR
ĠëĤ´ëħĦ ëıĦ
ĠìĦł ëıĻ
Ġê²¸ ë¹Ħ
ĠAdvent ure
Ġë¹Ħ ìĽĥ
ĠìĥĿ íĽĦ
ë°ľ ìĥĿ
ĠíķĦìĪĺ íĴĪ
ìĤ¬ íĥľ
Ġê³¼ ìĭĿ
Ġê¹Ģ ìĿ¼
Ġê°ľ ìĽĲ
ë°Ķ ëĤĺëĤĺ
R andom
ĠìĪĺ ì¤ĳ
OM C
ĠO EM
Ġê¸¸ ëª©
T aking
ĠíĶ½ ìĬ¤
ĠìĿ¸ ìĭ¬
Ġíķľ ë¦¼
Ġë³´ëĤ¸ ëĭ¤
Ġê²½ ê°Ĳ
Ġëª¨ ì°Į
ë¦¬ìĬ¤ ë§Ī
ì£¼ìĿĺ ìŀĲ
ĠìĪĦ ëįĶ
Ġê°ķ ìĦľ
Ġsuperior ity
ìĥ¤ ìĽĮ
N H
ĠQ T
ĠìĶ °
ĠìłĦ ë¥ĺ
íĻķ ìĭ¤
Ġë°Ķ ëŀ¬
ĠQ C
Ġì´Ī ê³ł
ĠAD C
Ġê·¸ìłľ ìĦľìķ¼
ĠëĤĺ ìĿĦ
ĠìłĦ ëĿ¼ëıĦ
ëŁī ì§Ħ
Ġëĭ´ ìŀ¥
Ġhypoth al
Ġì¤ĳ ëł¥
Ġìĭł ì£¼
ìĿ´ë¯¸ ì§Ģ
ì£¼ìĿ¸ ê³µ
ëĭ ¿
ĠEngine ers
â ķ
Ġë²Īíĺ¸ íĮĲ
æ Ļ
Ġì§Ģ íĤ¨
ĠíĥĦ ëıĦ
ìľł ëĭĪ
Ġì±Ħ ìĭĿ
ìĤ¬ ê±´
Ġê±¸ìĸ´ ìĺ¤
ĠR W
Ġdistrib uting
íĺ¹ ìĿĢ
Ġíķľ ìĨĶ
Ġì§± êµ¬
Ġìĺģ ì¢ħ
ĠìķĪëĤ´ ë¬¸
Ġcommod ities
Ġë¬¼ ìľ¼
Ġê¸°ìĹħ ìĿ¸
Ġì¡° ë¡±
ìĥĪ ëģ¼
ac tively
Ġget Logger
Ġìļ´ ìĪĺ
Ġìŀĳê³¡ ê°Ģ
â ī
ìĹ° ìĬµ
Ġacknowled g
ĠíĿĶëĵ¤ ëł¸
ĠìĮĢ ë°¥
Ġìłľ ëĮĢ
ë¯¼ íĦ´
ëª¨ ë¹ĦìĬ¤
ë³´ ëıĦ
Ġë¬ĺ íķĺ
Ġë°ķ ìĥģ
ëĭ¹ ìĿ¼
ĠìĤ° ìĪĺ
ìĬ¤íħĮ ëĿ¼
ĠN utrition
íĬ¸ ëŀĻ
ëŀĮ ì¥Ĳ
ĠìĽĮ ëĵľ
ĠìĿ´ ê²¬
ĠìĹĲë²Ħ ëŀľëĵľ
ĠìĦłê±° êµ¬
Ġìĸ´ìļ° ëŁ¬ì§Ħ
ĠReport ing
Ġë©Ī ì¶ĺ
ì½Ķ íĬ¸
ĠManufact uring
ĠíĻ© íĨł
Ġunivers ally
Ġë£¨ íĶ¼
ĠëĵľìħĶ ëıĦ
Ġë¯¸ ìĽĮíķĺ
ìĦ¸ ê¸°
ê°Ģ ë§Į
Ġì¦Ŀ ê°ķ
Ġthread ing
ĠìŀĲ ëĳĲ
Ġì°¸ ìłĦ
ĠìķĦ ëĶĶ
íķľêµŃ ìĿ¸
Ġê¹Įë¥´ ë³´
Ġíķĺ ëıĻ
ĠëĿĦ ìļ°
ĠìĦłêµĲ ìĤ¬
Ġìĺ¨ ê¸°
ĠëĤĺ ë£¨
Ġë§ĪìĿ¼ë¦¬ ì§Ģ
Ġëª¨ ì¡°ë¦¬
íĮĮ ëĿ¼
ìĽĲ ì§Ģ
Ġëĵ¤ ìľ¼ëĭĪ
ìķĦ ìĬ¬
ìĸ´ ìł¸ìĦľ
ĠìĦł ë¹Ħ
ĠëĬ ª
Ġë°ķ íŀĮ
Ġë¬¼ìĸ´ ë³¼
Ġê³ ¶
Ġb idding
ëĤ´ ìŀ¥
Ġëª¨ë¥¸ ëĭ¤ê³ł
Ġê°ľ ìļĶ
Ġë¶Ģ ì¹ľ
Ġíķ¨ ìĸĳ
ĠíĹĪ ê³µ
ĠìĿ´ ê¸´
Ġìĸĳì¹ĺ ì§Ī
Ġë°ĶìĿ´ìĺ¬ ë¦°
Ġimp osition
Ġday time
ĠìķĦ ìĬ¬
os ocial
Ġê°ľ ëŁī
ĠìĪĺì¡± ê´Ģ
Ġìľł ìŀ¬
ê²½ ìļ°
Ġì¤ĳ ìĥĿ
ì§ĳ ìķĪ
ĠíĹ¤ ë¥´
Ġë°©ìĨ¡ ìĤ¬
ĠìĪĺìļĶ ìŀĲ
Ġì¡° ëģ¼
Ġìļ° ëŁī
ĠìľĦ íĤ¤
Ġë°ĺëĮĢ ìª½
Ġì¡¸ìĹħ ìĭĿ
Ġì¡° ìŀ¥
Ġë¶Ī ëªħ
ĠëıĹ ìŀĲë¦¬
ĠíĶĮ ëłĪ
Ġë³¼ ëł¤ê³ł
Ġëį© ìĿ´
Ġêµ´ ê³¡
ĠìĬ¤íĭ° ë¸Į
ĠëıĻ ê°ĳ
ç ľ
Ġëĭ¤ ëĿ½
Ġìĥ¤ìĽĮ ê¸°
ê·Ģ ì°®
ëĲĺ ê²Į
Ġinterp ersonal
Ġprofit ability
Ġìļ©ìĤ° êµ¬
ĠìĦ¤ ë¹Ļ
ĠìħĢ ëŁ¬
Ġë¶Ģ ìĸ´ìĦľ
Ġíķĺ ë§Ī
Ġê²½ ì§Ģ
Ġìŀ¬ ì´ī
ëĿ¼ìĿ´ìĸ¸ íĬ¸
Ġíģ¬ ëĭ¤
ĠD ental
Ġtrans porter
Ġiniti ating
Ġê±°ì³Ĳ ìķ¼
Ġatheros clerosis
Ġê³Ħìĭł ëĭ¤ë©´
ì¹´ ë¥´
ĠíĿĲ ë¦¿
Ġìłģ ìŀ¬
Ġíĺĳ ìĨĮ
u ities
Ġê³łë¡ľ ì¼Ģ
Ġëıħ ë³´
ĠìĨĮ ëĤĺíĥĢ
íıī ëıĻ
Ġìĺ¤ ëĶĶ
Ġcatast rophic
Ġê¹¨ ìĸ´ëĤĺ
Ġlaunch es
ìĺ¤ ìĿ´
ĠìĦ± íĴĪ
ìĸ´ ë¯¼
Ġëıħ íĽĦ
ê·¸ ëŁ½
êµ¬ ìŀħ
ê³łëĵ± íķĻêµĲ
Ġì«ĵ ìķĦ
Ġì¶Ķ ìĸ´
Ġë³´ ë¥ĺ
Ġglycer ol
Ġfiles ystem
ìļ° ëĶĶ
Ġcomment ing
ĠìĦľ ìĤ¬
ëĳĲ íĶ¼
Ġëĭ´ ìķĦëĤ´
Ġê³ł íĮł
Ġì¦Ŀ ë°ľ
ìĦ¸ ìĦľë¦¬
ĠP urchase
Window s
ĠíİĢ ì¹ĺ
ìĦ± ëıĻ
Ġinters titial
ĠìĿ¼ ì°Įê°Ĳì¹ĺ
ĠìłĢ ê³³
ĠìªĦ ìĦľ
ê²ģ ì§Ģ
êµ¬ ë¯¸
Ġëĭ¤ ëĦ¤
ê¸° ìĥģ
Ġcheck list
Ġê°ĸì¶° ìł¸
ĠQ M
íĬ¹ ìĿ´
Ġë¶Ģ ìĿĺ
Ġìļ© ìĤ¬
Ġes Module
ĠíķĻìĬµ ì§Ģ
Ġìļ© ëĤ©
Ġdissent ing
Ġmin ers
Ġìłķ ì¡°
ìĥģ íĴĪ
ĠìłĦëĿ¼ ë¶ģëıĦ
Ġìĺ¨ìĭ¤ ê°ĢìĬ¤
ĠíķĻ ìĤ´
Ġì§Ħ ëĵľê¸°
ĠëįĶëĭĪ ë§Į
ĠíĶĮ ëłīìĬ¤
Ġìķ¨ ë¦¬ìĬ¤
Ġì¶© ê³ł
Ġì°¬ ë°ĶëŀĮ
ĠAD A
Ġnot orious
ĠPV C
Ġëĵ± ìŀ¬
Ġë°© ëĮĢ
Ġunexpected ly
ĠE lements
Ġíķ´ ëĴĢ
ĠComput e
ì´ Ĳ
Ġêµ° ëĭ¨
s aid
Ġê¹Į ì¹ĺ
Ġê°Ħ ìĹ¼
ĠëĤĺ ìĿ´ìĬ¤
Ġìĺģ ëįķ
Ġìĸ´ìļ¸ ë¦°ëĭ¤
Ġpaper work
ë¸Į ìĿ´
Ġindex ing
ĠY orkshire
ĠíĻĺ ìĪĺ
Ġëľ» ë°ĸ
ĠìĤ¬ ìľĦ
Ġth irst
ĠíĨµ ìĹŃ
ë¶ģ ìłģ
ĠíĦ° ëľ¨ë¦¬
íĭ° ì¼ĵ
Ġëĭ¤ëħĢ ìĺ¬
Ġìĭł ê³¡
ĠíĿĳ ìŀĦìŀĲ
ìł ĸ
De velopment
ĠìĨį íķ´
ĠìłĦ ëħĲ
Ġëĭ Ĳ
ĠëıĻ ëĵ±
ìĪĺ ìĦł
ĠD istance
ĠìłĦ ëĿ½
Ġfe athers
Ġìĺ¬ëĿ¼ ìĺ¬
Ġë®¤ì§Ģ ìĹĦ
ì® ¸
ĠëĤ´ë¹Ħ ê²ĮìĿ´ìħĺ
m ust
ê³łì¶Ķ ìŀ¥
Ġê³¨ ìŀĲ
Ġìĥī ìĿ´
ĠíĿł ë»ĳ
Ġìľł ëŀĮ
Ġê¼¬ë°ķ ê¼¬ë°ķ
ìŀ¥ ê°ĳ
MA X
ìµľ ì¢ħ
Ġë©Ķ íĬ¸ë¡ľ
ĠìĤ° ëĭ¤ê³ł
Ġìļ° íģ¬ëĿ¼ìĿ´ëĤĺ
ĠíĬ¸ ëŀ¨
ìĿµ ìĪĺ
Ġìļ©ìĿ¸ ìĭľ
Ġìľł ë¹Ħ
Ġì§Ģ ì¹Ń
Ġat test
Ġìľł ìĭ¬íŀĪ
ë¹Ħ íĨµ
Ġìĭłë¢° ëıĦ
ĠìĻĢ ìĿ´ìĸ´
Ġinvestig ative
Ġë°© íĮ¨
ĠìłķìĦ± ê»ı
Ġíķĺ ëĦ¤
íĻĶ ì§Ī
Ġëĵľ ë¡Ń
Ġì£¼ ìķĪ
Ġì¤ĳê°Ħ ê³łìĤ¬
ìļ© ìĿ¸
ĠìĽĲ ìŀ¬ë£Į
Ġë§Įëĵľ ìĭł
ë¯¸ ëĶĶìĸ´
ìĹĺ ë¦¬
ìłĦ ë¶Ģ
ĠìĿ¼ ìĦĿ
Ġëļ± ëļ±
Ġìĥģ ìĿ´
Ġì§Ģ ê²¹
Ġì¶©ì²Ń ëĤ¨ëıĦ
ĠíĻį ì²ľ
Ġr aster
ĠìĤ´íİ´ ë´¤
ìĪľ ëĮĢ
Ġfirst ly
Ġíĳľê³ł ë²ĦìĦ¯
ê¹ ¡
Ġë°ĺ ê°Ĵ
ĠìĤ¬ ë¥´ë¥´
Ġìļ© ê°Ĳ
truct uring
Ġìļ© ë³ĳ
Ġìĸ´ìļ° ëŁ¬ì§Ģ
ĠO X
ĠìĽĲ ëįĶ
ëĤľ ë°©
ĠìĿ´ ì²´
ë©´ ìłĳ
ê·¼ ìľ¡
M aterial
ëĭ¹ ìĹ°
Ġrefere e
ĠCustom ers
ĠëıĮ ìĹ°
Ġelement al
Ġê·¼ ë¦°
Ġì½ķ ì½ķ
ĠìĤ¬ ë³¸
Ġê·¹ íķľ
ì¶ķ ìłľ
ĠíķĺëĬĺ ìĥī
ĠëĦĺ ê¸¸
ĠíĥĢ ë¥´
Ġíı¬ íĭ°
ìķĦ ì¹ĺ
Ġun biased
Ġì¶ķ ìĤ¬
Ġë°Ķëĭ· ë¬¼
Ġacceler ating
ëıĻ ê¸°
Ġì§ĢìĨį ëł¥
Through out
Ġembarrass ed
Ġdiscrep ancies
Ġres titution
Ġìķħ íķľ
ĠíİĺìĿ¸ íĮħ
ĠêµĲ ë¦¬
ĠìħĶ íĦ°
Ġê°Ģë¡ľ ë§ī
ê³¨ ëĵľ
Ġapprais al
ìĿ¸ íĽĦ
Ġë¬» íŀĪ
Ġë¬¼ ë°©ìļ¸
Ġìľ¡ ìķĪ
Ġì¦Ŀ ìĦ¤
Ġëĳ¥ ëĳ¥
ĠìķĦìī¬ ìļ¸
¬ íĶĦ
ĠíĥĢ ìĿ´íĬ¸
Ġê²° ìŀ¥
ê¸Ī ìŀĲë¦¬
ĠHealth y
Ġìŀ¬ ë¹¨ë¦¬
Ġëª©ìļķ íĥķ
ë¡ľ ìĿ´
ëł¤ ìķ¼
Ġë¯¼ ë°ķ
Ġopen er
Ġê°¯ ë²Į
Ġëľ» ëĮĢë¡ľ
Ġe jection
Ġìłķ ìŀ¬
Ġê³ł ëĭ¨
ì²ľ ì²ľíŀĪ
ĠìłĦ íķł
Ġë¹Ħ ì°¸
ì²ľ ìĤ¬
Ġì§ģ ê¶Į
ĠìĨĮ ìĤ¬
Ġë°°ê³ł íĶĪ
[...]
