{"[PAD]":0,"[BOS]":1,"[EOS]":2,"[UNK]":3,"                               ":4,"                              ":5,"                             ":6,"                            ":7,"                           ":8,"                          ":9,"                         ":10,"                        ":11,"                       ":12,"                      ":13,"                     ":14,"                    ":15,"                   ":16,"                  ":17,"                 ":18,"                ":19,"               ":20,"              ":21,"             ":22,"            ":23,"           ":24,"          ":25,"         ":26,"        ":27,"       ":28,"      ":29,"     ":30,"    ":31,"   ":32,"  ":33,"\t\t\t\t\t\t\t\t\t":34,"\t\t\t\t\t\t\t\t":35,"\t\t\t\t\t\t\t":36,"\t\t\t\t\t\t":37,"\t\t\t\t\t":38,"\t\t\t\t":39,"\t\t\t":40,"\t\t":41,"<|endoftext|>":42,"<|c|>":43,"<|c++|>":44,"<|python|>":45,"<|javascript|>":46,"<|markdown|>":47,"<|html|>":48,"<|css|>":49,"<|vue|>":50,"<|java|>":51,"PI:URL":52,"PI:EMAIL":53,"PI:ACCOUNT_NUM":54,"PI:PHONE_NUM":55,"PI:BUSINESS_NUM":56,"PI:ANNON":57,"PI:KEY":58,"PI:ID":59,"PI:IP_ADDRESS":60,"PI:USER":61,"[unused0]":62,"[unused1]":63,"[unused2]":64,"[unused3]":65,"[unused4]":66,"[unused5]":67,"[unused6]":68,"[unused7]":69,"[unused8]":70,"[unused9]":71,"[unused10]":72,"[unused11]":73,"[unused12]":74,"[unused13]":75,"[unused14]":76,"[unused15]":77,"[unused16]":78,"[unused17]":79,"[unused18]":80,"[unused19]":81,"[unused20]":82,"[unused21]":83,"[unused22]":84,"[unused23]":85,"[unused24]":86,"[unused25]":87,"[unused26]":88,"[unused27]":89,"[unused28]":90,"[unused29]":91,"[unused30]":92,"[unused31]":93,"[unused32]":94,"[unused33]":95,"[unused34]":96,"[unused35]":97,"[unused36]":98,"[unused37]":99,"[unused38]":100,"[unused39]":101,"[unused40]":102,"[unused41]":103,"[unused42]":104,"[unused43]":105,"[unused44]":106,"[unused45]":107,"[unused46]":108,"[unused47]":109,"[unused48]":110,"[unused49]":111,"[unused50]":112,"[unused51]":113,"[unused52]":114,"[unused53]":115,"[unused54]":116,"[unused55]":117,"[unused56]":118,"[unused57]":119,"[unused58]":120,"[unused59]":121,"[unused60]":122,"[unused61]":123,"[unused62]":124,"[unused63]":125,"[unused64]":126,"[unused65]":127,"[unused66]":128,"[unused67]":129,"[unused68]":130,"[unused69]":131,"[unused70]":132,"[unused71]":133,"[unused72]":134,"[unused73]":135,"[unused74]":136,"[unused75]":137,"[unused76]":138,"[unused77]":139,"[unused78]":140,"[unused79]":141,"[unused80]":142,"[unused81]":143,"[unused82]":144,"[unused83]":145,"[unused84]":146,"[unused85]":147,"[unused86]":148,"[unused87]":149,"[unused88]":150,"[unused89]":151,"[unused90]":152,"[unused91]":153,"[unused92]":154,"[unused93]":155,"[unused94]":156,"[unused95]":157,"[unused96]":158,"[unused97]":159,"[unused98]":160,"[unused99]":161,"<time>":162,"</time>":163,"<transcript>":164,"</transcript>":165,"<user_info>":166,"</user_info>":167,"<spam_level>":168,"</spam_level>":169,"Task:":170,"one_line_summary":171,"detailed_summary":172,"counterpart":173,"instant":174,"todo_status":175,"call_purpose":176,"caller_name":177,"additional_message":178,"<silence>":179,"<close_call>":180,"[extra_id_19]":181,"[extra_id_20]":182,"[extra_id_21]":183,"[extra_id_22]":184,"[extra_id_23]":185,"[extra_id_24]":186,"[extra_id_25]":187,"[extra_id_26]":188,"[extra_id_27]":189,"[extra_id_28]":190,"[extra_id_29]":191,"[extra_id_30]":192,"[extra_id_31]":193,"[extra_id_32]":194,"[extra_id_33]":195,"[extra_id_34]":196,"[extra_id_35]":197,"[extra_id_36]":198,"[extra_id_37]":199,"[extra_id_38]":200,"[extra_id_39]":201,"[extra_id_40]":202,"[extra_id_41]":203,"[extra_id_42]":204,"[extra_id_43]":205,"[extra_id_44]":206,"[extra_id_45]":207,"[extra_id_46]":208,"[extra_id_47]":209,"[extra_id_48]":210,"[extra_id_49]":211,"[extra_id_50]":212,"[extra_id_51]":213,"[extra_id_52]":214,"[extra_id_53]":215,"[extra_id_54]":216,"[extra_id_55]":217,"[extra_id_56]":218,"[extra_id_57]":219,"[extra_id_58]":220,"[extra_id_59]":221,"[extra_id_60]":222,"[extra_id_61]":223,"[extra_id_62]":224,"[extra_id_63]":225,"[extra_id_64]":226,"[extra_id_65]":227,"[extra_id_66]":228,"[extra_id_67]":229,"[extra_id_68]":230,"[extra_id_69]":231,"[extra_id_70]":232,"[extra_id_71]":233,"[extra_id_72]":234,"[extra_id_73]":235,"[extra_id_74]":236,"[extra_id_75]":237,"[extra_id_76]":238,"[extra_id_77]":239,"[extra_id_78]":240,"[extra_id_79]":241,"[extra_id_80]":242,"[extra_id_81]":243,"[extra_id_82]":244,"[extra_id_83]":245,"[extra_id_84]":246,"[extra_id_85]":247,"[extra_id_86]":248,"[extra_id_87]":249,"[extra_id_88]":250,"[extra_id_89]":251,"[extra_id_90]":252,"[extra_id_91]":253,"[extra_id_92]":254,"[extra_id_93]":255,"[extra_id_94]":256,"[extra_id_95]":257,"[extra_id_96]":258,"[extra_id_97]":259,"[extra_id_98]":260,"[extra_id_99]":261,"[extra_id_100]":262,"[extra_id_101]":263,"[extra_id_102]":264,"[extra_id_103]":265,"[extra_id_104]":266,"[extra_id_105]":267,"[extra_id_106]":268,"[extra_id_107]":269,"[extra_id_108]":270,"[extra_id_109]":271,"[extra_id_110]":272,"[extra_id_111]":273,"[extra_id_112]":274,"[extra_id_113]":275,"[extra_id_114]":276,"[extra_id_115]":277,"[extra_id_116]":278,"[extra_id_117]":279,"[extra_id_118]":280,"[extra_id_119]":281,"[extra_id_120]":282,"[extra_id_121]":283,"[extra_id_122]":284,"[extra_id_123]":285,"[extra_id_124]":286,"[extra_id_125]":287,"[extra_id_126]":288,"[extra_id_127]":289,"[extra_id_128]":290,"[extra_id_129]":291,"[extra_id_130]":292,"[extra_id_131]":293,"[extra_id_132]":294,"[extra_id_133]":295,"[extra_id_134]":296,"[extra_id_135]":297,"[extra_id_136]":298,"[extra_id_137]":299,"[extra_id_138]":300,"[extra_id_139]":301,"[extra_id_140]":302,"[extra_id_141]":303,"[extra_id_142]":304,"[extra_id_143]":305,"[extra_id_144]":306,"[extra_id_145]":307,"[extra_id_146]":308,"[extra_id_147]":309,"[extra_id_148]":310,"[extra_id_149]":311,"[extra_id_150]":312,"[extra_id_151]":313,"[extra_id_152]":314,"[extra_id_153]":315,"[extra_id_154]":316,"[extra_id_155]":317,"[extra_id_156]":318,"[extra_id_157]":319,"[extra_id_158]":320,"[extra_id_159]":321,"[extra_id_160]":322,"[extra_id_161]":323,"[extra_id_162]":324,"[extra_id_163]":325,"[extra_id_164]":326,"[extra_id_165]":327,"[extra_id_166]":328,"[extra_id_167]":329,"[extra_id_168]":330,"[extra_id_169]":331,"[extra_id_170]":332,"[extra_id_171]":333,"[extra_id_172]":334,"[extra_id_173]":335,"[extra_id_174]":336,"[extra_id_175]":337,"[extra_id_176]":338,"[extra_id_177]":339,"[extra_id_178]":340,"[extra_id_179]":341,"[extra_id_180]":342,"[extra_id_181]":343,"[extra_id_182]":344,"[extra_id_183]":345,"[extra_id_184]":346,"[extra_id_185]":347,"[extra_id_186]":348,"[extra_id_187]":349,"[extra_id_188]":350,"[extra_id_189]":351,"[extra_id_190]":352,"no":353,"topic":354,"yes":355,"keywords":356,"[|system|]":357,"[|tool|]":358,"[|assistant|]":359,"[|user|]":360,"[|endofturn|]":361,"!":362,"\"":363,"#":364,"%":365,"&":366,"'":367,"(":368,")":369,"*":370,"+":371,",":372,"-":373,".":374,"/":375,"0":376,"1":377,"2":378,"3":379,"4":380,"5":381,"6":382,"7":383,"8":384,"9":385,":":386,";":387,"<":388,"=":389,">":390,"?":391,"@":392,"A":393,"B":394,"C":395,"D":396,"E":397,"F":398,"G":399,"H":400,"I":401,"J":402,"K":403,"L":404,"M":405,"N":406,"O":407,"P":408,"Q":409,"R":410,"S":411,"T":412,"U":413,"V":414,"W":415,"X":416,"Y":417,"Z":418,"[":419,"]":420,"^":421,"_":422,"a":423,"b":424,"c":425,"d":426,"e":427,"f":428,"g":429,"h":430,"i":431,"j":432,"k":433,"l":434,"m":435,"n":436,"o":437,"p":438,"q":439,"r":440,"s":441,"t":442,"u":443,"v":444,"w":445,"x":446,"y":447,"z":448,"{":449,"|":450,"}":451,"~":452,"¡":453,"¢":454,"£":455,"¤":456,"¥":457,"¦":458,"§":459,"¨":460,"©":461,"ª":462,"«":463,"¬":464,"®":465,"¯":466,"°":467,"±":468,"²":469,"³":470,"´":471,"µ":472,"¶":473,"·":474,"¸":475,"¹":476,"º":477,"»":478,"¼":479,"½":480,"¾":481,"¿":482,"À":483,"Á":484,"Â":485,"Ã":486,"Ä":487,"Å":488,"Æ":489,"Ç":490,"È":491,"É":492,"Ê":493,"Ë":494,"Ì":495,"Í":496,"Î":497,"Ï":498,"Ð":499,"Ñ":500,"Ò":501,"Ó":502,"Ô":503,"Õ":504,"Ö":505,"×":506,"Ø":507,"Ù":508,"Ú":509,"Û":510,"Ü":511,"Ý":512,"Þ":513,"ß":514,"à":515,"á":516,"â":517,"ã":518,"ä":519,"å":520,"æ":521,"ç":522,"è":523,"é":524,"ê":525,"ë":526,"ì":527,"í":528,"î":529,"ï":530,"ð":531,"ñ":532,"ò":533,"ó":534,"ô":535,"õ":536,"ö":537,"÷":538,"ø":539,"ù":540,"ú":541,"û":542,"ü":543,"ý":544,"þ":545,"ÿ":546,"Ċ":547,"Ġ":548,"Ģ":549,"ģ":550,"Ĥ":551,"ĥ":552,"Ħ":553,"ħ":554,"Ĩ":555,"ĩ":556,"Ī":557,"ī":558,"Ĭ":559,"ĭ":560,"Į":561,"į":562,"İ":563,"ı":564,"Ĳ":565,"ĳ":566,"Ĵ":567,"ĵ":568,"Ķ":569,"ķ":570,"ĸ":571,"Ĺ":572,"ĺ":573,"Ļ":574,"ļ":575,"Ľ":576,"ľ":577,"Ŀ":578,"ŀ":579,"Ł":580,"ł":581,"Ń":582,"th":583,"Ġa":584,"Ġí":585,"in":586,"Ġth":587,"er":588,"Ġ,":589,"ëĭ":590,"on":591,"Ġs":592,"re":593,"Ġthe":594,"Ġíķ":595,"ìĹ":596,"at":597,"Ŀ´":598,"ìĿ´":599,"en":600,"Ġo":601,"Ġc":602,"ê°":603,"ìŀ":604,"ĠìĹ":605,"ê³":606,"Ġw":607,"ëĭ¤":608,"Ġp":609,"es":610,"ëĬ":611,"or":612,"is":613,"ed":614,"ĠìĿ´":615,"Ġf":616,"ìł":617,"ìķ":618,"ì§":619,"Ġb":620,"an":621,"ëĬĶ":622,"al":623,"ìĦ":624,"Ġm":625,"Ġd":626,"Ġan":627,"ĠëĬĶ":628,"ti":629,"to":630,"Ġin":631,"Ġê³":632,"ing":633,"Ġê°":634,"Ġof":635,"ë§":636,"Ġ-":637,"ìĭ":638,"ar":639,"ìļ":640,"ê²":641,"Ġìŀ":642,"Ġh":643,"ou":644,"ĠìĹĲ":645,"Ġto":646,"ëĤ":647,"Ġìķ":648,"ê¸":649,"ëı":650,"Ġand":651,"le":652,"Ġ(":653,"as":654,"it":655,"Ġíķĺ":656,"ìĸ":657,"Ġ)":658,"Ġëĭ¤":659,"ĿĦ":660,"ìĿĦ":661,"ro":662,"ì§Ģ":663,"ĠìĿĦ":664,"ic":665,"ë¡":666,"ëĵ":667,"Ġìł":668,"Ġê³ł":669,"Ġê²":670,"ë°":671,"ìľ":672,"Ġë§":673,"Ġn":674,"Ġre":675,"Ġe":676,"ìĦľ":677,"Ġê°Ģ":678,"Ŀ¼":679,"ë¡ľ":680,"Ġl":681,"ë¦":682,"el":683,"ìĤ":684,"ëıĦ":685,"ìĸ´":686,"ê¸°":687,"ent":688,"ë³":689,"ë¥":690,"Ġìĭ":691,"ìĺ":692,"Ŀĺ":693,"ìĿĺ":694,"ĿĢ":695,"ìĿĢ":696,"ëĭĪ":697,"ìĬ":698,"Ġìľ":699,"ĠìĿĢ":700,"ë¶":701,"Ġ\"":702,"ëį":703,"ìļĶ":704,"Ġ'":705,"om":706,"ac":707,"Ġëĵ":708,"Ġg":709,"us":710,"êµ":711,"ìĥ":712,"ê·":713,"ĠìĿĺ":714,"ĠT":715,"ĠëĤ":716,"Ġë°":717,"Ġ:":718,"íķ":719,"et":720,"il":721,"ë¦¬":722,"ë¬":723,"ìĪ":724,"ë©":725,"Ġíķľ":726,"ìĤ¬":727,"id":728,"Ġìĸ´":729,"ĠI":730,"ĠëıĦ":731,"tr":732,"ĠS":733,"Ġis":734,"ĠìŀĪ":735,"Ġì§Ģ":736,"tion":737,"ve":738,"Ġë³":739,"Ġë¥¼":740,"ĠA":741,"ation":742,"ol":743,"ig":744,"ĠC":745,"ĠìķĦ":746,"ëł":747,"am":748,"ëĿ¼":749,"ur":750,"Ġfor":751,"ëª":752,"ìĽ":753,"Ġìĺ":754,"ly":755,"ì£":756,"Ŀ¸":757,"ìĿ¸":758,"ê·¸":759,"ìĪĺ":760,"Ġ=":761,"ow":762,"he":763,"os":764,"ê±":765,"Ġê¸°":766,"Ġon":767,"im":768,"ĮĢ":769,"ëŀ":770,"Ġìľ¼":771,"ter":772,"ad":773,"un":774,"ëĮĢ":775,"ver":776,"ëĭĪëĭ¤":777,"ith":778,"Ġbe":779,"ut":780,"ì£¼":781,"ul":782,"Ġë¶":783,"Ġëĵ¤":784,"ot":785,"ce":786,"Ġy":787,"ìĬ¤":788,"ì¹":789,"ì²":790,"ì°":791,"Ġìĭľ":792,"ay":793,"ëĲ":794,"ë©´":795,"Ġwh":796,"Ġ/":797,"ìĨ":798,"Ġcon":799,"Ġíķ´":800,"ë²":801,"Ġë³´":802,"ëŁ":803,"ĠìĤ¬":804,"ìĻ":805,"Ġas":806,"Ġwith":807,"ĠM":808,"ê³ł":809,"ĠP":810,"Ġê·¸":811,"Ġr":812,"Ġv":813,"ìĿ¼":814,"Ġìĥ":815,"Ġëį":816,"ir":817,"Ġpro":818,"Ġ!":819,"ë¹":820,"ch":821,"Ġëª":822,"od":823,"ĠìĪĺ":824,"Ġê²Į":825,"Ġal":826,"if":827,"Ġê±":828,"Ġìľ¼ë¡ľ":829,"Ġst":830,"ì¤":831,"ĠB":832,"em":833,"Ġëĭ":834,"ëĦ":835,"ere":836,"ĠëĤĺ":837,"Ġit":838,"Ġ*":839,"êµ¬":840,"ê¹":841,"ab":842,"Ġë¡ľ":843,"um":844,"ĠìĿ¸":845,"ts":846,"ëį°":847,"Ġì§":848,"ĠF":849,"Ġcom":850,"Ġì£¼":851,"ëĤĺ":852,"ĠD":853,"Ġyou":854,"ê°Ģ":855,"qu":856,"st":857,"Ġ?":858,"ì¡":859,"Ġex":860,"Ġ}":861,"ĠìĻ":862,"Ġor":863,"Ġ$":864,"ĠëĮĢ":865,"ìĽĲ":866,"ë¯":867,"ëħ":868,"ĠH":869,"ĠìĹĲìĦľ":870,"res":871,"ers":872,"Ġê²ĥ":873,"Ġwas":874,"Ġë§Į":875,"ì¢":876,"Ġë©´":877,"ĠR":878,"ĠëĿ¼":879,"ë¬´":880,"ĠíĸĪ":881,"ĠW":882,"ess":883,"ĠëĦ":884,"ì¶":885,"Ġare":886,"ĠN":887,"ĠL":888,"Ġ{":889,"ìŀ¥":890,"ìŀĲ":891,"Ġì¤":892,"ĠThe":893,"Ġì°":894,"Ġde":895,"ĠìŀĲ":896,"igh":897,"Ġ]":898,"..":899,"Ġat":900,"rom":901,"ìĭľ":902,"ĠìĿ¼":903,"Ġby":904,"ĠìĹĪ":905,"Ġê³¼":906,"ĠìĬ":907,"ity":908,"ë¹Ħ":909,"ìļ°":910,"se":911,"ìĨĮ":912,"Ġk":913,"ĠE":914,"Ġ;":915,"and":916,"Ġì¢":917,"ĠëĲĺ":918,"oc":919,"oun":920,"ment":921,"Ġ[":922,"ë¬¸":923,"ld":924,"ëıĻ":925,"ĠG":926,"est":927,"Ġus":928,"ore":929,"Ġtr":930,"ê´":931,"end":932,"µëĭĪëĭ¤":933,"ĠìłĦ":934,"ĠíĻ":935,"Ġë¶Ģ":936,"ë¨":937,"Ġë²":938,"Ġìłķ":939,"Ġha":940,"op":941,"Ġ~":942,"Ġì²":943,"íķ´":944,"Ġsh":945,"ìłķ":946,"ill":947,"Ġthis":948,"Ġfrom":949,"ê¹Į":950,"ëĶ":951,"ì¹ĺ":952,"ak":953,"íĻ":954,"íĬ":955,"Ġne":956,"Ġìłģ":957,"Ġnot":958,"ìļ©":959,"Ġse":960,"Ġê±°":961,"ìķĦ":962,"Ġwe":963,"ure":964,"Ġle":965,"Ġhe":966,"ìĥģ":967,"ëŁ¬":968,"êµŃ":969,"ëķ":970,"ĠìĹ¬":971,"Ġíĺ":972,"ãģ":973,"ĠìĬµëĭĪëĭ¤":974,"ĿĮ":975,"ìĿĮ":976,"Ġun":977,"ì¡°":978,"ë§Į":979,"íĥ":980,"ĠO":981,"ĠëĬĶëį°":982,"ĠëįĶ":983,"Ġë§Ī":984,"ìłľ":985,"Ġíķł":986,"Ġìĺ¤":987,"ë¯¸":988,"íĺ":989,"Ġìłľ":990,"Ġë¨":991,"ê²Į":992,"ëł¤":993,"ell":994,"ì¦":995,"Ġëķ":996,"pl":997,"íĬ¸":998,"Ġ>":999,"tim":1000,"ge":1001,"Ġhave":1002,"ty":1003,"ë£":1004,"íķľ":1005,"all":1006,"Ġres":1007,"ist":1008,"ĠëĤ´":1009,"ë¶Ģ":1010,"ĠìĻĢ":1011,"Ġëħ":1012,"ĠìķĪ":1013,"ort":1014,"our":1015,"ëĳ":1016,"Ġê¸":1017,"og":1018,"ê°Ħ":1019,"Ġcan":1020,"ê´Ģ":1021,"ould":1022,"Ġ+":1023,"Ġim":1024,"Ġìĸ":1025,"Ġë©":1026,"ĠU":1027,"Ġcl":1028,"ight":1029,"Ġì¢ĭ":1030,"ĠëķĮ":1031,"Ġëª¨":1032,"ĠìĹĨ":1033,"ĠTh":1034,"Ġme":1035,"Ġìŀħ":1036,"per":1037,"ĠìĥĿ":1038,"ë¬¼":1039,"ome":1040,"ally":1041,"íĸ":1042,"ëŀĺ":1043,"Ġê°Ļ":1044,"ue":1045,"ame":1046,"íŀ":1047,"ĠìĦľ":1048,"ìļ´":1049,"Ġì¤ĳ":1050,"iz":1051,"íķĺ":1052,"Ħ°":1053,"ack":1054,"Ġì¶":1055,"ìķ¼":1056,"Ġpl":1057,"ĠìĦ¸":1058,"der":1059,"Ġìĥģ":1060,"Ġpar":1061,"ĠìľĦ":1062,"ĠìķĬ":1063,"ì§Ħ":1064,"ëĵľ":1065,"Ġab":1066,"ĠJ":1067,"Ġë¶Ħ":1068,"ĠìĤ":1069,"Ġêµ¬":1070,"are":1071,"Ġë°Ķ":1072,"íŀĪ":1073,"ĠìĬ¤":1074,"ìłĦ":1075,"ive":1076,"ļĮ":1077,"Ġë¨¹":1078,"ĠíĮ":1079,"gh":1080,"ass":1081,"Ġíı":1082,"ence":1083,"Ġìĸ´ìļĶ":1084,"Ġê³µ":1085,"íĦ°":1086,"Ġìĭł":1087,"Ġar":1088,"ĠíĶ":1089,"Ġë§İ":1090,"ial":1091,"Ġì¡°":1092,"ĠìĨĮ":1093,"íĶ":1094,"ase":1095,"Ġê²½":1096,"out":1097,"Ġ^":1098,"ĠëĶ":1099,"ound":1100,"Ġwere":1101,"Ġwhich":1102,"Ĩµ":1103,"Ġ%":1104,"ë§Ī":1105,"ëĳĲ":1106,"Ġë¹Ħ":1107,"fer":1108,"Ġíĥ":1109,"Ġwor":1110,"ìħ":1111,"Ġê°ľ":1112,"Ġëįĺ":1113,"ìĦ±":1114,"ach":1115,"ĠìĽĲ":1116,"one":1117,"ëģ":1118,"Ġë§Ĳ":1119,"Ġë":1120,"ok":1121,"ĽĦ":1122,"ģ¬":1123,"Ġì§Ħ":1124,"Ġëĵ±":1125,"íĮ":1126,"Ġbut":1127,"ê¸Ī":1128,"ĠK":1129,"ĠëĭĪ":1130,"ì´":1131,"ĠìłĢ":1132,"ath":1133,"ost":1134,"ations":1135,"Ġhas":1136,"ë¥´":1137,"ìĺ¤":1138,"ough":1139,"ition":1140,"av":1141,"Ġi":1142,"==":1143,"ong":1144,"ì½":1145,"êµĲ":1146,"ĠìĽ":1147,"ê°ģ":1148,"Ġcont":1149,"Ġì§Ģë§Į":1150,"Ġdo":1151,"áĦ":1152,"ìĭł":1153,"íĻĶ":1154,"ind":1155,"ìĹħ":1156,"elf":1157,"act":1158,"ĠëĦ¤":1159,"ance":1160,"Ġ#":1161,"ĠìĦ±":1162,"ĠëĲľ":1163,"Ġtim":1164,"ë¶Ħ":1165,"Ġhis":1166,"Ġê¹Į":1167,"Ġwill":1168,"Ġìķĺ":1169,"Ġìľł":1170,"ear":1171,"ë³´":1172,"Ġìļ°":1173,"íĸī":1174,"Ġgr":1175,"ber":1176,"ìĭĿ":1177,"ĠV":1178,"ĠìĺĪ":1179,"ast":1180,"Ġgo":1181,"ust":1182,"ction":1183,"Ġë¬´":1184,"ĠëĬ":1185,"Ġë°©":1186,"ĠìĦł":1187,"ace":1188,"so":1189,"pe":1190,"ì±":1191,"ile":1192,"Ġê²ł":1193,"Ġê´Ģ":1194,"ose":1195,"Ġyour":1196,"Ġ**":1197,"ĠìĨ":1198,"©ëĭĪëĭ¤":1199,"The":1200,"ĠëĨ":1201,"Ġë¯¸":1202,"ëŀĮ":1203,"ìĹ¬":1204,"ìĤ°":1205,"Ġstr":1206,"ĠìļĶ":1207,"Ġso":1208,"ëĤ´":1209,"ìĭ¤":1210,"ail":1211,"ãĤ":1212,"ìķĪ":1213,"ĠìĹ°":1214,"ëŀĳ":1215,"Ġê·":1216,"ĠìŀħëĭĪëĭ¤":1217,"Ġimp":1218,"Ġë¹":1219,"Ġê¹Įì§Ģ":1220,"Ġëĵľ":1221,"ì»":1222,"Ġê±´":1223,"ëŁ°":1224,"Ġtheir":1225,"Ġì°¨":1226,"Ġìŀĺ":1227,"Ġë§Ľ":1228,"Ġthey":1229,"ëłĪ":1230,"Ġë©°":1231,"ĠìķĮ":1232,"Ġinter":1233,"Ġmore":1234,"ìĶ":1235,"Ġsome":1236,"Ġíķľëĭ¤":1237,"ĠëıĻ":1238,"ë¯¼":1239,"ëĵ¤":1240,"Ġìĭ¤":1241,"ll":1242,"Ġë°Ľ":1243,"Ġ|":1244,"Ġìŀ¥":1245,"Ġhad":1246,"ê»":1247,"Ġman":1248,"ata":1249,"ìĥĿ":1250,"ĠëĦĪ":1251,"Ġbo":1252,"ê±°":1253,"Ġê¹":1254,"urn":1255,"ord":1256,"íĴ":1257,"ĠëħĦ":1258,"ake":1259,"Ġtime":1260,"ĠY":1261,"ëł¥":1262,"ì²´":1263,"ĠíĬ":1264,"xt":1265,"Ġê³Ħ":1266,"very":1267,"Ġthere":1268,"ìĭ¬":1269,"ê³Ħ":1270,"ìłĢ":1271,"íļĮ":1272,"Ġif":1273,"ĠìĥĿê°ģ":1274,"Ġíİ":1275,"ìľł":1276,"Ġind":1277,"Ġì´":1278,"ult":1279,"ks":1280,"Ġpr":1281,"Ġë°ľ":1282,"ëĭ¨":1283,"Ġê°Ĳ":1284,"Ġ<":1285,"ìļ¸":1286,"íİ":1287,"ë¥¸":1288,"tions":1289,"ìĦł":1290,"Ġob":1291,"Ġget":1292,"Ġbeen":1293,"ëłĩ":1294,"ãĥ":1295,"Ġëĭ¤ê³ł":1296,"Ġë´":1297,"ef":1298,"Ġbet":1299,"Ġë¬¸":1300,"ĠíĽĦ":1301,"Ġass":1302,"Ġë©´ìĦľ":1303,"Ġë²Ī":1304,"ĺĲ":1305,"ìµ":1306,"íģ¬":1307,"Ġì£":1308,"Ġother":1309,"ë£¨":1310,"ĠìĤ¬ëŀĮ":1311,"ĠëĪ":1312,"Ġover":1313,"ì¦Ŀ":1314,"Ġíķ¨":1315,"ìµľ":1316,"ë£Į":1317,"íı":1318,"low":1319,"gr":1320,"ĠìĿĮ":1321,"Ġsa":1322,"Ġsy":1323,"Ġíķ©ëĭĪëĭ¤":1324,"art":1325,"ĠíĨµ":1326,"Ġë§¤":1327,"Ġìĺģ":1328,"Ġwhen":1329,"ĠíĻĶ":1330,"ëĭ¹":1331,"Ġfe":1332,"ìĦ¸":1333,"Ġwho":1334,"Ġval":1335,"Ġmy":1336,"ple":1337,"Ġfun":1338,"ì½Ķ":1339,"ĠëĿ¼ê³ł":1340,"Ġìħ":1341,"Ġty":1342,"Ġher":1343,"ìĸĳ":1344,"íĴĪ":1345,"Ġkn":1346,"Ġabout":1347,"ì¼":1348,"Ġì²ĺ":1349,"Ġop":1350,"Ġdif":1351,"Ġìĸ´ìĦľ":1352,"oin":1353,"ëªħ":1354,"Ġì§ĳ":1355,"ëĤľ":1356,"Ġwould":1357,"ë§Ĳ":1358,"Ġ&":1359,"Ġëĭ¹":1360,"ê¶":1361,"turn":1362,"ĳľ":1363,"Ġnew":1364,"Ġits":1365,"ĠëĤ¨":1366,"ĠêµŃ":1367,"Ġì¹ĺ":1368,"ĠìĹĲê²Į":1369,"ĠëĳĲ":1370,"Ġíķ´ìĦľ":1371,"ê³¼":1372,"Ġexp":1373,"ê²½":1374,"Ġëĭĺ":1375,"Ġë¬¼":1376,"ps":1377,"Ġìĭ¶":1378,"íĥĢ":1379,"ra":1380,"ĠëĦĪë¬´":1381,"íħ":1382,"Ġë°°":1383,"Ġìĺ¬":1384,"ìŀĳ":1385,"ings":1386,"ë¡Ŀ":1387,"we":1388,"irst":1389,"ays":1390,"Ġëĭ¨":1391,"ĠAn":1392,"fter":1393,"ĠìĽĶ":1394,"Ġëĭ¬":1395,"ĠìķĦëĭĪ":1396,"Ġë¶Ī":1397,"ĠëĶ°":1398,"Ġëª»":1399,"Ġíı¬":1400,"ĠëĬĲ":1401,"Ġì¶Ķ":1402,"Ġë°ĺ":1403,"Ġê°ķ":1404,"Ġì±":1405,"Ġìĭľê°Ħ":1406,"Ġëģ":1407,"Ġì»":1408,"ëĬĺ":1409,"ìľĦ":1410,"lo":1411,"ìŀ¬":1412,"Ġset":1413,"ê»ĺ":1414,"ì°¨":1415,"Ġìµľ":1416,"Ġdata":1417,"ĠëĦ¤ìļĶ":1418,"ĠíĶ¼":1419,"Ġour":1420,"íĹ":1421,"Ġwork":1422,"Ġdef":1423,"reat":1424,"Ġinto":1425,"Ġìŀ¬":1426,"ê³µ":1427,"ĠëĺĲ":1428,"ĠìĤ´":1429,"ëĬ¥":1430,"Ġyear":1431,"Ġtrans":1432,"ĠêµĲ":1433,"Ġìķ¼":1434,"ë°©":1435,"íĤ":1436,"ĠíļĮ":1437,"pt":1438,"Ġëħ¸":1439,"Ġëªħ":1440,"Ĩł":1441,"ê²©":1442,"ìĽĮ":1443,"--------":1444,"Ġhigh":1445,"ìĹŃ":1446,"ìĺģ":1447,"ë¦Ħ":1448,"ìłĲ":1449,"Ġê²°":1450,"Ġmay":1451,"ë¦°":1452,"ĠThis":1453,"ìĹ°":1454,"ĠëįĶëĿ¼":1455,"Ġìŀĳ":1456,"ne":1457,"Ġpe":1458,"ì¸":1459,"ìĨį":1460,"ĠëķĮë¬¸":1461,"Ġëĭ¤ëĬĶ":1462,"íķĻ":1463,"Ġself":1464,"ëª¨":1465,"Ġê°Ħ":1466,"Ġ\",":1467,"Ġunder":1468,"ĠìĺĢ":1469,"ative":1470,"ëĶĶ":1471,"Ġfirst":1472,"ĠìłĲ":1473,"ëĵł":1474,"Ġdiffer":1475,"ì§ģ":1476,"ëłĩê²Į":1477,"stem":1478,"ink":1479,"ĠíĺĦ":1480,"Ġthem":1481,"íĭ":1482,"ĠëĤł":1483,"ade":1484,"anc":1485,"Ġwhat":1486,"ĠíĻķ":1487,"ĠíĮĮ":1488,"Ġë§İìĿ´":1489,"arg":1490,"Ġê±¸":1491,"Ġthese":1492,"ìĵ":1493,"ê·¼":1494,"íĨµ":1495,"ë°ľ":1496,"ating":1497,"eld":1498,"ĠíķĻ":1499,"Ġì¹´":1500,"Ġë¶ĢíĦ°":1501,"Ġuse":1502,"Ġëį°":1503,"Ġid":1504,"Ġë³´ëĭ¤":1505,"Ġìļ°ë¦¬":1506,"ĠìĶ":1507,"Ġresp":1508,"ìŀħ":1509,"Ġhow":1510,"Ġì£ł":1511,"ĠíĥĢ":1512,"Ġfunction":1513,"Ġnum":1514,"rough":1515,"ëĥ":1516,"ten":1517,"ê¼":1518,"Ġ@":1519,"Ġshe":1520,"ë§¤":1521,"ëĸ":1522,"Ġtype":1523,"Ġê³³":1524,"ween":1525,"ë¦¬ê³ł":1526,"Ġclass":1527,"íĶĦ":1528,"ility":1529,"old":1530,"ì²Ń":1531,"ê±´":1532,"Ġê¸¸":1533,"Ġwhere":1534,"ì¤ĳ":1535,"ĠìĦ¸ìļĶ":1536,"Ġíģ":1537,"Ġbetween":1538,"Ġinclud":1539,"fore":1540,"ìī":1541,"Ġíŀ":1542,"Ġë¦¬":1543,"ì²ľ":1544,"âĢ":1545,"ĠìĦ¤":1546,"ug":1547,"ĠíķĺëĤĺ":1548,"Ġafter":1549,"ange":1550,"ë°ĺ":1551,"aw":1552,"Ġrequ":1553,"ution":1554,"ise":1555,"ê¶Į":1556,"ì§Ī":1557,"ë²Ī":1558,"Ġused":1559,"ax":1560,"íĺ¸":1561,"Ī¬":1562,"ĠìĤ¬ìļ©":1563,"ì¶ľ":1564,"ê°ľ":1565,"ĠìķĦìĿ´":1566,"Ŀ½":1567,"Ġë²Ħ":1568,"ĠíĹ":1569,"ĠíķĦ":1570,"ĠëĿ¼ëĬĶ":1571,"Ġìĵ":1572,"Ġsaid":1573,"ëŁ¼":1574,"Ġì°¸":1575,"ë¸":1576,"Ġì½Ķ":1577,"ìŀĪ":1578,"íĶ¼":1579,"ments":1580,"íĹĺ":1581,"Ġcould":1582,"ì§ĳ":1583,"ix":1584,"íĿ":1585,"Ġsystem":1586,"ë²ķ":1587,"ê°Ĳ":1588,"ìŀĦ":1589,"Ġsm":1590,"ìķ½":1591,"ize":1592,"Ġright":1593,"Ġë§ŀ":1594,"ëŀĢ":1595,"ë¦¼":1596,"ock":1597,"ĠìĹ´":1598,"ont":1599,"Ġìľ¼ë©´":1600,"ë©°":1601,"Ġsee":1602,"Ġì¤Ģ":1603,"êµ°":1604,"Ġinf":1605,"Ġíģ¬":1606,"ì¡±":1607,"ople":1608,"ĠìĭĿ":1609,"Ġíİ¸":1610,"thing":1611,"Ġëĸ":1612,"Ġìļ´":1613,"áħ":1614,"íĽĦ":1615,"Ġë³¸":1616,"ĠìłķëıĦ":1617,"Ġmin":1618,"ĠìľĦíķ´":1619,"ì¦Ī":1620,"Ġìĸĳ":1621,"ew":1622,"íĳľ":1623,"ĠíĬ¹":1624,"ex":1625,"Ġmost":1626,"Ġì¹ľ":1627,"Ġíĸī":1628,"Ġhim":1629,"Ġthrough":1630,"Ġint":1631,"ìĦĿ":1632,"Ġì´Ī":1633,"ey":1634,"Th":1635,"ìł¸":1636,"uring":1637,"Ġì¶ľ":1638,"íĥľ":1639,"Ġmodel":1640,"íĮĮ":1641,"Ġusing":1642,"ĠìĨĲ":1643,"Ġíħ":1644,"ĠìĤ¬ì§Ħ":1645,"Ġgener":1646,"Ġknow":1647,"Ġproduc":1648,"Ġëĵ¤ìĸ´":1649,"ëĤł":1650,"Ġì§ģ":1651,"Ġì¤Ħ":1652,"ĠìĤ°":1653,"ë³µ":1654,"ìĪł":1655,"ĠíĶĦ":1656,"ë³¸":1657,"ĠìĥĪ":1658,"uch":1659,"ield":1660,"Ġëĭ¤ê°Ģ":1661,"Ġshould":1662,"ĠìĹŃ":1663,"ìłģ":1664,"Ġname":1665,"oy":1666,"Ġfollow":1667,"Ġê´":1668,"its":1669,"ities":1670,"Ġëĥ":1671,"ict":1672,"ull":1673,"Ġíĺ¸":1674,"ìĬµ":1675,"ìį":1676,"Ġê¹Ģ":1677,"test":1678,"ì§ľ":1679,"ëŁī":1680,"ê°ķ":1681,"Ġdid":1682,"ë°Ķ":1683,"Ġê¸Ī":1684,"Ġìłķë§Ĳ":1685,"of":1686,"Ġíķ´ìķ¼":1687,"Ġcoun":1688,"Ġê°ĢëĬ¥":1689,"Ġì°¾":1690,"Ġìĸ´ëĸ":1691,"ement":1692,"Ġpeople":1693,"Ġìĭ¬":1694,"ë²Ħ":1695,"ĠëŃ":1696,"Ġimport":1697,"ĠX":1698,"Ġgrou":1699,"ĠëıĮ":1700,"Ġë©Ķ":1701,"put":1702,"ĠëĲł":1703,"ational":1704,"Ġíıī":1705,"ìª":1706,"ob":1707,"ê¸ī":1708,"thod":1709,"ë¡ł":1710,"Ġëł¤":1711,"velop":1712,"ìłĪ":1713,"ìĻĢ":1714,"Ġê°Ģì§Ģ":1715,"ĠëĲľëĭ¤":1716,"ĠìĿ´ëĤĺ":1717,"Ġbecause":1718,"ĠQ":1719,"ĠìķĦìļĶ":1720,"íĭ°":1721,"Ġê²½ìļ°":1722,"ì·":1723,"ption":1724,"ìģ":1725,"Ġconf":1726,"ĠëĮĢíķľ":1727,"Ġìķŀ":1728,"ì¤Ģ":1729,"ĠëĪĪ":1730,"ì¹´":1731,"ature":1732,"ĠìĹĦ":1733,"Ġì²´":1734,"Ġì¢ħ":1735,"Ġexper":1736,"ection":1737,"íħĮ":1738,"Ġfact":1739,"ĠìĻ¸":1740,"Ġë§Įëĵ¤":1741,"cc":1742,"ëł¨":1743,"Ġìļ©":1744,"self":1745,"Ġì²Ń":1746,"ected":1747,"Ġvalue":1748,"Ġê·¼":1749,"ork":1750,"ĠìķĦìĦľ":1751,"íı¬":1752,"Ġmake":1753,"ëĦĪ":1754,"Ġìķ½":1755,"Ġì¦Ŀ":1756,"Ġê·¸ëŀĺ":1757,"Ġë§ĽìŀĪ":1758,"Ġprocess":1759,"ving":1760,"Ġìĸ¼":1761,"tical":1762,"ëĭ´":1763,"ì·¨":1764,"Ġìĭľìŀĳ":1765,"Ġê·¸ëŁ°":1766,"Ġëĵ¯":1767,"Ġë³¼":1768,"Ġíķ¨ê»ĺ":1769,"Ġpoin":1770,"Ġìĵ°":1771,"íĤ¤":1772,"Ġagain":1773,"ĠíĪ¬":1774,"Ġfind":1775,"ĠTr":1776,"Ġpers":1777,"íİĺ":1778,"Ġincre":1779,"Ġëĭ¤ë¥¸":1780,"Ġíŀĺ":1781,"ê²°":1782,"íģ":1783,"Ġì¢Ģ":1784,"ì¼Ģ":1785,"íĨł":1786,"êµ¬ìļĶ":1787,"Ġstat":1788,"Ġíĺķ":1789,"ĠìĨį":1790,"ĠìĿ¸ëį°":1791,"Ġ\":":1792,"ê²¨":1793,"Ġlong":1794,"Ġway":1795,"Ġnumber":1796,"Ġpartic":1797,"Ġtest":1798,"ood":1799,"Ġappro":1800,"ìª½":1801,"ê½":1802,"ë¦½":1803,"ĠëĴ":1804,"Ġdifferent":1805,"Ġevery":1806,"Ġëª©":1807,"ife":1808,"Ġcontro":1809,"ëħĦ":1810,"Ġsame":1811,"formation":1812,"ĠìĻĦ":1813,"ì¢ħ":1814,"Ġdoes":1815,"Ġì°į":1816,"ì³":1817,"ĠëĦĺ":1818,"ined":1819,"Ġes":1820,"ĠëĪĦ":1821,"Ġdevelop":1822,"Ġbefore":1823,"íĥĿ":1824,"ìĽĢ":1825,"Ġyears":1826,"Ġmany":1827,"ëł¸":1828,"ĠìŀĦ":1829,"Ġìĸ¸":1830,"Ġê·¸ë¦¬ê³ł":1831,"ìĦ¤":1832,"Ġpart":1833,"ĠPro":1834,"ĠìĪľ":1835,"Ġìī":1836,"Ġlevel":1837,"eng":1838,"Ġë§ĪìĿĮ":1839,"Ġì§Ī":1840,"íİ¸":1841,"Ġfound":1842,"Ġinst":1843,"Ġì»¤":1844,"ìĥī":1845,"ëĭ¬":1846,"Ġhand":1847,"Ġer":1848,"Ġcomple":1849,"ì¡´":1850,"ON":1851,"Ġmethod":1852,"Ġcase":1853,"ients":1854,"Ġì²ľ":1855,"Ġorder":1856,"Ġìĺ¤ëĬĺ":1857,"ê²ĥ":1858,"ool":1859,"Ġë³Ģ":1860,"ublic":1861,"íĺĦ":1862,"ëĥ¥":1863,"ī´":1864,"ì¡Į":1865,"Ġëĭ¤ìĭľ":1866,"ìĺ¨":1867,"Ġë°Ķë¡ľ":1868,"ĠíĻľ":1869,"ëĤ¨":1870,"ĠìĹħ":1871,"pr":1872,"Ġê¸Ģ":1873,"ĠëĶĶ":1874,"ìº":1875,"ĠëįĶëĿ¼êµ¬ìļĶ":1876,"Ġthose":1877,"ĠZ":1878,"Ġê²Ģ":1879,"ĠìĹĶ":1880,"ĠëĬĲëĤ":1881,"Ġìĺ¨":1882,"ìľ¡":1883,"ĠíĤ":1884,"ĠëĬĶëį°ìļĶ":1885,"Ġbeing":1886,"me":1887,"con":1888,"Ġë°ķ":1889,"ins":1890,"aking":1891,"Ġìķł":1892,"Ġel":1893,"ìľ¼":1894,"Ġmade":1895,"ĠëģĿ":1896,"ER":1897,"ëĿ½":1898,"íķ©":1899,"Ġëŀĳ":1900,"íĺķ":1901,"ì¶Ķ":1902,"ê¾":1903,"Ġë³´ìĿ´":1904,"cl":1905,"ëª©":1906,"íĿ¬":1907,"ĠíķĦìļĶ":1908,"Ġë¿":1909,"ĠìĿ´ìĥģ":1910,"Ġìħ¨":1911,"Ġpresent":1912,"ave":1913,"try":1914,"Ġgood":1915,"ount":1916,"ĠëıĦë¡Ŀ":1917,"Ġav":1918,"Ġê¶Į":1919,"ì²ĺ":1920,"Ġì²ĺëŁ¼":1921,"ĠìĿ´ëłĩê²Į":1922,"ë§Ŀ":1923,"Ġbased":1924,"íĻ©":1925,"Ġê°Ī":1926,"Ġstate":1927,"ĠíĨµíķ´":1928,"Ġperform":1929,"ality":1930,"ëŀľ":1931,"íĸ¥":1932,"Ġíĭ":1933,"Ġë¬¸ìłľ":1934,"ìĹĲ":1935,"Ġëĭ´":1936,"other":1937,"Ġì§Ħíĸī":1938,"ually":1939,"ĠìķĦëĭ":1940,"ĠëĨĴ":1941,"ĠëĲĲ":1942,"Ġì§Ħì§ľ":1943,"Ġstudy":1944,"Ġwhile":1945,"Ġsecond":1946,"ĠíĻĺ":1947,"ror":1948,"ì¹¨":1949,"íĮħ":1950,"ĠëłĪ":1951,"íĻĺ":1952,"ĠíĮĲ":1953,"ĠíĬ¸":1954,"def":1955,"Ġnon":1956,"any":1957,"Ġdel":1958,"ĠëĮĢíķ´":1959,"Ġíļ":1960,"ences":1961,"ĠëĶ°ëĿ¼":1962,"Ġthree":1963,"ĠëĬĶì§Ģ":1964,"Ġduring":1965,"ĠìĿ´ëŁ°":1966,"ìĻĶ":1967,"ization":1968,"ë¦´":1969,"Ġì§ĢëĤľ":1970,"Ġë°ı":1971,"ision":1972,"Ġgroup":1973,"Ġmuch":1974,"Ġì¹ľêµ¬":1975,"ë¥ĺ":1976,"ather":1977,"ìĻ¸":1978,"Ġë³Ħ":1979,"line":1980,"over":1981,"Ġext":1982,"ëħĢ":1983,"íĮĲ":1984,"ĠëĴ¤":1985,"Ŀµ":1986,"Ġreturn":1987,"Ġsmall":1988,"Ġë¹ł":1989,"Ġì§Ģê¸Ī":1990,"Ġinformation":1991,"ulation":1992,"ability":1993,"ëŁ½":1994,"Ġìº":1995,"way":1996,"Ġë²ķ":1997,"Ġì±Ħ":1998,"Ġday":1999,"Ġê°Ģìŀ¥":2000,"dition":2001,"Ġë´¤":2002,"Ġproper":2003,"Ġê½":2004,"Ġë¸Ķ":2005,"ìĿµ":2006,"ìħĺ":2007,"Ġë³µ":2008,"ĠíĨł":2009,"**":2010,"Ġê°ĻìĿ´":2011,"Ġconsider":2012,"Ġlist":2013,"ese":2014,"Ġíģ°":2015,"ë§ī":2016,"ê¾¸":2017,"Ġíĳľ":2018,"Ġprovid":2019,"ì¿":2020,"Ġpath":2021,"ìį¨":2022,"Ġíķ´ìļĶ":2023,"Ġthink":2024,"Ġperson":2025,"Ġê·¸ëŁ¬":2026,"Ġë¨¸":2027,"ĠThere":2028,"Ġìŀ¡":2029,"Ġactiv":2030,"Ġarg":2031,"Ġì±ħ":2032,"ĠìĻĶ":2033,"ĠíķľêµŃ":2034,"ë¸Į":2035,"ience":2036,"Ġwithout":2037,"Ġproble":2038,"ĠëĬĲëĤĮ":2039,"ĠíħĮ":2040,"Ġresults":2041,"Ġê°ģ":2042,"ential":2043,"ĠëŁ¬":2044,"ëĪ":2045,"ì³Ĳ":2046,"ëł¹":2047,"ĠíĶĮ":2048,"Ġìľ¼ëĭĪ":2049,"Ġë´Ĳ":2050,"Ġchild":2051,"Ġìĸµ":2052,"Ġresult":2053,"ĠìłľíĴĪ":2054,"ger":2055,"Ġê·Ģ":2056,"ĠìħĶ":2057,"ĠëĭĪê¹Į":2058,"return":2059,"ëįĶ":2060,"ĠìĤ¼":2061,"take":2062,"ĠìĤ¬ìĿ´":2063,"Ġthough":2064,"ĠëĨĢ":2065,"Ŀĳ":2066,"int":2067,"day":2068,"ĠìŀĲìĭł":2069,"ĠëĨĵ":2070,"ë°ķ":2071,"Ġdescri":2072,"ument":2073,"Ġë¶Ģë¶Ħ":2074,"ĠëĤľ":2075,"Ġopen":2076,"Ġcontrol":2077,"ë°°":2078,"yn":2079,"Ġë§ī":2080,"Ġì·¨":2081,"Ġparam":2082,"ì§Ģë§Į":2083,"Ġë°±":2084,"ategory":2085,"Ġë²ł":2086,"ìĿĳ":2087,"Ġfin":2088,"ĠëĤĺìĺ¤":2089,"Ġêµ":2090,"Ġê±°ëĤĺ":2091,"ĠìĶ¨":2092,"port":2093,"íļ":2094,"ë³Ģ":2095,"be":2096,"Ġëª¨ëĳĲ":2097,"Ġì¡°ê¸Ī":2098,"Ġë¯¼":2099,"AT":2100,"Ġë³ĳ":2101,"Ġì¶©":2102,"ìĨ¡":2103,"ĠìĿ´ë²Ī":2104,"Ġlife":2105,"Ġì¤Ģë¹Ħ":2106,"Ġsignific":2107,"ìĬ¹":2108,"ression":2109,"ĠíĤ¤":2110,"ĠëĦ£":2111,"Ġmust":2112,"Ġê´Ģë¦¬":2113,"ìłĳ":2114,"Ġdesign":2115,"ë¨¸":2116,"min":2117,"Ġê»ĺ":2118,"ule":2119,"Ġpass":2120,"Ġtake":2121,"íĸĪ":2122,"ĠìĹ¬ê¸°":2123,"acter":2124,"ëĵ±":2125,"aining":2126,"ëĵĿ":2127,"Ġstill":2128,"Ġlast":2129,"ĠëĭµëĭĪëĭ¤":2130,"techn":2131,"Ġstand":2132,"Ġëª¨ìĬµ":2133,"ê¿":2134,"íģ¼":2135,"Ġfield":2136,"ĠìłĪ":2137,"ĠìĹĲìļĶ":2138,"ĠëŃĲ":2139,"ology":2140,"Ġê·¸ëĥ¥":2141,"Ġlog":2142,"action":2143,"Ġanalys":2144,"Ġtechn":2145,"ĠìĹ¬ëŁ¬":2146,"iness":2147,"Ġë°Ŀ":2148,"ĠNo":2149,"Ġíĸ¥":2150,"Ġë¸Į":2151,"Ġê¸´":2152,"Ġcurrent":2153,"ource":2154,"Ġì½":2155,"IN":2156,"ì±ħ":2157,"Ġíļ¨":2158,"ĠìĹĨìĿ´":2159,"Ġëĭ¤ë©´":2160,"ì¦ĺ":2161,"ĠìĤ¬ìĭ¤":2162,"Ġworld":2163,"Ġê°Ķ":2164,"ĠíķŃ":2165,"Ġcommun":2166,"tes":2167,"ì°©":2168,"Ġíľ":2169,"Ġì²ĺìĿĮ":2170,"Ġpower":2171,"Ġallow":2172,"Ġwithin":2173,"tract":2174,"arge":2175,"istic":2176,"Ġìŀł":2177,"ert":2178,"ë³Ħ":2179,"íķŃ":2180,"ëħ¸":2181,"Ġì¼Ģ":2182,"į¼":2183,"ìĽĶ":2184,"ìĬ¤íĬ¸":2185,"ivers":2186,"bed":2187,"Ġê´ĳ":2188,"work":2189,"Ġpatients":2190,"Ġsize":2191,"Ġsum":2192,"ination":2193,"Ġcondition":2194,"ĠìĤ¬ëŀĳ":2195,"Ġkey":2196,"arn":2197,"meric":2198,"Ġstart":2199,"Ġsignificant":2200,"for":2201,"urther":2202,"ES":2203,"Ġëĭ¤ìĿĮ":2204,"idence":2205,"Ġimportant":2206,"ëĦ¤":2207,"Ġexample":2208,"ĠìĿ´ìļ©":2209,"Ġëľ":2210,"ently":2211,"Ġgreat":2212,"Ġcontin":2213,"ĠEx":2214,"treat":2215,"Ġêµ°":2216,"Ġdeterm":2217,"ëĮĢë¡ľ":2218,"ĠìĻľ":2219,"Ġê°Ģê²©":2220,"ately":2221,"ĠëĬĶëĭ¤":2222,"oth":2223,"cept":2224,"Ġagainst":2225,"Ġëª¨ë¥´":2226,"Ġë°©ë²ķ":2227,"Ġpoint":2228,"Ġì´Ŀ":2229,"ëıħ":2230,"Ġsupport":2231,"Ġfollowing":2232,"Ġsay":2233,"Ġbest":2234,"Ġê²½ê¸°":2235,"Ġëĵł":2236,"Ġapplic":2237,"Ġaddition":2238,"ìĸ¸":2239,"Ġaround":2240,"Ġëª¸":2241,"ë´":2242,"ëī´":2243,"íĻľ":2244,"Ġëĭ¤ìĸĳ":2245,"ĠAmeric":2246,"ì´Ī":2247,"Ġëĵľë¦¬":2248,"ê·¸ëŀĺ":2249,"Ġincluding":2250,"ording":2251,"Ġchang":2252,"Ġdirect":2253,"Ġê³¨":2254,"Ġidenti":2255,"Ġspecific":2256,"Ġbre":2257,"ĠíĮ¨":2258,"Ġíķ©":2259,"Ġcells":2260,"itive":2261,"Ġíĥľ":2262,"Ġcourt":2263,"íķł":2264,"Ġlet":2265,"ĠëĲ©ëĭĪëĭ¤":2266,"wh":2267,"ĠìĥģíĻ©":2268,"Ġtreat":2269,"Ġì§ĢìĹŃ":2270,"ĠìĦľìļ¸":2271,"ë¹ł":2272,"Ġold":2273,"Ġstruct":2274,"ê¸¸":2275,"Ġìĭľìŀ¥":2276,"ì¼ľ":2277,"ĠìĤ¬ìĹħ":2278,"orted":2279,"ission":2280,"ìĥĪ":2281,"Ġmulti":2282,"ĠíĶĦë¡ľ":2283,"----------------":2284,"Ġëª¨ëĵł":2285,"aterial":2286,"Ġless":2287,"ê¸Ģ":2288,"Ġsever":2289,"Ġì°½":2290,"ë¸Ķ":2291,"įëĭĪëĭ¤":2292,"Category":2293,"ĠìĿ´ìłľ":2294,"Ġsince":2295,"Ġprogram":2296,"ìģĺ":2297,"Ġíģ´":2298,"ĠíĻķìĿ¸":2299,"Ġwater":2300,"lement":2301,"ĠHowever":2302,"Ġanother":2303,"ertain":2304,"Ġëı¼":2305,"ìĺ¤ëĬĺ":2306,"Ġlow":2307,"ength":2308,"ĠíĹĪ":2309,"oid":2310,"Ġê·¸ëŀĺìĦľ":2311,"Ġplace":2312,"êº":2313,"ê°Ŀ":2314,"Ġrepres":2315,"ways":2316,"ìĹĪ":2317,"ê²¬":2318,"ê°Ī":2319,"Ġì¤ĳìļĶ":2320,"Ġìłĳ":2321,"Ġmight":2322,"Ġpublic":2323,"ĠìĿ´ìķ¼":2324,"íĶĮ":2325,"Ġì¦Ĳ":2326,"Ġmonth":2327,"Ġhttps":2328,"Ġgiven":2329,"ì°°":2330,"ically":2331,"AR":2332,"Ġê·ľ":2333,"ì¹ľ":2334,"ective":2335,"ĠìĶ©":2336,"ĠìĬ¹":2337,"An":2338,"ained":2339,"ĠìķĦëĭĮ":2340,"íĺĢ":2341,"Ġuser":2342,"ìĮ":2343,"========":2344,"Ġíĺĳ":2345,"the":2346,"Ġì¹´íİĺ":2347,"Ġìĥģíĥľ":2348,"NA":2349,"Ġë°ĸ":2350,"Ġnext":2351,"ìĤ´":2352,"ìĺ¬":2353,"ê·¸ë¦¬ê³ł":2354,"Ġë¯":2355,"Ġchange":2356,"Ġbuild":2357,"ëĬĲ":2358,"RL":2359,"Ġë¨¼":2360,"ë©Ķ":2361,"Ġìĥī":2362,"less":2363,"ìĺĪ":2364,"ĠëıĪ":2365,"ident":2366,"ĠìķĦë¬´":2367,"Ġlocal":2368,"table":2369,"Ġê¸ī":2370,"Ġgoing":2371,"Ġëŀ":2372,"íļį":2373,"Ġanalysis":2374,"face":2375,"ê¶ģ":2376,"Ġfew":2377,"Ġorgan":2378,"ìĸµ":2379,"Ġê´Ģëł¨":2380,"onse":2381,"ë¶Ī":2382,"Ġì¹ĺë£Į":2383,"This":2384,"Ġtimes":2385,"Ġlarge":2386,"ìķħ":2387,"Ġê³ĦìĨį":2388,"lectr":2389,"Ġassoci":2390,"stand":2391,"ĠëĥĲ":2392,"ëĭĺ":2393,"ĠìĿ´ìľł":2394,"ĠíĽ":2395,"Ġëł¤ê³ł":2396,"Ġë¿Ĳ":2397,"ëħķ":2398,"ends":2399,"Ġhealth":2400,"Ġcorre":2401,"OR":2402,"Ġbig":2403,"ĠëıĻìķĪ":2404,"Ġëĵ¤ìĸ´ê°Ģ":2405,"ault":2406,"alse":2407,"Ġìĸ´ëĸ¤":2408,"ĠìĿ´ìķ¼ê¸°":2409,"Ġì¶Ķì²ľ":2410,"ìļ±":2411,"ëģĶ":2412,"Ġëıħ":2413,"ĠìĿ´ëŀĳ":2414,"ìĶ¨":2415,"Ġíķĺë£¨":2416,"Ġê¼Ń":2417,"Ġavail":2418,"ìŁ":2419,"Ġobserv":2420,"ĠëĬĺ":2421,"search":2422,"ĠìĬ¤íĥĢ":2423,"íķ¨":2424,"ĠìłĦë¬¸":2425,"Ġìĸ´ìķ¼":2426,"ights":2427,"Ġindic":2428,"Ġimpro":2429,"ĠìľĦíķľ":2430,"ems":2431,"Ġendof":2432,"ê´ĳ":2433,"ìķł":2434,"Ġì§¸":2435,"lection":2436,"Ġ==":2437,"Ġposition":2438,"What":2439,"Ġëĳĺ":2440,"Ġcommon":2441,"Ġmaterial":2442,"ëłĪìĿ´":2443,"Ġì¸µ":2444,"Ġparticular":2445,"ither":2446,"ĠìĿ¸ì§Ģ":2447,"ĠëıĮìķĦ":2448,"Ġimage":2449,"ìĩ":2450,"íĺĶ":2451,"Ġì§ĢìĽĲ":2452,"Ġrefer":2453,"Ġëª°":2454,"Ġresearch":2455,"ĠëĮĢíĳľ":2456,"Ġê±´ê°ķ":2457,"Ġsw":2458,"Ġinterest":2459,"ìĹĨ":2460,"Ġê¸°ìĹħ":2461,"Ġëªĩ":2462,"ĠìĹĦì²Ń":2463,"Ġë°¥":2464,"ëĨ":2465,"Ġcharacter":2466,"Ġvar":2467,"ĠìŀĲë¦¬":2468,"Ġë²Į":2469,"ë°¥":2470,"ë¶ģ":2471,"ëģ¼":2472,"ession":2473,"Ġtable":2474,"Ġì¡´":2475,"ì°®":2476,"ë³ĳ":2477,"ì°¬":2478,"duced":2479,"Ġobtain":2480,"val":2481,"ified":2482,"Ġmax":2483,"ĠìķĦì£¼":2484,"Ġrecord":2485,"êµ´":2486,"Ġlight":2487,"},":2488,"ìļķ":2489,"ĠAll":2490,"ĠêµĲìľ¡":2491,"Ġbetter":2492,"Ġknown":2493,"Ġê´Ģê³Ħ":2494,"EN":2495,"ended":2496,"ĠUS":2497,"Ġgovern":2498,"Ġproblem":2499,"Ġìłķë³´":2500,"ustom":2501,"amb":2502,"Ġreally":2503,"Ġë§Įíģ¼":2504,"ì¶ķ":2505,"ì°½":2506,"ãĢ":2507,"ĠìĿĦê¹Į":2508,"ìĽł":2509,"Ġbusiness":2510,"Ġpossible":2511,"Ġíĺ¼":2512,"ances":2513,"Ġsomething":2514,"ĠìĿĮìĭĿ":2515,"ĠìĹ¬íĸī":2516,"Ġindivid":2517,"com":2518,"Ġì²«":2519,"ĠPI":2520,"Ġprovide":2521,"ĠíĶ¼ë¶Ģ":2522,"Ġvalues":2523,"Ġnever":2524,"êº¼":2525,"íĺ¼":2526,"Ġlittle":2527,"ëľ":2528,"ĠìĦ¼":2529,"Ġìĸ´ëĸ»":2530,"Ġìļ´ëıĻ":2531,"ëķĮ":2532,"Ġmanag":2533,"ĠThese":2534,"ĠíĦ°":2535,"Ġcontent":2536,"Ġíĭ°":2537,"Ġíķ´ëıĦ":2538,"ĠëįĶëĭĪ":2539,"Ġëĸ¨":2540,"ĠURL":2541,"Ġêµ¬ìļĶ":2542,"Ġabove":2543,"Ġì£½":2544,"ìĸ´ëĤĺ":2545,"Ġeffect":2546,"Ġclaim":2547,"Ġë³´ìĹ¬":2548,"ĠNone":2549,"Ġcalled":2550,"ĠëĶ±":2551,"ĠìĹĦë§Ī":2552,"ĠëĤ´ìļ©":2553,"Ġrepresent":2554,"AN":2555,"ension":2556,"ìĹ´":2557,"ml":2558,"ì¸ł":2559,"ĠíĴĢ":2560,"ê¹Ģ":2561,"Ġcho":2562,"ìķ¡":2563,"Ġrange":2564,"Ġë°©ë¬¸":2565,"ĠìĹŃìĭľ":2566,"ĠìĦ¤ëªħ":2567,"ĠìĦłíĥĿ":2568,"targ":2569,"ĠíĮĢ":2570,"ST":2571,"Ġavailable":2572,"Ġê²°ê³¼":2573,"Ġsingle":2574,"Ġìļ¸":2575,"ocial":2576,"ĠìĤ¬íļĮ":2577,"Ġcheck":2578,"Ġinput":2579,"Ġaccess":2580,"Ġëĸł":2581,"ìĿ½":2582,"Ġcreate":2583,"Ġbegin":2584,"de":2585,"Ġì£¼ë¬¸":2586,"Ġfamily":2587,"Ġindividual":2588,"itch":2589,"Ġê°ĲìĤ¬":2590,"Ġê·¸ëłĩ":2591,"ë¡Ģ":2592,"Ġwhether":2593,"ìĿ´íĬ¸":2594,"Ġiniti":2595,"Ġë¯¸êµŃ":2596,"ĳ¸":2597,"ending":2598,"ìĺĢ":2599,"lected":2600,"ED":2601,"ìŁģ":2602,"Ġinvol":2603,"ë°±":2604,"ëħĲ":2605,"ĠëĿ¼ë©´":2606,"ĠìĿĢëį°":2607,"Ġbelie":2608,"ê·¹":2609,"Ġapproach":2610,"Ġë³´ëĤ´":2611,"ëĭ¤ê³ł":2612,"Ġemploy":2613,"tively":2614,"Ġperiod":2615,"ĠìĿ½":2616,"Ġlabel":2617,"Ġë§Īëĭ¤":2618,"Ġenerg":2619,"Ġur":2620,"Ġmathb":2621,"Ġë¹¨":2622,"Ġìĺ¬ëĿ¼":2623,"Ġlength":2624,"ì§Ŀ":2625,"ister":2626,"Ġê´ľ":2627,"Ġcome":2628,"Ġê¹¨":2629,"Ġevent":2630,"Ġthings":2631,"ĠìĿ´íĽĦ":2632,"Ġalways":2633,"IC":2634,"Ġstrong":2635,"Ġshown":2636,"Ġreason":2637,"jects":2638,"ê¸´":2639,"Ġê°ĸ":2640,"ëłĮ":2641,"ĠìĮ":2642,"Ġë¶ģ":2643,"Ġíľ´":2644,"ë¹ĦìĬ¤":2645,"Ġë°ľìĥĿ":2646,"Ġhaving":2647,"Ġëĭµ":2648,"Ġë¡":2649,"Ġê³Ħíļį":2650,"Ġ})":2651,"Ġsimilar":2652,"Ġservice":2653,"Ġleast":2654,"ì©":2655,"ait":2656,"ì§Ģë§ī":2657,"Ġtotal":2658,"Ġê³łë¯¼":2659,"Ġschool":2660,"Ġseveral":2661,"Ġì¶ķ":2662,"Ġë°ĿíĺĶ":2663,"Ġintern":2664,"Ġêµ¬ë§¤":2665,"though":2666,"ĠìķĦì§ģ":2667,"Ġë¬":2668,"Ġê¿":2669,"ìģľ":2670,"Ġì§ģìłĳ":2671,"Ġgive":2672,"Ġhuman":2673,"Ġrequire":2674,"Ġìī½":2675,"PI":2676,"not":2677,"Ġì§ĢëĤĺ":2678,"Ġë§Ľì§ĳ":2679,"ìĹ¼":2680,"íĻķ":2681,"ĠìķĮëł¤":2682,"Ġresponse":2683,"Ġgeneral":2684,"Ġquestion":2685,"Ġíİĺ":2686,"Ġìĸ¼ë§Ī":2687,"Ġcolor":2688,"Ġerror":2689,"íĬ¼":2690,"ĠìĿ´ë¯¸":2691,"ological":2692,"Ġê¸°ëĮĢ":2693,"Ġhigher":2694,"atures":2695,"Ġunderstand":2696,"ĠThat":2697,"ëĤ¬":2698,"ental":2699,"Ġprevious":2700,"Ġaction":2701,"Ġuntil":2702,"let":2703,"ĠìĦ¸ê³Ħ":2704,"Ġê³¼ìłķ":2705,"Ġelectr":2706,"Ġfurther":2707,"Ġë§ĮëĤĺ":2708,"AL":2709,"ĠìĥĿíĻľ":2710,"ĠëĨį":2711,"Ġpress":2712,"Ġë¨¸ë¦¬":2713,"Ġë£¨":2714,"Ġsuccess":2715,"Ġpx":2716,"Ġmeans":2717,"ecess":2718,"Ġdistrib":2719,"Ġíļ¨ê³¼":2720,"usion":2721,"iversity":2722,"IT":2723,"Ġtreatment":2724,"ĠíĺĦìŀ¬":2725,"Ġgot":2726,"ĠUnited":2727,"ìĪľ":2728,"ĠëıĦìĽĢ":2729,"Ġidentif":2730,"Ġenergy":2731,"Ġê½ĥ":2732,"aring":2733,"ê³³":2734,"thers":2735,"Ġdevelopment":2736,"iction":2737,"Ġevidence":2738,"Ġchildren":2739,"lob":2740,"ìļĶìĿ¼":2741,"ĠíĪ¬ìŀĲ":2742,"Ġconfig":2743,"indow":2744,"ìĿ´ìĬ¤":2745,"ëĭµ":2746,"Ġprote":2747,"Ġstandard":2748,"Ġlater":2749,"Ġìª½":2750,"Ġ},":2751,"Ġë©Ķëī´":2752,"ĠíĮĶ":2753,"aster":2754,"ĠíĻį":2755,"ĠíĹ¤":2756,"ĠìħĶìĦľ":2757,"Ġspace":2758,"Ġíŀĺëĵ¤":2759,"CT":2760,"ĠíķĻêµĲ":2761,"Ġëª»íķĺ":2762,"ĠíıŃ":2763,"Ġindex":2764,"Ġreview":2765,"Ġì¤ĳêµŃ":2766,"Ġshort":2767,"Ġlower":2768,"ĠìļĶì¦ĺ":2769,"ĠìĥĪë¡ľ":2770,"ĠìŀĳìĹħ":2771,"Ġmajor":2772,"ables":2773,"Ġalign":2774,"verage":2775,"Ġappear":2776,"íı°":2777,"Ġinclude":2778,"Ġìĸ´ëĸ»ê²Į":2779,"Ġoften":2780,"Ġcustom":2781,"ĠìłĢíĿ¬":2782,"ë§Ľ":2783,"ĠëĺĲíķľ":2784,"by":2785,"Ġalong":2786,"ê±¸":2787,"ĠìĦľë¹ĦìĬ¤":2788,"Ġexperim":2789,"Ġìłķë¶Ģ":2790,"Ġìį¨":2791,"Ġíĸīë³µ":2792,"lished":2793,"ĠëįĶëĿ¼ê³ł":2794,"Ġrelated":2795,"íĤ¨":2796,"Ġcases":2797,"Ġíķĺì§Ģë§Į":2798,"Ġê²½ìłľ":2799,"ember":2800,"ially":2801,"atory":2802,"íıī":2803,"Ġcompon":2804,"da":2805,"ìĿ´ìĸ´":2806,"Ġdiscuss":2807,"±ìłķ":2808,"Ġmarket":2809,"íĥģ":2810,"Ġê¸°ë¶Ħ":2811,"Ġamong":2812,"Ġìµľê³ł":2813,"ĠëŀĢ":2814,"ìĿ´íģ¬":2815,"Ġìĸ´ëł¤":2816,"Ġê¸°ëĭ¤":2817,"Ġoffic":2818,"uation":2819,"Ġì¶Ķê°Ģ":2820,"Ġìī¬":2821,"ìļ°ë¦¬":2822,"Ġëĭ¤ëĭĪ":2823,"ĠëĤĺíĥĢ":2824,"ê°Ķ":2825,"ìĸ´ì§Ģ":2826,"Ġtrial":2827,"Ġë°Ģ":2828,"ìľ¨":2829,"Ġê°ľìĿ¸":2830,"AS":2831,"ĠìĿ´ë¦Ħ":2832,"Ġcertain":2833,"iving":2834,"gether":2835,"Ġsource":2836,"Ġenviron":2837,"ëĺĲ":2838,"ground":2839,"ì»¤":2840,"sw":2841,"Ġeither":2842,"Ġê°Ģì¡±":2843,"Ġê¶ģ":2844,"Ġrelations":2845,"ëħģ":2846,"Ġtarget":2847,"íĦ":2848,"Ġexist":2849,"Ġë¨¼ìłĢ":2850,"ĠíĻľëıĻ":2851,"Ġê¸°ìĪł":2852,"Ġrequired":2853,"ĠìĹ°êµ¬":2854,"Ġfocus":2855,"ype":2856,"ories":2857,"íĪ¬":2858,"Ġstudies":2859,"ĠìĽĥ":2860,"ĠíķľíħĮ":2861,"Ġì°¨ëŁī":2862,"Ġì²ł":2863,"Ġoffer":2864,"Ġsection":2865,"asing":2866,"ĠíĴį":2867,"ĠëĮĢíķĻ":2868,"ĠìŀĶ":2869,"ĠStates":2870,"duction":2871,"Ġì°¾ìķĦ":2872,"ĠìĬ¤ëŁ¬":2873,"olution":2874,"ĠìĺģíĻĶ":2875,"utions":2876,"ĠëĤĺê°Ģ":2877,"eters":2878,"Ġmaking":2879,"Ġê¸°ìĸµ":2880,"ĠëįĶëĿ¼ê³łìļĶ":2881,"Ġdetail":2882,"Ex":2883,"Ġê¹Ķ":2884,"ìķĪëħķ":2885,"ĠìĨĮë¦¬":2886,"ready":2887,"Ġë¶Ļ":2888,"Ġê¾¸":2889,"Ġgovernment":2890,"íĨ":2891,"ĠìĨĮê°ľ":2892,"conom":2893,"Ġsuper":2894,"íį¼":2895,"ET":2896,"tell":2897,"ëŀľëĵľ":2898,"ìĸ¼":2899,"ĩ´":2900,"Ġê±±ìłķ":2901,"Ġê³µê°Ħ":2902,"ĠìŀĲê¸°":2903,"ĠíļĮìĤ¬":2904,"Ġestim":2905,"Ġê³µë¶Ģ":2906,"Ġê´ľì°®":2907,"Ġsocial":2908,"ë²½":2909,"ĠëĤĺìĻĶ":2910,"ĠAmerican":2911,"Ġtemper":2912,"resp":2913,"ëŀĲ":2914,"Ġê±°ëĵł":2915,"ĠëĤĺìļĶ":2916,"Ġworking":2917,"ë²Į":2918,"ources":2919,"endent":2920,"Ġobject":2921,"Ġfrequ":2922,"ìĬ¨":2923,"Ġexperience":2924,"Ġê°ĳ":2925,"Ġmodels":2926,"ĠìĺĪìłķ":2927,"Ġauthor":2928,"ĠëĤĺëĿ¼":2929,"Ġíķľëĭ¤ê³ł":2930,"ìĹĩ":2931,"ë¡ľëĤĺ":2932,"ector":2933,"Ġêº¼":2934,"Ġassociated":2935,"IS":2936,"arent":2937,"ĠìĭľíĤ¤":2938,"Ġê»ĺìĦľ":2939,"ì±Ħ":2940,"ëĿ¼ê³ł":2941,"ĠìĬµ":2942,"ê»´":2943,"Ġaddress":2944,"ĠëĿ¼ëıĦ":2945,"ë§ģ":2946,"ĠëįĶìļ±":2947,"ì²ł":2948,"Ġhowever":2949,"ĠìĪł":2950,"íĥķ":2951,"ĠìľĦì¹ĺ":2952,"echan":2953,"Ġinves":2954,"Ġìľ¡":2955,"ĠìĿ¼ë³¸":2956,"à¤":2957,"Ġwhy":2958,"Ġdone":2959,"atter":2960,"Ġì¹¨":2961,"Ġalpha":2962,"ĠìĿ¸ê°Ģ":2963,"ĠCO":2964,"Ġê¸°ë¡Ŀ":2965,"ators":2966,"Ġmeasure":2967,"Ġcompany":2968,"Ġalready":2969,"Ġnecess":2970,"Ġmathcal":2971,"Ġìĥģëĭ´":2972,"ëĦĪë¬´":2973,"Ġinvestig":2974,"ĠFigure":2975,"Ġìĸ´ëĬĲ":2976,"Ġmicro":2977,"Ġcourse":2978,"ibility":2979,"Ġsearch":2980,"Ġíı¬ìĬ¤":2981,"Ġincrease":2982,"ìĭ¬íŀĪ":2983,"Ġsurface":2984,"ĠìĿĺìĽĲ":2985,"Ġrequest":2986,"ë¦Ń":2987,"Ġìĭ¸":2988,"Ġwomen":2989,"Ġlevels":2990,"ĠìķĦì¹¨":2991,"Ġtes":2992,"onstr":2993,"ìı":2994,"Ġestab":2995,"Ġchanges":2996,"Ġìĸ´ëıĦ":2997,"tu":2998,"ĠìĹħì²´":2999,"·°":3000,"ĠìľĦìĽĲ":3001,"ID":3002,"Ġê·¸ëłĩê²Į":3003,"Ġproject":3004,"Ġconditions":3005,"Ġê±°ë¦¬":3006,"Ġì§ľ":3007,"ìĶĢ":3008,"Ġperformance":3009,"Ġregion":3010,"Ġcontr":3011,"Ġëģ¼":3012,"Ġgroups":3013,"ĠíĬ¹íŀĪ":3014,"ograph":3015,"Ġë³´íĹĺ":3016,"Ġê°ľë°ľ":3017,"uture":3018,"ê·¸ëŀĺìĦľ":3019,"Ġapplication":3020,"Ġì¤ĺ":3021,"ĠìĺĨ":3022,"Ġoutput":3023,"Ġìĸĺ":3024,"ĠCR":3025,"from":3026,"Ġë¬¼ë¡ł":3027,"Ġdocument":3028,"Ġìļ´ìĺģ":3029,"Ġê²°ìłķ":3030,"ĠìĻĦìłĦ":3031,"Ġìĸ¼êµ´":3032,"Ġë°¤":3033,"Ġeffects":3034,"ëĭ¥":3035,"mission":3036,"time":3037,"Ġê³łê°Ŀ":3038,"Ġversion":3039,"ectively":3040,"set":3041,"Ġrespons":3042,"Ġë¯¿":3043,"Ġë³ĳìĽĲ":3044,"Ġìĩ":3045,"Ġsystems":3046,"ë¦¬ìĬ¤":3047,"Ġnetwork":3048,"ë¨¹":3049,"Ġactivity":3050,"Ġpropos":3051,"ìľĦê¸°":3052,"Ġmatch":3053,"order":3054,"ĠëĤ®":3055,"ĠCourt":3056,"Ġterms":3057,"Ġë§ĲìĶĢ":3058,"ë°Ģ":3059,"Ġëħ¼":3060,"Ġblock":3061,"ì§ķ":3062,"Ġtogether":3063,"Ġacross":3064,"ĠìĬ¬":3065,"Ġìłľê³µ":3066,"ĠII":3067,"Ġearly":3068,"ĠíĥĪ":3069,"Ġì§ĢìļĶ":3070,"Ġìĸ´ëĶĶ":3071,"íĬ¹":3072,"ĠìºĲ":3073,"ĠíĥĦ":3074,"íĥĦ":3075,"Ġelse":3076,"Ġstructure":3077,"Ġdeb":3078,"ĠìĿĳ":3079,"Ġproperty":3080,"Ġreported":3081,"ortun":3082,"Ġì°©":3083,"Ġparticip":3084,"ĠíĮĲë§¤":3085,"ĠëĤ´ëł¤":3086,"íķĳ":3087,"Ġcomplex":3088,"Ġpaper":3089,"Ġspecial":3090,"})":3091,"íħľ":3092,"ĠëĤĺìĻĢ":3093,"Ġëī´":3094,"Ġnormal":3095,"Ġprovided":3096,"Ġcontrib":3097,"Ġhouse":3098,"Ġì»¤íĶ¼":3099,"ĠUniversity":3100,"ĠëĤĺìĺ¨":3101,"Ġexpression":3102,"ounds":3103,"Ġê¸°ì¤Ģ":3104,"íĨµëł¹":3105,"Ġìĭľì¼ľ":3106,"Ġê¸°ê°Ħ":3107,"Ġsepar":3108,"ĠìĽĮ":3109,"Ġìķī":3110,"ĠëĶĶìŀĲ":3111,"Ġreach":3112,"Ġë§Įì¡±":3113,"Ġbecome":3114,"ë²ł":3115,"ĠíĻĪ":3116,"AC":3117,"Ġreport":3118,"ê¹ĮìļĶ":3119,"LE":3120,"Ġëĵ£":3121,"ëĪĦ":3122,"lation":3123,"Ġmechan":3124,"Ġenough":3125,"ëŀ¨":3126,"Ġvarious":3127,"Ġë§Īì§Ģë§ī":3128,"Ġtell":3129,"ĠìķĮìķĦ":3130,"Ġparti":3131,"Ġquality":3132,"Ġìµľê·¼":3133,"Ġê·¸ëŀĺëıĦ":3134,"Ġbehav":3135,"ë²Ķ":3136,"Ġbenef":3137,"Ġcompared":3138,"Ġíĺ¹":3139,"ìĬ¤íģ¬":3140,"ĠëĤ¨ìŀĲ":3141,"Ġsuggest":3142,"ìĹĦ":3143,"ëıĮ":3144,"Ġpotential":3145,"urity":3146,"Ġthird":3147,"ë¡ľê·¸":3148,"Ġstring":3149,"ìī¬":3150,"Ġê¸°ëĬ¥":3151,"Ġconduc":3152,"anted":3153,"Ġenvironment":3154,"ĠOne":3155,"Ġissue":3156,"ĠìłĦíĻĶ":3157,"Ġthought":3158,"ì¥":3159,"Ġstyle":3160,"ĠState":3161,"Ġê¸°ë³¸":3162,"ering":3163,"Ġthing":3164,"ë¦½ëĭĪëĭ¤":3165,"Ġmultiple":3166,"Ġdescribed":3167,"ĠìĺĪìļĶ":3168,"wards":3169,"Ġeconom":3170,"Ġartic":3171,"ĠëĮĢíĨµëł¹":3172,"pro":3173,"Ġphoto":3174,"Ġë´ī":3175,"AM":3176,"ĠìĻķ":3177,"ì¯":3178,"Ġshows":3179,"Ġê²¨":3180,"Ġdevice":3181,"Ġconst":3182,"Ġservices":3183,"Ġaw":3184,"Ġclear":3185,"Ġinstall":3186,"var":3187,"most":3188,"Ġdefault":3189,"Ġë§ĺ":3190,"Ġë¬´ìĹĩ":3191,"ëĭ¤ëĬĶ":3192,"Ġê³łê¸°":3193,"Ġpositive":3194,"sh":3195,"ĠìŀĲìĹ°":3196,"Ġìĸ¸ìłľ":3197,"ĠìĤ¶":3198,"ĠìĦłë¬¼":3199,"Ġproduct":3200,"Ġê±°ìĿĺ":3201,"Ġê±°ëĵłìļĶ":3202,"ëłĪìĬ¤":3203,"ising":3204,"ê²¼":3205,"ĠëĮĢë¡ľ":3206,"Ġregard":3207,"Ġê´Ģìĭ¬":3208,"ĠìĦłìĪĺ":3209,"tional":3210,"ļĦ":3211,"ĠêµŃë¯¼":3212,"Ġothers":3213,"ëĶ©":3214,"Ġincreased":3215,"ĠëĮĢìĥģ":3216,"Ġbelow":3217,"Ġë¶ĦìľĦê¸°":3218,"Ġmembers":3219,"ĠìľĦíķ´ìĦľ":3220,"Ġaccording":3221,"Ġobserved":3222,"Ġëĭ¤ëħĢ":3223,"ĠìĬ¤ëŁ½":3224,"Ġpoints":3225,"ìŀĲê¸°":3226,"Ġì¯":3227,"ĠìłĢëħģ":3228,"Ġìı":3229,"ì°Į":3230,"Ġcountry":3231,"ì¶©":3232,"ê·Ģ":3233,"Ġfactors":3234,"Ġcame":3235,"íľ":3236,"ĠìĹ¬ìŀĲ":3237,"ê·¸ëŁ¬":3238,"ĠëĿ¼ìĦľ":3239,"Ġdefend":3240,"Ġintegr":3241,"ĠêµŃëĤ´":3242,"ĠTH":3243,"taken":3244,"Ġrelationship":3245,"ê±°ë¦¬":3246,"Ġcannot":3247,"Ġaccount":3248,"Ġì½Ķë¡ľëĤĺ":3249,"Ġfuture":3250,"ĠëĬ¥":3251,"Ġíĳ¸":3252,"truction":3253,"Ġexpress":3254,"Ġprior":3255,"ìħĶ":3256,"Ġendofsec":3257,"ê·ł":3258,"Ġtook":3259,"Ġë¬¸íĻĶ":3260,"Ġíķľëĭ¤ëĬĶ":3261,"Ġ||":3262,"Ġê·¼ëį°":3263,"Ġclose":3264,"respond":3265,"ĠìĿ´ê²ĥ":3266,"oint":3267,"ìĿ´ë²Ī":3268,"Ġì¸¡":3269,"andom":3270,"Ġseries":3271,"Ġlangu":3272,"import":3273,"Ġêµ¬ìĦ±":3274,"Ġcover":3275,"ĠëĬĲê»´":3276,"rt":3277,"ensive":3278,"ĠìĹ´ìĭ¬íŀĪ":3279,"ĠìĿ¼ë°ĺ":3280,"Ġsolution":3281,"Ġwidth":3282,"Ġìį":3283,"Ġamount":3284,"Ġìķħ":3285,"Ġëħ¸ëł¥":3286,"Ġconsidered":3287,"Ġdisplay":3288,"Ġmonths":3289,"īìŀ¥":3290,"Ġì¡°ìĤ¬":3291,"ĠëŃĶ":3292,"ledge":3293,"Ġarray":3294,"Ġobtained":3295,"Ġpercent":3296,"Ġmoney":3297,"Ġfinal":3298,"uration":3299,"Ġlimit":3300,"Ġrather":3301,"ĠAfter":3302,"ambda":3303,"Ġstudents":3304,"Ġimprove":3305,"ĠëĶĶìŀĲìĿ¸":3306,"Ġeffic":3307,"ĠìŀĲëıĻ":3308,"Ġfeatures":3309,"Ġanaly":3310,"Ľ°":3311,"Ġê·¸ê²ĥ":3312,"ë¶Ģë¶Ħ":3313,"ĠìķĶ":3314,"unction":3315,"Ġra":3316,"ĠTable":3317,"Ġì¿ł":3318,"Ġcommunity":3319,"Ġëįķ":3320,"Ġdefin":3321,"Ģë¡ľ":3322,"Ġconcentr":3323,"Ġ->":3324,"ĠTrue":3325,"ĠíķĻìĥĿ":3326,"Ġmethods":3327,"ëĿ¼ìĿ´":3328,"íħĶ":3329,"ification":3330,"Ġoccur":3331,"Ġyoung":3332,"Ġworks":3333,"Ġì¯¤":3334,"ĠìĿ´ëŁ¬":3335,"ĠëıĦìĭľ":3336,"Ġ{}":3337,"Ġintro":3338,"Ġflo":3339,"Ġìĺ¬íķ´":3340,"Ġìł¸":3341,"ĠìķĦëŀĺ":3342,"ĠìĦ¼íĦ°":3343,"ĠìĦ¤ì¹ĺ":3344,"ê³łê¸°":3345,"íĮ¨":3346,"ëłµ":3347,"Ġsignal":3348,"ĠìĻĢìĦľ":3349,"Ġíĺ¼ìŀĲ":3350,"Ġíı¬ìĬ¤íĮħ":3351,"Ġdeath":3352,"ìĽĥ":3353,"Ġë²Ķ":3354,"Ġseason":3355,"Ġê²½íĹĺ":3356,"ĠìĹ¬ìĦ±":3357,"Ġadmin":3358,"Ġë§Īìĭľ":3359,"Ġìĭ«":3360,"ë´ī":3361,"ensity":3362,"ìĪĻ":3363,"Ġcorrespond":3364,"Ġfactor":3365,"Ġtry":3366,"Ġìľłì§Ģ":3367,"ĠìĿ¸íĦ°":3368,"ĠìĪĻ":3369,"Ġìĺ·":3370,"lobal":3371,"ë»":3372,"ì°¸":3373,"Ġitem":3374,"ĠìĥģíĴĪ":3375,"Ġweight":3376,"ìļ´ëį°":3377,"Ġtold":3378,"ĠìłĦì²´":3379,"ĠìĨ¡":3380,"ception":3381,"ĠìĿĺë¯¸":3382,"ëł´":3383,"Ġlearn":3384,"Ġdecre":3385,"Ġdiffic":3386,"Ġpattern":3387,"ĠíĿĲ":3388,"Ġsimple":3389,"UM":3390,"ĠëıĦì°©":3391,"Ġvalid":3392,"Ġë§ŀì¶":3393,"use":3394,"ĠìĦ¸ìĥģ":3395,"ìĨĲ":3396,"ĠêµŃê°Ģ":3397,"ë¶ĢíĦ°":3398,"Ġìĺ¤ëŀĺ":3399,"Ġmakes":3400,"Ġachie":3401,"à¸":3402,"Ġtaken":3403,"Ġê°ľìĽĶ":3404,"Ġbound":3405,"Ġìĸ»":3406,"Ġmedia":3407,"ference":3408,"ĠíĻĺê²½":3409,"Ġë¿Į":3410,"Ġìĩ¼":3411,"ĠìłľìĿ¼":3412,"RE":3413,"Ġlooking":3414,"ĠìĿµ":3415,"Ġcalcul":3416,"Ġcross":3417,"ĠìĪĺìĹħ":3418,"ĠìķĦíĮĮ":3419,"íĶĪ":3420,"Ġtemperature":3421,"Ġinflu":3422,"ĠìŀĲì£¼":3423,"ĠìĭŃ":3424,"Ġnull":3425,"Ġdoesn":3426,"inary":3427,"Ġblack":3428,"ĠíķŃìĥģ":3429,"ë¥¼":3430,"ĠìĨĶ":3431,"oup":3432,"Ġlikely":3433,"Ġë°ĶëĿ¼":3434,"RO":3435,"Ġhistory":3436,"ì¹ł":3437,"Ġì»¨":3438,"ĠìĽĢ":3439,"ì«":3440,"artment":3441,"ĠìĿ´íķ´":3442,"Ġê¼¬":3443,"Ġtypes":3444,"ê°ĳ":3445,"ĠëĮĢíķ´ìĦľ":3446,"Ġë½":3447,"ê·ľ":3448,"Ġë¶Ģëĭ´":3449,"ĠìĥĪë¡ľìļ´":3450,"Ġactually":3451,"ëĦĲ":3452,"Ġframe":3453,"aintiff":3454,"Ġwhole":3455,"Ġíį¼":3456,"ìĽĮìĦľ":3457,"Ġíķ´ê²°":3458,"ished":3459,"ìķĻ":3460,"Ġproducts":3461,"Ġíı¬íķ¨":3462,"Ġstatus":3463,"ê³¨":3464,"Ġê²ĮìŀĦ":3465,"Ġproduction":3466,"Ġë§Ŀ":3467,"Ġì¥":3468,"Ġì¤¬":3469,"ĠìµľëĮĢ":3470,"Ġdoing":3471,"Ġë§¤ìļ°":3472,"ìĬ¬":3473,"Ġgrowth":3474,"íĥĪ":3475,"ĠìķĦìķ¼":3476,"Ġoptim":3477,"Ġ-----------------":3478,"ĠIN":3479,"get":3480,"Ġwent":3481,"Ġassess":3482,"Ġìĸĺê¸°":3483,"ĠíĴĪ":3484,"ĠëĬĲëģ¼":3485,"ystem":3486,"ĠìłľëĮĢë¡ľ":3487,"Ġê·¹":3488,"ĠíĻľìļ©":3489,"Ġê¶ģê¸Ī":3490,"ìľµ":3491,"Ġobj":3492,"fficient":3493,"Ġmatter":3494,"Ġperformed":3495,"Ġteach":3496,"oo":3497,"Ġadded":3498,"Ġë¹¼":3499,"ìĹĨìĿ´":3500,"Ġneeds":3501,"Ġissues":3502,"Ġ&&":3503,"name":3504,"Ġì¹¼":3505,"Ġnight":3506,"ë¬´ë¦¬":3507,"arning":3508,"ëįķ":3509,"Ġmessage":3510,"Ġì±Ļ":3511,"Ġchall":3512,"Ġstrateg":3513,"Ġonline":3514,"Ġimplement":3515,"her":3516,"Ġelement":3517,"uments":3518,"ê³¡":3519,"Ġdemonstr":3520,"Ġê¹ĶëģĶ":3521,"ê·¼ëį°":3522,"Ġshowed":3523,"tition":3524,"Ġwebsite":3525,"ëŀµ":3526,"ĠìĦ±ìŀ¥":3527,"Tr":3528,"Ġtitle":3529,"ëĭ¤ë©´":3530,"where":3531,"ĠPC":3532,"Ġë§¥":3533,"osition":3534,"Ġchann":3535,"astic":3536,"Ġê°Ģìł¸":3537,"Ġpersonal":3538,"Ġcommit":3539,"Ġcause":3540,"ĠìŀĲì²´":3541,"OS":3542,"Ġincluded":3543,"tention":3544,"Ġë¹µ":3545,"Ġdefined":3546,"Ġindep":3547,"ĠëĽ°":3548,"Ġìŀĸ":3549,"izing":3550,"Ġinitial":3551,"ĠìĿ´ëĿ¼ê³ł":3552,"Ġíıīê°Ģ":3553,"Ġcreat":3554,"Ġìľ¤":3555,"ìŀ¡":3556,"na":3557,"íĴį":3558,"ë¨¸ëĭĪ":3559,"Ġë¶ĢìĤ°":3560,"ĠìĿ¸ëį°ìļĶ":3561,"pecially":3562,"Ġaverage":3563,"ì¦Į":3564,"verse":3565,"ĠìĤ°ìĹħ":3566,"print":3567,"ĠìĥģëĮĢ":3568,"type":3569,"Ġê²ĢìĤ¬":3570,"Ġalmost":3571,"Ġrandom":3572,"Ġentire":3573,"cript":3574,"times":3575,"aging":3576,"ĠíĻĶìŀ¥":3577,"go":3578,"illed":3579,"ĠìĤ¬ê³ł":3580,"Ġëħ¸ëŀĺ":3581,"Ġproblems":3582,"Ġìľłëªħ":3583,"ilities":3584,"Ġsample":3585,"Ġê¸°ê´Ģ":3586,"ê¹Ĳ":3587,"ĠíĿ¬":3588,"Ġtrack":3589,"íķĺì§Ģë§Į":3590,"ĠìŀĲìĦ¸":3591,"ĠìĿ´ìĸ´":3592,"Ġcolumn":3593,"Ġstory":3594,"Ġë©ĭ":3595,"fact":3596,"ĠíĻ©":3597,"ĠST":3598,"Ġblood":3599,"Ġparty":3600,"Ġvideo":3601,"Ġìĭłì²Ń":3602,"ħëĭĪëĭ¤":3603,"Ġoriginal":3604,"ĠìķĪìłĦ":3605,"Ġrespectively":3606,"ulated":3607,"ìķĶ":3608,"Ġëĭ¤ë¥´":3609,"ĠSome":3610,"Ġconsist":3611,"gress":3612,"Ġìłķë¦¬":3613,"ication":3614,"Ġasked":3615,"ëĶĶìĸ´":3616,"Ġë°ĶëŀĮ":3617,"Ġreceived":3618,"ìĭľìķĦ":3619,"Ġìĭłê²½":3620,"Ġdifference":3621,"Ġprotein":3622,"ĠìĦ±ê³µ":3623,"Ġstates":3624,"AP":3625,"Ġë©Ģ":3626,"Ġìĸ´ë¦°":3627,"Ġwindow":3628,"ìŃ":3629,"Ġëħ¹":3630,"atively":3631,"Ġprovides":3632,"ĠìĿ¸íķ´":3633,"OT":3634,"Ġevents":3635,"ĠìĪľê°Ħ":3636,"ëŁ´":3637,"Ġrecogn":3638,"Ġwords":3639,"AD":3640,"Ġìłľì£¼":3641,"íķĦ":3642,"log":3643,"ëĭĪê¹Į":3644,"Ġnecessary":3645,"Ġì°¨ìĿ´":3646,"Ġphase":3647,"ĠìĭľíĹĺ":3648,"ĠëĶ¸":3649,"Ġadditional":3650,"Ġmathbb":3651,"Ġhours":3652,"Ġproto":3653,"truct":3654,"Ġê²¬":3655,"anced":3656,"Ġparameters":3657,"ĠìĿ´ëĤł":3658,"Ġê²°êµŃ":3659,"Ġdecision":3660,"ĠMin":3661,"ĠíĶ¼íķ´":3662,"Ġìľ¼ìĭľ":3663,"istics":3664,"Ġdirection":3665,"Ġdisease":3666,"Ġtoday":3667,"Ġwhite":3668,"Ġìļķ":3669,"Ġspecies":3670,"ĠìĹ¬ë¦Ħ":3671,"Ġproperties":3672,"Ġactive":3673,"ë¦¬ìĸ´":3674,"Ġbreak":3675,"ĠëĤłìĶ¨":3676,"ĠëĺĲëĬĶ":3677,"ĠCD":3678,"ĠEurope":3679,"Ġcontext":3680,"Ġê°ľìĦł":3681,"Ġì£¼ë³Ģ":3682,"Ġê¸Īìľµ":3683,"Ġconsum":3684,"ìĿ´ì§Ģ":3685,"eration":3686,"Ġwrite":3687,"Ġpopulation":3688,"Ġdistribution":3689,"lying":3690,"Ġìĺ¤íĽĦ":3691,"Ġpolicy":3692,"ĠìĺĪìķ½":3693,"Ġë¸Ķë¡ľê·¸":3694,"Ġê¿Ī":3695,"Ġlanguage":3696,"Ġë³ĢíĻĶ":3697,"ìķĮ":3698,"ĠíħĲ":3699,"ĠPH":3700,"Ġneeded":3701,"Ġì¦Ŀê°Ģ":3702,"elves":3703,"Ġëĵľë¦½ëĭĪëĭ¤":3704,"Ġcenter":3705,"ender":3706,"Ġìĺ¬ëł¤":3707,"Ġìĺģìĥģ":3708,"Ġexpected":3709,"taking":3710,"Ġëĺ":3711,"Ġstarted":3712,"ĠíĿĶ":3713,"cription":3714,"Ġformat":3715,"ëŃ":3716,"Ġwatch":3717,"Ġmillion":3718,"IG":3719,"Ġscale":3720,"ĠíĸĪìĹĪ":3721,"Ġì²ŃìĨĮ":3722,"Ġknowledge":3723,"Ġtraining":3724,"Ġì»¬":3725,"ĠëĦĵ":3726,"Ġëĵľë¦´":3727,"Ġcontain":3728,"Ġcreated":3729,"ĠìĹ¼":3730,"isted":3731,"Ġlayer":3732,"Ġminutes":3733,"Ġespecially":3734,"ĠìĭľìĬ¤":3735,"ĠìĦłìĥĿ":3736,"titution":3737,"ëĿ¼ìĿ¸":3738,"Ġquick":3739,"iation":3740,"ì³¤":3741,"ĠëĶ°ë¥´":3742,"Ġë°©ìĭĿ":3743,"Ġê·¸ëŁ¬ëĤĺ":3744,"ĠíķĺëĤĺëĭĺ":3745,"ĠìĦĿ":3746,"Ġë¹ĦêµĲ":3747,"ĠëĪĦêµ¬":3748,"Ġoptions":3749,"Ġìŀĩ":3750,"Ġì°¸ìĹ¬":3751,"ì§¸":3752,"Ġìłķìĭł":3753,"gorith":3754,"top":3755,"Ġìĺ¬ë¦¬":3756,"Ġê·¸ë¦¬":3757,"Ġsignificantly":3758,"EL":3759,"Ġëľ¨":3760,"Ġimages":3761,"ĠíŀĪ":3762,"Ġìŀħìŀ¥":3763,"ĠìĿ´ë£¨":3764,"Ġcontroll":3765,"Ġgetting":3766,"Ġë§¤ìĿ¼":3767,"Ġpressure":3768,"aid":3769,"ëŀľë§Į":3770,"Ġë¹Į":3771,"íĽ":3772,"Ġmoment":3773,"ĠìĿ¼ëĭ¨":3774,"iting":3775,"Ġê·¸ë¦¼":3776,"íĭĢ":3777,"rror":3778,"ì§Ĳ":3779,"ĠíĽĦê¸°":3780,"ëĥĲ":3781,"Ġê¸°ìŀĲ":3782,"Ġì§Ģë°©":3783,"Ġtherefore":3784,"class":3785,"ae":3786,"Ġìĭľì¦Į":3787,"Ġattack":3788,"ĠíĬ¹ë³Ħ":3789,"ternal":3790,"Ġaligned":3791,"Ġcomplete":3792,"Ġê°Ģìļ´ëį°":3793,"tific":3794,"Ġcompar":3795,"Ġìłķì±ħ":3796,"Ġtrying":3797,"ë³¼":3798,"ĠìĽ¨":3799,"ening":3800,"Ġanything":3801,"ëĦ·":3802,"Ġê°Ģê¹Į":3803,"ì¡¸":3804,"Ġfeature":3805,"Ġlambda":3806,"fully":3807,"mitted":3808,"Ġgraph":3809,"ëľ»":3810,"There":3811,"Ġlines":3812,"Ġë¶Ģì¡±":3813,"bstract":3814,"ention":3815,"Ġmember":3816,"Ġfront":3817,"Ġbelieve":3818,"Ġareas":3819,"come":3820,"Ġê·ľëª¨":3821,"ĠëĬ¦":3822,"ĠìĬ¤íĥĢìĿ¼":3823,"Ġinvest":3824,"ĠíĻķìĭ¤":3825,"word":3826,"ĠëĮĢë¹Ħ":3827,"Ġeffective":3828,"Ġfalse":3829,"ĠìĺĪìĥģ":3830,"Ġproced":3831,"Ġcontact":3832,"ĠìĪĺì¤Ģ":3833,"ĠìĬ¤íĬ¸":3834,"Ġnothing":3835,"ëª»":3836,"Ġdeveloped":3837,"Ġelect":3838,"Ġìĸ¼ë§ĪëĤĺ":3839,"Ġì½ĺ":3840,"ĠíĽĦë³´":3841,"ĠìĿ´ê±°":3842,"Ġë²Ħë¦¬":3843,"Ġcomes":3844,"Ġground":3845,"ĠíĳľíĺĦ":3846,"Ġìŀ¬ë¯¸":3847,"Ġëĸ¨ìĸ´":3848,"Ġattem":3849,"Ġdistr":3850,"tware":3851,"Ġë§Įëĵł":3852,"Ġtaking":3853,"ìĿ´ë¸Ķ":3854,"ĠìĿ¸ê°Ħ":3855,"ìĿ¸íĬ¸":3856,"Ġê³łìļĶ":3857,"Ġevalu":3858,"ĠìĥĿê¸°":3859,"ĠNational":3860,"ë²¤":3861,"ĠëĮĢë¶Ģë¶Ħ":3862,"ĠìĤ¬ê±´":3863,"Ġìĸ¸ëĭĪ":3864,"Ġmanagement":3865,"Ġìĭ¤ìłľ":3866,"ho":3867,"Ġë¹Ħìļ©":3868,"Ġheight":3869,"ĠVal":3870,"ĠìĭľìĦ¤":3871,"ê°Ļ":3872,"Ġsubst":3873,"PS":3874,"Ġ-------------------------":3875,"iddle":3876,"ĠíĸīìĤ¬":3877,"Ġinstead":3878,"Ġ=>":3879,"Ġshall":3880,"Ġì¦Ŀìĥģ":3881,"ëĪĪ":3882,"Ġìĺģíĸ¥":3883,"Ġë¹¨ë¦¬":3884,"Ġautom":3885,"ë§ĪíĬ¸":3886,"Ġì¶©ë¶Ħ":3887,"Ġusers":3888,"Ġëĸ¡":3889,"ê²Ģ":3890,"Ġemail":3891,"Ġë°ľíĳľ":3892,"Ġëª»íĸĪ":3893,"Ġnatural":3894,"ê·¸ëŀ¨":3895,"Ġíķ´ëĭ¹":3896,"Ġëľ»":3897,"ithub":3898,"Ġheart":3899,"Ġë°°ìļ°":3900,"Ġshare":3901,"ĠìĹ¬ëŁ¬ë¶Ħ":3902,"Ġë°ĶìĿ´":3903,"ĠìĭľìĬ¤íħľ":3904,"Ġpresented":3905,"CC":3906,"Ġmusic":3907,"inally":3908,"Ġincludes":3909,"ulations":3910,"Ġê²°íĺ¼":3911,"ĠíıĲ":3912,"istance":3913,"ëį¸":3914,"Ġsubject":3915,"Ġë´Ħ":3916,"Ġìĸ´ëłµ":3917,"Ġlearning":3918,"Ġë§Īëł¨":3919,"ĠìķĮìķĦë³´":3920,"Ġê°ĢëĵĿ":3921,"Ġspeed":3922,"my":3923,"Ġrecomm":3924,"Ġbuilding":3925,"Ġquestions":3926,"ĠìĿ´ëıĻ":3927,"Ġselect":3928,"Ġprofession":3929,"Ġitself":3930,"Ġíĩ´":3931,"ëŀ¬":3932,"Ġprice":3933,"Ġê±°ëŀĺ":3934,"ining":3935,"Ġíķľëį°":3936,"Ġì§ĳì¤ĳ":3937,"ĠTV":3938,"Ġrecent":3939,"Ġë§Īë¬´ë¦¬":3940,"Ġprimary":3941,"ìĿ´ëłĩê²Į":3942,"¬ìĺģ":3943,"EM":3944,"Ġê²ģ":3945,"ĠíĶĦë¡ľê·¸ëŀ¨":3946,"ĠìĦľë¡ľ":3947,"Ġì¹´ëĵľ":3948,"Ġassum":3949,"Ġpatient":3950,"Ġcompl":3951,"ë¨¼":3952,"Ġë§ģ":3953,"Ġconcern":3954,"íĹĪ":3955,"Ġincreasing":3956,"OU":3957,"Ġfunctions":3958,"Ġmotion":3959,"Ġclient":3960,"Ġinvolved":3961,"IL":3962,"Ġproposed":3963,"ĠëĭŃ":3964,"ìŀĶ":3965,"ì¼ĵ":3966,"Ġseems":3967,"Ġê·¸ëŁ°ëį°":3968,"ĠìĺĪìģĺ":3969,"aving":3970,"íķ´ìĦľ":3971,"Ġê³Ħìķ½":3972,"ĠFalse":3973,"Ġtransfer":3974,"Ġprobably":3975,"Ġaccur":3976,"Ġë¶ĦìĦĿ":3977,"ĠëĤ´ë¶Ģ":3978,"Ġgithub":3979,"ĠëĤĺìĿ´":3980,"ìĹ¬ê¸°":3981,"Ġì£¼ì°¨":3982,"ĠíĮ¬":3983,"Ġsamples":3984,"ìļĶì¦ĺ":3985,"ĠìĬĪ":3986,"Ġcorrect":3987,"Ġrunning":3988,"ĠìķĦíĮĮíĬ¸":3989,"Ġìĸ´ì©":3990,"),":3991,"Ġendoftext":3992,"Ġoption":3993,"Ġelements":3994,"Ġì«":3995,"ĠìĪ¨":3996,"ë¦¬ìķĦ":3997,"Ġì§ĢëĤľíķ´":3998,"íĺľ":3999,"uster":4000,"Ġimpact":4001,"Ġalgorith":4002,"ìĬ·":4003,"Ġshape":4004,"Ġìłľìŀĳ":4005,"ĠëŃĶê°Ģ":4006,"Ġengine":4007,"Ġmaintain":4008,"Ġbackground":4009,"ĠìĭĿìĤ¬":4010,"Ġë§¨":4011,"Ġopportun":4012,"Ġê·¸ëĮĢë¡ľ":4013,"Ġapproxim":4014,"Ġì§ģìĽĲ":4015,"Ġscreen":4016,"Ġapplied":4017,"ëł¤ìĦľ":4018,"ìĤ¼":4019,"EC":4020,"Ġê°Ħëĭ¨":4021,"ĠìķĦê¸°":4022,"Ġconven":4023,"ìĿ´íĦ°":4024,"Ġbecame":4025,"ìĻĦ":4026,"Ġphysical":4027,"Ġexact":4028,"Ġdetermined":4029,"Ġsomeone":4030,"Ġglobal":4031,"ĠìĥģìĬ¹":4032,"íĦ´":4033,"Ġfiles":4034,"ë¦¿":4035,"BC":4036,"ĠìŀĸìķĦ":4037,"ĠìĿ´ìĤ¬":4038,"Ġmolec":4039,"this":4040,"ëĥĪ":4041,"Ġcommand":4042,"Ġquite":4043,"ĠIntern":4044,"itation":4045,"Ġsimply":4046,"Ġë»":4047,"Ġsecurity":4048,"Ġlocation":4049,"Ġìĵ¸":4050,"Ġlonger":4051,"Ġitems":4052,"Ġinside":4053,"umber":4054,"Ġreference":4055,"enced":4056,"ĠWorld":4057,"Ġconstant":4058,"Ġì¡Į":4059,"Ġêµ¬ìŀħ":4060,"Ġbring":4061,"Ġì²ĺë¦¬":4062,"Ġrelease":4063,"Ġì¢ħë¥ĺ":4064,"Ġinstance":4065,"Ġarticle":4066,"Ġìłģìļ©":4067,"Ġì´¬ìĺģ":4068,"ederal":4069,"Ġforce":4070,"Ġê¸°ëĭ¤ë¦¬":4071,"Ġcontinu":4072,"kn":4073,"Ġpresence":4074,"Ġprinc":4075,"Ġsense":4076,"Ġë¹Ī":4077,"Ġê¹Ĭ":4078,"Ġìłķìĥģ":4079,"Ġëĭ¹ìĭľ":4080,"ustry":4081,"Ġë¬´ìĬ¨":4082,"Ġexpect":4083,"ĠíĺĪ":4084,"Ġê°Ĳëıħ":4085,"Ġdirectly":4086,"ĠìŀĲëıĻì°¨":4087,"Ġê·¸ëŁ¼":4088,"Ġserver":4089,"Ġensure":4090,"Ġì¡´ìŀ¬":4091,"actions":4092,"Ġê³¤":4093,"Ġëĭ¨ê³Ħ":4094,"Ġrespect":4095,"Ġì°¬":4096,"Ġformer":4097,"Ġcancer":4098,"Ġround":4099,"ĠíĥĿ":4100,"elling":4101,"íĺ¹":4102,"Ġfilter":4103,"ìłķë§Ĳ":4104,"Ġì£¼íĥĿ":4105,"arily":4106,"Ġcompan":4107,"Ġkm":4108,"Ġdynam":4109,"ĠìĿĢíĸī":4110,"Ġresid":4111,"Ġë§¡":4112,"ĠíĻĺìŀĲ":4113,"Ġë°ľê²¬":4114,"Ġìĭ±":4115,"ackage":4116,"ëįĺ":4117,"Ġlimited":4118,"Ġforward":4119,"inding":4120,"Ġêµ¬ì¡°":4121,"ìĿ´ìłľ":4122,"arrow":4123,"etric":4124,"ĠSouth":4125,"ĠìĤ´ì§Ŀ":4126,"ĠìĿ¸ìĤ¬":4127,"Ġeverything":4128,"BS":4129,"Ġoutside":4130,"Ġì¦ī":4131,"ĠíĺĦëĮĢ":4132,"Ġìľ¼ë©´ìĦľ":4133,"Ġtechnology":4134,"Ġì§ĢìĨį":4135,"Ġimmun":4136,"ĠìłĢëł´":4137,"ously":4138,"ĠëĶ°ë¡ľ":4139,"Ġê²½ì°°":4140,"ì½¤":4141,"Ġíģ¬ë¦¼":4142,"Ġinhib":4143,"earch":4144,"Ġgreater":4145,"Ġvehic":4146,"Ġusually":4147,"ìĨĮë¦¬":4148,"ìĭ¸":4149,"tivity":4150,"Ġìłķì¹ĺ":4151,"Ġì£¼ë§Ĳ":4152,"Ġstress":4153,"ĠID":4154,"ìĿ¸ëĭ¤":4155,"ĠìĬ¤ëŁ¬ìļ´":4156,"Ġtransform":4157,"Ġhydro":4158,"ĠíķĻìĽĲ":4159,"ĠëĥĦ":4160,"ĠìŀĲìľł":4161,"ĠìĪĺìĪł":4162,"Ġdetermine":4163,"Ġfinanc":4164,"ë·°":4165,"Ġì¤ĳìĭ¬":4166,"istration":4167,"more":4168,"Ġsequence":4169,"Ġstage":4170,"Ġë°Ķëŀ":4171,"Ġë¹Ľ":4172,"ë§İ":4173,"ê·¸ëŀĺëıĦ":4174,"Ġcomponents":4175,"tries":4176,"Ġë¶Ģëª¨":4177,"Ġupdate":4178,"Ġê¸°ì¡´":4179,"ìľ¼ë©°":4180,"Ġmemory":4181,"ĠìĿ¼ë¶Ģ":4182,"Ġë¯¸ë¦¬":4183,"Ġgames":4184,"Ġbasis":4185,"else":4186,"Ġwritten":4187,"Ġë³´íĺ¸":4188,"task":4189,"Ġpurch":4190,"ì²Ļ":4191,"ĠìĿ¼ìĸ´ëĤĺ":4192,"Ġìĺ¤ë¹ł":4193,"Ġëįľ":4194,"Ġability":4195,"Ġinterp":4196,"Ġpolitical":4197,"Ġclean":4198,"irect":4199,"ĠìĿ´ê³³":4200,"Ġë¹ĦìĬ·":4201,"ĠëĮĢì¶ľ":4202,"Ġìķ½ê°Ħ":4203,"Ġìĥ¤":4204,"Ġnegative":4205,"ìķĦìĿ´":4206,"atform":4207,"Ġbehavior":4208,"ĠìĤ¬ìŀ¥":4209,"Ġpartial":4210,"ĠìłķíĻķ":4211,"ëŁŃ":4212,"ĠëĬ¥ëł¥":4213,"Ġbehind":4214,"Ġìĺģìĸ´":4215,"Ġselected":4216,"ìĮĢ":4217,"Ġcount":4218,"ĠìłĦë§Ŀ":4219,"ëıĻìķĪ":4220,"Ġê²¨ìļ¸":4221,"vious":4222,"¾Į":4223,"ĠìŀĳíĴĪ":4224,"Ġê¸°íļĮ":4225,"Ġíİ¸íķĺ":4226,"Ġurl":4227,"Ġëĥī":4228,"Ġëª»íķľ":4229,"ìħ¨":4230,"Ġêµ¬ê²½":4231,"Ġë§Įëĵľ":4232,"Ġfriend":4233,"Ġavoid":4234,"Ġdifficult":4235,"ĠìĤ¼ìĦ±":4236,"Ġë¸Įëŀľëĵľ":4237,"Ġsaw":4238,"Ġìķ¡":4239,"Ġë°ĸìĹĲ":4240,"ĠìĹ°ê²°":4241,"Ġê·¸ëŁ°ì§Ģ":4242,"Ġì°¸ê³ł":4243,"ĠìķĦë¹ł":4244,"ì§Ħì§ľ":4245,"ĠìĽĲëŀĺ":4246,"Ġtradition":4247,"Ġfrequency":4248,"ĠìĹ°ëĿ½":4249,"Ġmention":4250,"rength":4251,"ĠíĭĢ":4252,"Ġì¢Į":4253,"ements":4254,"ìĿ´ëĵľ":4255,"íĽĪ":4256,"ìĻķ":4257,"ë§ĪìŀĲ":4258,"Ġë°©ìĨ¡":4259,"RI":4260,"ĠíĺĦìŀ¥":4261,"Ġê´Ģê³ĦìŀĲ":4262,"ëŀĻ":4263,"Ġdegree":4264,"Ġmathbf":4265,"Ġhimself":4266,"Ġëª¨ìĸĳ":4267,"Ġliter":4268,"ìĶ¬":4269,"ìĦ¸ìļĶ":4270,"Ġìķķ":4271,"Ġremain":4272,"ëĭĿ":4273,"Ġwanted":4274,"Ġê·ĢìĹ¬":4275,"Ġprefer":4276,"ĠëģĮ":4277,"Ġnature":4278,"ëª¬":4279,"Ġì§Ĳ":4280,"ĠìĥĿìĤ°":4281,"tings":4282,"Ġalthough":4283,"Ġtheory":4284,"ĠNorth":4285,"ĠëŀįëĭĪëĭ¤":4286,"Ġê°ķíĻĶ":4287,"Ġnational":4288,"Ġdesigned":4289,"acity":4290,"Ġcollection":4291,"ĠìŀĲë§ĪìŀĲ":4292,"Ġê½¤":4293,"Ġdefendant":4294,"Ġbroad":4295,"Ġpractice":4296,"Ġfollows":4297,"Ġaltern":4298,"Ġmedical":4299,"Ġmatrix":4300,"used":4301,"Ġë³Ħë¡ľ":4302,"Ġëĭ¬ëŁ¬":4303,"Ġsound":4304,"ê²ĮìļĶ":4305,"Ġprevent":4306,"ĠìĭľëĮĢ":4307,"Ġsoftware":4308,"Ġbegan":4309,"Ġdiagn":4310,"Ġìºł":4311,"Ġregular":4312,"asons":4313,"thern":4314,"Ġìĸ´ìļ¸":4315,"ê·¸ëŁ°":4316,"Ġìľ¨":4317,"ufact":4318,"ĠìĽĢì§ģ":4319,"Ġbottom":4320,"ĠìķĦë¦Ħ":4321,"Ġbutton":4322,"Ġëª¨ëį¸":4323,"Ġíķµ":4324,"ì°į":4325,"Ġë°ľìłĦ":4326,"Ġsatisf":4327,"ê½ĥ":4328,"Ġnucle":4329,"ĠFirst":4330,"ì¼°":4331,"ĠìķĦëĵ¤":4332,"ĠWhile":4333,"Ġì´ī":4334,"ëĶ°":4335,"Ġë¯¼ì£¼":4336,"ĠìļĶë¦¬":4337,"Ġrelative":4338,"Ġìĥģëĭ¹":4339,"Ġofficial":4340,"íľ´":4341,"ëĭ¤ê°Ģ":4342,"Ġë¹łë¥´":4343,"ĠìķĪìłķ":4344,"Ġdistrict":4345,"Ġrespond":4346,"Ġë§¤ìŀ¥":4347,"Ġì§Īë¬¸":4348,"Ġindustry":4349,"isions":4350,"AG":4351,"ĠìłĲìĭ¬":4352,"icted":4353,"Ġparticularly":4354,"ĠìĨĮë¹Ħ":4355,"Ġì½ĶìĬ¤":4356,"ëģĹ":4357,"Ġclinical":4358,"SS":4359,"Ġliving":4360,"ëŁ¬ìĬ¤":4361,"OD":4362,"ĠTherefore":4363,"ë»Ĳ":4364,"argin":4365,"Ġcomponent":4366,"Ġê³µê°ľ":4367,"ì¸¡":4368,"Ġfriends":4369,"Ġexperi":4370,"Ġprivate":4371,"Ġëĭ¹ìĭł":4372,"Ġëª©íĳľ":4373,"Ġì¢ĭìķĦ":4374,"atus":4375,"ì§Ģê¸Ī":4376,"ecause":4377,"Ġclick":4378,"ê¹¨":4379,"Ġrights":4380,"orage":4381,"Ġindependent":4382,"Ġunique":4383,"Ġì¶Ķì§Ħ":4384,"ĠìŀĳìĦ±":4385,"atives":4386,"ĠëĤ¨íİ¸":4387,"ê±°ìļ´":4388,"Ġìłľê±°":4389,"Ġê°ĳìŀĲê¸°":4390,"Ġpython":4391,"ĠêµŃìłľ":4392,"ĠìĿ¸ìĥĿ":4393,"Ġdistance":4394,"ĠìĿ¼ìłķ":4395,"II":4396,"ĠìĿ¸ìłķ":4397,"ĠìĹŃíķł":4398,"ĠìĿ¸ê¸°":4399,"Ġstore":4400,"Ġparen":4401,"Ġíı¬ìŀ¥":4402,"Ġplayers":4403,"Ġdifferences":4404,"Ġperfect":4405,"ë²Ħì§Ģ":4406,"ĠìĿ¼ìĥģ":4407,"Ġfavor":4408,"Ġpurpose":4409,"Ġanswer":4410,"íģ´":4411,"Ġê°Ģìŀħ":4412,"ìĬ¤ë¡ľ":4413,"Ġgenerally":4414,"ĠíķĺëĬĺ":4415,"Ġimmedi":4416,"Ġfollowed":4417,"do":4418,"Type":4419,"ĠëłĮ":4420,"Ġë¶Īíİ¸":4421,"Ġê±´ë¬¼":4422,"Ġreduced":4423,"Ġì¡¸":4424,"aries":4425,"ĠíĻĢ":4426,"Ġweeks":4427,"Ġë´Ĳìķ¼":4428,"Ġstrength":4429,"Ġargument":4430,"Ġdetails":4431,"Ġê³łìŀĲ":4432,"Ġíı¬ìĿ¸íĬ¸":4433,"ĠìĿ´ê²Į":4434,"Ġrestr":4435,"encies":4436,"Ġê¸¸ëŀĺ":4437,"ìĬ¤íĥĢ":4438,"ì£½":4439,"Ġappropri":4440,"ĠChris":4441,"ëĦĪì§Ģ":4442,"Ġassign":4443,"plate":4444,"Ġderiv":4445,"Ġcontract":4446,"Ġattrib":4447,"Ġìĺ¤ìłĦ":4448,"graph":4449,"Ġêµ¬ëĤĺ":4450,"Ġë¶Ħìķ¼":4451,"Ġë³´ìĺĢ":4452,"ĠìĭľìĽĲ":4453,"Ġbuilt":4454,"Ġìĭľê³µ":4455,"Ġ\":\"":4456,"Ġeducation":4457,"Ġë°ĳ":4458,"ĠìĽĲìĿ¸":4459,"Ġíķĳ":4460,"ìĬ´":4461,"Ġrates":4462,"Ġêµīìŀ¥íŀĪ":4463,"Ġdensity":4464,"Ġlen":4465,"ĠìĨĮìĬ¤":4466,"ĠMarch":4467,"ê³¤":4468,"Ġë§Īì¹ĺ":4469,"takes":4470,"Ġìĭľê¸°":4471,"Ġcharg":4472,"Ġë²ĦìĬ¤":4473,"ĠOF":4474,"ĠíĸīëıĻ":4475,"Ġì£¼ìŀ¥":4476,"ì¹Ļ":4477,"Ġidentified":4478,"Ġoperator":4479,"Ġkg":4480,"Ġcountries":4481,"pping":4482,"ĠëĿ¼ìĿ¸":4483,"ĠìħĢ":4484,"ĠëıĦìĻĢ":4485,"Ġvisit":4486,"acement":4487,"ìĹŃìĭľ":4488,"ìŀĲë¦¬":4489,"ĠìĻĦìĦ±":4490,"Ġapply":4491,"Ġë¶Ģíĥģ":4492,"ĩĮ":4493,"Ġì³Ĳ":4494,"ĠìłĦíĺĢ":4495,"Ġdevices":4496,"Ġmaterials":4497,"Ġê¸°ìĹĲ":4498,"Ġequal":4499,"Ġprime":4500,"Ġê°Ģì¹ĺ":4501,"ĠêµĲìĪĺ":4502,"ĠëĤĺë¬´":4503,"ĠAM":4504,"Ġë²Ĺ":4505,"ĠìķĦëıĦ":4506,"Ġappend":4507,"ĠëĤ¬":4508,"Ġaccept":4509,"ê²ģ":4510,"Ġë°ĶëŀįëĭĪëĭ¤":4511,"ìĤ¬ì§Ħ":4512,"ospital":4513,"ì¿ł":4514,"Ġnames":4515,"Ġì£Ħ":4516,"Ġë¥ł":4517,"íĨ¡":4518,"Ġê³§":4519,"Ġoperation":4520,"Ġì¤ĳê°Ħ":4521,"ĠìĦ±ë¶Ħ":4522,"Ġtakes":4523,"Ġlinear":4524,"ë¡¯":4525,"Ġëĭ¤ìĿ´ìĸ´":4526,"Ġì¹ĺì¦Ī":4527,"Ġsigma":4528,"IM":4529,"Ġë³¶":4530,"ìķŀ":4531,"psilon":4532,"Ġì»´":4533,"Ġsplit":4534,"ĠìĿ¸íĦ°ëĦ·":4535,"ĠFurther":4536,"OM":4537,"Ġmeasured":4538,"Ġì½ľ":4539,"Ġratio":4540,"Ġparts":4541,"Ġwhose":4542,"ĠíĿ¡":4543,"iency":4544,"Ġusepackage":4545,"Ġìŀĺëª»":4546,"Ġpublished":4547,"Ġlocated":4548,"ĠëĮĢíļĮ":4549,"Ġargs":4550,"ĠCounty":4551,"Ġcompanies":4552,"Ġê·¸ë§Į":4553,"ë¦ĩ":4554,"eless":4555,"Ġchannel":4556,"hy":4557,"Ġwrong":4558,"íħĮë¦¬ìĸ´":4559,"Ġdepend":4560,"Ġplaintiff":4561,"Ġproduced":4562,"ëŀ«":4563,"Ġë¯¸ëŀĺ":4564,"lease":4565,"Ġhighly":4566,"ĠAustr":4567,"ections":4568,"eline":4569,"Ġactivities":4570,"Ġlarger":4571,"ìķĦê°Ģ":4572,"ĠEnglish":4573,"Ġinfo":4574,"Ġenjoy":4575,"Ġê²Ģìĥī":4576,"Ġchoice":4577,"Ġê²½ìŁģ":4578,"Ġë¶Ģëĵľ":4579,"Ġgamma":4580,"Ġthems":4581,"ĠìĹŃìĤ¬":4582,"Ġallows":4583,"Ġê·¼ì²ĺ":4584,"Ġestablished":4585,"ĠìĦ¸íĬ¸":4586,"ĠìĹħë¬´":4587,"ëĭ¤ìĿĮ":4588,"Ġì£¼ìĿ¸":4589,"Ġpreviously":4590,"ì£Ħ":4591,"Ġoffice":4592,"ĠíĿĺ":4593,"ĠSince":4594,"Ġë´ħëĭĪëĭ¤":4595,"Ġthemselves":4596,"Ġdimension":4597,"Ġnumbers":4598,"ĠëĿ¼ìĿ´":4599,"Ġsites":4600,"Ġì±ħìŀĦ":4601,"ìĦ¯":4602,"ì´Į":4603,"ĠìĤ¬íķŃ":4604,"Ġë°©íĸ¥":4605,"Ġcorresponding":4606,"Ġleave":4607,"Ġëĭ¬ëĿ¼":4608,"Ġplatform":4609,"Ġremove":4610,"ĠíĻķëĮĢ":4611,"ociety":4612,"Ġë§ĪìĿĦ":4613,"IV":4614,"®¤":4615,"ìĭľê°Ħ":4616,"Ġtrain":4617,"Ġê±´ì§Ģ":4618,"Ġmother":4619,"Ġëķħ":4620,"Ġvariable":4621,"Error":4622,"Ġresources":4623,"ĠPHONE":4624,"with":4625,"íĤ¬":4626,"Ġattention":4627,"Ġdatab":4628,"itary":4629,"ë²¤íĬ¸":4630,"Ġfixed":4631,"fig":4632,"Ġlegal":4633,"ĠInter":4634,"Ġmanufact":4635,"ê¼¼":4636,"Ġnumer":4637,"Ġì±Ļê²¨":4638,"ìłł":4639,"ĠíħĲëį°":4640,"Val":4641,"ĠìĤ¬ìĿ´ì¦Ī":4642,"Ġëĺĳ":4643,"Ġëĭ¹ìĹ°":4644,"Ġê²©":4645,"Ġvs":4646,"Ġestablish":4647,"ë¡Ń":4648,"ë¥ł":4649,"ìĹ½":4650,"ellow":4651,"ëĨĵ":4652,"Ġscript":4653,"Ġindividuals":4654,"ìĤ¬ìĭ¤":4655,"íŀĮ":4656,"entially":4657,"Ġìļ°ìĦł":4658,"ĠìĺĪìģľ":4659,"ĠíĶĦë¦¬":4660,"ìķĦì§Ģ":4661,"ĠëĮĢêµ¬":4662,"Ġcoming":4663,"Ġìľ¼ëł¤":4664,"ĠAbstract":4665,"ĠìľĦíĹĺ":4666,"rought":4667,"Ġwoman":4668,"ĠëĮĢìĭł":4669,"ĠëĶ°ëľ»":4670,"ĠíķłìĿ¸":4671,"ounts":4672,"Ġê·¸ëķĮ":4673,"ĠíĽĪ":4674,"Ġë³¸ìĿ¸":4675,"Ġìļ´ìłĦ":4676,"Ġcompe":4677,"Ġìľ¼ëĭĪê¹Į":4678,"Ġlooked":4679,"Ġëĭ¤ë¦¬":4680,"Ġvariables":4681,"ĠëĴ·":4682,"tember":4683,"ĠìĿĺë£Į":4684,"AB":4685,"Ġrequires":4686,"Ġì»¬ëŁ¬":4687,"Ġvolume":4688,"inated":4689,"oring":4690,"Ġíĺ¸íħĶ":4691,"Ġcontinue":4692,"Ġgave":4693,"ĠJapan":4694,"Ġdict":4695,"Ġelectro":4696,"ĠìĬ¤ìĬ¤ë¡ľ":4697,"Ġìŀ¬ë£Į":4698,"ĠìļĶêµ¬":4699,"erate":4700,"Ġì²¨":4701,"ĠTrans":4702,"Ġcomputer":4703,"ĠAlthough":4704,"ĠíĨµì¦Ŀ":4705,"Ġwriting":4706,"Ġpolice":4707,"ĠìĭĿëĭ¹":4708,"erson":4709,"riter":4710,"Ġswitch":4711,"ëĭ¤ë¥¸":4712,"Ġfinancial":4713,"ctober":4714,"ĠìĿ´ê±´":4715,"ĠìķĦë§Ī":4716,"Ġtreated":4717,"íİ´":4718,"Ġìľ¼ìĭł":4719,"ĠìĹĺ":4720,"ë°Į":4721,"ĠAmerica":4722,"Ġë¶ģíķľ":4723,"ĠíĬĢ":4724,"Ġì¤ĳìķĻ":4725,"Ġtried":4726,"ĠìķĦìī¬":4727,"Ġê°Ģêµ¬":4728,"ë¦°ëĭ¤":4729,"Ġëĭ¬ë¦¬":4730,"Ġapplications":4731,"vention":4732,"wor":4733,"ìł¸ìĦľ":4734,"ĠìĦŃ":4735,"ĠHer":4736,"Ġì§ĪíĻĺ":4737,"Ġëĭ¨ì²´":4738,"ĵ¨":4739,"ë°Ķë¡ľ":4740,"Ġconnection":4741,"ĠíĽ¨":4742,"Ġleading":4743,"ëłī":4744,"ë£¹":4745,"Ġalleg":4746,"Ġinvention":4747,"Ġìľ¼ëŁ¬":4748,"Ġíķ´ìĻ¸":4749,"Ġreading":4750,"ëģĦ":4751,"Ġê¹¨ëģĹ":4752,"Ġmaximum":4753,"osure":4754,"Ġcontaining":4755,"Ġfields":4756,"ĠëĦĺìĸ´":4757,"Ġknew":4758,"Ġê·¸ëħĢ":4759,"Ġê¸°ìĤ¬":4760,"Ġmathrm":4761,"ì¤Ħ":4762,"Ġbasic":4763,"ĠìĮĵ":4764,"Ġanyone":4765,"anger":4766,"Ġì°Į":4767,"OL":4768,"tices":4769,"Ġì²Ļ":4770,"osing":4771,"ĠëĥĦìĥĪ":4772,"ìĿ´ë²Ħ":4773,"Ġíĸĩ":4774,"ì´ī":4775,"Ġreduce":4776,"ĠApril":4777,"ìĸ´ëĤľ":4778,"Ġcontains":4779,"Ġinform":4780,"Ġcurrently":4781,"ëĢ":4782,"Ġcomment":4783,"Ġpopular":4784,"ìĪĺë¡Ŀ":4785,"ê°Ģì§Ģ":4786,"Ġì§ĢëıĦ":4787,"ibrary":4788,"Ġê³łëł¤":4789,"ĠíĮĲëĭ¨":4790,"Ġinduced":4791,"Ġconver":4792,"Ġë³´íĨµ":4793,"ĠìĿ´ìłĦ":4794,"ĠìłĦêµŃ":4795,"overy":4796,"Ġsituation":4797,"Ġíĺľ":4798,"ĠìĿ´ë²¤íĬ¸":4799,"urance":4800,"titute":4801,"ography":4802,"Ġhands":4803,"Ġì²´íĹĺ":4804,"Ġeasily":4805,"ĠìĻ¸êµŃ":4806,"ĠìĦ¬":4807,"ĠJanuary":4808,"Ġeconomic":4809,"Ġcentral":4810,"ĠìľĦìĽĲíļĮ":4811,"Ġfather":4812,"Ġstream":4813,"ulate":4814,"Ġìĺ¤ë¥¸":4815,"Ġinternal":4816,"ĠDNA":4817,"ĠíļĮìĿĺ":4818,"Ġparameter":4819,"Ġìŀ¥ìĨĮ":4820,"Ġdomain":4821,"Ġconvers":4822,"ĠíĿ¥":4823,"aling":4824,"Ġtransition":4825,"ä¸":4826,"netic":4827,"Ġboard":4828,"Ġë°Ķëĭ¤":4829,"ĠAugust":4830,"Ġì§§":4831,"Ġdelta":4832,"ĠAD":4833,"No":4834,"Ġë²Īíĺ¸":4835,"Ġuseful":4836,"¢°":4837,"Ġmodule":4838,"Ġadvant":4839,"Ġwonder":4840,"ĠëĤĺëĪ":4841,"Ġturned":4842,"ë¤":4843,"Ġstatement":4844,"ìķķ":4845,"Ġë§ŀì¶°":4846,"eness":4847,"Ġprogress":4848,"Ġê³µìĤ¬":4849,"ì¹Ń":4850,"Ġprocesses":4851,"íļ¨":4852,"ìłĢíĿ¬":4853,"Ġê¸Īìķ¡":4854,"TH":4855,"Ġê³µëıĻ":4856,"Ġrecently":4857,"Ġprint":4858,"Ġê³¡":4859,"ìĿ´ëŁ°":4860,"ĠìĺĪë°©":4861,"Ġextra":4862,"ĠChina":4863,"Ġìĺ¤ëŀľë§Į":4864,"ĠSchool":4865,"Ġenter":4866,"ocal":4867,"ìĭ±":4868,"Ġchalleng":4869,"change":4870,"ĠìĤ´íİ´":4871,"Ġclaims":4872,"culate":4873,"Ġconclud":4874,"ĠìĺģìĹħ":4875,"Ġtravel":4876,"US":4877,"íķĻêµĲ":4878,"íĬ¹íŀĪ":4879,"ì´Ŀ":4880,"Ġcluster":4881,"ë¹Ľ":4882,"Ġallowed":4883,"Ġemerg":4884,"itude":4885,"Ġê¼¼":4886,"ĠSeptember":4887,"Ġê³µìĽĲ":4888,"Ġê°ķì¡°":4889,"ferences":4890,"ovember":4891,"Ġsolid":4892,"Ġscore":4893,"Ġë²½":4894,"Ġìĸ´ìłľ":4895,"ĠAfric":4896,"Ġgives":4897,"Ġplant":4898,"Ġreleased":4899,"ĠíļĮìŀ¥":4900,"tring":4901,"Ġê±°ê¸°":4902,"ĠìĿ¸íħĮë¦¬ìĸ´":4903,"Ġgreen":4904,"ĠíļĮë³µ":4905,"right":4906,"Ġneigh":4907,"ĠìĤ¬ë¬´":4908,"ìĸ´ìļĶ":4909,"estern":4910,"ìī½":4911,"ĠìĿĮìķħ":4912,"Ġannoun":4913,"Ġhyper":4914,"Ġobjects":4915,"Ġì¥¬":4916,"Ġíķ¸":4917,"ì§Ħëĭ¤":4918,"tified":4919,"Ġassert":4920,"ì¸µ":4921,"Ġcosts":4922,"Ġë¬»":4923,"Ġalone":4924,"Ġplayer":4925,"IR":4926,"inate":4927,"CH":4928,"Ġquery":4929,"Ġcritical":4930,"ëĤ¸":4931,"Ġgenerated":4932,"ĠOctober":4933,"ĠIS":4934,"ournal":4935,"acing":4936,"ìĺ¥":4937,"Ġfigure":4938,"ĠAP":4939,"Ġreceive":4940,"ĠëģĬ":4941,"Ġconstr":4942,"Ġê³µê²©":4943,"Ġtouch":4944,"Ġë¡ľìĦľ":4945,"ĠìĿ¸ì²ľ":4946,"ĠìŀĲë£Į":4947,"Ġculture":4948,"ĠSystem":4949,"Ġë°ĶëĢ":4950,"íŀĪëł¤":4951,"Ġcentury":4952,"Ġoverall":4953,"Ġcaused":4954,"ìļ°ìĬ¤":4955,"Ġê³µê¸ī":4956,"});":4957,"ë¢°":4958,"Ġëĵ¯ìĿ´":4959,"Ġëª©ìłģ":4960,"Ġcharge":4961,"iding":4962,"ĠíħĮìĿ´ë¸Ķ":4963,"Ġtowards":4964,"Ġactual":4965,"ĠêµĲíĨµ":4966,"Ġmeaning":4967,"Ġìŀ¬ë°Į":4968,"íĬľ":4969,"Ġtests":4970,"Ġjudgment":4971,"Ġbrain":4972,"Ġrelevant":4973,"Ġê¹Ģì¹ĺ":4974,"Ġê³Ħìĭľ":4975,"ought":4976,"ĠAS":4977,"ĠìĬ¤ë§ĪíĬ¸":4978,"Ġrules":4979,"Ġì¡°ê±´":4980,"Ġì§ķ":4981,"Ġalgorithm":4982,"Ġsufficient":4983,"Ġunderstanding":4984,"ìĦ¼":4985,"Ġborder":4986,"ĠìĤ¬ëĿ¼":4987,"ashing":4988,"ĠìłľëıĦ":4989,"ĠìķĦíĶĦ":4990,"================":4991,"ĠMS":4992,"ĠIT":4993,"Ġëĵ±ë¡Ŀ":4994,"Ġëĭ¤íĸī":4995,"Ġê´Ģê´ĳ":4996,"ìłĦíŀĪ":4997,"Ġappropriate":4998,"Ġëĵľëł¸":4999,"ĠíĿĳ":5000,"co":5001,"Ġëĭ¤ìĿ´ìĸ´íĬ¸":5002,"MS":5003,"ĠëķĲ":5004,"Ġpsych":5005,"Ġparent":5006,"Ġprocessing":5007,"ĠëıĻìĭľ":5008,"Ġcoord":5009,"Ġdescription":5010,"íĺĪ":5011,"Ġíģ¬ê¸°":5012,"ìĬ¤íĦ°":5013,"Ġeveryone":5014,"Ġë¬´ë£Į":5015,"Ġhighest":5016,"ĠëĶ°ëĿ¼ìĦľ":5017,"Ġplease":5018,"Ġê¾¸ì¤Ģ":5019,"ëĶ±":5020,"ĠìĿ´ìģĺ":5021,"ĠíĺĦìĭ¤":5022,"rench":5023,"ĠíĮ©":5024,"íħĲ":5025,"Ġë²Ħëł¸":5026,"ĠìĿ¸ìĥģ":5027,"istrict":5028,"íĿ¥":5029,"ecting":5030,"ĠëĤĻ":5031,"ìĤŃ":5032,"Ġinfluence":5033,"Ġíĺ¹ìĭľ":5034,"Ġìĭľë¯¼":5035,"ĠíĢ":5036,"Ġremember":5037,"ë°Ľ":5038,"ĠíĽ¨ìĶ¬":5039,"Ġì¤įëĭĪëĭ¤":5040,"ĠëĲľëĭ¤ê³ł":5041,"ĠRE":5042,"ĠìŃ":5043,"ĠTrump":5044,"Ġìĭľì¼°":5045,"Ġdemand":5046,"ĠHouse":5047,"light":5048,"ĠSuppose":5049,"Ġmachine":5050,"ĠëĤ´ìĿ¼":5051,"Ġserious":5052,"Ġworked":5053,"Ġìĺ¬ëĿ¼ê°Ģ":5054,"Ġë¦¬ê·¸":5055,"const":5056,"All":5057,"Ġabsol":5058,"Ġìĺ¤íĶĪ":5059,"Ġsteps":5060,"Ġê±·":5061,"Ġchanged":5062,"ĠêµŃíļĮ":5063,"ĠDecember":5064,"Ġíĥĳ":5065,"ì§ĢëĤľ":5066,"abled":5067,"íĳ¸":5068,"Ġê°Ĳìłķ":5069,"Ġformed":5070,"Ġcounter":5071,"âĻ":5072,"Ġthroughout":5073,"Ġsetting":5074,"ĠCH":5075,"Ġexisting":5076,"Ġë¡Ń":5077,"Ġplayed":5078,"ìŀĺ":5079,"Ġcompletely":5080,"ĠNovember":5081,"ë³¶":5082,"Ġdefinition":5083,"Ġdrive":5084,"ĠAT":5085,"ĠAustral":5086,"Ġtheta":5087,"tically":5088,"position":5089,"Ġlaunch":5090,"Ġphone":5091,"ĠëĥĲê³ł":5092,"Ġchoose":5093,"urrent":5094,"Ġmedium":5095,"ê·¸ëĥ¥":5096,"Ġê·¸ëŀ¬":5097,"Ġconnected":5098,"ë´Ĳ":5099,"ĠìŀĬ":5100,"Ġìŀ¥ìķł":5101,"Ġfailure":5102,"Ġstaff":5103,"Ġagreement":5104,"Ġbirth":5105,"Ġpretty":5106,"Ġíķľëĭ¤ë©´":5107,"Ġë·°":5108,"Ġmiddle":5109,"Ġdeliver":5110,"Ġdivided":5111,"Ġë³´ìĿ¸ëĭ¤":5112,"Ġselection":5113,"Ġthreat":5114,"iring":5115,"apter":5116,"Ġstorage":5117,"ĠíıīìĨĮ":5118,"íķĺëĤĺ":5119,"Ġdouble":5120,"Ġprofessional":5121,"Ġconcentration":5122,"Ġê³łê¸ī":5123,"assert":5124,"Ġachieve":5125,"Ġìĭłê¸°":5126,"iques":5127,"Ġì¤ĳê³ł":5128,"Ġë¶Ħëªħ":5129,"Ġdownload":5130,"Ġworth":5131,"ĠëĬĶê°Ģ":5132,"Ġë§Īë¦¬":5133,"Ġexerc":5134,"Ġë¥ĺ":5135,"Ġfindings":5136,"ĠPM":5137,"Ġstation":5138,"OC":5139,"Ġìĩ¼íķĳ":5140,"ĠëĤ´ë¦¬":5141,"Ġsmaller":5142,"Ġyield":5143,"Ġlinks":5144,"oding":5145,"íĺĳ":5146,"Ġbrought":5147,"Ġsched":5148,"ĠìłĦìŀĲ":5149,"Ġtools":5150,"ester":5151,"ëŀĺëıĦ":5152,"Ġì¹ľìłĪ":5153,"ë¡±":5154,"illing":5155,"Ġearlier":5156,"Ġíĺķíĥľ":5157,"ĠëıĻë¬¼":5158,"Ġê°ĢìĬ´":5159,"Ġê·¸ë£¹":5160,"Ġìĸ´ë¦°ìĿ´":5161,"ĠìĥĢ":5162,"ì£¼ìĿĺ":5163,"Ġì£¼ë¯¼":5164,"Ġfully":5165,"Ġnovel":5166,"ëĳ¥":5167,"Ġreduc":5168,"Ġfinding":5169,"ament":5170,"ê¹Ķ":5171,"Ġfailed":5172,"IP":5173,"Ġëĭ¤ë©°":5174,"Ġsources":5175,"ì»¨":5176,"ĠìĿĺìĤ¬":5177,"Ġtesting":5178,"ĠìŀĲê²©":5179,"Ġì£¼ìłľ":5180,"Ġê°Ģì§Ħ":5181,"ĠìłĦë¬¸ê°Ģ":5182,"ìĭŃ":5183,"ĠëĤĺì¤ĳ":5184,"Ġheard":5185,"board":5186,"Ġìķ¤":5187,"ĠìĿĺê²¬":5188,"Ġíĺģ":5189,"ëļ":5190,"works":5191,"Ġforms":5192,"Ġprincip":5193,"Ġproceed":5194,"undred":5195,"ĠPresident":5196,"Ġmodern":5197,"Ġê°ģê°ģ":5198,"ĠíķĦìĪĺ":5199,"Ġë¶Ģë¥´":5200,"Ġíİ¼":5201,"Ġsolutions":5202,"Ġinternational":5203,"ëĭµëĭĪëĭ¤":5204,"Ġcandid":5205,"ëłĢ":5206,"ĠêµĲì²´":5207,"ĠìĪĺìĿµ":5208,"Ġì²´íģ¬":5209,"Ġproduce":5210,"Ġìŀ¥ê´Ģ":5211,"Ġë²łìĿ´":5212,"Ġexists":5213,"ì¨":5214,"ĠìłĪëĮĢ":5215,"Ġê±´ëį°":5216,"Ġìľłë¦¬":5217,"Ġìĺ¥":5218,"Ġìĥ·":5219,"Ġreasons":5220,"UR":5221,"ìŀł":5222,"Ġready":5223,"íĩ´":5224,"Ġsupported":5225,"itter":5226,"ìļ´ëĵľ":5227,"Ġtransport":5228,"Ġì§±":5229,"ëĶĶìĺ¤":5230,"ĠìĬ¤íĬ¸ëłĪìĬ¤":5231,"Ġfight":5232,"Ġê³µê¸°":5233,"ĠSection":5234,"Ġconcept":5235,"Ġìł¤":5236,"ĠìĺĪìłĦ":5237,"Ġëĵ¤ìĸ´ìĺ¤":5238,"Ġnamed":5239,"Ġcarry":5240,"Ġsometimes":5241,"ê°ĢëĿ½":5242,"Ġactions":5243,"Ġì¹ĺíĤ¨":5244,"ĠìĦłìłķ":5245,"ìľ¤":5246,"Ġbeyond":5247,"Ġspectr":5248,"Ġquickly":5249,"Ġgenes":5250,"ĠìłĲìłĲ":5251,"ĠDistrict":5252,"Ġê²ª":5253,"OP":5254,"Ġvariety":5255,"Ġconstruction":5256,"Ġë§¥ì£¼":5257,"Ġvisual":5258,"bre":5259,"ëĭ¤ìĭľ":5260,"Ġêµ³":5261,"Ġattach":5262,"Ġìłģê·¹":5263,"íĤ¹":5264,"Ġì£¼ìļĶ":5265,"Ġslight":5266,"Ġëĭ¨ì§Ģ":5267,"Ġvehicle":5268,"ĠAccording":5269,"êµŃìĪĺ":5270,"ĠìĨĮìĭĿ":5271,"UT":5272,"ĠDepartment":5273,"Ġê³µìĹ°":5274,"Ġìĸ´ëł¤ìļ´":5275,"ĠIP":5276,"Ġê²¸":5277,"Ġìĵ´":5278,"Ġë¡ľë¶ĢíĦ°":5279,"ĠìĥĿê²¼":5280,"Ġthick":5281,"Ġdamage":5282,"Ġinterview":5283,"Ġseven":5284,"ì¾Į":5285,"Ġdatas":5286,"pling":5287,"Ġlives":5288,"Ġvector":5289,"ëıĻìĤ°":5290,"Ġleaders":5291,"Ġë½ĳ":5292,"ĠìłĦìĭľ":5293,"Ġmoved":5294,"ĠìķĦë¦Ħëĭ¤":5295,"Ġsleep":5296,"ĠPD":5297,"ì½ľ":5298,"Ġpackage":5299,"istry":5300,"ĠìķĦëĭĲ":5301,"ìĨĶ":5302,"Ġcampaign":5303,"ĠìłĦê¸°":5304,"ìľ¼ëĤĺ":5305,"íıŃ":5306,"Ġìŀĥ":5307,"Ġcontrast":5308,"Ġcapital":5309,"pective":5310,"Ġìŀ¥ìłĲ":5311,"ĠëĵľëĿ¼":5312,"Ġunits":5313,"Ġì§Ģì¼ľ":5314,"Ġì§ĵ":5315,"ĠëĤĺíĥĢëĤĺ":5316,"Ġproviding":5317,"ĠSD":5318,"Ġì¡°ì§ģ":5319,"ë¤Ħ":5320,"ĠìĹĲëĦĪì§Ģ":5321,"íĦ¸":5322,"Ġcapacity":5323,"Ġë¹Ħíķ´":5324,"êµ°ìļĶ":5325,"Ġresulting":5326,"ondon":5327,"NS":5328,"Ġrelig":5329,"Ġcircum":5330,"Ġexhib":5331,"Ġbenefits":5332,"ĠìĤ¬ìļ©ìŀĲ":5333,"Ġrelatively":5334,"Ġëł¤ë©´":5335,"Ġdiscover":5336,"ëĭĲ":5337,"Ġtoward":5338,"Ġíı´":5339,"Ġìĺ¤íŀĪëł¤":5340,"Ġìĺģìĸĳ":5341,"osite":5342,"Ġìŀ¥ê¸°":5343,"Ġë§¤ëł¥":5344,"Ġsaying":5345,"Ġdatabase":5346,"Ġê²ģëĭĪëĭ¤":5347,"Ġincor":5348,"Ġmaster":5349,"ĠìĪĺìĤ¬":5350,"Ġcareer":5351,"lusion":5352,"uting":5353,"Ġì£¼ìĿ¼":5354,"Ġtherm":5355,"Ġcharacteristics":5356,"ĠìĿ´ë¯¸ì§Ģ":5357,"Ġê²½ìĺģ":5358,"ĠíĺĲ":5359,"Ġclearly":5360,"Ġhistor":5361,"Ġëŀĺ":5362,"Ġìĺ¨ëĿ¼ìĿ¸":5363,"ĠíĹ¤ìĸ´":5364,"atically":5365,"bruary":5366,"ĠAL":5367,"Ġexperiments":5368,"ĠBecause":5369,"Ġdefine":5370,"ìĹĺ":5371,"Ġíķłì§Ģ":5372,"Ġfunctional":5373,"Ġê¼¼ê¼¼":5374,"Ġappears":5375,"Ġcommunication":5376,"Ġë²¤":5377,"Ġì¦Ĳê¸°":5378,"Ġparents":5379,"Ġíķľë²Ī":5380,"iforn":5381,"ĠíĥĲ":5382,"ĠLG":5383,"ë¿":5384,"Ġë¬¸ìĿĺ":5385,"íĻį":5386,"Ġfederal":5387,"ĠëĶ°ë¥¸":5388,"Ġtransl":5389,"Ġë¸ĶëŀĻ":5390,"Ġprofile":5391,"Ġregister":5392,"Ġclosed":5393,"Ġì§Ģíķĺ":5394,"ĠìĦłê±°":5395,"Ġreduction":5396,"Ġparties":5397,"Ġdigital":5398,"Ġelection":5399,"Ġìŀĳê°Ģ":5400,"Ġëĵ±ëĵ±":5401,"Ġìĥµ":5402,"ĠìĹ¬ìľł":5403,"ĠëıĻìĥĿ":5404,"Ġsubsequ":5405,"Ġsurpr":5406,"Ġformation":5407,"ĠHealth":5408,"Ġstrategy":5409,"Ġinteresting":5410,"active":5411,"ìĬĪ":5412,"Ġupper":5413,"ìĽ¨":5414,"App":5415,"Ġìĭ¤ìĭľ":5416,"Ġreaction":5417,"Ġhundred":5418,"ĠìłĦëŀµ":5419,"Ġregions":5420,"public":5421,"Suppose":5422,"ĠìĦ¸ëĮĢ":5423,"Ġsubstanti":5424,"Ġëģĵ":5425,"Ġclasses":5426,"Ġmoving":5427,"Ġwrote":5428,"Ġstarting":5429,"Ġplaced":5430,"Ġëı¼ì§Ģ":5431,"iance":5432,"Ġregarding":5433,"Ġdecided":5434,"Ġíİ¸ìķĪ":5435,"Ġinteraction":5436,"ĠëĮĢíĻĶ":5437,"RA":5438,"ĠëĨĴìĿ´":5439,"ĠìŀĸìķĦìļĶ":5440,"Ġremains":5441,"Ġëħ¸ëıĻ":5442,"ĠìķĪëĤ´":5443,"ëĿ¼ìĬ¤":5444,"Ġcarried":5445,"Ġsafety":5446,"ì¶ĺ":5447,"ĠìŀĲê¾¸":5448,"Ġmovement":5449,"Ġê¸°ëħĲ":5450,"Ġderivative":5451,"Ġrecommend":5452,"Ġcalculated":5453,"ĠìĬ¤íĨł":5454,"ëĤĻ":5455,"Ġexperiment":5456,"Ġaware":5457,"Ġëįķë¶Ħ":5458,"Ġdependent":5459,"ĠGeneral":5460,"Ġmorning":5461,"Ġexpressed":5462,"ĠíĨµìĭł":5463,"MP":5464,"Ġì§Ģìłģ":5465,"Ġìŀłìĭľ":5466,"ĠëĳĶ":5467,"Ġconsequ":5468,"Ġê°Ģê²Į":5469,"UN":5470,"Ġidentify":5471,"Ġê°Ģìłķ":5472,"ĠëıĦìłĦ":5473,"ellant":5474,"Ġagent":5475,"Ġalbum":5476,"Ġê»":5477,"Ġspeak":5478,"Ġê³¼íķĻ":5479,"ĠìĹĲìĸ´":5480,"Ġopportunity":5481,"overn":5482,"ĠString":5483,"Ġplaying":5484,"Ġíŀĺëĵł":5485,"ifornia":5486,"ëıĪ":5487,"ĠìĻĦë£Į":5488,"ìĦŃ":5489,"Ġstated":5490,"Ġdaily":5491,"ĠíļĮìĽĲ":5492,"Ġnotice":5493,"Ġìĺ®":5494,"IA":5495,"Ġì£¼ìĭĿ":5496,"ĠëĵľëŁ¬":5497,"oming":5498,"asion":5499,"ĠìķĪëħķ":5500,"IF":5501,"ĠíĨµíķ´ìĦľ":5502,"ĠChrist":5503,"Ġëĸ¨ìĸ´ì§Ģ":5504,"Ġoffers":5505,"ĠBritish":5506,"Ġexpand":5507,"Ġìĭľíĸī":5508,"Ġparticipants":5509,"Ġattempt":5510,"Ġë°Ķê¿":5511,"Ġbooks":5512,"Ġtechniques":5513,"ĠìĿĦê¹ĮìļĶ":5514,"Ġbecomes":5515,"Ġseparate":5516,"Ġë¹Ħë¡¯":5517,"Ġdiscl":5518,"Ġlooks":5519,"idden":5520,"Ġëī´ìĬ¤":5521,"Ġmetal":5522,"Ġbinding":5523,"Ġcombination":5524,"Ġequation":5525,"Ġíĺ¹ìĿĢ":5526,"Ġomega":5527,"ëĳĺ":5528,"Ġë°Ķëĭ¥":5529,"Ġvoice":5530,"Ġìķ½ìĨį":5531,"Ġmonitor":5532,"Ġproof":5533,"ĠìħĶìķ¼":5534,"Ġë°ĺëĮĢ":5535,"Ġë¶Ħìĸĳ":5536,"Ġë²Įìį¨":5537,"Ġsettings":5538,"Ġcustomers":5539,"force":5540,"ĠìĿĮë£Į":5541,"ĠEuropean":5542,"Ġexcept":5543,"Ġê·ł":5544,"ĠëĦĪë¬´ëĤĺ":5545,"Ġì¶ľìĭľ":5546,"Ġì¡°ìłķ":5547,"ively":5548,"Ġthous":5549,"Ġíıīê·ł":5550,"Ġê±¸ë¡ľ":5551,"Ġê°ĲìĨĮ":5552,"utive":5553,"ĠLondon":5554,"irmed":5555,"After":5556,"ëĤĺë¬´":5557,"apping":5558,"ĠëĤ´ëħĦ":5559,"Ġexactly":5560,"ĠIC":5561,"Ġì¶ľë°ľ":5562,"Ġë¶ĢìľĦ":5563,"ressed":5564,"Ġëįĺëį°":5565,"Ġrequirements":5566,"ĠBlack":5567,"Ġessential":5568,"Ġê±´ìĦ¤":5569,"Ġincreases":5570,"Ġë°Ķë¥´":5571,"ocation":5572,"Ġlabor":5573,"Ġë°ĺìĿĳ":5574,"Ġstudied":5575,"attle":5576,"Ġì¡°ìłĪ":5577,"Ġprograms":5578,"Ġnoted":5579,"Ġíı¬ê¸°":5580,"Ġë§ĪìĬ¤íģ¬":5581,"Ġincome":5582,"function":5583,"Ġsession":5584,"Ġëª©ìĨĮë¦¬":5585,"Ġprocedure":5586,"Ġíı°":5587,"Ġìĭłê³ł":5588,"Ġvoid":5589,"Ŀ¤":5590,"Ġë±":5591,"Ġimmediately":5592,"ĠëħĢ":5593,"Ġëĵľëł¤":5594,"íİĺìĿ´ì§Ģ":5595,"vision":5596,"Ġmeeting":5597,"Ġì½©":5598,"ĠFebruary":5599,"ĲëŁ¬":5600,"Ġë§¤ì¶ľ":5601,"Ġì§ģìŀ¥":5602,"ë©ĶëĿ¼":5603,"Ġê¿Ģ":5604,"icity":5605,"Ġë´ĲëıĦ":5606,"Ġmentioned":5607,"Ġrender":5608,"Ġefficient":5609,"Ġcookies":5610,"Ġtrade":5611,"Ġmechanism":5612,"ĠHT":5613,"Ġdepth":5614,"íıĲ":5615,"Ġtissue":5616,"Ġìħĭ":5617,"Ġstudent":5618,"ĠìĭľìĪł":5619,"ĠíķĻìĬµ":5620,"Ġresource":5621,"Ġíĥķ":5622,"Ġcredit":5623,"Ġcouple":5624,"Ġë¶ĪìķĪ":5625,"ĠìĨĮìŀ¬":5626,"Ġentry":5627,"ĠìĿ¸ì¦Ŀ":5628,"Ġtraditional":5629,"Ġconducted":5630,"Ġëª°ëĿ¼":5631,"field":5632,"Ġë°ķìĬ¤":5633,"Ġë¶ĢëıĻìĤ°":5634,"ĠìĹ°ìĬµ":5635,"Ġì§Ħëĭ¨":5636,"ĠëıĦë¡ľ":5637,"Ġë£¸":5638,"Ġìłģëĭ¹":5639,"Ġmyself":5640,"Ġotherwise":5641,"ë¶Ļ":5642,"iform":5643,"ĠëĤ©":5644,"ĠëĤĺë¦Ħ":5645,"CL":5646,"Ġëĭ¬ëł¤":5647,"Ġcontinued":5648,"ê²Ĳ":5649,"Ġstructures":5650,"Ġreports":5651,"Ġì¢ĭìķĦíķĺ":5652,"Ġmobile":5653,"Ġappeal":5654,"Ġê°ģì¢ħ":5655,"ë§¥":5656,"Ġexperimental":5657,"Ġë¬¼ê±´":5658,"Ġì¶©ë¶ĦíŀĪ":5659,"ĠëĸłëĤĺ":5660,"ĠëĬĲëĿ¼":5661,"Ġì¡°íķ©":5662,"Ġëĭ¤ëħĢìĻĶ":5663,"ĠCalifornia":5664,"Ġmajority":5665,"tered":5666,"Ġprojects":5667,"Ġì¤ĺìķ¼":5668,"Ġthinking":5669,"Ġgiving":5670,"íĶ½":5671,"ĠAssoci":5672,"Ġê³¼ê±°":5673,"ĠìŀĲê·¹":5674,"ëª°":5675,"Ġpanel":5676,"ê°ĢìļĶ":5677,"Ġmilitary":5678,"Ġplaces":5679,"ĠìĭĿíĴĪ":5680,"new":5681,"Ġíľĺ":5682,"ĠìĭľìłĪ":5683,"Ġyourself":5684,"ĠSP":5685,"agement":5686,"Ġconsistent":5687,"Ġradio":5688,"Ġê°Ĵ":5689,"Ġì¹ĺìķĦ":5690,"Ġì¹Ń":5691,"Ġauthors":5692,"ĠìĨįëıĦ":5693,"Ġorganization":5694,"ĠìłĦëĭ¬":5695,"Ġhandle":5696,"Ġresistance":5697,"ĠRepublic":5698,"ĠCenter":5699,"ĠìķĦë²Ħì§Ģ":5700,"Ġcircuit":5701,"ĠìĿĦì§Ģ":5702,"ì²ĺìĿĮ":5703,"ĠIndia":5704,"Ġillustr":5705,"Ġhospital":5706,"Ġê°ĢìĿĦ":5707,"ĠWilliam":5708,"Ġspread":5709,"encing":5710,"ĠSE":5711,"Ġë´ĲìļĶ":5712,"ipped":5713,"Ġinfty":5714,"Ġnearly":5715,"ĠìłĦë¶Ģ":5716,"ĠCP":5717,"Ġbeginning":5718,"ë§ŀ":5719,"Ġíĸīìłķ":5720,"Ġë³´ìŀ¥":5721,"Ġëĵ±ìŀ¥":5722,"ipment":5723,"MA":5724,"ĠìĹ¬ìĦľ":5725,"Ġìĥīìĥģ":5726,"ĠíĶĮëłĪìĿ´":5727,"Ġê°ķìĿĺ":5728,"Ġstatic":5729,"ĠëĤĺëĪĦ":5730,"Ġcommerc":5731,"ë§¨":5732,"Ġë¡¯":5733,"ĠëĳĺëŁ¬":5734,"TS":5735,"ĠìŀĲê¸Ī":5736,"Gr":5737,"efore":5738,"Ġdiscussed":5739,"ĠëıĮìķĦê°Ģ":5740,"ëłģ":5741,"Ġtypically":5742,"ĠìĹ´ë¦°":5743,"ì¢ĭ":5744,"Ġopinion":5745,"Ġobvious":5746,"ĠìĻĦë²½":5747,"Ġrecept":5748,"Ġì§Ħë£Į":5749,"ë²¼":5750,"ëĴ":5751,"Ġë¯Ģë¡ľ":5752,"Ġì¡°ìĭ¬":5753,"Ġê³łìĸĳ":5754,"ĠìĮĢ":5755,"Ġcomparison":5756,"Ġìĺ¤ë¥´":5757,"ĠëĤĺìĻĢìĦľ":5758,"Ġmeasures":5759,"æľ":5760,"Ġì§Ģêµ¬":5761,"Ġgeneration":5762,"ĠíĻķë³´":5763,"ĠíķĺìĿ´":5764,"Ġpassed":5765,"Ġë°ĺë³µ":5766,"Ġshowing":5767,"Ġfinally":5768,"ĠInternational":5769,"ĠíĮĮìķħ":5770,"ĠëłĪìĿ´":5771,"Ġexternal":5772,"Ġreturned":5773,"ĠìĥĿìĿ¼":5774,"¼Ī":5775,"Ġindicated":5776,"ĠìĬ¤íħĮ":5777,"Ġtemplate":5778,"ĠíĺĦì§Ģ":5779,"autiful":5780,"ì¢Į":5781,"Ġìļ°ëł¤":5782,"Ġëį°ìĿ´íĦ°":5783,"Ġsuccessful":5784,"ĠìĥĿê¸´":5785,"Ġequival":5786,"Ġì£¼ìĿĺ":5787,"Ġletter":5788,"Ġê´ĳì£¼":5789,"íĺģ":5790,"ë¨¸ë¦¬":5791,"Ġapproximately":5792,"ì½©":5793,"Ġë¶Ħê¸°":5794,"ëľ¨":5795,"Ġoperations":5796,"ĠìĥĿëªħ":5797,"ĠëĤ¸":5798,"sole":5799,"ĠíŀĲ":5800,"ĠëĮĢìłĦ":5801,"Ġdistin":5802,"GF":5803,"ĠMoreover":5804,"ĠìĥĪë²½":5805,"Ġì»µ":5806,"Ġì¤Ģëĭ¤":5807,"ĠìŀĲê³ł":5808,"Ġbenefit":5809,"ĠìĿ¼ì°į":5810,"Ġì¦Ī":5811,"Ġì£¼ë¡ľ":5812,"Ġinterface":5813,"Ġë³µì§Ģ":5814,"izations":5815,"Ĩŀ":5816,"Ġëĭ¨ìĪľ":5817,"________":5818,"Ġtherapy":5819,"Ġíĺĳëł¥":5820,"Ġworkers":5821,"key":5822,"Ġtechnique":5823,"Ġminimum":5824,"ĠIndian":5825,"Ġêµ´":5826,"ĠFrench":5827,"Ġderived":5828,"ĠìľłëŁ½":5829,"Ġê³µìľł":5830,"ĠëĮĵ":5831,"ĠAny":5832,"Ġíİľ":5833,"Ġremoved":5834,"ìĿ´ìħĺ":5835,"quest":5836,"ĠìĤ¬ìĿ´íĬ¸":5837,"íķľêµŃ":5838,"Ġdetection":5839,"ë¹µ":5840,"Ġubuntu":5841,"Ġëĭ´ëĭ¹":5842,"ìĤ¬ëŀĮ":5843,"ĠëĨĢìĿ´":5844,"ĠìµľìĨĮ":5845,"íĴĢ":5846,"Ġextrem":5847,"ĠëĬĲëĥĲ":5848,"Ġliquid":5849,"ictions":5850,"fo":5851,"ĠìłĦíķĺ":5852,"Ġê´ĳê³ł":5853,"ëĭĪëĭ¹":5854,"ëª¸":5855,"Ġì¼Ģìĸ´":5856,"Ġrevealed":5857,"ĠOR":5858,"ĠíĻĪíİĺìĿ´ì§Ģ":5859,"ĠìĿ´íķĺ":5860,"Ġsymbol":5861,"ìĹĦë§Ī":5862,"Ġsummary":5863,"Ġëĺĳê°Ļ":5864,"Ġproteins":5865,"ĠGoogle":5866,"ĠíĺĦìĥģ":5867,"Ġlatest":5868,"Ġphosph":5869,"aughter":5870,"Ġreached":5871,"Ġstraight":5872,"Ġanimals":5873,"Ġêµ¿":5874,"ĠíĦ¸":5875,"Ġchance":5876,"Ġsuggested":5877,"adding":5878,"Ġperhaps":5879,"ë²¨":5880,"Ġcarbon":5881,"Ġerrors":5882,"Ġsupply":5883,"Ġgrowing":5884,"ĠìĬ¹ë¦¬":5885,"ologies":5886,"Ġreplace":5887,"ĠSS":5888,"ĠìĦŀ":5889,"Ġì°¨ì§Ģ":5890,"ĠíĸīìľĦ":5891,"Ġhypoth":5892,"Ġê³µìĭĿ":5893,"Ġinjury":5894,"ĠëĪĪë¬¼":5895,"Ġmanner":5896,"Ġquanti":5897,"ë¯Ģë¡ľ":5898,"ĠëĲ¨":5899,"ĠìĿ´ìĽĥ":5900,"ensions":5901,"ĠëıĻëĦ¤":5902,"ĠêµĲìłķ":5903,"Ġcriter":5904,"Ġportion":5905,"ĠìĸĳëħĲ":5906,"ashington":5907,"Ġë³Ģê²½":5908,"ĠìĿ´ìĿµ":5909,"Ġeffort":5910,"äº":5911,"ĠAR":5912,"Ġintroduced":5913,"ê·¸ëŁ¼":5914,"Ġê·¸ê²Į":5915,"Ġprobability":5916,"Ġresolution":5917,"ìķĦë¬´":5918,"ĠìĹī":5919,"ĲëŁ¬ëĵľ":5920,"ĠDE":5921,"itness":5922,"Ġresponsible":5923,"ĠêµĲíļĮ":5924,"Ġë¥´":5925,"Ġfemale":5926,"Ġëĭ¤ìĿ´":5927,"Ġindicate":5928,"Ġê³±":5929,"ĠëģĿëĤĺ":5930,"Ġimproved":5931,"Ġaffect":5932,"Ġê¸Īë¦¬":5933,"Ġê°ķëĤ¨":5934,"Ġê´Ģíķľ":5935,"Ġmagnetic":5936,"ĠìĤ¬ë¡Ģ":5937,"ëŁ¬ìļ´":5938,"ĠìłľìĻ¸":5939,"Ġë¹łì§Ģ":5940,"íĵ¨":5941,"ìľ¼ë©´":5942,"point":5943,"ĠìĶ»":5944,"ê·¸ëŁ°ëį°":5945,"CA":5946,"Ġê±´ì¡°":5947,"Ġexception":5948,"Ġê³µíķŃ":5949,"ĠíĻĶìŀ¥ìĭ¤":5950,"ĠëĤĺìĺ¬":5951,"DA":5952,"ìĻľ":5953,"Ġhearing":5954,"ì½ĺ":5955,"ĠìļĶì²Ń":5956,"Ġê±¸ìĸ´":5957,"ìľ¼ëĭĪ":5958,"Ġtermin":5959,"Ġì¢ħíķ©":5960,"Ġalternative":5961,"ĠíķĻëħĦ":5962,"ĠCS":5963,"Ġsubstr":5964,"ĠíĶ¼ìŀĲ":5965,"Ġscience":5966,"Ġpresident":5967,"Ġcommunic":5968,"Ġtempor":5969,"Ġì»·":5970,"ĠYes":5971,"ĠSK":5972,"Ġchemical":5973,"íĢ":5974,"ĠëŃĺ":5975,"ë¦¬ì¹´":5976,"Ġcategory":5977,"Ġreasonable":5978,"pass":5979,"Ġì§Ģê¸ī":5980,"ĠíĺĲìĿĺ":5981,"Ġì¡±":5982,"íĹ¤":5983,"Ġë³´ëıĦ":5984,"Ġìĭ¤ìłľë¡ľ":5985,"isation":5986,"ëĨĢ":5987,"Ġprotocol":5988,"ì§ĵ":5989,"Ġë¡ł":5990,"ì¡°ê±´":5991,"ĠìľĦê¸°":5992,"Ġìĸ´ìļ¸ë¦¬":5993,"Ġsecret":5994,"Ġcomplic":5995,"Ġcompet":5996,"ĠPeople":5997,"Ġê°ĲìĹ¼":5998,"Ġíķ¸ëĵľ":5999,"ĠService":6000,"ĠGovern":6001,"ëĤ¼":6002,"Ġì§ĢìĭĿ":6003,"Ġcomposition":6004,"ĠíķĺëĿ½":6005,"ĠEach":6006,"íĭ±":6007,"Ġê´´":6008,"ĠìłĬ":6009,"Ġì¹ł":6010,"Ġíķłê¹Į":6011,"Ġshared":6012,"ĠëĮĢìĿĳ":6013,"Ġadjust":6014,"ĠëĪĦê°Ģ":6015,"Ġparams":6016,"ĠìĬ¤íı¬":6017,"ëĭ¤ëĭĪ":6018,"ë¹Ī":6019,"Ġconstruc":6020,"Ġestimated":6021,"ĠìĺĪìĪł":6022,"ë¦ī":6023,"Ġassemb":6024,"ìĹ¬ëŁ¬":6025,"Ġíķ«":6026,"ĠResearch":6027,"Ġrecorded":6028,"Ġserved":6029,"ĠCT":6030,"Ġletters":6031,"âĪ":6032,"ìĦľìļ¸":6033,"entific":6034,"Ġcustomer":6035,"ĠìĺĪìĪĺ":6036,"Ġdemonstrated":6037,"ĠìŀĲëŀĳ":6038,"Ġì¡°ì¹ĺ":6039,"Ġconfiguration":6040,"Ġëį§":6041,"Ġcreating":6042,"ĠíĹ¬":6043,"ĠëĩĮ":6044,"Ġê°ĢëģĶ":6045,"Ġbehavi":6046,"Ġorient":6047,"Ġefficiency":6048,"Ġapparent":6049,"Ġë¶ĪëŁ¬":6050,"Ġê³Ħìĭł":6051,"Ġprepared":6052,"Ġliterature":6053,"ĠíĿ¬ë§Ŀ":6054,"Ġgenerate":6055,"ĠíĥĢìĿ´":6056,"Ġrecords":6057,"Ġcombined":6058,"Ġadvantage":6059,"Ġë¹łìł¸":6060,"Ġsales":6061,"ĠíĻķìĭ¤íŀĪ":6062,"Ġencour":6063,"Ġë³´ê³ł":6064,"ëĸ¡":6065,"ync":6066,"Ġprotection":6067,"ĠWashington":6068,"Ġemployees":6069,"Ġê¸Ģë¡ľ":6070,"Ġê±¸ë¦¬":6071,"Ġê¹ľ":6072,"Ġìŀ¥ëĤľ":6073,"ĠíĨ¤":6074,"ë¹Ļ":6075,"ëģĪ":6076,"Ġcollected":6077,"Ġskills":6078,"Ġê¾¸ì¤ĢíŀĪ":6079,"ëģĮ":6080,"Ġcounsel":6081,"Ġsummer":6082,"íĶĦíĬ¸":6083,"ĠWindow":6084,"Ġsquare":6085,"Ġcorpor":6086,"Ġpatterns":6087,"ĠìĤ°ì±ħ":6088,"Ġtested":6089,"Ġë³´ìľł":6090,"Ġì¡°ìĦł":6091,"ìĻĢìĦľ":6092,"Ġcorrel":6093,"Ġìĭ¤íĮ¨":6094,"ĠìķŀìĦľ":6095,"Ac":6096,"ĠêµŃë¬¼":6097,"Ġconflic":6098,"ĠìĹ¬ìłĦíŀĪ":6099,"ĠìĦŃì·¨":6100,"Ġrelation":6101,"Ġê·¼ìľ¡":6102,"atever":6103,"Ġforeign":6104,"ĠíĽĪëł¨":6105,"ĠEvery":6106,"while":6107,"ĠìŀĳëħĦ":6108,"ëĵľìĭľ":6109,"acters":6110,"Ġarrang":6111,"Ġseemed":6112,"ĠëĵĿ":6113,"Ġconserv":6114,"Ġë¡¯ëį°":6115,"ìĿ´ëĤł":6116,"Ġì¹´ë©ĶëĿ¼":6117,"Ġìŀ¥ë¹Ħ":6118,"ĠType":6119,"ĠFurthermore":6120,"args":6121,"ìĥĿê°ģ":6122,"Ġìĸ´ì°Į":6123,"ĠëĮĢì²´":6124,"ëĵ¬":6125,"Ġì§Ħìłķ":6126,"ĠìĹ°ê¸°":6127,"Ġcircumst":6128,"Ġfloat":6129,"ê·¸ëŁ¬ëĤĺ":6130,"Ġwhereas":6131,"ĠíĬ¼":6132,"SE":6133,"Ġexamples":6134,"ĠìĺĽ":6135,"ìĿ¼ëĭ¨":6136,"Ġë¹łë¥¸":6137,"Ġadministration":6138,"Ġë°°ìĨ¡":6139,"ĠíĬ¹ì§ķ":6140,"ëĵ¯":6141,"jected":6142,"Ġconduct":6143,"ĠìĿ¸ìĭĿ":6144,"Ġë°ĶëĿ¼ë³´":6145,"Ġcommercial":6146,"ĠìĪĺì¶ľ":6147,"Ġprepar":6148,"ĠìĦ¤ìłķ":6149,"Ġëª°ëŀĲ":6150,"íķĻìĥĿ":6151,"ĠIL":6152,"Ġìĭ¤ëĤ´":6153,"Ġëĵ¤ìĸ´ê°Ķ":6154,"Ġë¯¸ìķĪ":6155,"Ġsubjects":6156,"ëŃĲ":6157,"ìķĦëĵ¤":6158,"ìłĦìŀĲ":6159,"Ġíĳľìłķ":6160,"Ġcontainer":6161,"Ġchallenge":6162,"Ġìłľëª©":6163,"Ġë¬µ":6164,"String":6165,"Ġsociety":6166,"Ġcorrelation":6167,"Ġmeasurements":6168,"ĠSC":6169,"ëĺĲíķľ":6170,"Ġspecifically":6171,"Ġassume":6172,"Ġoptical":6173,"Ġimportance":6174,"essage":6175,"Ġpicture":6176,"PA":6177,"Ġë°ĶëĢĮ":6178,"ĠìĽĲìŀ¥":6179,"Ġê³łëĵ±":6180,"Ġëĵ¤ìĸ´ê°Ħ":6181,"References":6182,"Ġbeautiful":6183,"------":6184,"ĠëĤ¨ìĦ±":6185,"Ġë¶Ģë¶Ģ":6186,"istical":6187,"timate":6188,"istant":6189,"íĵ¨íĦ°":6190,"Ġcouldn":6191,"ĠìĻ¼":6192,"Ġdetected":6193,"Ġexchange":6194,"Ġhappen":6195,"Ġìłľíķľ":6196,"ĠìĹ¬ë¶Ģ":6197,"ĠTO":6198,"ĠìĨĶì§ģ":6199,"Ġfamilies":6200,"ĠAPI":6201,"Ġê·ĢìĹ½":6202,"Ġarguments":6203,"Ġìĸ´ì©Į":6204,"ĠìłĦíĻĺ":6205,"Ġaffected":6206,"Ġcomfort":6207,"ëĦĺ":6208,"Ġë¯¼ì£¼ëĭ¹":6209,"ìĺģìĥģ":6210,"ĠìĭľëıĦ":6211,"Ġframework":6212,"ĠìĿ´ë¤Ħ":6213,"Ġë¬¼ì§Ī":6214,"Ġreplacement":6215,"Ġì¹ĺê³¼":6216,"Ġê°Ģë°©":6217,"ìĳ":6218,"Ġsupplement":6219,"ĠìľĦìĽĲìŀ¥":6220,"Ġcomments":6221,"ì»¬":6222,"ìĸ´ëĸ":6223,"PL":6224,"Ġlibrary":6225,"Ġì¡°ìĦ±":6226,"ĠìĬµê´Ģ":6227,"Ġì°¸ìĦĿ":6228,"Ġpropor":6229,"Ġlargest":6230,"ĠëŁ°":6231,"Ġappeared":6232,"ĠëĦ¤ìĿ´ë²Ħ":6233,"ĠCommun":6234,"ectors":6235,"Ġë¹Ļ":6236,"Ġëĵ±ê¸ī":6237,"Ġexpert":6238,"Ġë¸ĮëĿ¼":6239,"Ġthread":6240,"Ġsurround":6241,"Ġdanger":6242,"Ġì§Ģì§Ģ":6243,"ĠìĭľíĤ¨":6244,"ĠGerman":6245,"ĠPS":6246,"Ġhappened":6247,"Ġexposure":6248,"Ġê°Ģë¥´":6249,"Ġinsurance":6250,"data":6251,"ĠëĬĲëĤĦ":6252,"ë½":6253,"ĠëĵľëĿ¼ë§Ī":6254,"Ġequipment":6255,"ë¬´ìĽĲ":6256,"Ġë¬´ë¦¬":6257,"Ġë°Ķê¾¸":6258,"ĠìłĦìŁģ":6259,"Ġexplain":6260,"Ġíķµìĭ¬":6261,"Ġê¸°ëıĦ":6262,"Ġcompleted":6263,"ëĭī":6264,"Ġwhom":6265,"Ġìĸ´ìļ©":6266,"Ġë°©ì§Ģ":6267,"ìĭ¼":6268,"Ġìŀħêµ¬":6269,"à¥":6270,"ìĹĶ":6271,"ĠìķĦìī½":6272,"Ġê²Ģì°°":6273,"Ġíģ¬ë¦¬ìĬ¤":6274,"abilities":6275,"Ġcontrolled":6276,"Ġê·¸ëŁ´":6277,"Ġê³ĦëŀĢ":6278,"Ġë°©ìķĪ":6279,"ĠíĹĮ":6280,"Ġplants":6281,"ĠIsrael":6282,"ĠìĿ´ë¥´":6283,"Ġíı¼":6284,"ëĤ©":6285,"Ġnearest":6286,"ĠìĥĪìļ°":6287,"inst":6288,"Ġexercise":6289,"ĠíĥĢìŀĦ":6290,"Ġìĥģëĭ¹íŀĪ":6291,"CE":6292,"Ġì°°":6293,"FF":6294,"Ġdriver":6295,"íĺ¸ìĤ¬":6296,"ĠChinese":6297,"ì¹ľêµ¬":6298,"Ġpicked":6299,"Ġì²´ê³Ħ":6300,"Ġraised":6301,"Ġëļľ":6302,"Ġextension":6303,"Ġëĭ¤ë§Į":6304,"Ġincorpor":6305,"ĠëĲľëĭ¤ëĬĶ":6306,"Ġmissing":6307,"Ġìłľìĭľ":6308,"Ġthresh":6309,"Ġexplained":6310,"Ġpurposes":6311,"Ġbelong":6312,"ĠCanada":6313,"Ġì°¨ë¡Ģ":6314,"ĠPlease":6315,"Ġcharacters":6316,"Ġíķľì§Ģ":6317,"Ġì°©ìļ©":6318,"ĠíĨµíķ©":6319,"Ġevolution":6320,"Ġopened":6321,"Ġë°ĺì°¬":6322,"Ġextent":6323,"ĠCompany":6324,"Ġë°ĺëĵľìĭľ":6325,"Ġinstruc":6326,"Ġëįĺì§Ģ":6327,"Ġfootball":6328,"ëĭ¤ë¦¬":6329,"Ġorigin":6330,"Ġë¶Īêµ¬":6331,"Ġê¸°ë°ĺ":6332,"ĠìĨĮë¹ĦìŀĲ":6333,"Ġdiscussion":6334,"Value":6335,"Ŀł":6336,"Ġì¦Ŀê¶Į":6337,"ìĵ°":6338,"ê²¹":6339,"ĠíĺľíĥĿ":6340,"Ġforces":6341,"Ġaccuracy":6342,"Ġoperating":6343,"Ġevaluation":6344,"Ġëĵłì§Ģ":6345,"PC":6346,"Ġhealthy":6347,"Ġreturns":6348,"Ġê¸Ģë¡ľë²Į":6349,"date":6350,"[extra_id_191]":6351,"ĠìĤ´íİ´ë³´":6352,"Ġë³¶ìĿĮ":6353,"Ġindustr":6354,"Ġstable":6355,"Ġenvironmental":6356,"Ġinfection":6357,"ĠëĮĢê¸°":6358,"Ġsuggests":6359,"Ġê°ľìµľ":6360,"Ġìĭľë¦¬":6361,"lective":6362,"ĠìĥĲëŁ¬ëĵľ":6363,"ellent":6364,"ĠëĭĪê¹Ĳ":6365,"íľĺ":6366,"Ġë»Ķ":6367,"Ġslightly":6368,"Ġoffered":6369,"ĠìĪĺëıĦ":6370,"ĠíĤ¤ìļ°":6371,"Ġmanager":6372,"Ġëĸ¼":6373,"Ġnation":6374,"Ġìĺµ":6375,"Ġinterpret":6376,"ĠSecond":6377,"ë¨¸ì§Ģ":6378,"Ġsexual":6379,"ë³¶ìĿ´":6380,"entral":6381,"Ġìķ±":6382,"Ġopening":6383,"Ġì¶Ķìĸµ":6384,"Ġë§ĪìĤ¬":6385,"ìĦ°":6386,"Ġìĭ¤ëł¥":6387,"Ġì§ĢìĪĺ":6388,"Ġë¯¸ëĭĪ":6389,"Ġidentity":6390,"ĠìĦ±ê²©":6391,"ì°¬ê°Ģì§Ģ":6392,"ĠìĪĺìŀħ":6393,"ĠìĥĿê²¨":6394,"ĠìŀĲë©´":6395,"Ġmetric":6396,"Ġìŀłê¹Ĳ":6397,"ĠDuring":6398,"ĠìĨĮì¤ĳ":6399,"ĠëħĢìĦĿ":6400,"ĠëĮĵê¸Ģ":6401,"ĠëĤ¨ê²¨":6402,"ĠìĿ¸íķľ":6403,"Ġelectron":6404,"Ġë§ŀì¶¤":6405,"inter":6406,"ĠìĻ¸ë¶Ģ":6407,"Ġê°ķìķĦì§Ģ":6408,"ĠìĨĮëĵĿ":6409,"Ġdecrease":6410,"Ġoccurred":6411,"Ġë®¤":6412,"Ġë³¸ê²©":6413,"ĠCommission":6414,"ĠìĬ¤íı¬ì¸ł":6415,"Ġagents":6416,"Ġefforts":6417,"ë§¹":6418,"ĠDemocr":6419,"ĠìłĦíķ´":6420,"ATE":6421,"itivity":6422,"íķĺë£¨":6423,"êµ°ê°Ģ":6424,"Ġconventional":6425,"Ġcollect":6426,"ĠëĮĢì±ħ":6427,"Ġë¬´ì¡°ê±´":6428,"ĠìĤ¬ìłĦ":6429,"Ġìłľì¡°":6430,"Ġactivation":6431,"Ġremaining":6432,"Ġêµ¬ìĽĮ":6433,"Ġsmooth":6434,"Ġë©ĺ":6435,"Ġì·¨ìĹħ":6436,"ë¯¼êµŃ":6437,"ĠìĽĲíķĺ":6438,"ĠëĪĮ":6439,"ĠëĨĢëĿ¼":6440,"ĠìķĦë¬´ëŀĺëıĦ":6441,"Ġuniform":6442,"Ġrepresents":6443,"Ġarchitect":6444,"ĠëĵľëĶĶìĸ´":6445,"Ġìıĺ":6446,"ĠCL":6447,"ipping":6448,"Ġìľ¼ë¡ľìĦľ":6449,"Ġcertainly":6450,"ĠìĤ¬ê³¼":6451,"Ġunless":6452,"Ġintended":6453,"Ġimplic":6454,"Ġbacter":6455,"Ġpredict":6456,"Ġë°ľëĿ¼":6457,"Ġëª¨ìŀĦ":6458,"ìĸ´ì§Ħ":6459,"Ġê²½ê¸°ëıĦ":6460,"ĠíķŃê³µ":6461,"titutional":6462,"Ġê¸Īë°©":6463,"Ġpartners":6464,"Ġbalance":6465,"Ġpassword":6466,"Ġcovered":6467,"Ġcauses":6468,"Ġcompare":6469,"Ġdespite":6470,"ĠSM":6471,"Ġinterested":6472,"ĠìĺģêµŃ":6473,"Ġresponses":6474,"utation":6475,"Ġstored":6476,"Ġê³µìŀ¥":6477,"Ġë¯¸ìļ©":6478,"Ġdeveloping":6479,"TP":6480,"ê¹Ŀ":6481,"Ġíģ´ë¦Ń":6482,"Ġdimensional":6483,"ĠíĻľìĦ±":6484,"ìķĦëĭĪ":6485,"Ġvictim":6486,"Ġì§ĢëĤ´":6487,"TA":6488,"Ġdelivery":6489,"ĠWindows":6490,"ĠíĹĪë¦¬":6491,"Ġcontrols":6492,"Ġtalking":6493,"Ġimplementation":6494,"Ġfeeling":6495,"Ġnetworks":6496,"Ġpurchase":6497,"BA":6498,"ĠíĻįë³´":6499,"ìĿ´íĮħ":6500,"Ġprotect":6501,"Ġunders":6502,"Ġreflect":6503,"Ġê°Īë¹Ħ":6504,"ëĭĮ":6505,"Ġscheme":6506,"Ġspirit":6507,"Ġë§Īì°¬ê°Ģì§Ģ":6508,"Ġholding":6509,"Ġëĭ¨ìĸ´":6510,"ê»ı":6511,"ĠìĹ°ìĨį":6512,"ìĸ´ëĵ¤":6513,"Ġì¹¨ëĮĢ":6514,"retion":6515,"Ġbreath":6516,"ĠNS":6517,"Ġdisapp":6518,"Ġë²¨":6519,"Ġê°ĲìŀĲ":6520,"ĠìºĲë¦Ń":6521,"Ġemphas":6522,"Ġë°ĺìĺģ":6523,"ĠíĿĶëĵ¤":6524,"Ġspring":6525,"Ġìŀ¬ë¯¸ìŀĪ":6526,"Ġmargin":6527,"ographic":6528,"Ġë¶Ģìłķ":6529,"íĭ´":6530,"Ġë§Įìķ½":6531,"Ġsecondary":6532,"ĠObject":6533,"Ġannounced":6534,"Ġì»´íĵ¨íĦ°":6535,"Ġfinish":6536,"Ġplanning":6537,"ëĨį":6538,"Ġë³´ê´Ģ":6539,"ĠíĻķì§Ħ":6540,"Ġíľ´ëĮĢ":6541,"Ġì§ĢíĤ¤":6542,"Ġìļ°ìĪĺ":6543,"Ġphotograph":6544,"Ġinvestigation":6545,"ê¹ĥ":6546,"Ġsurvey":6547,"Ġlimits":6548,"íĥĢë¯¼":6549,"Ġadding":6550,"ersion":6551,"Ġê³łìĥĿ":6552,"ê·¸ëłĩ":6553,"Ġê·¸ë¦°":6554,"Ġë°°ëĭ¬":6555,"ĠìłĦíĸĪ":6556,"ì²¨":6557,"Ġvoltage":6558,"ìķĦì¹¨":6559,"ĠStreet":6560,"Ġìĸ´ëĸł":6561,"Ġgather":6562,"Ġmeasurement":6563,"',":6564,"Ġwitness":6565,"Ġìľ¼ìĭ¤":6566,"ĠìĿ¸ëıĦ":6567,"Ġë§Īê°Ĳ":6568,"Ġê³łìĸĳìĿ´":6569,"Ġìĸ´ê¹¨":6570,"Ġanalyzed":6571,"Ġrangle":6572,"list":6573,"Ġestimate":6574,"Ġtransmission":6575,"ĠER":6576,"Ġschools":6577,"ĠìĦłë°ľ":6578,"Ġdynamic":6579,"Ġë¡ľìļ´":6580,"Ġconcentrations":6581,"íĿ¡":6582,"istory":6583,"QL":6584,"Ġpetition":6585,"Ġì¶ľê·¼":6586,"Ġdescribe":6587,"Ġlayers":6588,"Ġê³łìĨĮ":6589,"ĠES":6590,"ĠëĲĺê²Į":6591,"cont":6592,"ĠDC":6593,"Ġdriving":6594,"Ġê°Ģê¹Įìļ´":6595,"ĠíĶĦëŀĳ":6596,"Ġê°ĦìĭĿ":6597,"Ġextrac":6598,"ĠíİĮ":6599,"ĠìķĪíĥĢ":6600,"Ġconfirmed":6601,"ĠìµľëĮĢíķľ":6602,"Ġstories":6603,"Ġdefense":6604,"Ġcompris":6605,"Ġcontinuous":6606,"Ġproperly":6607,"Ġìį¼":6608,"ĠCA":6609,"Ġìµľì¢ħ":6610,"Ġì¡°ìļ©":6611,"Ġfocused":6612,"Ġlatter":6613,"Ġì°¾ìķĦë³´":6614,"Ġìľłì¹ĺ":6615,"Ġìŀ¥ë©´":6616,"Ġíĳ":6617,"ìĿ´ê±´":6618,"Ġenhance":6619,"ĠCC":6620,"ĠìłĦíĨµ":6621,"Ġê¸°ë¦Ħ":6622,"Ġìŀĳìļ©":6623,"Ġformula":6624,"Ġìĸ´ë¨¸ëĭĪ":6625,"Ġheader":6626,"Ġchanging":6627,"Ġì´Īëĵ±":6628,"ì¹´ìĺ¤":6629,"Ġì´Īê¸°":6630,"ĠëĦĪë¬´ëĦĪë¬´":6631,"Ġneighbor":6632,"ĠìĪĺë¦¬":6633,"çĶ":6634,"Ġì§Ģìłķ":6635,"Ġíİ¸ìĿĺ":6636,"ĠëĮĢíĺķ":6637,"ë³į":6638,"Ġmental":6639,"Ġhidden":6640,"Ġê³łíĨµ":6641,"ĠBoth":6642,"ĠíĻĶìĿ´íĬ¸":6643,"Ġtu":6644,"Ġìĭ¬ë¦¬":6645,"Ġìŀī":6646,"Ġassessment":6647,"Ġreferred":6648,"Ġëį®":6649,"Ġmolecular":6650,"Ġtraffic":6651,"ĠìķĦë¬´ë¦¬":6652,"ĠEngland":6653,"ĻëĭĪëĭ¤":6654,"//":6655,"ëī´ìĬ¤":6656,"Ġparticles":6657,"\",":6658,"ĠDirect":6659,"Ġextended":6660,"ĠìĤ¬ë§Ŀ":6661,"ascular":6662,"ĠìĪĺíĸī":6663,"Ġìĥģê´Ģ":6664,"ĠìĿĺíķ´":6665,"ĠìĺĪìĤ°":6666,"ë§Īì§Ģë§ī":6667,"Ġì¼ĢìĿ´íģ¬":6668,"Ġassociation":6669,"ë§ĪìĬ¤":6670,"Ġspeech":6671,"ighted":6672,"Ġìµľì´Ī":6673,"Ġsignals":6674,"ĠUN":6675,"Ġê°ķëł¥":6676,"ĠìĦ¤ê³Ħ":6677,"ifying":6678,"FA":6679,"Ġcamera":6680,"Ġdataset":6681,"Ġsymptoms":6682,"ĠìĪĺìļĶ":6683,"ìķĦì§ģ":6684,"ĠëĮĢíķĻêµĲ":6685,"ìĸ´ìłľ":6686,"Ġreserv":6687,"âĸ":6688,"Ġsentence":6689,"Ġêµ¬ì¶ķ":6690,"Ġsubset":6691,"Ġrepresented":6692,"Ġê¸°ì´Ī":6693,"Ġcircumstances":6694,"ĠCollege":6695,"Ġanimal":6696,"Ġchosen":6697,"Ġparallel":6698,"ĠMA":6699,"Ġconfirm":6700,"ĠìĿ¼ìĸ´":6701,"Ġdismiss":6702,"ĠìĤ´ìķĦ":6703,"stream":6704,"ĠìĻ¸êµŃìĿ¸":6705,"Ġëĭ¹ìĹ°íŀĪ":6706,"terior":6707,"Ġê³¼ìĿ¼":6708,"Ġchurch":6709,"ĠëıĦìŀħ":6710,"íĻķìĿ¸":6711,"ĠìŀĲìĤ°":6712,"Ġepsilon":6713,"Ġë§ŀì¶Ķ":6714,"That":6715,"Ġachieved":6716,"ĠìļĶìĨĮ":6717,"Ġìĭłëŀĳ":6718,"Ġë©Ī":6719,"ĠëįĶë¶Ī":6720,"ëłĽ":6721,"ĠíĪ¬ìĸ´":6722,"ampions":6723,"Ġmainly":6724,"Ġì·¨íĸ¥":6725,"ĠíĮĮìĬ¤íĥĢ":6726,"Ġbranch":6727,"ĠëĿĦ":6728,"Ġequivalent":6729,"Ġpowerful":6730,"Ġadvert":6731,"ĠìĺĪë»Ĳ":6732,"xture":6733,"True":6734,"Ġë¬´ìĦľ":6735,"Ġalleged":6736,"De":6737,"Ġkw":6738,"tification":6739,"Ġëĭµë³Ģ":6740,"Ġarrest":6741,"Ġíĥģ":6742,"ëĭ«":6743,"Ġcontained":6744,"ĠProgram":6745,"Ġowners":6746,"Ġì¤ĺìĦľ":6747,"ĠìĪĺìĽĲ":6748,"ĠPublic":6749,"ë¥¸ëĭ¤":6750,"Ġjournal":6751,"Ġtechnical":6752,"Ġëĭ¦":6753,"Ġentered":6754,"Ġë¼Ī":6755,"Ġduration":6756,"theless":6757,"Ġinvestment":6758,"Ġexistence":6759,"ìľĦì¹ĺ":6760,"Ġabsence":6761,"Ġêº¼ëĤ´":6762,"ansion":6763,"Ġíķ©ìĿĺ":6764,"Ġì£¼ì°¨ìŀ¥":6765,"Ġmostly":6766,"ëĮ":6767,"Ġmechanisms":6768,"Ġconnect":6769,"ĠSH":6770,"ĠëĤ´ëĤ´":6771,"Ġë©Ģë¦¬":6772,"ë°ĺê¸°":6773,"åľ":6774,"Ġenable":6775,"Ġexclud":6776,"Ġìĥģìĥģ":6777,"Ġsurgery":6778,"Ġíİ¸ë¦¬":6779,"Ġë¬¸ìŀĲ":6780,"Ġë¿Įë¦¬":6781,"ĠGermany":6782,"ĠAddition":6783,"Ġê·Ģì°®":6784,"Ġì§ĢìĿ¸":6785,"Ġoccurs":6786,"Ġstrugg":6787,"ĠìŀĲëĿ¼":6788,"Ġbiggest":6789,"Ġindicates":6790,"ĠìłĲê²Ģ":6791,"Ġapprec":6792,"ĠìĿĺì§Ģ":6793,"Ġbatter":6794,"ĠNO":6795,"Ġê³łì¶Ķ":6796,"ĠìĦ±ìłģ":6797,"ĠìŀĦëĮĢ":6798,"ĠíİĢ":6799,"ì¡°ê¸Ī":6800,"Ġì¶©ìłĦ":6801,"Ġapproaches":6802,"Ġëħ¸íĬ¸":6803,"Ġstrict":6804,"path":6805,"Ġê°ĲëıĻ":6806,"Ġinteractions":6807,"Ġë²Ħë¦°":6808,"icated":6809,"Ġwouldn":6810,"Ġëĭ¤ìļ´":6811,"Ġë¹Ħìĭ¸":6812,"Ġinflamm":6813,"Ġdecreased":6814,"Ġclients":6815,"Ġê¸Īì§Ģ":6816,"ë°į":6817,"Ġíļ¨ìľ¨":6818,"Ġë¹Ħìľ¨":6819,"ì¶°":6820,"Ġì¼ĢìĿ´ìĬ¤":6821,"Ġextremely":6822,"ĩ¨":6823,"Ġrepeated":6824,"ĠCongress":6825,"Ġëķ¡":6826,"Ġpublish":6827,"ĠíĬ¸ë¦¬":6828,"ë¬¼ë¡ł":6829,"Ġë©ĭì§Ħ":6830,"ĠCouncil":6831,"Ġrepresentation":6832,"Ġê°ľëħĲ":6833,"ĠìĻł":6834,"ĠFinally":6835,"PT":6836,"Ġcelebr":6837,"íĪ":6838,"Ġbrowser":6839,"Ġìĭłìļ©":6840,"Ġspectrum":6841,"Ġinvolve":6842,"Ġê³łë¥´":6843,"ĠìĽ¨ëĶ©":6844,"ĠëıĻìĿ¼":6845,"ĠìĿ´ëķĮ":6846,"ĠChristian":6847,"Ġconstit":6848,"Ġê°ķíķľ":6849,"ĠìĥĮ":6850,"Ġpossibility":6851,"ilarly":6852,"Ġë¦¬ë·°":6853,"Ġcoverage":6854,"ĠëĤĺëĪł":6855,"ĠëıħìĿ¼":6856,"Ġthanks":6857,"ĠìķĦë¦Ħëĭ¤ìļ´":6858,"ë£©":6859,"ĠëĤŃ":6860,"ĠìĻĢìĿ¸":6861,"Ġë¯¸ìĪł":6862,"EST":6863,"ĠOS":6864,"Ġê³łë§Ī":6865,"Ġíģ´ëŀĺ":6866,"Ġìĭ¤ìłģ":6867,"Ġanalyses":6868,"Ġê·¼ë¬´":6869,"Ġlisted":6870,"endant":6871,"Ġê·¸ë¦ĩ":6872,"Ġê¸į":6873,"Ġê·ľìłķ":6874,"íİĺìĿ¸":6875,"ĠFrance":6876,"Ġevaluate":6877,"Ġì§ĢëĤĺê°Ģ":6878,"Ġì¶ķêµ¬":6879,"Ġë§¤ìļ´":6880,"Ġê³µê°Ĳ":6881,"Ġdetailed":6882,"Ġìķ¼ì±Ħ":6883,"Ġwhatever":6884,"Ġì²ŃëħĦ":6885,"íĮĶ":6886,"inations":6887,"Ġëª¨ìķĦ":6888,"Ġkilled":6889,"ĠìĪĻìĨĮ":6890,"ëªĩ":6891,"Ġexcellent":6892,"ĠìłĪì°¨":6893,"ĠìºĲë¦ŃíĦ°":6894,"Ġê³µê³µ":6895,"Ġprototype":6896,"ìĽĲëŀĺ":6897,"Ġíĺģìĭł":6898,"elines":6899,"Ġdecisions":6900,"Ġdirected":6901,"Ġë¬ĺ":6902,"ĠíĤ¹":6903,"Ġminute":6904,"Ġpayment":6905,"Ġeconomy":6906,"FC":6907,"Ġë¹Ħíĸī":6908,"Ġprison":6909,"ĠìĿĺìĭĿ":6910,"Ġchannels":6911,"Ġìļ°ìľł":6912,"ĠAC":6913,"Ġ---------":6914,"ĠíĻĶë©´":6915,"ĠìĽĶëĵľ":6916,"å®":6917,"ĠìķĦê°Ģ":6918,"Ġplasma":6919,"Ġrelationships":6920,"ĠìĿ´ëģĮ":6921,"ĠëĤĺíĥĢëĤ¬":6922,"ĠìĿ´ìģľ":6923,"ĠìĪĺë¶Ħ":6924,"ĠWestern":6925,"ĠìĹ¬ì£¼":6926,"ĠSU":6927,"Ġì°¸ê°Ģ":6928,"Ġvelocity":6929,"Ġpositions":6930,"ĠìĤŃ":6931,"ĠEC":6932,"Ġíķĺê³ł":6933,"Ġëĭ«":6934,"Ġë¬´ëĮĢ":6935,"Ġauthority":6936,"íĶ¼ìĬ¤":6937,"Ġabsolute":6938,"Ġíķĺìļ°ìĬ¤":6939,"Ġsevere":6940,"Ġelectric":6941,"Ġdirector":6942,"Ġtypical":6943,"########":6944,"Ġbillion":6945,"íĦ°ë¦¬":6946,"ĠíĺķìĦ±":6947,"Ġhusband":6948,"ĠëģĦ":6949,"oration":6950,"Ġclimate":6951,"íħĲì¸ł":6952,"Ġê³¨íĶĦ":6953,"ê¼¬":6954,"ĠPL":6955,"Ġìĭłë¢°":6956,"Ġminimal":6957,"Ġguaran":6958,"ĠìĽĮëĤĻ":6959,"ĠìµľìĦł":6960,"ĠëĤĺê°Ī":6961,"Ġcollege":6962,"Ġìĸ¸ë¡ł":6963,"ìłĿ":6964,"Ġëĸ¡ë³¶ìĿ´":6965,"Ġcriteria":6966,"Ġinstalled":6967,"ĠAssociation":6968,"Ġdepending":6969,"ìĿĢíĸī":6970,"Ġìĥģì²ĺ":6971,"Ġvirtual":6972,"Ġstrategies":6973,"Ġê·ĢìĹ¬ìļ´":6974,"ìĽħ":6975,"ĠíĴįê²½":6976,"know":6977,"Ġê°¤":6978,"Ġê·¸ëıĻìķĪ":6979,"Ġprices":6980,"Ġdepends":6981,"Ġoptimal":6982,"ĠAustralia":6983,"ìį¹":6984,"Ġdocuments":6985,"ĠHD":6986,"ĠíĿ°":6987,"Ġterminal":6988,"Ġê³ĦìĤ°":6989,"Ġìļ°ìĬ¹":6990,"ëĸ¼":6991,"ì²«":6992,"Ġadvanced":6993,"Ġê³¼ìłľ":6994,"Ġpolicies":6995,"Ġinvestigated":6996,"place":6997,"Ġmodified":6998,"Ġì¶ķìłľ":6999,"ĠëĤĺë¨¸ì§Ģ":7000,"Ġtestim":7001,"ĠìĪĺìĺģ":7002,"íĿĲ":7003,"Ġlearned":7004,"Ġlayout":7005,"ëª½":7006,"Ġì¥Ĳ":7007,"ĠON":7008,"ĠìĭľíĤ¬":7009,"Ġì¡¸ìĹħ":7010,"ancing":7011,"Ŀį":7012,"ĠëĮĢíķľë¯¼êµŃ":7013,"Ġcollabor":7014,"Ġsigned":7015,"Ġtrigger":7016,"ìłĢê¸°":7017,"Ġíķ©ê²©":7018,"ĠìĨĮíĻĶ":7019,"Ġrecover":7020,"áĥ":7021,"ĠìķĪìĭ¬":7022,"ĠìĹħê³Ħ":7023,"ĠìĪ²":7024,"ĠInstitute":7025,"Ġìĸ´ëł¤ìĽĢ":7026,"Ġboundary":7027,"ĠìķĻ":7028,"ĠëĲľëĭ¤ë©´":7029,"Ġê³°":7030,"ĠíĨ¡":7031,"Ġlinked":7032,"RS":7033,"ĠíĺĳìĿĺ":7034,"ê°ľìĿ¸":7035,"Ġì£¼ê°Ģ":7036,"ĠìĿ¼ìľ¼":7037,"Ġsuitable":7038,"ĠìĿ¼ê¹Į":7039,"ĠDevelop":7040,"ĠìĿ¼ê¸°":7041,"DE":7042,"ê·¸ëłĩê²Į":7043,"Ġë§ĪìĤ¬ì§Ģ":7044,"Ġuncertain":7045,"Calculate":7046,"ĠíĨµíķľ":7047,"ìķĦì£¼":7048,"Ġëħ¼ìĿĺ":7049,"Ġdenied":7050,"ĠíıīíĻĶ":7051,"Ġmessages":7052,"Ġê±´ì¶ķ":7053,"Ġexamined":7054,"Ġthreshold":7055,"ëŀĦ":7056,"Ġcompens":7057,"fication":7058,"Ġintensity":7059,"ĠìłĦìļ©":7060,"Ġëº":7061,"Ġsurvival":7062,"ĠEU":7063,"ë§ĽìŀĪ":7064,"ĠChurch":7065,"Ġìĭľì²Ń":7066,"ĠìĮ¤":7067,"Ġelectronic":7068,"ĠëĶ©":7069,"Ġì¡°ëªħ":7070,"Ġoutcome":7071,"Ġevaluated":7072,"aneous":7073,"Ġreality":7074,"Ġradius":7075,"ë¬µ":7076,"Ġstandards":7077,"TC":7078,"Ġdesired":7079,"Ġexcess":7080,"Ġê°Ģë³į":7081,"Ġì§ģìĹħ":7082,"Ġaspects":7083,"Ġìłľì¶ľ":7084,"Ġìĭłì²´":7085,"ìĿį":7086,"Ġì°½ìĹħ":7087,"ĠëĤ¼":7088,"Ġofficer":7089,"Ġsegment":7090,"Ġdiagnosis":7091,"Ġì¶©ê²©":7092,"Ġemployed":7093,"Some":7094,"Ġë¹ĦíĥĢë¯¼":7095,"Ġeasier":7096,"Ġëª¨ìŀĲ":7097,"ĠLeague":7098,"Ġì£¼ë°©":7099,"ëŀĢëĭ¤":7100,"Ġdeploy":7101,"ĠGeorge":7102,"ĠíģĲ":7103,"Ġchallenges":7104,"ulating":7105,"Ġmarketing":7106,"Ġê¸°íļį":7107,"Ġdistinct":7108,"ĠíĮħ":7109,"ĠíĬ¹ìĦ±":7110,"Ġìļ¸ìĤ°":7111,"ì§ĢíĦ¸":7112,"Ġìĭľë¦¬ì¦Ī":7113,"ĠìĪĺìłķ":7114,"Ġvariation":7115,"Ġëĵľëł¤ìļĶ":7116,"ìĥ¤":7117,"Ġdelete":7118,"ĠëĪĦêµ°ê°Ģ":7119,"Ġstanding":7120,"ĠìıŁ":7121,"Ġconclusion":7122,"Ġê°Ģê¹ĮìĿ´":7123,"Ġscores":7124,"Ġunivers":7125,"Ġpercentage":7126,"ĠìĹ°íķ©":7127,"Ġfinished":7128,"Ġìĭłê·ľ":7129,"Ġfraction":7130,"ĠíĽĦíļĮ":7131,"ë¦¬íĭ°":7132,"Ġfilled":7133,"Ġinterests":7134,"Ġê¾":7135,"ĠìĬ¤íĭ°":7136,"Ġë¸Ķë£¨":7137,"Ġconstruct":7138,"Ġdifferenti":7139,"Ġconsent":7140,"ĠJapanese":7141,"Ġleaving":7142,"Ġë¶Ģë¬¸":7143,"Ġì¦Ĳê±°ìļ´":7144,"Ġadministr":7145,"Ġnuclear":7146,"Ġsensitive":7147,"Ġì£¼ëª©":7148,"Ġìĺ¤ë¥¸ìª½":7149,"ĠCN":7150,"ĠìłĢëŁ°":7151,"Ġë¶ĢëĵľëŁ½":7152,"Ġìĺ¤ë¦¬":7153,"ì©į":7154,"Ġìĭ¬ê°ģ":7155,"ê´´":7156,"Ġë°ĶìĿ´ëŁ¬ìĬ¤":7157,"Ġpractices":7158,"ĠìĨĲìĥģ":7159,"Ġê²Ł":7160,"ìĹ¬ìĦľ":7161,"ĠìĪĺíķĻ":7162,"Ġleaves":7163,"Ġìĸ¸ê¸ī":7164,"Ġinterval":7165,"Ġacadem":7166,"Ġcommunities":7167,"Ġagency":7168,"Ġgreatest":7169,"Ġexperienced":7170,"ĠìĽĢì§ģìĿ´":7171,"Ġê²Įìĭľ":7172,"Ġallowing":7173,"Ġsubstrate":7174,"Ġì¢ħìĿ´":7175,"Ġeventually":7176,"Ġì¦Ĳê¸¸":7177,"Ġë§ĮëĤľ":7178,"Ġarbitr":7179,"ĠíĽĮ":7180,"ĠíĶ¼ê³¤":7181,"Ġê²°ìłľ":7182,"ë°ĶìĿ¼":7183,"Ġê¸°ê³Ħ":7184,"ĠPR":7185,"Ġìº¡":7186,"Ġhelped":7187,"ashion":7188,"Ġsections":7189,"Ġë¹Ħë°Ģ":7190,"ìĪ¨":7191,"Ġë©į":7192,"Ġdaughter":7193,"Ġremained":7194,"Ġë°Ķíĥķ":7195,"Ġwindows":7196,"ĠëĦĲ":7197,"ĠìłģìłĪ":7198,"ëĿ¼ìĦľ":7199,"Ġìĸ¸ìłľëĤĺ":7200,"Ġë§ĳ":7201,"ĠNE":7202,"ĠInternet":7203,"ĠíķľìŀĶ":7204,"Ġseconds":7205,"Ġleader":7206,"Ġë¶Īë¦¬":7207,"ĠNC":7208,"Ġíĳľìĭľ":7209,"Ġexplicit":7210,"ĠìĻ¼ìª½":7211,"Ġë¶Ħë¦¬":7212,"Ġëª½":7213,"ĠìĹĳ":7214,"ë©ĺ":7215,"Ġoffset":7216,"tructure":7217,"Ġmolecules":7218,"Ġannual":7219,"ĠBM":7220,"íģ¬ë¦¼":7221,"ĠìłĦë°ĺ":7222,"Ġarticles":7223,"Ġfinite":7224,"Ġobjective":7225,"Ġnative":7226,"ĠëŀĦ":7227,"Ġë°°ê²½":7228,"ìłĦê±°":7229,"elcome":7230,"Ġcriminal":7231,"ĠíĮĮíĭ°":7232,"Ġê·¸ëł¤":7233,"ĠìķĦëĭĮê°Ģ":7234,"Element":7235,"Ġmuscle":7236,"ì§Ģìĸ´":7237,"ìłķë¶Ģ":7238,"Ġìĭłë°ľ":7239,"Ġìĺ¬ë¦¼":7240,"Ġintellig":7241,"Ġspecified":7242,"Ġrecovery":7243,"Ġì¦Ĳê±°":7244,"Ġreceiving":7245,"Ġì§Ħì¶ľ":7246,"Ġìłľê¸°":7247,"Ġíķĳíģ¬":7248,"ĠFacebook":7249,"ìħĢ":7250,"Ġì»¤íĶĮ":7251,"jection":7252,"ëĤĺëĿ¼":7253,"Ġpartner":7254,"ĠëıĮëł¤":7255,"ë¹¨":7256,"Ġíĥĵ":7257,"ĠìĿĺìŀĲ":7258,"ĠEN":7259,"ìĿ´ê±°":7260,"íķľëĭ¤":7261,"Ġì£¼íĸī":7262,"ĠìŀĲëħĢ":7263,"ê°Īë¹Ħ":7264,"ĠìĭĿë¬¼":7265,"However":7266,"phone":7267,"ĠIV":7268,"ìĸĢ":7269,"ĠëĮĢëĭ¨":7270,"Ġì£¼ìĿ¸ê³µ":7271,"ëĿ¼ëıĦ":7272,"ĠìĬ¤íĮĮ":7273,"Ġpossibly":7274,"Ġsubsequent":7275,"Ġdivers":7276,"Ġstability":7277,"Ġë§ĪëĬĺ":7278,"Ġfabric":7279,"ĠíĥĢìŀħ":7280,"Ġbuffer":7281,"ĠíĶĦëŀĳìĬ¤":7282,"Ġprocedures":7283,"Ġdiscrim":7284,"Ġstarts":7285,"Ġê·ľìłľ":7286,"Ġê·¸ìłĢ":7287,"Ġë¦½":7288,"Ġì¤ĳìĨĮ":7289,"ĠëĪĦë¦¬":7290,"ĠíĨµíĻĶ":7291,"ĠëıĦìĦľ":7292,"Ġìĺ¤ìĿ¼":7293,"Ġsector":7294,"Ġíĩ´ê·¼":7295,"ĠëĬĶëĭ¤ê³ł":7296,"Ġgenetic":7297,"Ġë¯¸ìĦ¸":7298,"Ġunknown":7299,"Ġì¶ľì²ĺ":7300,"Ġobservations":7301,"Ġì¤ĳê³łì°¨":7302,"Ġmembrane":7303,"Ġexclus":7304,"Ġindeed":7305,"ĠìķĦëĭĲê¹Į":7306,"Ġadvance":7307,"ĠíĶ½":7308,"ĠìĨĮìĦ¤":7309,"elif":7310,"ä»":7311,"Ġì°ľ":7312,"Ġê·¼ë¡ľ":7313,"ĠìĿĺìĭ¬":7314,"ĠìħĶëıĦ":7315,"ĠìĿ¸ë¬¼":7316,"Ġnumerous":7317,"Ġë³´ìĥģ":7318,"Ġê³łìļ©":7319,"Ġì§Ħìĭ¬":7320,"ìłĿíĬ¸":7321,"Ġíĥ±":7322,"ë©į":7323,"ĠìķĦëĭĻëĭĪëĭ¤":7324,"alysis":7325,"Ġcontem":7326,"ĠìĬ¤íĨłë¦¬":7327,"Ġtheore":7328,"ĠìĹ´ë¦¬":7329,"Ġë³¸ë¶Ģ":7330,"Ġì¤ĦìĿ´":7331,"Ġë²ħ":7332,"ĠMichael":7333,"ĠCI":7334,"Ġconsidering":7335,"Ġconfidence":7336,"Ġë°Ķê¿Ķ":7337,"Ġê²ī":7338,"Ġextract":7339,"ĠíĴįë¶Ģ":7340,"ĠScience":7341,"Ġjurisd":7342,"ì¹¼":7343,"Ġoutcomes":7344,"Ġë¹ĦíĮĲ":7345,"Ġsecure":7346,"Ġexplan":7347,"Ġissued":7348,"Ġê¸įìłķ":7349,"Ġêµ½":7350,"Ġê²ĢíĨł":7351,"Ġconsumption":7352,"ĠìĦ±ê³¼":7353,"Ġdriven":7354,"Ġë³¸ëĭ¤":7355,"Ġphenomen":7356,"íģĲ":7357,"ĠíĿĺëŁ¬":7358,"íĹĮ":7359,"ĠFA":7360,"ë°¤":7361,"Ġstrongly":7362,"ĠCommit":7363,"íŀĺ":7364,"Ġê³łê°ľ":7365,"Ġimprovement":7366,"Ġoperatorname":7367,"ĠWH":7368,"itions":7369,"Ġregulation":7370,"Ġvarepsilon":7371,"·Ķ":7372,"ĠëķĢ":7373,"ê¸°ìĹħ":7374,"Ġdirectory":7375,"FT":7376,"ëł¬":7377,"ĠPA":7378,"Ġbright":7379,"ĠêµĲíĻĺ":7380,"Ġaccurate":7381,"ĠTR":7382,"Ġì¶ľìĭł":7383,"Ġfourth":7384,"ê¼Ī":7385,"ĠëģĿëĤ´":7386,"Ġê·¸ë§Įíģ¼":7387,"ĠìłĦëĤł":7388,"ìŀİ":7389,"ĠìķĦê¹Į":7390,"ĠMethod":7391,"Ġremainder":7392,"Ġë¡¤":7393,"ĠAfrica":7394,"Ġcultural":7395,"ĠëŁ¬ìĭľìķĦ":7396,"Ġhappens":7397,"Ġwaiting":7398,"ĠSupreme":7399,"Ġdistributed":7400,"ë²ĦìĬ¤":7401,"ĠRNA":7402,"Ġë¹ħ":7403,"ĠìĹĩ":7404,"../../":7405,"Ġofficers":7406,"ĠìĹ°ìŀ¥":7407,"GA":7408,"Ġíķ´ì§Ħ":7409,"Ġìĭ¬íķĺ":7410,"ĠìĦłë³´":7411,"ĠìĿ´ìĸ´ì§Ģ":7412,"Ġvertical":7413,"ìĤ°ë¬¼":7414,"Ġspatial":7415,"ĠëĨĪ":7416,"ĠìĭłëĤĺ":7417,"Ġsudden":7418,"ĠìĮį":7419,"lication":7420,"ìĩĦ":7421,"ĠìĿ´ëŀĢ":7422,"íĻĶìłĲ":7423,"Ġquarter":7424,"ĠìĻĦíĻĶ":7425,"False":7426,"Ġìħĺ":7427,"ĠìŀĲìĽĲ":7428,"Ġìŀħë§Ľ":7429,"Ġìłĳê·¼":7430,"Ġfaster":7431,"ĠëĥĪ":7432,"Ġbrother":7433,"ortunately":7434,"orders":7435,"Ġfrequently":7436,"Ġconcerns":7437,"Ġstreet":7438,"ĠCM":7439,"Ġformal":7440,"Ġtestimony":7441,"Ġsimulation":7442,"ìĺ¤ëŀľë§Į":7443,"Ġìĸ´ì©Ķ":7444,"Ġappearance":7445,"Ġfavorite":7446,"Ġconsult":7447,"Ġequations":7448,"Ġfeedback":7449,"Ġë©´ìĹŃ":7450,"Ġsubstantial":7451,"åĪ":7452,"tenance":7453,"ĠëĮĢë°ķ":7454,"Ġorders":7455,"Ġsensor":7456,"DS":7457,"ĠëĤ¨ê¸°":7458,"Ġinternet":7459,"ê°Ģê²©":7460,"ĠìĥĿê°ģëĤĺ":7461,"Ġwidely":7462,"ê¼Ń":7463,"ĠValue":7464,"Ġretain":7465,"ĠAI":7466,"ĠíĶĦë¦¬ë¯¸":7467,"Ġagreed":7468,"ĠëıĻìĺģìĥģ":7469,"itable":7470,"Ġì¢ģ":7471,"Ġfreedom":7472,"íĨ¤":7473,"ĠDM":7474,"Ġmanaged":7475,"Ġeditor":7476,"ë¡¤":7477,"Ġadvice":7478,"Ġìĭ¬ìĤ¬":7479,"ĠKey":7480,"ĠëĶĶì§ĢíĦ¸":7481,"ĠGM":7482,"Ġê¸´ìŀ¥":7483,"ëĭŃ":7484,"Ġseeing":7485,"Ġcompounds":7486,"Ġë²Ķì£Ħ":7487,"Ġê³łìłķ":7488,"Ġsports":7489,"Ġinteger":7490,"ĠGovernment":7491,"DP":7492,"Ġê³µë¬´ìĽĲ":7493,"Ġreceptor":7494,"Ġofficials":7495,"ëĭĪìĬ¤":7496,"Ġë³¼ê¹Į":7497,"Ġdetect":7498,"Ġteaching":7499,"ĠìľłíĨµ":7500,"Ġê°Ģë¦¬":7501,"Ġnarrow":7502,"ĠìĨĮìĨį":7503,"ĠìĭľìłĲ":7504,"Ġassets":7505,"Ġë§ĪìĿ´":7506,"Ġcharged":7507,"ĠìĭłìĦł":7508,"ĠëĤĺìĺ¨ëĭ¤":7509,"Ġrelief":7510,"ĠëĬĺìĸ´ëĤĺ":7511,"Ġvisible":7512,"Ġêµ¬ì²´":7513,"Ġextend":7514,"ĠìŀĲê²©ì¦Ŀ":7515,"Ġaccord":7516,"Ġmodules":7517,"Ġëĳ¥":7518,"Ġë§¤ìĪĺ":7519,"Ġmission":7520,"Ġìŀħì£¼":7521,"ĠMC":7522,"Ġthermal":7523,"Ġsequences":7524,"íģ°":7525,"Ġê°Ŀ":7526,"Ġlocations":7527,"Ġìĺ¤ëŀľ":7528,"Ġcompetition":7529,"Ġcapable":7530,"Ġdestroy":7531,"ĠPlaintiff":7532,"Ġë§ĪíĬ¸":7533,"ê²¹ìĤ´":7534,"Ġremote":7535,"Ġê²¹":7536,"Ġjoined":7537,"tube":7538,"Ġëĭ¿":7539,"Ġìŀ¥ì¹ĺ":7540,"ĠSN":7541,"ĠìĿ´ê±¸":7542,"ĠRussian":7543,"ĠìķĦíĬ¸":7544,"Ġì¡°ì°¨":7545,"Ġquantum":7546,"Ġsensitivity":7547,"ëĭ¤ë³´":7548,"Ġoccasion":7549,"Ġreligious":7550,"Ġexperiences":7551,"Ġmarked":7552,"ĠëĵľëĿ¼ìĿ´":7553,"Ġì£¼ëıĦ":7554,"ĠìķĦìĿ´íħľ":7555,"Ġapparatus":7556,"Ġexpansion":7557,"ìģ¨":7558,"Ġìľ¼ëł¤ê³ł":7559,"Ġì°¨ìĽĲ":7560,"ĠìĨĮíĨµ":7561,"ascript":7562,"ĠëģĪ":7563,"Ġunderlying":7564,"ĠìĻĦìłĦíŀĪ":7565,"Ġphotos":7566,"Ġbelieved":7567,"Ġì¦Ĳê²ģ":7568,"Ġë³Ģíĺ¸ìĤ¬":7569,"ìĿ´ê²ĥ":7570,"ĠìĪĺìĥģ":7571,"ìħī":7572,"Ġë§ģíģ¬":7573,"Ġíķľì°¸":7574,"íĮ¡":7575,"Ġìł¸ìĦľ":7576,"amental":7577,"Ġforced":7578,"Ġscatter":7579,"Ġparticle":7580,"Ġë°ĽìķĦëĵ¤":7581,"Ġê°ľìłķ":7582,"Ġmurder":7583,"ĠëĮĢëĭµ":7584,"ĠëĮĢíķĺ":7585,"Ġíķ¸ëĵľíı°":7586,"Ġìŀ¥ì°©":7587,"Ġë³´ê±´":7588,"Ġthousands":7589,"what":7590,"Ġoverline":7591,"ĠìĽĥìĿĮ":7592,"Ġherself":7593,"Ġordered":7594,"Ġíķľíİ¸":7595,"Ġëĭ¹ìŀ¥":7596,"Ġë³´ëĥĪ":7597,"ĠìĹ°ì¶ľ":7598,"ĠíĶĦë¡ľìłĿíĬ¸":7599,"ĠìŃī":7600,"ĠìĿĢì§Ģ":7601,"ë¡ľìļ´":7602,"ĠJS":7603,"HT":7604,"Ġìĸĩ":7605,"ĠìĨĮê¸Ī":7606,"Object":7607,"Ġscientific":7608,"Ġê±°ì³Ĳ":7609,"BI":7610,"Ġìĥĺ":7611,"ĠíĻķìĤ°":7612,"Ġindepend":7613,"],":7614,"Ġìŀ¬ìĤ°":7615,"ĠFriday":7616,"thetic":7617,"Ġëģ¼ë¦¬":7618,"Ġinvestigate":7619,"Ġopportunities":7620,"Ġconsists":7621,"Ġstatements":7622,"Ġì¹¸":7623,"Ġcandidate":7624,"ossible":7625,"Ġkwargs":7626,"Ġê¼½":7627,"Ġëİ":7628,"Ġëį°ë¦¬":7629,"Ġë§¤íĬ¸":7630,"Ġstrain":7631,"According":7632,"Ġexposed":7633,"Ġorganizations":7634,"Ġbecoming":7635,"ìĤ¬ëŀĳ":7636,"BM":7637,"Ġë³´ìĿ¼":7638,"Ġdiscovered":7639,"ĠíĿ¡ìĪĺ":7640,"ĠìĬ¤ë§ĪíĬ¸íı°":7641,"Ġê³µìłķ":7642,"tables":7643,"Ġrecognized":7644,"ĠPo":7645,"Ġìĸ¸ìĸ´":7646,"ĠëĤĺìĺ":7647,"Ġdiseases":7648,"Ġupdated":7649,"Ġcommonly":7650,"ĠëĮĢì¶©":7651,"Ġcolumns":7652,"Ġattorney":7653,"Ġfacilit":7654,"ĠíħĮìĬ¤íĬ¸":7655,"ĠOffice":7656,"Ġchronic":7657,"Ġìķ¨":7658,"Ġdistingu":7659,"ìŀħëĭĪëĭ¤":7660,"Ġcompreh":7661,"Ġaccepted":7662,"ESS":7663,"ëĺ":7664,"åħ":7665,"Ġmanage":7666,"íĬľë¸Į":7667,"Ġìŀ¬íĮĲ":7668,"Ġconcer":7669,"Ġorganic":7670,"Ġìłķíķ´":7671,"Ġstopped":7672,"Ġreverse":7673,"Ġinstrument":7674,"ĠíĿĲë¦Ħ":7675,"Ġacknow":7676,"Ġê°ķíķĺ":7677,"Ġìłĸ":7678,"ĠëĿ¼ëĭĪ":7679,"ĠëĤĺìĦľ":7680,"Ġê¸°íĥĢ":7681,"ì¼ĢíĮħ":7682,"ĠìĿ´ë¦¬":7683,"ĠíĮĮìĿ¼":7684,"Ġraise":7685,"LC":7686,"ĠAfrican":7687,"eting":7688,"ĠíĻĶìŀ¥íĴĪ":7689,"Ġmonitoring":7690,"Ġì§ľë¦¬":7691,"LS":7692,"Ġstatistical":7693,"íĢ´":7694,"Ġpractical":7695,"Ġë¬´ìĭľ":7696,"ĠíĺĳíļĮ":7697,"ĠìĤ´ìķĦê°Ģ":7698,"ĠReview":7699,"how":7700,"Ġë©ĶìĿ¸":7701,"Ġdetermination":7702,"ĠNH":7703,"Ġëĵ¬":7704,"Ġë°ĺë©´":7705,"Ġapproved":7706,"Ġresulted":7707,"Ġintegrated":7708,"Ġì²´ìľ¡":7709,"Ġì²ŃìĨĮëħĦ":7710,"Ġëį°ìĿ´":7711,"Ġdemonstrate":7712,"case":7713,"Ġë°°ì¹ĺ":7714,"Ġcontribution":7715,"Ġë§ĽëĤĺ":7716,"Ġrestaur":7717,"Ġeffectively":7718,"Ġweather":7719,"standing":7720,"Ġì§ĢëĤľëĭ¬":7721,"ĠëĮĢìĤ¬":7722,"Ġassigned":7723,"Ġê·¸ë¦¬ìĬ¤":7724,"ĠëıĻê¸°":7725,"ìĭľëĭ¤":7726,"ìĺ¤ë¥´":7727,"ìĿ´íĶĦ":7728,"Ġisolated":7729,"Ġëª¨ë°ĶìĿ¼":7730,"Ġinstant":7731,"Ġautomatically":7732,"ê²°êµŃ":7733,"Ġì°¨ëĭ¨":7734,"Ġê°Ģë£¨":7735,"Ġìĺ¨ëıĦ":7736,"Ġrecall":7737,"ĠìłĳìĪĺ":7738,"Ġì¡°ê°ģ":7739,"Ġcalling":7740,"ĠíĬ¹ìłķ":7741,"ĠìķĦëĤ´":7742,"Ġgoogle":7743,"Ġneither":7744,"ĠìĹĲìĸ´ì»¨":7745,"Ġattrac":7746,"ĠìłľìķĪ":7747,"ĠëĳĲëł¤":7748,"ìĺ·":7749,"ìķĦë¦¬":7750,"ĠIM":7751,"Ġpieces":7752,"Ġsettle":7753,"Ġíķ´ì¡Į":7754,"Ġbudget":7755,"Ġíĸ¥ìĥģ":7756,"raise":7757,"Ġtransp":7758,"ĠìĦ±ìĿ¸":7759,"Ġpossess":7760,"Ġìĸ´ë¥¸":7761,"ĠServices":7762,"ì°Įê°ľ":7763,"Ġinstit":7764,"Ġì½ľëĿ¼":7765,"Ġcorner":7766,"Ġëĵľë¦´ê²ĮìļĶ":7767,"Ġrequests":7768,"Ġassumed":7769,"ìļ°ìĦł":7770,"ĠìķĦìĭľìķĦ":7771,"Ġmarried":7772,"ìµľê·¼":7773,"ĠìĮĪ":7774,"Ġê°ķìĽĲ":7775,"Ġìį°":7776,"Ġì¢ħëª©":7777,"Ġstructural":7778,"ĠInformation":7779,"Ġìª¼":7780,"ĠìĦłíĺ¸":7781,"Ġsupposed":7782,"ìłĢê²ĥ":7783,"Ġëį°ëł¤":7784,"ìłĢíĬ¸":7785,"ĠìĿĳìĽĲ":7786,"ĠëĿ½":7787,"Ġdynamics":7788,"Ġë§ĮëĤ¬":7789,"ĠìĿ¸íĦ°ë·°":7790,"Ġê·¸ê±¸":7791,"Ġincident":7792,"Ġìĭ¤ìĪĺ":7793,"Ġcritic":7794,"Ġrevers":7795,"Ġvillage":7796,"Ġemployee":7797,"Ġgender":7798,"ĠëĶ¸ê¸°":7799,"Ġaggreg":7800,"Ġê½ī":7801,"ĠíĨµê³¼":7802,"Ġê¸°êµ¬":7803,"Ġtelevision":7804,"Ġíķ´ìĦĿ":7805,"Ġê°ĲìĦ±":7806,"íĺĦìŀ¬":7807,"Ġê¸°ê¸°":7808,"ĠìĨĮìľł":7809,"īìŀ¥ê³ł":7810,"Ġpredic":7811,"Ġíķ©ë¦¬":7812,"ìĬ¤íģ¬ë¦¼":7813,"inates":7814,"ìĤ¬ê³ł":7815,"Ġfashion":7816,"Ġsustain":7817,"ĠSunday":7818,"ĠìºĶ":7819,"timately":7820,"Ġdegrees":7821,"Ġblocks":7822,"ĠìķĦìĿ´ìĬ¤íģ¬ë¦¼":7823,"Ġkeeping":7824,"ĠìŀĲìłĦê±°":7825,"ĠìĪľìľĦ":7826,"Ġoxygen":7827,"Ġestimates":7828,"Ġanalog":7829,"Ġì´īì´ī":7830,"IST":7831,"ĠìľłìĿ¼":7832,"ĠìĬµëĭĪê¹Į":7833,"Ġimaging":7834,"ĠìŀĦìĭł":7835,"Ġstatute":7836,"Ġëĭµëĭµ":7837,"Ġjurisdiction":7838,"Ġë§Īì¼ĢíĮħ":7839,"Ġafford":7840,"ĠCommittee":7841,"Ġaspect":7842,"Ġì¶ķíķĺ":7843,"ëħĶ":7844,"Ġëį§ë¶Ļ":7845,"Ġë²ķìĿ¸":7846,"ê°Ģë£¨":7847,"Ġíħį":7848,"Ġêµ¬ë¶Ħ":7849,"Ġversus":7850,"titude":7851,"ĠRussia":7852,"Ġìļ°ìļ¸":7853,"Ġbattle":7854,"Ġë¯¸ì¹ĺ":7855,"Ġìĭľíĭ°":7856,"ëį©":7857,"Ġê±´ê°Ģ":7858,"ìĿ¸ì§Ģ":7859,"ishing":7860,"Ġbreast":7861,"ĠìĭŃëĭĪëĭ¤":7862,"ĠëĨĶ":7863,"ĠìĤ¬íĥľ":7864,"ĠCalculate":7865,"ĠíĸĪìľ¼ë©°":7866,"Ġvarphi":7867,"íĶĶ":7868,"ĠëĮĢì¤ĳ":7869,"Ġrecording":7870,"Ġë²ĦíĬ¼":7871,"Ġìĭľê°ģ":7872,"ĠìĨĶì§ģíŀĪ":7873,"background":7874,"ĠíĻķìłķ":7875,"ĠìĹ°êµ¬ìĽĲ":7876,"ĠíĦ±":7877,"Ġíķłë¨¸ëĭĪ":7878,"Ġrelates":7879,"Ġemployment":7880,"ĠìķĦëĭĺ":7881,"Ġëľ¯":7882,"ëĶĶìħĺ":7883,"ĠíĸĪìľ¼ëĤĺ":7884,"Ġestate":7885,"Ġprosec":7886,"ĠìĦľë¥ĺ":7887,"Ġì·¨ëĵĿ":7888,"Ġê°Ĳê¸°":7889,"Ġì´Īì½Ķ":7890,"Ġaccounts":7891,"cho":7892,"Ġrecommended":7893,"Ġê°ĢìļĶ":7894,"Ġimplemented":7895,"Ġperspective":7896,"Ġvision":7897,"ĶĢ":7898,"Ġë§ĪìłĢ":7899,"ĠPO":7900,"ìŀī":7901,"ê»ĺìļĶ":7902,"ëĦī":7903,"ulture":7904,"ĠCircuit":7905,"Ġë©ĶìĿ´":7906,"inator":7907,"ë£¡":7908,"Ġë½Ģ":7909,"ì»µ":7910,"Ġexceed":7911,"ìĤ¬ìŀ¥":7912,"Ġë¯¸ì¹ľ":7913,"clusion":7914,"Ġencoun":7915,"Ġentirely":7916,"Ġíİ¼ì³Ĳ":7917,"ĠëĬĶëĭ¤ëĬĶ":7918,"Ġmarkdown":7919,"Ġplastic":7920,"Ġìĭłë¬¸":7921,"Ġë²ĶìľĦ":7922,"ĠìĸĳíĮĮ":7923,"ĠìĬ¤íĬľ":7924,"Ġsharing":7925,"íĬ¹ë³Ħ":7926,"Ġaccompl":7927,"ĠCentral":7928,"Ġschedul":7929,"Ġcategories":7930,"ĠRobert":7931,"Ġassuming":7932,"Ġsupporting":7933,"ĠTheorem":7934,"ĠìĿ´ëŀĺ":7935,"ĠìĿµìĪĻ":7936,"Ġdepartment":7937,"ĠìłĲìĪĺ":7938,"Ġê³ģ":7939,"ĠMD":7940,"Ġë°´":7941,"Ġdefinitely":7942,"ê¸ĭ":7943,"Ġëıĭ":7944,"ĠíĪ¬íĳľ":7945,"ĠSocial":7946,"Ġviolence":7947,"ĠìłķìĿĺ":7948,"Ġê³Ħê¸°":7949,"break":7950,"Ġdecide":7951,"ĠìĹĲìĬ¤":7952,"PD":7953,"ìłĢëħģ":7954,"ĠAmericans":7955,"under":7956,"Ġaccident":7957,"ĠìķĦë¬´ê²ĥ":7958,"Ġperman":7959,"OG":7960,"Ġradiation":7961,"ĠìľĦíķĺ":7962,"Ġbroken":7963,"ĠëĦĺìĸ´ê°Ģ":7964,"ĠìłĢìŀ¥":7965,"Ġë§ŀìĿ´":7966,"Ġlangle":7967,"Ġëļ«":7968,"ëĳĶ":7969,"Ġcharges":7970,"Ġcharacterized":7971,"Ġtables":7972,"Ġsuccessfully":7973,"Ġì§Īë³ĳ":7974,"åŃ":7975,"åĲ":7976,"Ġattached":7977,"Ġëĭ¹ìĿ¼":7978,"ĠThomas":7979,"ustice":7980,"tx":7981,"ĠEX":7982,"Ġbusinesses":7983,"ëĵŃ":7984,"Ġfundamental":7985,"ĠìĹł":7986,"Ġsubmit":7987,"Ġdoctor":7988,"ĠìĨĲëĭĺ":7989,"ìłĢìĶ¨":7990,"ĠAnother":7991,"ĠìŃĪ":7992,"ĠìĿ¸ìĪĺ":7993,"ĠìĪľíĻĺ":7994,"Ġìĭ¬ìŀ¥":7995,"Ġcommitted":7996,"Ġobservation":7997,"ĠFC":7998,"Ġfi":7999,"Ġëĳĺì§¸":8000,"Ġreducing":8001,"Ġê·łíĺķ":8002,"Ġë©´ìłĳ":8003,"Ġhousing":8004,"ĠProject":8005,"ĠëĦĪíĿ¬":8006,"Ġëį°ìĿ´íĬ¸":8007,"ĠíıīìĥĿ":8008,"ĠìĭľìĦł":8009,"ĠíĶĦëłĪ":8010,"ĠìĽ¹":8011,"ĠëĬĲê¼Ī":8012,"ĠìĤ¬ë¬´ìĭ¤":8013,"Ġpreserv":8014,"Ġentity":8015,"Ġconflict":8016,"ĠMicrosoft":8017,"Ġcontinues":8018,"Ġsupports":8019,"Ġcontroller":8020,"ĠìŀĲìĦ¸íŀĪ":8021,"Ġunderstood":8022,"Ġconcerned":8023,"Ġcontents":8024,"Ġintegration":8025,"ĠìĶ¹":8026,"Ġinvolving":8027,"íĨ±":8028,"ctions":8029,"Ġmountain":8030,"Ġì¢ħìĿ¼":8031,"ĠêµĲìĤ¬":8032,"Ġfolder":8033,"Ġìĭ¤ì²ľ":8034,"Ġì¹´ì¹´ìĺ¤":8035,"xi":8036,"Ġadults":8037,"Ġìĺ¬ë¦¼íĶ½":8038,"ointed":8039,"Ġatmosph":8040,"Ġcontribute":8041,"Ġpolymer":8042,"Ġbehaviour":8043,"Ġì£¼ìĨĮ":8044,"Ġcreation":8045,"ë¹Ķ":8046,"Ġphilosoph":8047,"ĠíĭĪ":8048,"Ġidentification":8049,"Ġwilling":8050,"ĠìĭľíĬ¸":8051,"Ġinstructions":8052,"ëĩ¨":8053,"Ġenforce":8054,"Ġìļ©ê¸°":8055,"ĠíĮ¨ìħĺ":8056,"These":8057,"ì²ľíŀĪ":8058,"ĠIR":8059,"Ġattend":8060,"Ġcitizens":8061,"ĠíĶĮëŀ«":8062,"aturday":8063,"ë¦İ":8064,"XX":8065,"ĠìĹĦì²ŃëĤľ":8066,"TE":8067,"Ġì²łìłĢ":8068,"Ġì¤Į":8069,"Ġê³łìĦľ":8070,"ĠíŀĲë§ģ":8071,"ĠPCR":8072,"Ġpotentially":8073,"á»":8074,"ìĿ´íģ¬ìĹħ":8075,"ĠCB":8076,"Ġë¶Ģìĥģ":8077,"Ġëħ¼ëŀĢ":8078,"Ġì§ĢìłĲ":8079,"Ġrecons":8080,"Ġappellant":8081,"ë§ĪíĨł":8082,"Ġì±ĦìĽĮ":8083,"Ġwriter":8084,"Ġresearchers":8085,"ĠìĺģìĹŃ":8086,"Ġsimult":8087,"ĠìļĶê¸Ī":8088,"Ġë§¤ë§¤":8089,"Ġì´Īë°ĺ":8090,"Ġë§Īì£¼":8091,"íĻĺê²½":8092,"Ġopposite":8093,"ì¢Ģ":8094,"ĠFlorida":8095,"Ġasking":8096,"ĠìķĮëł¤ì¡Į":8097,"Ġclassification":8098,"Ġdefendants":8099,"Ġmixture":8100,"Ġê´ĢìłĪ":8101,"Ġexamination":8102,"ĠìĨĮìĨ¡":8103,"ìķĹ":8104,"ĠëĵľëłĪìĬ¤":8105,"ĠíĪ¬ëªħ":8106,"istent":8107,"ë¸Ĳ":8108,"Ġfamiliar":8109,"ĠDS":8110,"Ġreplaced":8111,"ĠìļĶìĿ¸":8112,"Ġëĭ¹íķĺ":8113,"Ġrequirement":8114,"Ġìĳ":8115,"ĠíĥĿìĭľ":8116,"Ġìĭ¹":8117,"Ġtwenty":8118,"Ġìķłê¸°":8119,"Ġìĺ¬ëł¸":8120,"Ġë°°íĦ°ë¦¬":8121,"ĠìľĦì£¼":8122,"ĠìĦ±ëĬ¥":8123,"Ġëĭ¥":8124,"Ġupload":8125,"Ġìŀİ":8126,"Ġstimul":8127,"but":8128,"Ġìĺ¬ëŀĲ":8129,"Ġprinciple":8130,"Ġlabels":8131,"ĠìīĲ":8132,"Ġìłľì£¼ëıĦ":8133,"Ġì¤ĳëĭ¨":8134,"Ġíĸ¥íĽĦ":8135,"ĠFederal":8136,"Ġê°ĢëŁī":8137,"Ġgranted":8138,"Ġmechanical":8139,"Ġë°ĶëĶĶ":8140,"Ġê±°ë¶Ģ":8141,"Ġwinning":8142,"Ġprimarily":8143,"Ġdecades":8144,"ĠìĦ¤ë¦½":8145,"ĠìķĪìª½":8146,"Ġê·¸ê±°":8147,"Ġëĵ¤ëł¤":8148,"Ġunable":8149,"Ġpredicted":8150,"Ġì°¨ë³Ħ":8151,"Ġìķ¼êµ¬":8152,"Ġaccomp":8153,"Ġëį©":8154,"ĠëĤ³":8155,"ĠëıĮìķĦìĺ¤":8156,"Ġexplore":8157,"Ġconsideration":8158,"ĠìĿ¸ë¶Ħ":8159,"FP":8160,"Ġëĭ¬ëĭ¬":8161,"ĠìķłíĶĮ":8162,"Ġì½ĺíħĲì¸ł":8163,"resent":8164,"Ġpersons":8165,"Ġëĭ¹êµŃ":8166,"Ġì§Ŀ":8167,"Ġassembly":8168,"Ġentitled":8169,"troduction":8170,"ateral":8171,"Ġintervention":8172,"ĠMonday":8173,"Ġtrials":8174,"ĠëĤĺìģĺ":8175,"ĠMP":8176,"Ġë²ķìĽĲ":8177,"å¤":8178,"Ġdebug":8179,"ĠìķĦëıĻ":8180,"ĠìĤ¼ê²¹ìĤ´":8181,"ĠëĤ«":8182,"Ġì¶ľìĹ°":8183,"Ġphysic":8184,"Ġthereby":8185,"ĠìĬ¤íĶ¼":8186,"Ġë°±íĻĶìłĲ":8187,"ĠìķĦë©Ķ":8188,"Ġamazing":8189,"tiveness":8190,"Ġì«Ħ":8191,"Ġcurren":8192,"Ġepisode":8193,"ðŁ":8194,"Ġmaintenance":8195,"Ġresponsibility":8196,"Ġê°Ħëĭ¤":8197,"Ġrecognition":8198,"Ġalcohol":8199,"Ġcities":8200,"Ġì±ĦëĦĲ":8201,"Ġë§º":8202,"Ġindustrial":8203,"ĠëĮĢë¦¬":8204,"ellular":8205,"Ġë´īìĤ¬":8206,"Ġspaces":8207,"ë´Ħ":8208,"ĠCEO":8209,"ì§ĳëĭĪëĭ¤":8210,"ĠíĸĦ":8211,"ĠíħĶ":8212,"itchen":8213,"ĠìĥĪë¡Ń":8214,"ĠTwitter":8215,"ĠëĿ¼ëĸ¼":8216,"Ġjavascript":8217,"Ġkernel":8218,"Ġíĳ¹":8219,"Ġbiological":8220,"Ġì´Īë°¥":8221,"ĠAB":8222,"Ġhumans":8223,"ĠìĿ¸íķĺ":8224,"ìĭľì§Ģ":8225,"íħĮìĿ¼":8226,"Ġíķ´ìĨĮ":8227,"Ġêµ°ìļĶ":8228,"Ġelectrical":8229,"gression":8230,"Ġcomplaint":8231,"ĠInstead":8232,"Ġpopulations":8233,"Ġëŀ©":8234,"Ġinterpretation":8235,"ĠëŁī":8236,"ĠBC":8237,"Ġì¸¡ë©´":8238,"Ġê·¸ê±´":8239,"íķĢ":8240,"ĠíĨµíķĺ":8241,"Ġë¹Ħìĭ¼":8242,"ĠíĥĿë°°":8243,"Ġcompeti":8244,"Ġpropag":8245,"ĠëĪĮëŁ¬":8246,"Ġremark":8247,"defined":8248,"ĠìķŀëĳĲ":8249,"Ġê°Ģìĭľ":8250,"Ġê³ĦìłĪ":8251,"Ġë¯¸ìĨĮ":8252,"Ġê°Ħíİ¸":8253,"ëįĶìļ±":8254,"Ġindicating":8255,"Ġê°Ģë²¼":8256,"ĠìķĦìĺĪ":8257,"Ġprovision":8258,"ĠëĤĺê°Ķ":8259,"Ġë³´ìĪĺ":8260,"tension":8261,"Ġë¶ī":8262,"Ġëĭ¬ìĦ±":8263,"ëĤĺë§Ī":8264,"Ġê³¼ëª©":8265,"Ġê¸°ëĭ¤ëł¤":8266,"ĠìĿ¸ê·¼":8267,"Ġconclude":8268,"Ġëª¬":8269,"FS":8270,"ĠëĦī":8271,"ĠSecret":8272,"Ġë¶Īê°Ģ":8273,"Ġë²ķë¥ł":8274,"Ġmetabol":8275,"Ġcomposite":8276,"Ġê°ģìŀĲ":8277,"Ġê°ĢìĬ¤":8278,"ĠìķĦëĭĮëį°":8279,"ĠìĦ¸íĥģ":8280,"ë²ħ":8281,"Ġì¼ľ":8282,"ĠìłķìĭĿ":8283,"Ġëĭ¹íĻ©":8284,"ĠíĿī":8285,"Ġreviews":8286,"Ġnecessarily":8287,"Ġëĵ¤ìĹ¬":8288,"Ġdiameter":8289,"Ġì§¬":8290,"íļĮìĤ¬":8291,"Ġê±°ìĭ¤":8292,"ĠíĢĦ":8293,"ĠìľłìĤ°":8294,"Ġteachers":8295,"ultural":8296,"ĠíĮ¨ìĬ¤":8297,"ĠìľłíĬľë¸Į":8298,"ĠBusiness":8299,"Ġë³µìŀ¡":8300,"Ġë³´ëĭ¨":8301,"íĻĢ":8302,"iffer":8303,"ressive":8304,"Ġimpossible":8305,"ĠìĹ¬ìķ¼":8306,"ĠìĺĽëĤł":8307,"Ġfriendly":8308,"Ġauthentic":8309,"istically":8310,"Ġtechnologies":8311,"Ġê°Ħìŀ¥":8312,"ĠëĨ¨":8313,"ĠëĪĦë¥´":8314,"uesday":8315,"Ġìī¬ìļ´":8316,"ĠëĤ´ëł¤ê°Ģ":8317,"ĠìĹĶì§Ħ":8318,"Ġë©¤":8319,"Ġprotected":8320,"Ġì·¨ìĨĮ":8321,"ìĬ¤íĨł":8322,"Ġconcluded":8323,"ë§Ļ":8324,"Ġattribute":8325,"Ġteacher":8326,"Ġë¶Īë²ķ":8327,"Ġêµ¬ìĿ´":8328,"Ġêµ¬íķĺ":8329,"ĠìķĦìłĢìĶ¨":8330,"Ġenhanced":8331,"Ġì²Ńêµ¬":8332,"Ġassessed":8333,"Ġwarn":8334,"ĠìŁ":8335,"ĠëļĿ":8336,"Ġserial":8337,"Ġsugges":8338,"Ġlicense":8339,"ecutive":8340,"ì£ł":8341,"Ġíĺĳìĥģ":8342,"Ġexpensive":8343,"Ġspeaking":8344,"ĠíĶ¼íķ´ìŀĲ":8345,"ĠìĿ´ëĤ´":8346,"Ġcolors":8347,"ëľ©":8348,"aneously":8349,"ëįľ":8350,"Ġcourts":8351,"Ġhistorical":8352,"Ġì¼":8353,"ìħľ":8354,"{}":8355,"Ġsensors":8356,"ĠíĬĢê¹Ģ":8357,"Ġëıħë¦½":8358,"Ġë¹Ħì¤ĳ":8359,"Ġëħ¸ìĿ¸":8360,"Ġë°©ì¹¨":8361,"ìł¤":8362,"Ġboldsymbol":8363,"Ġìĺ¬ëĿ¼ìĺ¤":8364,"Ġamounts":8365,"Ġlargely":8366,"ĠíķĢ":8367,"except":8368,"Ġë³´ì¦Ŀ":8369,"Ġregression":8370,"ìĸ¼ë§Ī":8371,"Ġê³¼ìĹ°":8372,"Ġassist":8373,"ë¶ĢìĤ°":8374,"ceived":8375,"Ġimplies":8376,"ĠChicago":8377,"Ġì§ĳìķĪ":8378,"Ġëĭ¤ìĨĮ":8379,"Ġstages":8380,"Ġtargets":8381,"ĠìŁģ":8382,"iration":8383,"Ġlisten":8384,"ĠìĿ´íĭĢ":8385,"ĠìĬ¤íĶĦ":8386,"Ġclosely":8387,"Ġseeking":8388,"Ġaudience":8389,"ĠLC":8390,"Ġê¹ĮìĬ¤":8391,"ĠGS":8392,"Ġremoval":8393,"Ġì£½ìĿĮ":8394,"Ġdisabled":8395,"Ġíķ¨ìľł":8396,"Ġìĭłë¶Ģ":8397,"ĠìķĪê²½":8398,"ĠìĦ¸íı¬":8399,"Ġconversation":8400,"ĠíĻĶëł¤":8401,"Ġìĥ´":8402,"Ġdescribes":8403,"Ġbaseline":8404,"ĠIsland":8405,"Ġë°±ìĭł":8406,"ĠíİĢëĵľ":8407,"Ġrepair":8408,"Ġë°¸":8409,"ĠError":8410,"ĠëĦ·":8411,"Ġclaimed":8412,"Ġconference":8413,"ì»´":8414,"Ġë¬´ê¸°":8415,"Ġwinter":8416,"Ġpromote":8417,"Ġë°°ì¶ľ":8418,"Ġthoughts":8419,"ĠThanks":8420,"Ġadopted":8421,"Ġthickness":8422,"Ġandroid":8423,"Ġë¯¼ê°Ħ":8424,"ĠìĿĺë¬´":8425,"ĠìĿ¸ëł¥":8426,"Ġê³Ħëĭ¨":8427,"ë¨¼ìłĢ":8428,"Ġinvolves":8429,"è¡":8430,"ĴĮ":8431,"ĠDesign":8432,"ë¶Ģëª¨":8433,"Ġtemperatures":8434,"Ġëł¥":8435,"ĠëĽ°ìĸ´":8436,"ĠìĬ¤íĬľëĶĶìĺ¤":8437,"Ġë³ĦëıĦ":8438,"Ġregional":8439,"ìĸ¸ìłľ":8440,"ìĸ´ëĬĲ":8441,"ollowing":8442,"Ġterror":8443,"à¹":8444,"æĸ":8445,"PR":8446,"ĠìĹĲê²Ĳ":8447,"Ġê±°ì£¼":8448,"Ġflight":8449,"Ġassistance":8450,"Ġíľ´ê°Ģ":8451,"LA":8452,"Ġëĵłëĭ¤":8453,"icious":8454,"essions":8455,"Ġprofit":8456,"Ġreform":8457,"border":8458,"ë°Ķëĭ¥":8459,"Ġëĸłìĺ¬":8460,"Ġì½Ķëĵľ":8461,"ĠVirgin":8462,"ĠLED":8463,"Ġsitting":8464,"Ġevening":8465,"Ġìļ°ì£¼":8466,"ĠíĨłìļĶìĿ¼":8467,"endment":8468,"ĠëŃī":8469,"Ġcommission":8470,"Ġíģ¬ë¦¬ìĬ¤ë§ĪìĬ¤":8471,"ĠëĬĲëĤĢ":8472,"Ġë¨¹ìĿ´":8473,"Ġë¶ĢìĹ¬":8474,"Ġcompound":8475,"Ġarrived":8476,"ĠëıĮë¦¬":8477,"Ġì¾Į":8478,"Ġcapture":8479,"Ġë¬´íķľ":8480,"ĠëłĪëĵľ":8481,"Ġbinary":8482,"Ġíı¬íĨł":8483,"ĠíĴĪì§Ī":8484,"ĠSociety":8485,"Ġtransformation":8486,"can":8487,"Ġíĸ¥íķ´":8488,"ĠìłķìĽĲ":8489,"ĠíĻĶíķĻ":8490,"ursday":8491,"ĠìĿ¼ìļĶìĿ¼":8492,"Ġêµ³ìĿ´":8493,"ä½":8494,"ë½ķ":8495,"Ġì»¤ë²Ħ":8496,"ĠìĤ¬ìĥģ":8497,"ceptions":8498,"ĠíĮģ":8499,"Ġimmune":8500,"ëłĪê¸°":8501,"Ġì°¾ìķĦê°Ģ":8502,"Ġì¿¨":8503,"Ġinitially":8504,"Ġexamine":8505,"Ġë©°ì¹ł":8506,"ëĵľë¦Ħ":8507,"ĠìŀĲë³¸":8508,"Ġê±´ëĦĪ":8509,"ìĺ¬íķ´":8510,"íŀĲ":8511,"roller":8512,"Ġproportion":8513,"Ġlimitations":8514,"êµ¬ë§Ī":8515,"Ġmarriage":8516,"len":8517,"ĠìŀĲëĬĶ":8518,"ĠDevelopment":8519,"Ġë¶Īê³¼":8520,"ëĭµë³Ģ":8521,"Ġrepeat":8522,"Ġì¹Ńì°¬":8523,"Ġpictures":8524,"ĠSecurity":8525,"Ġpreval":8526,"ĠëĶĶìłĢíĬ¸":8527,"Ġfunding":8528,"ĠSO":8529,"Abstract":8530,"ĠìĿ´ëłĩ":8531,"ĠíĸĪìĸ´ìļĶ":8532,"ĠED":8533,"Ġíİ¸ì§Ģ":8534,"Ġapplicable":8535,"Ġresidents":8536,"ĠíĿĲë¥´":8537,"ĠìłķìĦ±":8538,"ocytes":8539,"ĠìĿĺíĺ¹":8540,"Ġë¬¶":8541,"Ġëıķ":8542,"Ġmedian":8543,"Ġsounds":8544,"ername":8545,"Ġë©ĶìĿ´íģ¬ìĹħ":8546,"Ġschedule":8547,"Ġì¹´íĨ¡":8548,"Ġhelping":8549,"Ġì£¼ìľĦ":8550,"Ġê³¼ìŀĲ":8551,"Ġcircle":8552,"Ġë¶ĢíĴĪ":8553,"coming":8554,"ĠMB":8555,"ëł¤ê³ł":8556,"Ġìłķê¸°":8557,"Ġê±°ì§ĵ":8558,"Ġarchitecture":8559,"ĠRichard":8560,"Ġattacks":8561,"Ġê°ĸì¶Ķ":8562,"Ġëħ¸ì¶ľ":8563,"Ġpackages":8564,"ìİ":8565,"ìĦ¸ê³Ħ":8566,"ĠìĿ¸êµ¬":8567,"Ġsought":8568,"Ġoffering":8569,"Ġì²ľìĹ°":8570,"Ġì§Ģíķĺì²ł":8571,"Ġsenior":8572,"Ġartist":8573,"Ġcompat":8574,"Ġêµ¬ìĨį":8575,"Ġretrie":8576,"ĠíĻķìŀ¥":8577,"ĠNumber":8578,"Ġwatching":8579,"Ġdelivered":8580,"Ġê³±ì°½":8581,"Ġfacilities":8582,"ĠassertEqual":8583,"Ġmock":8584,"Ġë²Ħê±°":8585,"Ġì²ľì²ľíŀĪ":8586,"Ġtransaction":8587,"Ġì²´ëł¥":8588,"ĠëĵĿìłĲ":8589,"ĠíķĦë¦Ħ":8590,"ĠKT":8591,"Ġmarkets":8592,"Ġfigures":8593,"Ġinterpre":8594,"Ġmicrosc":8595,"Ġìĺµìħĺ":8596,"Ġinformed":8597,"Ġì¦Ŀê±°":8598,"nesday":8599,"Node":8600,"Ġwarning":8601,"Ġê²½ëł¥":8602,"Ġimmigr":8603,"Ġì§ľì¦Ŀ":8604,"Ġê°Ģë¡ľ":8605,"Ġìłĳì¢ħ":8606,"ëŃĶ":8607,"Ġë´ĲìĦľ":8608,"Ġë¬´ë¦İ":8609,"ĠíĶĦëĿ¼":8610,"ĠìĪĺë§İ":8611,"Ġë¨¼ì§Ģ":8612,"Ġreliable":8613,"Ġíķľê°Ģ":8614,"Ġconstructed":8615,"ĠìĿ¼ìŀĲë¦¬":8616,"Ġì²´ê²°":8617,"Ġì¶ĺ":8618,"ë¨¼ì§Ģ":8619,"Ġë²Ĺìĸ´ëĤĺ":8620,"Ġì£ĦìĨ¡":8621,"Ġforming":8622,"Ġprincipal":8623,"Ġnegoti":8624,"ĠJohnson":8625,"ĠìĿ´ê¸°":8626,"Ġìłķë¹Ħ":8627,"Ġconcerning":8628,"Ġê²°ë¡ł":8629,"ĠìĬĪíį¼":8630,"Ġfellow":8631,"ìĿ¼ë¦¬":8632,"ĠíĮĮíĬ¸":8633,"ìķĦë²Ħì§Ģ":8634,"Ġìĺ´":8635,"Ġfamous":8636,"ĠAmazon":8637,"Ġcrisis":8638,"Ġìĸ´ëĶ":8639,"Ġpresents":8640,"ĠSaturday":8641,"Ġlowest":8642,"Ġensuremath":8643,"Ġcoffee":8644,"ê°Ĵ":8645,"Ġcloser":8646,"Ġwalking":8647,"Ġmethyl":8648,"ĠëĭĪëĭ¤":8649,"Ġhypothesis":8650,"Ġsignificance":8651,"Ġëĵľë¦°":8652,"ifications":8653,"Ġintent":8654,"ìłľì£¼":8655,"ĠìĿ¸ìĽĲ":8656,"Ġpassing":8657,"ĠIndeed":8658,"ĠìłĢê¸°":8659,"Ġyellow":8660,"ĠíİĺìĿ´ìĬ¤":8661,"Ġbattery":8662,"urally":8663,"ĠëĤĺìģľ":8664,"Ġvehicles":8665,"Ġdisplayed":8666,"ê²½ê¸°":8667,"Ġë©ľ":8668,"ĠíĶĦë¦¬ë¯¸ìĹĦ":8669,"VD":8670,"Ġmatters":8671,"Ġdesire":8672,"ëģĿ":8673,"Ġíķłê¹ĮìļĶ":8674,"Ġê°ľíĺģ":8675,"Ġcausing":8676,"Ġcaught":8677,"Ġsuggesting":8678,"ĠíĶĮëŁ¬ìĬ¤":8679,"ĠëĤļ":8680,"Ġì±Ļê¸°":8681,"inating":8682,"Ġacting":8683,"Ġìĺ¤ëŀ«":8684,"Ġtensor":8685,"Ġdivision":8686,"ĠìĿ´ê²ĥìłĢê²ĥ":8687,"Ġcoefficient":8688,"Ġmassive":8689,"Ġproved":8690,"Ġreader":8691,"Ġprovider":8692,"Ġloading":8693,"ĠPT":8694,"Ġjustice":8695,"Ġê·¸ëĤł":8696,"Ġintermedi":8697,"Ġprinciples":8698,"lectric":8699,"Ġë§µ":8700,"ĠìĦłë°°":8701,"ĠìĽĶìļĶìĿ¼":8702,"Ġversions":8703,"Ġbodies":8704,"Ġproducing":8705,"Ġleadership":8706,"Ġê²Įëĭ¤ê°Ģ":8707,"ĠìĿ´íĥĪ":8708,"ĠìĪĺì¹ĺ":8709,"max":8710,"Ġmathfrak":8711,"ĠìłģìĿĳ":8712,"íĿĳ":8713,"Ġalgorithms":8714,"Ġì²ĺë²Į":8715,"ĠMinister":8716,"Ġë¬´ê²Į":8717,"Ġíĭ±":8718,"ĠFoundation":8719,"ĠìķĮë¦¬":8720,"Ġsurrounding":8721,"Ġinstitutions":8722,"Ġcharacteristic":8723,"ĠìĬ¤íĤ¨":8724,"ĠìĨĲíķ´":8725,"ĠìĬ¤ì¼Ģ":8726,"ĠíĨłë¡ł":8727,"ëª¨ëĵł":8728,"Ġemission":8729,"ĠLA":8730,"Ġdomestic":8731,"Ġapplying":8732,"ĠìĭĿê°Ĳ":8733,"ĠíĽĦë°ĺ":8734,"ematic":8735,"Ġì²ŃìĻĢëĮĢ":8736,"Ġë§¹":8737,"Ġë¬¼ë¦¬":8738,"Ġshadow":8739,"Ġacademic":8740,"ĠNetwork":8741,"Ġmortality":8742,"ĠëĭĿ":8743,"ĠëĿł":8744,"margin":8745,"Ġìĸ¼ë¥¸":8746,"ë¥Ń":8747,"Ġdisput":8748,"ĠíĬ¹ìĪĺ":8749,"ë¥´íĬ¸":8750,"Ġoriginally":8751,"Ġíľ´ìĭĿ":8752,"ì£¼ìĸ¼":8753,"ĠEducation":8754,"ìĸ´ëĸ¤":8755,"Ġpadding":8756,"ĠìĨĲê°ĢëĿ½":8757,"idential":8758,"Ġsampling":8759,"ĠëĦīëĦī":8760,"Ġhybrid":8761,"ëŀĢíĬ¸":8762,"######":8763,"ĠìĿ´ë»Ĳ":8764,"EX":8765,"ëĭĪìķĦ":8766,"ĠëĮĢìĦł":8767,"ĠìħĪ":8768,"Ġrightarrow":8769,"ê±¸ìĿ´":8770,"Ġìĭ¬ì§Ģìĸ´":8771,"ì»¤íĶ¼":8772,"ĠíĶ¼ë¡ľ":8773,"Ġë©¤ë²Ħ":8774,"Ġìĥ¤ìĽĮ":8775,"Ġperiods":8776,"Ġë¶ĵ":8777,"Ġdimensions":8778,"str":8779,"Ġì¢ħì¢ħ":8780,"ë°ĶëŀĮ":8781,"Ġchapter":8782,"åı":8783,"Ġextensive":8784,"ĠíķĺëĤĺíķĺëĤĺ":8785,"Ġsituations":8786,"ĠManagement":8787,"Ġì£¼ìĤ¬":8788,"Ġdetermining":8789,"missions":8790,"ĠìķĦíĶĪ":8791,"Ġexperts":8792,"ĠíĺĦê¸Ī":8793,"ĠëĤľëĭ¤":8794,"ĠëıħìĦľ":8795,"Ġdedicated":8796,"ê¹Ģì¹ĺ":8797,"Ġê³ĦìĹ´":8798,"Ġmerely":8799,"íı´":8800,"Ġëį¸":8801,"Ġmanufacturing":8802,"Ġë¶ĻìĹ¬":8803,"íĤ¤ì§Ģ":8804,"Ġsmallest":8805,"ìĸ´ìł¸":8806,"Ġuniversity":8807,"Ġrotation":8808,"ĠìĺĪë¹Ħ":8809,"Pre":8810,"ëĴ¤":8811,"ĠTC":8812,"ĠDB":8813,"ĠìĪĺìĪĺ":8814,"Ġë¹¨ê°Ħ":8815,"ëª¨ëĳĲ":8816,"Ġemotional":8817,"Ġíĺ¸íĿ¡":8818,"Ġíļį":8819,"Ġpreferred":8820,"Ġhardware":8821,"Ġentertain":8822,"Ġíģ´ëŁ½":8823,"Ġsister":8824,"Ġëĥīìŀ¥ê³ł":8825,"Ġë©Ķëī´íĮĲ":8826,"Ġì²ľë§Į":8827,"Ġì±Ķ":8828,"Ġprediction":8829,"Ġìŀ¬ìłķ":8830,"ĠìĬ¤íģ¬":8831,"ĠìĻ¸êµĲ":8832,"ĠìĿ´ìłł":8833,"Ġê³łëĵ±íķĻêµĲ":8834,"iverse":8835,"Ġattributes":8836,"Ġjourney":8837,"WS":8838,"Ġabsolutely":8839,"ĠíĶĮëĿ¼":8840,"Ġê¹Ģë°¥":8841,"íĳ":8842,"Ġexecute":8843,"ĠëĶľ":8844,"ĠCanadian":8845,"Ġì¤Ģëĭ¤ê³ł":8846,"Config":8847,"Ġmaintained":8848,"Ġë¡±":8849,"ĠControl":8850,"Ġê³¨ëª©":8851,"Ġneutral":8852,"ji":8853,"Ġê½Ĥ":8854,"Ġhelpful":8855,"à¦":8856,"ĠìĤ¬ëĿ¼ì§Ģ":8857,"Ġìĵ°ëłĪê¸°":8858,"Ġconvert":8859,"Ġpreced":8860,"ìĺĪìłĦ":8861,"Ġì§ĳëĭ¨":8862,"Ġê³łê³ł":8863,"Ġmapping":8864,"ìĿ´ëŁ¬":8865,"kr":8866,"Ġforget":8867,"Ġë°©ìĹŃ":8868,"Ġinjection":8869,"Ġputting":8870,"Hz":8871,"Ġìĭ¤íĸī":8872,"ì°¾":8873,"Ġenabled":8874,"ĠíĺķìĭĿ":8875,"Ġsomewhat":8876,"Ġcellular":8877,"à®":8878,"Ġforest":8879,"ĠCreate":8880,"Ġìľłë°ľ":8881,"ĠìĨĮê³łê¸°":8882,"Ġbuildings":8883,"ĠìĬ¤íħĮìĿ´íģ¬":8884,"ì¦Ĳ":8885,"ì§ķìĸ´":8886,"Ġë¡ľìį¨":8887,"Ġhonest":8888,"Ġinters":8889,"External":8890,"Ġconstraints":8891,"unicip":8892,"Ġíģ¬ë¡ľ":8893,"Ġê»į":8894,"Ġê³łë§Ļ":8895,"ĠìĪ«":8896,"Ġì¡°ë¦¬":8897,"Ġpathway":8898,"ĠCF":8899,"Ġê·¸ëŁ°ê°Ģ":8900,"ë§ĪìĿĮ":8901,"Ġë³µíķ©":8902,"Ġëĵ¤ë¦¬":8903,"ì¨Į":8904,"Ġanswers":8905,"Ġserving":8906,"Ġscient":8907,"Ġrepresentative":8908,"ĠíĬ¸ëłĪìĿ´":8909,"Ġíħľ":8910,"Ġburden":8911,"mm":8912,"ĠJournal":8913,"Ġë¶Ģì§Ģ":8914,"Although":8915,"GC":8916,"ê°Ģìŀ¥":8917,"Ġpreparation":8918,"ĠRT":8919,"Ġìį¬":8920,"Ġë¦°":8921,"ĠìľĦë°ĺ":8922,"ĠëĪĪì¹ĺ":8923,"ì°ľ":8924,"Ġëª¨ìĹ¬":8925,"Ġì¶ľìĤ°":8926,"ĠAcadem":8927,"Ġêµ¬ìĹŃ":8928,"Ġargues":8929,"Ġíİ´":8930,"PP":8931,"Ġtheoretical":8932,"Ġhundreds":8933,"ĠìĿ¸ê³µ":8934,"Ġemergency":8935,"ĠAndroid":8936,"Ġidentical":8937,"Ġìĥīê¹Ķ":8938,"omorph":8939,"Ġê°ķìĤ¬":8940,"Ġëĥ¥":8941,"Ġdepart":8942,"ĠíķĻê¸°":8943,"Ġpermit":8944,"Ġrealized":8945,"ĠìµľìłĢ":8946,"title":8947,"ĠëıĻìĿĺ":8948,"Ġstroke":8949,"Ġclassical":8950,"ĠìŀĦê¸Ī":8951,"Ġëĭ´ë°°":8952,"Ġcorrectly":8953,"Ġvideos":8954,"ĠOK":8955,"Ġconversion":8956,"ĠìĪĺê°ķ":8957,"ìĿĺìĽĲ":8958,"Ġcomplexity":8959,"ĠìĤ¬ìłķ":8960,"Ġë¬´ìĹŃ":8961,"Ġtrained":8962,"ĠEngine":8963,"ĠHR":8964,"Ġseparated":8965,"Ġperforming":8966,"Ġìĸ´ëĸ¨":8967,"Ġglucose":8968,"Ġrobust":8969,"Ġconsumer":8970,"ëŀį":8971,"Ġê°ĵ":8972,"Ġcandidates":8973,"ë®¤":8974,"Ġdisorder":8975,"Ġì¸¡ìłķ":8976,"Ġplugin":8977,"ĠíĪ¬ìŀħ":8978,"Ġëª¨ì§ĳ":8979,"Ġpointed":8980,"ĠíĢĦë¦¬íĭ°":8981,"Ġcrystal":8982,"ëĤłìĶ¨":8983,"ĠëıĦìĦľê´Ģ":8984,"ĠëĭĪê¹ĮìļĶ":8985,"Ġslowly":8986,"Ġë³¶ìĿĮë°¥":8987,"Ġìĥģê°Ģ":8988,"Ġê°Īëĵ±":8989,"group":8990,"Ġdiabetes":8991,"ĠíĶ¼íķĺ":8992,"Ġinputs":8993,"ĠìłĦëħĦ":8994,"Ġinfras":8995,"Ġdemocr":8996,"Ġì¦Ŀëªħ":8997,"Ġchecked":8998,"Ġexecution":8999,"Ġìłķëĭ¹":9000,"ëĵľë¦¬":9001,"Ġì´Ŀë¦¬":9002,"ëĵľëĶĶìĸ´":9003,"ì§±":9004,"Ġgradient":9005,"Ġì¸ł":9006,"Ġrational":9007,"ë¯¸êµŃ":9008,"Ġdialog":9009,"ë±":9010,"ĠìĨĮì£¼":9011,"Ġcoupling":9012,"ĠëıĻë°ĺ":9013,"Ġë¹Ħë¹Ķ":9014,"ĠLambda":9015,"ĠìĽĲì¹Ļ":9016,"ĠYOU":9017,"ĠíĬľ":9018,"ĠFL":9019,"íķĺíķĺ":9020,"ìĪŃ":9021,"ĠíĮĮíģ¬":9022,"Ġê±į":9023,"Ġlegisl":9024,"ĠChristmas":9025,"Ġspending":9026,"Ġprivacy":9027,"ĠìĦ¼ìĬ¤":9028,"Ġacquired":9029,"ircraft":9030,"Ġê·¹ë³µ":9031,"Ġfacility":9032,"entials":9033,"Ġwealth":9034,"ĠíļŁ":9035,"ĠìłĦì£¼":9036,"ĠìĤ¬ìĹħìŀĲ":9037,"Ġchoices":9038,"Ġì¶Ķì¶ľ":9039,"Ġinstances":9040,"Ġscenario":9041,"Ġrapidly":9042,"íķŃìĥģ":9043,"Ġisland":9044,"Ġë¹Ħíĸīê¸°":9045,"Ġê°ĳëĭĪëĭ¤":9046,"Ġconscious":9047,"ĠíİĺìĿ´ì§Ģ":9048,"Ġtransf":9049,"Ġì¡°íĻĶ":9050,"Ġstatistics":9051,"Ġfilename":9052,"Ġë§¨ëĤł":9053,"ĠíĥĢìĿ´ìĸ´":9054,"Ġìĸ´ëĳĲ":9055,"Another":9056,"Ġsurfaces":9057,"ëĤĺë¬¼":9058,"ëĭ¤ìĸĳ":9059,"Ġselling":9060,"ĠìĿ´ë¥¸":9061,"Ġë°ľëĭ¬":9062,"ĠìĿ´ëª¨":9063,"ëĤ´ìĿ¼":9064,"Ġeducational":9065,"ĠDO":9066,"Ġë¶ĢëĮĢ":9067,"ibilities":9068,"ĠëĤ´ëĨĵ":9069,"ĠJustice":9070,"Ġcentre":9071,"Ġregistered":9072,"Simplify":9073,"Ġexcited":9074,"ĠíĮ¨íĦ´":9075,"ĠìĻłì§Ģ":9076,"ĠResults":9077,"iological":9078,"ë¬¼ê´Ģ":9079,"ĠìłĦìĦ¸":9080,"Ġassumption":9081,"ĠAdditionally":9082,"estival":9083,"Ġìĭłëĭ¤":9084,"Ġtestified":9085,"ìķī":9086,"ëŁ¼íĶĦ":9087,"Ġëĭ¨ìłĲ":9088,"Ġëĭ¤íĸīíŀĪ":9089,"ë¬´ì§Ģ":9090,"Ġë§ĮëĤł":9091,"Ġìĺ®ê²¨":9092,"Ġsuperior":9093,"Ġë°ĶìĿ´ìĺ¤":9094,"ĠAuthor":9095,"Ġëª»íķ´":9096,"Ġpulled":9097,"Ġìĭ¤íĹĺ":9098,"Ġtrouble":9099,"BO":9100,"Ġë°°ê³ł":9101,"Ġcalculate":9102,"ĠTuesday":9103,"ĠìĪĺìłľ":9104,"Ġë¬´ëł¤":9105,"Ġë¯¿ìĿĮ":9106,"Ġê¸°ìļ¸":9107,"Ġinteract":9108,"Ġìķ¨ë²Ķ":9109,"ĠìĨĮíĶĦíĬ¸":9110,"Ġë©¸":9111,"ictory":9112,"Ġì¤ĳìĨĮê¸°ìĹħ":9113,"íİľ":9114,"Ġê°±":9115,"Ġmagnitude":9116,"ĠìłĦëł¥":9117,"Ġdiversity":9118,"ĠíļĮëĭ´":9119,"ĠëĦ¤íĬ¸":9120,"Ġsynthesis":9121,"Ġëĭ®":9122,"Ġclosest":9123,"Ġinterven":9124,"Ġaccordance":9125,"Ġìłģíķ©":9126,"-------":9127,"Ġexplanation":9128,"ĠëĤĺìĦ°":9129,"Ġoptional":9130,"Ġëł":9131,"Ġkitchen":9132,"ĠìĥĪëģ¼":9133,"Ġincred":9134,"ìĿ´ê²Į":9135,"ĠíĺĪìķ¡":9136,"ĠMexico":9137,"ĠìĹ¼ì¦Ŀ":9138,"Ġdifferential":9139,"ĠPE":9140,"Ġëī´ìļķ":9141,"ĠìĦłìĸ¸":9142,"Ġì½Ķë¦¬ìķĦ":9143,"Ġimmediate":9144,"iament":9145,"ĠìłĦê³µ":9146,"ĠìıĻ":9147,"ĠíĤ¤ìĽĮ":9148,"ĠAustralian":9149,"Ġpolitics":9150,"ĠìĹ¼ìĥī":9151,"ĠìĦ¸ìĽĶ":9152,"Ġdiscovery":9153,"Ġìĥ´íĳ¸":9154,"Ġê²¨ìļ°":9155,"ĠëĤ´ê²Į":9156,"ĠHS":9157,"process":9158,"Ġcontributions":9159,"Ġnumerical":9160,"ĠëĵĢ":9161,"Ġì±Ħìļ©":9162,"Ġìŀħëł¥":9163,"ĠíĪ¬ìŀĲìŀĲ":9164,"Ġmatches":9165,"ĠìŀĺëĿ¼":9166,"Ġcrucial":9167,"everal":9168,"Ġrespective":9169,"Ġreporting":9170,"Ġë§ĮëĤ¨":9171,"fficients":9172,"Ġìĭ¤ìŀ¥":9173,"usters":9174,"ĠTM":9175,"Ġëª¨ëĵľ":9176,"ĠChampions":9177,"Ġìŀ¼":9178,"Ġë°ľìĸ¸":9179,"Ġcompute":9180,"Ġengineering":9181,"Request":9182,"Ġì¶ľìłĦ":9183,"Ġcasino":9184,"Ġë²łíĬ¸ëĤ¨":9185,"Ġìļ©íĴĪ":9186,"ĠíĽĮë¥Ń":9187,"Ġë±ħ":9188,"íķĺìļ°":9189,"Ġê°Ĳê°ģ":9190,"ĠìĥĿê¸¸":9191,"Ġìŀ¥ìĭĿ":9192,"ë¿į":9193,"Ġretail":9194,"Ġtranscription":9195,"ĠDirector":9196,"ëĲĺ":9197,"Ġì¦Ĳê²¨":9198,"Ġê³³ê³³":9199,"ìľ¼ë¡ľ":9200,"Ġviolation":9201,"Ġdamages":9202,"Ġìľłê¸°":9203,"Ġì£¼ê¸°":9204,"Ġconsequences":9205,"Ġì¿łíĤ¤":9206,"ĠCharles":9207,"Ġfinger":9208,"Ġìĺ¤íĶĦ":9209,"========================":9210,"ĠEM":9211,"ĠìĭľëĤ´":9212,"ĠìĪĺë¹Ħ":9213,"ĠíĿł":9214,"ìĿ´ì¦Ī":9215,"ĠíĿ¥ë¯¸":9216,"BQ":9217,"Ġtranslation":9218,"Ġê´ĢëŀĮ":9219,"Ġìį¨ìķ¼":9220,"Ġê·¸ëŀ¨":9221,"Ġê´ľíŀĪ":9222,"Ġë¹Ĺ":9223,"ìĹī":9224,"Ġëĭ¨ìľĦ":9225,"ĠDivision":9226,"ê°Ħëĭ¤":9227,"Ġë¬´ì²Ļ":9228,"ĠìĦ¸ê¸°":9229,"Ġìľłíĺķ":9230,"Ġdangerous":9231,"Ġcorporate":9232,"ê°ĲìĤ¬":9233,"vironment":9234,"ĠëĿ¼ìļ´ëĵľ":9235,"Ġprepare":9236,"ĠëĤľë¦¬":9237,"Ġcoding":9238,"ìĽĮíģ¬":9239,"BL":9240,"Ġnormally":9241,"Ġoperators":9242,"ĠíĮ¨íĤ¤ì§Ģ":9243,"Ġê¸°ìĹ¬":9244,"normal":9245,"Ġadmitted":9246,"Ġì±ĦìĨĮ":9247,"Ġmachines":9248,"Ġë²ĦíĦ°":9249,"Ġessentially":9250,"ĠìłĦìĽĲ":9251,"ë¥¨":9252,"ĠThose":9253,"Ġê¸ĪìļĶìĿ¼":9254,"ë°ĺì°¬":9255,"ĠìľłìķĦ":9256,"ìĿ´ëĦĪ":9257,"Ġë·°íĭ°":9258,"ĠíĶĮëŀĢíĬ¸":9259,"ĠEV":9260,"Ġpartition":9261,"ìĿ¼ë³¸":9262,"isters":9263,"astern":9264,"Ġwalked":9265,"Property":9266,"ĠìĿ¸íĺķ":9267,"value":9268,"irable":9269,"ĠRS":9270,"ĠìľłëĭĪ":9271,"Ġcomputed":9272,"Exception":9273,"ĠMedical":9274,"Ġweights":9275,"Ġìĺ¤ìĹ¼":9276,"Ġprogramming":9277,"ĠìłĢëłĩê²Į":9278,"Ġexports":9279,"ĠìķĦìĿ´íı°":9280,"áĢ":9281,"Ġtelling":9282,"Ġíĥľìĸĳ":9283,"Ġresolve":9284,"ĠCustom":9285,"Ġcounts":9286,"ĠMT":9287,"ogenic":9288,"Ġneighborhood":9289,"Ġì°Ĳ":9290,"Ġbridge":9291,"GE":9292,"Ġhorizontal":9293,"Ġíķľê³Ħ":9294,"Ġpapers":9295,"Ġdegrad":9296,"ëĳĳ":9297,"Ġdjango":9298,"Ġoperate":9299,"Ġë¶ĢìĿ¸":9300,"Ġguidelines":9301,"ìļ´ëıĻ":9302,"Ġcataly":9303,"ë£¸":9304,"Ġthousand":9305,"Ġë§¤ëħĦ":9306,"Ġingred":9307,"Ġterrit":9308,"Ġìľłíĸī":9309,"ĠMuslim":9310,"Ġì¡°ìĸ¸":9311,"ê»ĳ":9312,"ë»¤":9313,"Ġcarrying":9314,"ĠBefore":9315,"ĠThursday":9316,"Ġë³´ìŀħëĭĪëĭ¤":9317,"ë©Ķëī´":9318,"Ġë¿Įëł¤":9319,"Ġauthorities":9320,"Ġpresentation":9321,"Ġëĵ¤ìĸ´ê°Ī":9322,"Ġscroll":9323,"ĠìĽĢì§ģìŀĦ":9324,"ĠìĹ¬ëĵľë¦Ħ":9325,"Ġbought":9326,"Ġcomfortable":9327,"Ġreviewed":9328,"Ġíļ¨ëĬ¥":9329,"Ġcoefficients":9330,"Ġdiscretion":9331,"Ġcomposed":9332,"Ġíķı":9333,"ìºĲ":9334,"apeutic":9335,"Ġê³¨ëĿ¼":9336,"Ġcognitive":9337,"Ġpublication":9338,"ìĦ¬":9339,"Ġtreatments":9340,"ROM":9341,"Ġvalidation":9342,"Ġescape":9343,"Ġpowers":9344,"ĠìĪľìĦľ":9345,"ĠGB":9346,"Ġë§¤ì½¤":9347,"ERE":9348,"ountain":9349,"uccess":9350,"Ġìłĳìĭľ":9351,"ìķĦëŀĺ":9352,"Ġbigger":9353,"Ġrequested":9354,"ĠíĥľëıĦ":9355,"ĠìĽħ":9356,"Ġfluores":9357,"Ġextreme":9358,"ë¦¬íĬ¸":9359,"ë¬ĺ":9360,"Ġíľ´ëĮĢíı°":9361,"Ġëĵ¤ìĸ´ìĻĶ":9362,"ĠìĦ¸ìļ°":9363,"ìĹ¬íĸī":9364,"ĠMartin":9365,"ĠìĿ´ë¡ł":9366,"Ġargued":9367,"Ġweekend":9368,"ĠNon":9369,"Ġëŀľ":9370,"ĠìĹ°ì£¼":9371,"Ġintroduction":9372,"ëŁ¬ìĽĮ":9373,"ĠëĨĢëŀĲ":9374,"Ġaccommod":9375,"ĠíĹĪìļ©":9376,"Ġìºłíķĳ":9377,"ê°ĻìĿ´":9378,"idents":9379,"Ġcoupled":9380,"ĠìĿ´ìĬ¤":9381,"ĠìĹ¬ê¸°ìłĢê¸°":9382,"Ġì²ĺë¶Ħ":9383,"Ġnoticed":9384,"Ġcutting":9385,"Ġconnections":9386,"Ġë¬¸ìŀ¥":9387,"Ġê²½ìŁģëł¥":9388,"Ġintroduce":9389,"Ġposted":9390,"Ġplanned":9391,"Ġíĳ¸ì§Ĳ":9392,"ì³ĲìĦľ":9393,"Ġvulner":9394,"Ġultimately":9395,"ìĿ´ìĥģ":9396,"ìĭľìĬ¤":9397,"Ġë²ĦìĦ¯":9398,"liament":9399,"Ġmediated":9400,"ĠCommon":9401,"ĠìĹ°ê¸Ī":9402,"Ġë²ĦìłĦ":9403,"Ġquantity":9404,"Ġincreasingly":9405,"Ġíģ´ëŀĺìĬ¤":9406,"Ġsimulations":9407,"Ġë¯¸ìļ©ìĭ¤":9408,"lements":9409,"Ġtissues":9410,"Ġë¶ĻìĿ´":9411,"Ġë§Īì¹¨":9412,"cribed":9413,"Ġdropped":9414,"ĠItalian":9415,"Ġê¸°ìļ´":9416,"ĠPolicy":9417,"Ġì§¬ë½ķ":9418,"ë§İìĿ´":9419,"ĠBL":9420,"ĠíıīìĿ¼":9421,"Ġë¦¬ì¡°":9422,"Ġcreative":9423,"Ġupdates":9424,"Ġì©":9425,"ĠíĮĿ":9426,"ëŃĶê°Ģ":9427,"ìĹ¬ë¦Ħ":9428,"Ġplaintiffs":9429,"ĠWednesday":9430,"Ġrealize":9431,"Context":9432,"Ġë°Ķìģĺ":9433,"Ġhydrogen":9434,"Ġapparently":9435,"Ġwonderful":9436,"ìħĶìĦľ":9437,"ìĻĦìłĦ":9438,"ìĭ¤ìłľ":9439,"Ġsubmitted":9440,"Ġìļķìĭ¬":9441,"Ġsucceed":9442,"Ġguilty":9443,"Ġseparation":9444,"æĪ":9445,"Ġì¶¤":9446,"Ġìŀ¬ìĥĿ":9447,"ĠìĬ¤ì¹´":9448,"Ġìĭ¬íķľ":9449,"Ġknowing":9450,"Ġìľµ":9451,"Ġattempts":9452,"Ġanalyze":9453,"Ġturning":9454,"Ġdocumentation":9455,"Ġë¶ĢëĵľëŁ¬ìļ´":9456,"Before":9457,"Ġinvari":9458,"Ġ>=":9459,"Ġquantit":9460,"Ġalgebra":9461,"after":9462,"Ġë°Ķë¥¸":9463,"Ġcallback":9464,"ĠìĬ¤íĥ":9465,"IB":9466,"ĠìķĪì£¼":9467,"Ġëĸ¨ìĸ´ì§Ħ":9468,"ĠëĬĺìĸ´":9469,"Ġìĸ´ëł¤ìĽĮ":9470,"EA":9471,"ĠDescription":9472,"ĠML":9473,"ĠAction":9474,"ĠSpecial":9475,"Ġpermission":9476,"ectiveness":9477,"ĠSpanish":9478,"Ġintelligence":9479,"Ġpassion":9480,"cm":9481,"ĠOption":9482,"Ġìļ´íĸī":9483,"Ġsignature":9484,"Ġë°ĿíĺĢ":9485,"Ġcompact":9486,"Ġë§¤ìŀħ":9487,"Ġexecutive":9488,"Ġsignaling":9489,"Ġprofiles":9490,"porary":9491,"Ġinflammatory":9492,"ĠìłĢë²Ī":9493,"Ġëı¼ìļĶ":9494,"Ġvaluable":9495,"ìĺģíĻĶ":9496,"Ġì¡°ê¸°":9497,"ëĮĢíĳľ":9498,"Ġwebkit":9499,"ê²ł":9500,"Ġë§Īì¼ĵ":9501,"ĠGP":9502,"Ġê°Ģëł¤":9503,"ĠìķĦë©Ķë¦¬ì¹´":9504,"ĠHistory":9505,"Ġchamber":9506,"Ġtotally":9507,"Ġë°ĺëıĦ":9508,"Ġì²´ìłľ":9509,"âĺ":9510,"Ġë¬¸íķĻ":9511,"Ġinfrastructure":9512,"ductor":9513,"Ġcurves":9514,"Ġbool":9515,"ilibrium":9516,"Ġëħ¸íķĺìļ°":9517,"ĠAnalysis":9518,"Ġë¦¬ëįĶ":9519,"ì§Īë¬¸":9520,"Ġê°ĢìĪĺ":9521,"Ĥ¬":9522,"ëĮĢì²´":9523,"Ġë¯¼ì¡±":9524,"Ġëı¼ìĦľ":9525,"Ġë³´ìķĪ":9526,"Ġpolitic":9527,"ĠëłĮì¦Ī":9528,"Ġíķ´ìķ¼ì§Ģ":9529,"Ġsilver":9530,"Ġrepresenting":9531,"Ġcertific":9532,"ptions":9533,"Ġspecim":9534,"ìłĲìĭ¬":9535,"ĠìĹ°ê³Ħ":9536,"Ġshaped":9537,"Ġì¤Ħìĸ´ëĵ¤":9538,"Ġinsert":9539,"Ġì¢ħêµĲ":9540,"Ġreward":9541,"Ġspectra":9542,"íĶĮëłĪìĿ´":9543,"Ġmatching":9544,"ĠìŀĳëıĻ":9545,"Ġë°ķë¬¼ê´Ģ":9546,"ĠêµŃìłķ":9547,"Ġstores":9548,"Ġclassic":9549,"Ġexport":9550,"Ġdiscipl":9551,"ìĸ¸ê°Ģ":9552,"ĠMM":9553,"Ġvariations":9554,"Ġregulations":9555,"Ġê°ķìłľ":9556,"Ġë§ĮëĳĲ":9557,"Ġavailability":9558,"Ġì±Ħê¶Į":9559,"ëļĿ":9560,"Ġconsumers":9561,"íķ©ëĭĪëĭ¤":9562,"Ġtransferred":9563,"Ġê±¸ëł¸":9564,"Ġëĺ¥":9565,"ë¡ľëĵľ":9566,"Ġì¹¼êµŃìĪĺ":9567,"ĠVirginia":9568,"Ġorientation":9569,"ĠìĹ°ë§Ĳ":9570,"Ġì´Īì½ľ":9571,"ĠìĬ¹ìĿ¸":9572,"Ġë°©íķĻ":9573,"ĠìķĦëĿ¼":9574,"Ġdollars":9575,"Ġlaboratory":9576,"Ġíģ´ë¦¬":9577,"ĠìĪĺë©´":9578,"Ġê²¬ìłģ":9579,"Ġrecognize":9580,"ĠìĪ«ìŀĲ":9581,"Ġconsole":9582,"ira":9583,"Ġpurchased":9584,"Ġdrivers":9585,"Ġdischarge":9586,"Ġpromise":9587,"Ġsummar":9588,"Ġëª»íķł":9589,"Ġëĸ¨ìĸ´ìł¸":9590,"ĠëĮĢìŀ¥":9591,"ìŀĳìļ©":9592,"Ġê·ľì¹Ļ":9593,"ĠìĹ´ìłķ":9594,"Ġparticipate":9595,"ĠReturn":9596,"Ġcarefully":9597,"Ġëĭ·":9598,"Ġê·¼ê±°":9599,"Ġìķ¼ìĻ¸":9600,"issions":9601,"ĠíĬ¹ìĿ´":9602,"Ġfounded":9603,"Ġcounty":9604,"Ġëĭ¤ìĦ¯":9605,"Ġcomprehensive":9606,"Ġaircraft":9607,"ĠëıĻë£Į":9608,"Ġeating":9609,"ĠëĳĺëŁ¬ë³´":9610,"Ġoffense":9611,"Ġì¨":9612,"ĠíĮĢìŀ¥":9613,"ë£¨ìħĺ":9614,"ì£¼ë§Ĳ":9615,"ì¹´íİĺ":9616,"ĠìĿĺíķľ":9617,"Ġmanual":9618,"Ġë¬´ì§Ģ":9619,"Ġìłľë°ľ":9620,"ĠìķħíĻĶ":9621,"ĠíĨłì§Ģ":9622,"Ġcomplicated":9623,"ĠìŀĲìĭĿ":9624,"ĠìĹĦì²ŃëĤĺ":9625,"Ġíİ¸ìĿĺìłĲ":9626,"elihood":9627,"ĠìĿĺíļĮ":9628,"ê°Ģì¡±":9629,"Ġstyles":9630,"ĠìĨĮë¬¸":9631,"ĠìĤ¼ìĦ±ìłĦìŀĲ":9632,"Ġkeyword":9633,"ëį¤":9634,"ë´¤":9635,"Ġwelcome":9636,"Ġê²½ëĤ¨":9637,"Ġstands":9638,"Ġcalculation":9639,"Ġê°Ĳìĥģ":9640,"Ġlaunched":9641,"Ġreflection":9642,"Ġê¹ľì§Ŀ":9643,"ĠPython":9644,"DI":9645,"Ġìĺ¤íĨł":9646,"jective":9647,"ĠSW":9648,"Ġplanet":9649,"ĠíĦ°ì§Ģ":9650,"Ġíľł":9651,"Ġinfected":9652,"Ġsurgical":9653,"Ġì²´ì¤ĳ":9654,"Ġencoding":9655,"ĠTN":9656,"Ġë¶ķ":9657,"Ġvolunte":9658,"ĠëĦĮ":9659,"Ġantibody":9660,"Ġbegins":9661,"Ġcrypto":9662,"ĠTS":9663,"Ġengaged":9664,"Ġì·¨íķĺ":9665,"ĠëĦĺì¹ĺ":9666,"Ġaddressed":9667,"Ġoscill":9668,"ĠGL":9669,"ëĵ¤ìĿ´":9670,"ë©¸":9671,"ĠíĹ¬ìĬ¤":9672,"Ġë§ĪìĦ¸ìļĶ":9673,"ëķħ":9674,"Ġhighlight":9675,"ĠìĿĢê·¼":9676,"ĠëĪĦëĤĺ":9677,"Ġpermanent":9678,"ounder":9679,"Ġì§ł":9680,"Ġëªħëł¹":9681,"åº":9682,"Ġìķµ":9683,"Ġdepression":9684,"Ġactivated":9685,"ĠìķĦìĿ´ìĬ¤":9686,"êµ¬ëĤĺ":9687,"Ġadvent":9688,"ĠìĦ¸ê¸Ī":9689,"Ġyounger":9690,"à°":9691,"Ġë°©ìĸ´":9692,"Ġíĵ¨":9693,"Ġìĭ¬íķ´":9694,"Ġêµ°ëį°":9695,"ĠìĪĺë¡Ŀ":9696,"holder":9697,"Ġneurons":9698,"Ġancient":9699,"Ġëĭ¨ê¸°":9700,"ì°¨íĶ¼":9701,"Ġë³´ì¡°":9702,"Ġspeaker":9703,"ĠêµŃìĪĺ":9704,"Ġlanguages":9705,"ë¦ħëĭĪëĭ¤":9706,"ĠìĬ¤íĭ°ì»¤":9707,"ictionary":9708,"Ġreaders":9709,"ê°ĳëĭĪëĭ¤":9710,"Ġloaded":9711,"Ġíķľë°©":9712,"Ġë³´ìĿ¸":9713,"ìĪĺìĪĺ":9714,"instance":9715,"ëĤĺìĿ´":9716,"Ġê³łìĨį":9717,"Ġì»¨ìħī":9718,"ĠíķľêµŃìĿ¸":9719,"iatric":9720,"ĠHospital":9721,"Ġregime":9722,"Ġíķľìłķ":9723,"Ġìĺ¹":9724,"Ġtransmit":9725,"Ġdeaths":9726,"ĠìłķíĻķíŀĪ":9727,"ĠíĮĮìĿ´":9728,"Ġvariance":9729,"Ġintention":9730,"Ġprohib":9731,"map":9732,"ĠWilliams":9733,"ĠìĤ¬ê¸°":9734,"Ġorganized":9735,"Ġì£¼ê°Ħ":9736,"Ġìĺ¬ë¦°":9737,"Ġcorrelated":9738,"å¹":9739,"Ġë³Ģíķĺ":9740,"Ġê·¸ê³³":9741,"Ġëª¨ëĭĪ":9742,"ĠìĭłìĨį":9743,"ĠëĮĢë³Ģ":9744,"ĠíĨłë§ĪíĨł":9745,"result":9746,"ĠëĴ¤ì§ĳ":9747,"ĠëıĻìŀĳ":9748,"ĠëĤ´ëł¸":9749,"Ġobserve":9750,"Ġfighting":9751,"éĢ":9752,"Ġë°ĶíĢ´":9753,"Ġimagine":9754,"Ġaccoun":9755,"Ġëĭ¬ì½¤":9756,"Ġìŀ¬ëĭ¨":9757,"Ġì¶ľêµ¬":9758,"Ġadjacent":9759,"Ġmoments":9760,"Ġmedicine":9761,"ëį°ìĿ´":9762,"Ġconcepts":9763,"Ġnamely":9764,"Ġfavour":9765,"ĠìĦ¤íĥķ":9766,"ĠApplication":9767,"Ġìĭ¤ë§Ŀ":9768,"Ġì¶Ķìłķ":9769,"ository":9770,"Ġì²Ńì£¼":9771,"IE":9772,"ĠìĿĺëıĦ":9773,"ĠìĤĲ":9774,"ĠìķĦìĽĥ":9775,"Ġdependence":9776,"Ġreactions":9777,"Ġêµ¬ê°Ħ":9778,"Ġleague":9779,"ê³±":9780,"ĠSQL":9781,"Ġíĸ¥ê¸°":9782,"ruption":9783,"ĠíĶ¼ìķĦ":9784,"Ġradical":9785,"ĠìĿ´ìŀĲ":9786,"Ġartists":9787,"ĠëĲ¬":9788,"ĠíĻķë¥ł":9789,"ATA":9790,"ëĮĢêµ¬":9791,"ìĿ´ë¯¸":9792,"ĠìĿ´ìĻ¸":9793,"Ġê³¨ëĵľ":9794,"ĠMaster":9795,"ê¸°ë³¸":9796,"Ġì§Ħëĭ¤":9797,"Ġì½ĶíĮħ":9798,"ĠìĦ¸ìĽĮ":9799,"ĠìĹ°íľ´":9800,"Ġë¯¹":9801,"ĠíĨµìĿ¼":9802,"Ġfacing":9803,"Ġì»¸":9804,"ĠìĥĮëĵľ":9805,"ĠGlobal":9806,"isition":9807,"Ġë¹łì§Ħ":9808,"ussion":9809,"ĠìĺĪì¸¡":9810,"ë°Ń":9811,"Ġê¹ĬìĿ´":9812,"Ġgeometry":9813,"Ġcolour":9814,"Ġoptimization":9815,"ë°ĶìĿ´":9816,"ìķĦë§Ī":9817,"Ġtypeof":9818,"Ġë©Ķëª¨":9819,"Ġë¶Ģìŀ¥":9820,"Ġê·¸ëĤĺë§Ī":9821,"Ġimproving":9822,"mentation":9823,"Ġëĭ¨ëıħ":9824,"ĠíĮĮìĽĮ":9825,"ĠëĮĢì²ĺ":9826,"Ġadvertising":9827,"expected":9828,"Ġdebate":9829,"avelength":9830,"ĠíĥĦëł¥":9831,"ĠTechnology":9832,"Ġê°Ģì£½":9833,"Ġê¶Įë¦¬":9834,"íķµ":9835,"Ġë°©íķ´":9836,"Ġsubsequently":9837,"ĠëģĿëĤľ":9838,"Ġacknowled":9839,"ĠJewish":9840,"Ġì¶ľìŀ¥":9841,"Ġinhibition":9842,"Ġelected":9843,"Ġë¯¸ìĤ¬":9844,"ëĶ¸":9845,"weight":9846,"linear":9847,"Ġproviders":9848,"Ġconclus":9849,"ĠPerson":9850,"Ġíİ¸íķľ":9851,"ĠDespite":9852,"ë¶ķ":9853,"Ġinstruction":9854,"Ġincidence":9855,"ĠìħĢíĶĦ":9856,"ìĵ¸":9857,"Ġspectral":9858,"Ġcreates":9859,"Ġregardless":9860,"Ġë©ĭìŀĪ":9861,"Ġliability":9862,"ëį©ìĿ´":9863,"Ġì²«ì§¸":9864,"Ġê¸īìĹ¬":9865,"DR":9866,"Ġfairly":9867,"Ġdatetime":9868,"ĠBrazil":9869,"Ġê°Ģì¡Į":9870,"Ġëĵ¬ë¿į":9871,"Ġadvantages":9872,"ìłľíĴĪ":9873,"Ġsubstantially":9874,"Ġbrings":9875,"Ġobviously":9876,"Ġê±¸ê¹Į":9877,"Ġpayments":9878,"Ġverify":9879,"Ġê±°ìļ¸":9880,"ĠìĦľìļ¸ìĭľ":9881,"Ġprops":9882,"Ġì²ĺë°©":9883,"ĠíķĺìĸĢ":9884,"ighter":9885,"Ġíķłê²ĮìļĶ":9886,"Ġì§Ħìĭ¤":9887,"ĠRepublican":9888,"ìĹĦì²Ń":9889,"ĠíĬ¼íĬ¼":9890,"Ġê³µì£¼":9891,"ĠReport":9892,"Ġutility":9893,"Ġdecade":9894,"Ġusername":9895,"istered":9896,"ĠìĿ´íĺ¼":9897,"Ġëª¨ë¥¼":9898,"íĶ¼ë¶Ģ":9899,"ì¤ĳêµŃ":9900,"Ġì±Ħìļ°":9901,"Ġelectrode":9902,"Ġëĭ¤ëħĶ":9903,"ìĭľìĺ¤":9904,"Ġìľ¡ìķĦ":9905,"Ġpicking":9906,"Ġê±¸ìĿĮ":9907,"Ġì°½ë¬¸":9908,"Ġë¹ļ":9909,"Ġbreaking":9910,"Ġdisorders":9911,"ĠPP":9912,"ĠCorpor":9913,"Ġreligion":9914,"ì²©":9915,"ĠìĪĺìļ©":9916,"Ġëĭ¨ë°±ì§Ī":9917,"Ġëĵłëĵł":9918,"ĠìĿ´ë£¨ìĸ´ì§Ģ":9919,"Ġlosses":9920,"Ġshares":9921,"Ġìłķê¶Į":9922,"ĠìŀħìĪł":9923,"Ġinvent":9924,"ë¡ľë¦¬":9925,"ĠMiddle":9926,"version":9927,"Ġneglig":9928,"Ġtopics":9929,"ĠPath":9930,"Ġìĭłíĺ¸":9931,"Ġ=========================":9932,"ĠAG":9933,"Ġpriority":9934,"Ġscreening":9935,"Ġê°Ģë§Į":9936,"ĠëĦ¥":9937,"Ġtracking":9938,"Ġë¬´ìĦŃ":9939,"Ġinjuries":9940,"Ġë°ķìĤ¬":9941,"ĠìĨĮìŀ¥":9942,"ĠìĥģìŀĲ":9943,"Ġë°Ł":9944,"ĠëĦ¤ìĿ¼":9945,"Ġë³µê·Ģ":9946,"Ġconcrete":9947,"orters":9948,"ĠìĥĿë¦¬":9949,"Ġê³łêµ¬ë§Ī":9950,"Ġsemicon":9951,"ĠUV":9952,"Ġëĭī":9953,"ëŁŃìĭľ":9954,"Each":9955,"endants":9956,"ĠìĨĮëıħ":9957,"Message":9958,"Ġdiverse":9959,"Ġëª¨ë°ľ":9960,"Ġwestern":9961,"Ġstrains":9962,"Ġcomput":9963,"ĠBS":9964,"uality":9965,"Ġíĳ¸ëĵľ":9966,"Ġdifficulty":9967,"ĠAngeles":9968,"Ġbringing":9969,"Ġwithdraw":9970,"Ġbacteria":9971,"Ġourselves":9972,"ĠSenate":9973,"Ġotimes":9974,"ĠChapter":9975,"ì§ģìĽĲ":9976,"Ġclusters":9977,"Ġê´ĳìŀ¥":9978,"Ġë³´ëĤ¸":9979,"fortunately":9980,"ĠMO":9981,"Ġìĭľê³Ħ":9982,"Ġë³´ìĹ¬ìĦľ":9983,"Ġstations":9984,"Ġmigration":9985,"ĠSNS":9986,"Ġdeclared":9987,"Ġwarrant":9988,"ĠíĮĮë¦¬":9989,"ĠìĦ¸ìļ©":9990,"ë¥Ļ":9991,"Ġcontrovers":9992,"ĠFunction":9993,"Ġë©Ķìĭľì§Ģ":9994,"Ġëĭ¤ê°Ģìĺ¤":9995,"ĠìķĦë¥´":9996,"Ġë¿Įëĵ¯":9997,"ê·¸ë¦¬":9998,"Ġgreatly":9999,"ĠSR":10000,"lementary":10001,"Ġcommittee":10002,"Ġintegral":10003,"ĠëĤłì§ľ":10004,"Ġê¸°ëĭ¤ëł¸":10005,"ĠìĹ°ìķł":10006,"ĠìŀħìĽĲ":10007,"ortion":10008,"ĠìľĦìĥĿ":10009,"user":10010,"MC":10011,"Ġtemporal":10012,"Ġë°ĺëıĦì²´":10013,"Ġtrading":10014,"Ġsimultaneously":10015,"Ġì°©íķľ":10016,"ĠET":10017,"Ġë°´ëĵľ":10018,"ĠìłĪë°ĺ":10019,"Ġìłķíķĺ":10020,"¬¬":10021,"Ġë§¤ë¬¼":10022,"Ġremind":10023,"Ġì»¨ëĶĶìħĺ":10024,"Ġenzyme":10025,"ĠìĬ¤ëŁ¬ìĽĮ":10026,"ĠëĤĺìĦł":10027,"Ġìķķë°ķ":10028,"ĠíħĮíģ¬":10029,"padding":10030,"Ġì¼ĢìĿ´":10031,"ĠìĹĨìķł":10032,"ĠDR":10033,"sequently":10034,"ĠìĹ°êµ¬ìĨĮ":10035,"Ġë¨¸ë¬¼":10036,"Ġìĺ¤ëŀ«ëıĻìķĪ":10037,"ĠíķĦíĦ°":10038,"ĠëĨĵì¹ĺ":10039,"Ġcompetitive":10040,"Ġì¹ľíĻĺê²½":10041,"Ġë¯¸ìĦ¸ë¨¼ì§Ģ":10042,"Ġprefix":10043,"Ġì§ģìłĦ":10044,"Ġpatent":10045,"Ġíİľìħĺ":10046,"īĺ":10047,"Ġcomplement":10048,"Ġparticipation":10049,"Ġë°Ķì§Ģ":10050,"Ġsyndrome":10051,"Ġë§¤ë²Ī":10052,"Ġì´Īë¡Ŀ":10053,"android":10054,"Ġê²Ģì§Ħ":10055,"Ġeffectiveness":10056,"ĠìĨĶë£¨ìħĺ":10057,"ĠDefendant":10058,"Ġinstallation":10059,"Ġvariant":10060,"Ġë§Īêµ¬":10061,"Ġabsorption":10062,"ëłīìĬ¤":10063,"ĠProcess":10064,"ĠìĥģëĮĢë°©":10065,"ìĸ´ëıĦ":10066,"ê¸°ë¦Ħ":10067,"ĠëĲľìŀ¥":10068,"ëĥī":10069,"ìľĪ":10070,"Ġreferences":10071,"Service":10072,"ĠëĤĺìķĦê°Ģ":10073,"Ġperfectly":10074,"Ġapproval":10075,"ĠìĻ¸ì¶ľ":10076,"inue":10077,"ĠíĪ":10078,"Ġë¹Ħìĥģ":10079,"Ġêµ¬ë¦Ħ":10080,"Ġsatisfied":10081,"Ġcarrier":10082,"ĠìĤŃìłľ":10083,"ĠSL":10084,"Ġê¼´":10085,"Ġhouses":10086,"ĠSA":10087,"Ġê°ľë³Ħ":10088,"Ġuncertainty":10089,"Ġpromin":10090,"Ġillness":10091,"Ġë¶Ģìŀĳìļ©":10092,"Ġê·¸ë¦¬ìĬ¤ëıĦ":10093,"Ġextends":10094,"ĠìĹ°ìĸ´":10095,"Ġplenty":10096,"Ġcompensation":10097,"ì¹´ëĵľ":10098,"Ġdestination":10099,"HA":10100,"Ġìłģëĭ¹íŀĪ":10101,"Ġìį¨ìĦľ":10102,"ĠìĻĢì¤ĳ":10103,"Ġsuddenly":10104,"Ġintermediate":10105,"ĠGR":10106,"Ġì¢ħë£Į":10107,"ĠìĿĺë¢°":10108,"Any":10109,"ê¶Ī":10110,"url":10111,"Ġstronger":10112,"was":10113,"ĠìľĪ":10114,"ĠìľłëıĦ":10115,"Ġdenote":10116,"Ġë¶Ħë¥ĺ":10117,"Ġë¶Ģì²ĺ":10118,"Ġìľ¡ìĪĺ":10119,"Ġìĥģíĺ¸":10120,"Ġignore":10121,"Ġ<=":10122,"hemical":10123,"Ġprofessionals":10124,"ĠìĺģìĽĲ":10125,"Ġappoint":10126,"ĠëĮĦ":10127,"Ġbelief":10128,"ëĬ¦":10129,"Ġwavelength":10130,"dict":10131,"ĠAppellant":10132,"Ġë¶ĢìŀĲ":10133,"ĠSeries":10134,"ierarch":10135,"Ġinsulin":10136,"íĬĢ":10137,"ìĺ¤ë¹ł":10138,"ĠíĻĶìŀ¬":10139,"ĠìłĦíĪ¬":10140,"ĠRO":10141,"Ġundefined":10142,"Ġì¿łíı°":10143,"Ġmoderate":10144,"Ġë¯¸ëĶĶìĸ´":10145,"Ġìļ¤":10146,"ĠìĨĮíĴĪ":10147,"ĠCurrent":10148,"Ġinspired":10149,"ĠìľłìĤ¬":10150,"ĠëłĪëª¬":10151,"ectives":10152,"Ġì£¼ë¦Ħ":10153,"ogeneous":10154,"Ġë¶ĢëģĦ":10155,"Ġì²ľìķĪ":10156,"ĠAF":10157,"Ġpaying":10158,"DB":10159,"ĠìĺĪë¯¼":10160,"Ġtranslate":10161,"Ġì§Ħìŀħ":10162,"Ġmanifest":10163,"ogenesis":10164,"ëĭ¤ë§Į":10165,"Ġprocessed":10166,"Script":10167,"Ġapplies":10168,"ĠìĨľ":10169,"aching":10170,"ĠìĿ´ëŁ´":10171,"Ġamplitude":10172,"taught":10173,"During":10174,"Ġì°½ì¡°":10175,"ìķĶíĬ¼":10176,"Ġê²½ì£¼":10177,"íĥĳ":10178,"ĠëĤ¨ë¶ģ":10179,"Ġë¬¸ìŀ¬":10180,"bridge":10181,"Ġê³łìŀ¥":10182,"Ġadjusted":10183,"Ġêµ°ìĤ¬":10184,"Ġmeasuring":10185,"ĠìłĦíĺķ":10186,"reland":10187,"Ġreveal":10188,"ĠNM":10189,"Ġcovers":10190,"Ġëĵľë¦¼":10191,"Ġì¶ĶìĦĿ":10192,"ĠìĨĮëħĢ":10193,"Ġdirections":10194,"ĠPacific":10195,"Ġì§ĢìĤ¬":10196,"Ġordinary":10197,"ĠìĿ¸ê°ĢìļĶ":10198,"Ġextracted":10199,"Ġconsiderable":10200,"ê¹¥":10201,"Ġhandling":10202,"Ġanxiety":10203,"tility":10204,"Ġíĭ°ì¼ĵ":10205,"Ġê·¸ì¹ĺ":10206,"Ġstabil":10207,"Ġê¾¸ë©°":10208,"tribute":10209,"Ġadministrative":10210,"Ġë¬´ìĸ¸ê°Ģ":10211,"Ġdistributions":10212,"Button":10213,"Ġíİ¸ì§ĳ":10214,"Ġrestricted":10215,"Ġequally":10216,"ĠìĬ¤íĦ°":10217,"ERT":10218,"Ġê³µëª¨":10219,"Ġìĥģìŀ¥":10220,"HC":10221,"Ġìĺ¬ë¦´":10222,"Status":10223,"Ġrefers":10224,"ĠíıŃë°ľ":10225,"Ġanywhere":10226,"Ġdesigns":10227,"ëĨĪ":10228,"Ġì½¤":10229,"Ġê¹¨ëĭ¬":10230,"Ġestimation":10231,"ĠëĪĦìĽĮ":10232,"ìĥĿíĻľ":10233,"ë¥´ìĭł":10234,"Ġdrawing":10235,"Ġì£¼ëħĦ":10236,"Ġê°ķì¶Ķ":10237,"Ġcalculations":10238,"Ġprecision":10239,"ĠPolice":10240,"ĠSecretary":10241,"Ġconsequence":10242,"Ġtaught":10243,"Ġchallenging":10244,"Ġcommunications":10245,"ĠíĮĲê²°":10246,"Ġëį¥":10247,"ĠìłĦë©´":10248,"Ġê±¸ì³Ĳ":10249,"Ġì¡±ë°ľ":10250,"ĠìĹ°ìĪĺ":10251,"ĠëĤļìĭľ":10252,"ĠíĨµìłľ":10253,"Ġongoing":10254,"Ġanticip":10255,"ĠìľĦíĺĳ":10256,"Ġë²łìĬ¤íĬ¸":10257,"Ġì±ĶíĶ¼":10258,"Ġequilibrium":10259,"Ġbeauty":10260,"Ġëŀ¨":10261,"Ġcorresponds":10262,"Ġë²Ħëł¤":10263,"Ġwireless":10264,"Ġenvironments":10265,"Ġprevalence":10266,"ĠìĹ°ìĺĪ":10267,"PG":10268,"Ġdomains":10269,"Ġìĸ´ë§Ī":10270,"ë¦¬ìĺ¤":10271,"ĠLE":10272,"Ġappointed":10273,"ĠíĥĦìĥĿ":10274,"Ġíĭ°ë¹Ħ":10275,"ĠìĨĮë°©":10276,"Ġsupplementary":10277,"ĠëĳĲíĶ¼":10278,"Ġannounce":10279,"Ġë°©ì¹ĺ":10280,"ĠíħĲëį°ìļĶ":10281,"Ġëľ¨ê±°ìļ´":10282,"Ġë§ĮíĻĶ":10283,"Response":10284,"Ġrounded":10285,"ĠCV":10286,"ĠìŀĲì¹ĺ":10287,"Ġê±¸ëł¤":10288,"Ġìĺ¬ë°Ķ":10289,"ì¿¨":10290,"Ġawareness":10291,"ĠìĨĮìĿĮ":10292,"Ġdominant":10293,"Ġíĺ¸ìĪĺ":10294,"Ġìĭ¸ìĽĢ":10295,"Ġì¦Ŀìĭľ":10296,"HD":10297,"Ġëĭ¤ëĭĲ":10298,"Ġadequate":10299,"Ġê¸īíķĺ":10300,"Ġtherapeutic":10301,"ì¤Į":10302,"Ġíıīë²Ķ":10303,"ë§ĪëĶĶ":10304,"Ġneural":10305,"ì¤ĳê°Ħ":10306,"Ġangular":10307,"ĠCarolina":10308,"Ġoperated":10309,"Ġperiph":10310,"Ġdecline":10311,"Ġì§ĳíĸī":10312,"ìĹĲëıĦ":10313,"ĠColumb":10314,"ĠìĿĺìŀ¥":10315,"ìĩ¼":10316,"Ġregulatory":10317,"ëıĻìĥĿ":10318,"ëŁ¬ì§Ģ":10319,"ĠìŀĶëľ©":10320,"Ġstatistically":10321,"ë¡¬":10322,"Ġconviction":10323,"ĠServer":10324,"ĠëĶ±íŀĪ":10325,"Return":10326,"ĠLS":10327,"ĠìĹŃëŁī":10328,"Ġcoordinates":10329,"Ġëĭ¨ìĪľíŀĪ":10330,"Ġclassified":10331,"Ġstrike":10332,"Ġê²½ê³Ħ":10333,"ë§¤ìĿ¼":10334,"ëĭ·":10335,"Ġë¦¬ìĬ¤íĬ¸":10336,"ĠëĶĶìĬ¤":10337,"ìİĦ":10338,"ĠME":10339,"Ġtransparent":10340,"ĠìķĦìī¬ìĽł":10341,"Ġë§Īëĥ¥":10342,"Ġdealing":10343,"ìŀĲìĭł":10344,"ĠíĬ¸ëŁ¼íĶĦ":10345,"ĠíĺķìĤ¬":10346,"Ġweapons":10347,"Ġmounted":10348,"Ġfemales":10349,"ĠëĦ¤íĬ¸ìĽĮíģ¬":10350,"Ġwearing":10351,"Ġhappening":10352,"Ġìłķì²´":10353,"ëİ":10354,"ĠSouthern":10355,"Ġë§Īë¥´":10356,"Ġpowder":10357,"íĶĦëĿ¼":10358,"ĠìĥĿìĦł":10359,"Ġdinner":10360,"Ġê¸¸ìĿ´":10361,"reement":10362,"Ġëĭ¹ì²¨":10363,"ìĸ´ë²Ħ":10364,"ĠHP":10365,"Ġìĸ¼ìĿĮ":10366,"ìŀĩ":10367,"Ġatmosphere":10368,"ĠVictor":10369,"ĠíĮĮìļ°":10370,"ĠëıĮìķĦëĭ¤ëĭĪ":10371,"ê²¨ìļ¸":10372,"urable":10373,"erated":10374,"ĠëģĮìĸ´":10375,"ĠThrough":10376,"Ġìĥģì§ķ":10377,"ë¹Į":10378,"Ġmomentum":10379,"Ġinvalid":10380,"Ġêµ¬ë©į":10381,"Ġìłĳì´ī":10382,"Ġë³´ìĬµ":10383,"ĠContent":10384,"ĠGO":10385,"íĮĢ":10386,"Ġë©ĭì§Ģ":10387,"ĠëĽ°ìĸ´ëĤľ":10388,"Ġë³´ê³łìĦľ":10389,"Ġproposal":10390,"Ġê¸°ë¶Ģ":10391,"ë³´íĨµ":10392,"Ġë§ĪìħĶ":10393,"ìĭ¹":10394,"Ġprovisions":10395,"agraph":10396,"ë¸Ķë¡ľê·¸":10397,"Ġsuffered":10398,"ieties":10399,"DER":10400,"Ġë°ĺëł¤":10401,"ê´Ħ":10402,"Ġë°ĶìĤŃ":10403,"Ġserves":10404,"ìĽ¨ìĿ´":10405,"Ġillegal":10406,"Ġgarden":10407,"ë²łë¦¬":10408,"ĥ½":10409,"ëłĪìĿ´ëĵľ":10410,"Ġì£¼ê´Ģ":10411,"Ġê·ĢìĹ¬ìĽĮ":10412,"Ġì£¼ê±°":10413,"onents":10414,"Ġìĺ¤ì§ķìĸ´":10415,"********":10416,"ĠValley":10417,"Ġìĸ´ë¦´":10418,"Ġë¯¸ìħĺ":10419,"Ġëĵ¤ìĿ´":10420,"Ġbuying":10421,"Ġconform":10422,"ĠëŀĦê¹Į":10423,"ë³¶ìĿĮ":10424,"TR":10425,"Ġbasically":10426,"ł´":10427,"ĠìłĦë¬¸ìłĲ":10428,"ĠCommunity":10429,"ĠìĿ´ëĭĿ":10430,"Ġëĭ¤ëħĢìĺ¤":10431,"ĠíĺĢ":10432,"Ġtheorem":10433,"Ġë°ľíĸī":10434,"«ĺ":10435,"Ġenforcement":10436,"Ġìľłë¡ľ":10437,"Ġafternoon":10438,"Ġíı¬ìĬ¤íĬ¸":10439,"ĠSimilarly":10440,"Ġsurprise":10441,"ê°Ģìļ´":10442,"ë³´ìĿ´":10443,"ĠìĻ¸ê´Ģ":10444,"OO":10445,"ishment":10446,"ë§Įíģ¼":10447,"Ġëª¨ëĭĪíĦ°":10448,"Ġë³¼ê¹ĮìļĶ":10449,"Ġsouthern":10450,"ê°ĢìĬ¤":10451,"ĠêµŃë¦½":10452,"Ġë¦¬ëĿ¼":10453,"ĠIreland":10454,"method":10455,"Ġë°ľê¸ī":10456,"Ġcourses":10457,"Ġrecruit":10458,"Ġìļ´ìļ©":10459,"Ġì¶Ķêµ¬":10460,"Ġê¸°ìģ¨":10461,"ĠNA":10462,"Ġreaching":10463,"ĠìĪĺëĬ¥":10464,"Ġìķ¼ì§Ģ":10465,"Ġworker":10466,"Ġë¹¡":10467,"Ġinterior":10468,"ê²½ì°°":10469,"Ġìľłìļ©":10470,"ĠìķĦìī¬ìļ´":10471,"Ġautomatic":10472,"Ġengage":10473,"ë·Ķ":10474,"íĺ¼ìŀĲ":10475,"actory":10476,"ĠìķĦë¦Ħëĭµ":10477,"ëĩĮ":10478,"Ġguarantee":10479,"Ġaffili":10480,"ĠëĶĶìĬ¤íģ¬":10481,"Ġë¹Ħì¦Ī":10482,"Ġstrange":10483,"ASS":10484,"Ġëĭ¤ëħĢìĺ¨":10485,"ĠHTML":10486,"ĠEconom":10487,"Ġmetadata":10488,"ĠOnline":10489,"Ġì§Ģë°°":10490,"Ġëĸłìĺ¤ë¥´":10491,"ĠìĿ¼ì§Ģ":10492,"ĠëĤ¯":10493,"Ġrevenue":10494,"Ġë£Į":10495,"Ġmillions":10496,"ĠìĨĲìĭ¤":10497,"Ġaffirm":10498,"Ġagencies":10499,"Ġìĩ¼íķĳëª°":10500,"ĠêµĲíĨµìĤ¬ê³ł":10501,"Ġsessions":10502,"ĠCatholic":10503,"Ġemphasis":10504,"Ġanyway":10505,"Ġgenerator":10506,"åĭ":10507,"Ġë¯¼ê°Ĳ":10508,"ĠëıĮìķĦìĻĶ":10509,"itional":10510,"ëĪĪìį¹":10511,"Ġvarying":10512,"Ġefficacy":10513,"Ġopposed":10514,"Ġflexible":10515,"Ġantibodies":10516,"Ġíķľëį°ìļĶ":10517,"ĠìĸĳìĦ±":10518,"Ġê²°íĺ¼ìĭĿ":10519,"Ġì°¾ìķĦìĺ¤":10520,"Ġìĥīê°Ĳ":10521,"Ġrestaurant":10522,"ëĥł":10523,"ĠíĤ¬":10524,"Ġsatisfy":10525,"ë´ĩ":10526,"ĠìļĶê±´":10527,"Ġheating":10528,"Ġê°Ģìł¸ëĭ¤":10529,"Ġìĭ¬ìĭ¬":10530,"Ġindices":10531,"Ġë©´ìłģ":10532,"Manager":10533,"ë¥´ë¥´":10534,"Ġreduces":10535,"Ġì§Ģë¶Ħ":10536,"Ġfilters":10537,"Ġprivile":10538,"ìĿ¼ë°ĺ":10539,"Ġíĺ¸ì£¼":10540,"Ġcommitment":10541,"ĠJackson":10542,"Ġìĵ°ìĿ´":10543,"ĠíĬ¹íĹĪ":10544,"Ġinvolvement":10545,"ìĭľìŀ¥":10546,"Ġschema":10547,"Ġsurprising":10548,"ĠìĿĺë¬¸":10549,"Ġgrounds":10550,"Ġê±´ê°ĢìļĶ":10551,"Ġdecreasing":10552,"ĠëıĦêµ¬":10553,"Ġresistant":10554,"ĠBR":10555,"Ġshoulder":10556,"Ġíķ´ìĸĳ":10557,"Ġpresum":10558,"CS":10559,"Ġembedded":10560,"Ġê³µìĿ¸":10561,"ĠìĪľìĪĺ":10562,"Ġì·¨ë¯¸":10563,"ìłłê°Ģ":10564,"idation":10565,"ĠìĹħì¢ħ":10566,"Ġfrequent":10567,"ĠEnergy":10568,"ìĩł":10569,"ìĤ¬ìŀĲ":10570,"UD":10571,"ĠíħĮë§Ī":10572,"ĠìķĮëł¤ìł¸":10573,"Ġattempted":10574,"ĠìĦ¸ëł¥":10575,"Ġnearby":10576,"ëĿ¼ë¦¬":10577,"Ġê²°íķ©":10578,"Ġtargeted":10579,"Ġë¦¬ìĬ¤":10580,"ì¹ĺì¦Ī":10581,"êµĲìľ¡":10582,"Ġsubstit":10583,"ëĦĽ":10584,"ĠíĹ¤ëĵľ":10585,"íĺ¹ìĭľ":10586,"Ġintroduc":10587,"ĠíĥĢìĽĮ":10588,"Thanks":10589,"Ġrequiring":10590,"Ġê·¼ë¡ľìŀĲ":10591,"Ġì¡°ìŀĳ":10592,"Ġlogging":10593,"ĠëĨįìĹħ":10594,"ĠëĲłì§Ģ":10595,"Ġmarker":10596,"ĠìĪĺëĭ¤":10597,"Ġíĭ´":10598,"ĠíķĦëĿ¼":10599,"ìħĭ":10600,"Ġnorthern":10601,"Ġhousehold":10602,"ĠAccess":10603,"ĠíĥĪëª¨":10604,"ĠìĽĲëĭ¨":10605,"Ġcorrection":10606,"Ġsending":10607,"Ġëĵ¤ìĸ´ìĺ¨":10608,"íİĻ":10609,"Introduction":10610,"ĠìľĦë¡ľ":10611,"ì¤Ģëĭ¤":10612,"ĠëıĦìĭľëĿ½":10613,"ĠìłķêµŃ":10614,"ĠDeterm":10615,"ê´ĳìĹŃìĭľ":10616,"ĠëĲľëĭµëĭĪëĭ¤":10617,"Ġpartially":10618,"ì¨Įëĵł":10619,"Ġbroadcast":10620,"Ġë°ĶëŀĢëĭ¤":10621,"ĠíķĻê³¼":10622,"Ġlosing":10623,"Method":10624,"rement":10625,"Ġapproximation":10626,"Ġcommands":10627,"Ġadverse":10628,"ĠìĪĺëĭ¨":10629,"MM":10630,"Ġì¶¥":10631,"ë¶Ģë¥´":10632,"ê°ĳìŀĲê¸°":10633,"Ġmarkers":10634,"Ġë£©":10635,"ĠíıŃëł¥":10636,"Ġyields":10637,"ĠìĸĳìĭĿ":10638,"Ġê³¼ìŀ¥":10639,"Ġawait":10640,"Ġregistration":10641,"ĠëĵľìħĶ":10642,"ĠMR":10643,"ëĤŃ":10644,"Ġcomputing":10645,"áº":10646,"itively":10647,"Please":10648,"Ġprecise":10649,"Ġê´Ģì°°":10650,"Ġëµ":10651,"ĠLibrary":10652,"ĠLD":10653,"Ġrefused":10654,"Ġgenerating":10655,"Source":10656,"Ġì´Ŀìŀ¥":10657,"Ġcontrolling":10658,"Ġì¶ĶìĦ¸":10659,"Ġnonumber":10660,"Ġì°½ì¶ľ":10661,"Ġarbitrary":10662,"Ġê°Ģìł¸ê°Ģ":10663,"ĠìķĦë¬´íĬ¼":10664,"ĠíĪ¬ìĪĺ":10665,"íıīìĨĮ":10666,"LECT":10667,"Ġcleaning":10668,"Ġsubstance":10669,"ĠFR":10670,"Ġë°°ëł¤":10671,"ĠíĬ¹ìľł":10672,"Ġëħ¸ì¡°":10673,"Ġìļ©ëŁī":10674,"Ġtracks":10675,"Ġedition":10676,"ìĦľíĬ¸":10677,"ĠíĻįì½©":10678,"ĠMuseum":10679,"ĠHamilton":10680,"Ġì²łíķĻ":10681,"íĭ¸":10682,"iments":10683,"ë®¤ëĭĪ":10684,"ĠëĥīëıĻ":10685,"ĠìŀħíķĻ":10686,"Ġê±¸ë¦°":10687,"ĠJoseph":10688,"Ġëĭ´ê²¨":10689,"Ġcategor":10690,"Ġwebsites":10691,"ummary":10692,"íĥ±":10693,"Ġìĭłë¶Ħ":10694,"ĠìĿ´ëĭ¬":10695,"Ġmonthly":10696,"Ġgeneric":10697,"ĠìĹ°ëł¹":10698,"ruptcy":10699,"Ġë¬¼ê°Ģ":10700,"Ġë§īìĥģ":10701,"Ġsuffering":10702,"Ġproven":10703,"ĠDemocratic":10704,"Ġìłł":10705,"Ġexhibit":10706,"Ġcompliance":10707,"ĠíķľëĭµëĭĪëĭ¤":10708,"Ġfactory":10709,"Ġinduction":10710,"ĠìĹ½":10711,"ĠìĨĮìļĶ":10712,"Ġmunicip":10713,"Ġstudio":10714,"Ġpathways":10715,"Ġì»¤ìĦľ":10716,"Ġexpanded":10717,"Ġrevolution":10718,"ìķĦë¬´íĬ¼":10719,"Ġfeatured":10720,"Ġpregnancy":10721,"Ġìĭ¸ìļ°":10722,"Ġcultiv":10723,"Ġsemiconductor":10724,"Ġcomparing":10725,"ĠëıĦë§Ŀ":10726,"Ġëĭ¤ìĪĺ":10727,"Ġcomparable":10728,"Ġpassage":10729,"ìŀĳëħĦ":10730,"Ġconvenient":10731,"ìķĦëĤ´":10732,"ĠHC":10733,"Ġê¸°ìĺ¨":10734,"ë°ķìĬ¤":10735,"ĠëıħíĬ¹":10736,"Ġê³łë§ĪìĽĮ":10737,"ëĵ¤ìĸ´":10738,"ĠíĤ¤ë¡ľ":10739,"ĠìłģíĺĢ":10740,"ĠìķĦì¹´":10741,"ìĸ¸ëĭĪ":10742,"ìķĦìĽĥ":10743,"Ġexclusive":10744,"ĠBoston":10745,"ĠStandard":10746,"Ġaccessible":10747,"Ġê°ĢìĿ´ëĵľ":10748,"Ġëĭ¨ëĭ¨":10749,"Ġfrequencies":10750,"Ġnaturally":10751,"ëŀŃ":10752,"Ġranging":10753,"Ġpolynom":10754,"Ġë¬¸êµ¬":10755,"Ġë°Ķìģľ":10756,"Ġì´ĪëĮĢ":10757,"ĠíĥĶ":10758,"ì¹µ":10759,"ĠíĹĪê°Ģ":10760,"Ġreceiver":10761,"ĠAcademy":10762,"Ġshooting":10763,"ë°Ķì§Ģ":10764,"ĠConsider":10765,"Ġanswered":10766,"ĠìķĦë©Ķë¦¬ì¹´ëħ¸":10767,"Ġë³µìļ©":10768,"Ġì´Į":10769,"Ġfoundation":10770,"ĠìĿ¸ê¶Į":10771,"BT":10772,"Ġsomewhere":10773,"ĠSpecific":10774,"ĠSF":10775,"Ġmetrics":10776,"ĠíħĶëłĪ":10777,"ëŁ°ìĬ¤":10778,"Ġê°¤ëŁŃìĭľ":10779,"ĠíĻĪëŁ°":10780,"Ġwatched":10781,"Ġëª¨ìľ¼":10782,"ĠEL":10783,"å¸":10784,"ìĤ¼ìĦ±":10785,"Ġíķ´ì§Ī":10786,"UG":10787,"åĬ":10788,"Ġë³´ëĵľ":10789,"ĠëĬĲê»´ì¡Į":10790,"Ġextraction":10791,"Ġcontrary":10792,"ĠOP":10793,"ì¤ĺ":10794,"Ġë°ĺì§Ģ":10795,"íĺĢìĦľ":10796,"Ġcardiac":10797,"Ġìľ¼ìĦ¸ìļĶ":10798,"Ġë²ļê½ĥ":10799,"Ġê¾¼":10800,"Ġhealthcare":10801,"Ġmodeling":10802,"Ġheaders":10803,"Ġcaptured":10804,"ĠìĻģ":10805,"Ġê°ĦíĮĲ":10806,"ëĤ¨ìŀĲ":10807,"ëĬĶëį°":10808,"Ġcovering":10809,"Ġíĺķìłľ":10810,"ĠìĿĮìĭĿìłĲ":10811,"iferation":10812,"Ġíķľìª½":10813,"Description":10814,"onymous":10815,"ĠìĽĲëĤ´":10816,"Ġproduces":10817,"otherapy":10818,"Ġencourage":10819,"Ġrating":10820,"ĠíĨµê³Ħ":10821,"ì¿Ħ":10822,"ĠìļĶëłĩê²Į":10823,"ëĤ®":10824,"ì£¼ë¬¸":10825,"Ġíı¬íķŃ":10826,"ĠìĪĺìĪĺë£Į":10827,"ìĺĨ":10828,"ê¿Ī":10829,"Ġë§Ľë³´":10830,"ĠìĭĿëĭ¨":10831,"Ġshield":10832,"Ġê²Ģì¦Ŀ":10833,"Ġê²½ë¶ģ":10834,"Ġwhenever":10835,"ê±´ê°ķ":10836,"ëĤľëĭ¤":10837,"author":10838,"ĠBritain":10839,"Ġì½ĶíĬ¸":10840,"Ġê¸°ì°¨":10841,"Ġasync":10842,"ĠKim":10843,"Ġcarcin":10844,"Ġì»¤ë®¤ëĭĪ":10845,"Ġvictory":10846,"Ġgenome":10847,"ĠCG":10848,"Ġìłķë§Ĳë¡ľ":10849,"Ġworldwide":10850,"Ġìĸ´ëĸ¨ê¹Į":10851,"Ġpropose":10852,"Ġê²½ê³ł":10853,"Ġdiffusion":10854,"ëĤĺëĭ¤":10855,"TT":10856,"ĠëĤĺìĺµëĭĪëĭ¤":10857,"Ġsynchron":10858,"ìĭ¤íŀĪ":10859,"ëŁ¬ë¦¬":10860,"Ġmetast":10861,"Ġsufficiently":10862,"ìĦ¸ìĥģ":10863,"ë¯¸ë¦¬":10864,"console":10865,"Ġëĸ¨ìĸ´ì¡Į":10866,"ingers":10867,"Ġcontributed":10868,"Ġscales":10869,"ĠëĳĲë¶Ģ":10870,"Ġconsisting":10871,"Ġìĭłëĭ¤ê³ł":10872,"Ġdiscrimination":10873,"Ġë®¤ì§Ģ":10874,"Ġëĭ¹ê·¼":10875,"Ġroutine":10876,"Ġë¦¼":10877,"ĠìĪĺëĤ©":10878,"ìŃī":10879,"Ġíķľë³µ":10880,"ĠìŀĲìľ¨":10881,"Ġlights":10882,"Ġuniversal":10883,"tificial":10884,"Ġë¬´ìĤ¬":10885,"ëĳ¥ìĿ´":10886,"Ġì¹©":10887,"Ġintellect":10888,"Ġë¬´ëĤľ":10889,"Ġtiming":10890,"Ġë¹Ħì¹ĺ":10891,"liminary":10892,"åį":10893,"Ġinfluenced":10894,"ĠìĦ¬ìľł":10895,"Ġprompt":10896,"Ġindependently":10897,"ĠìľĹ":10898,"Ġexplicitly":10899,"Ġmissed":10900,"Ġstimulation":10901,"BP":10902,"Ġmovements":10903,"ĠìĪĺìĦĿ":10904,"ĠëĤ¨ëħĢ":10905,"ĠìĦłê³ł":10906,"Ġdecreases":10907,"ĠìĥģìĦ¸":10908,"Ġshopping":10909,"ëĤĺëĤĺ":10910,"Ġìľ¡ìĦ±":10911,"Ġtumors":10912,"ĠKingdom":10913,"Ġreproduc":10914,"ĠWhether":10915,"Ġê´Ģê´ĳê°Ŀ":10916,"Ġê²°ì½Ķ":10917,"Ġë¬¼ëŁī":10918,"íħĮìĬ¤":10919,"Ġresidual":10920,"Ġíķľìļ°":10921,"Ġíķ´ë¬¼":10922,"ĠFamily":10923,"Ġsettlement":10924,"êµ¬ë¦¬":10925,"Ġemployer":10926,"ĠëĪĪìį¹":10927,"ĠAccordingly":10928,"Ġnotion":10929,"ĠUI":10930,"ìĬ¤íĨłëŀĳ":10931,"ĠíĿĻ":10932,"Ġthorough":10933,"ĠëłĪìĬ¤íĨłëŀĳ":10934,"Ġperceived":10935,"Ġopposition":10936,"Ġcalibr":10937,"¿½":10938,"Ġëĥł":10939,"Number":10940,"íĬ¹ë³Ħìĭľ":10941,"Ġproceedings":10942,"ĠìĽĶëĵľì»µ":10943,"Ġregularly":10944,"Ġìŀ¤":10945,"Ġvectors":10946,"ĠëŀŃ":10947,"ĠëģĵìĹ¬":10948,"Ġincorporated":10949,"Ġë©Īì¶Ķ":10950,"ĠSupport":10951,"Ġê·¸ëŁ¬ë©´":10952,"Ġfeelings":10953,"ĠìķĹ":10954,"Ġìļ°ëıĻ":10955,"ë¹¨ë¦¬":10956,"holders":10957,"Ġdiagnostic":10958,"ulator":10959,"Ġtemporary":10960,"ĠSI":10961,"Ġentries":10962,"ĠìłķìĪĺ":10963,"Ġsuppress":10964,"Ġgathered":10965,"ĠìĿ¸ìĹ°":10966,"ëŀ©":10967,"Ġê¼¼ê¼¼íŀĪ":10968,"ĠíĶĮëŀĺ":10969,"Ġë¶Ģì§Ħ":10970,"Ġpossession":10971,"Ġëħ¸ëŀĢ":10972,"Ġì´Īë³´":10973,"Ġê¶Įëł¥":10974,"Ġaccompan":10975,"ĠíĶĦëĿ¼ìĿ´":10976,"Ġlegislation":10977,"ìĤ¬ìļ©":10978,"Ġë²łìĿ´ìĬ¤":10979,"logical":10980,"ê·¸ê²ĥ":10981,"Ġìľłì¹ĺìĽĲ":10982,"Ġphenomenon":10983,"Ġbearing":10984,"ĠìłĲì°¨":10985,"íĳ¼":10986,"Ġì§Ģìĥģ":10987,"Ġê¹Ģìłķ":10988,"ĠêµĲê³¼":10989,"Ġsuscep":10990,"ë¡ľìļ°":10991,"esterday":10992,"Ġexpectations":10993,"Ġimprovements":10994,"Ġuniverse":10995,"Ġë§Īìħ¨":10996,"Ġdevelopers":10997,"Ġì¦īìĭľ":10998,"romise":10999,"Ġmutations":11000,"Ġcooling":11001,"Ġíķ´ìļ´":11002,"Ġìĥģíķĺ":11003,"Ġíĳľì¤Ģ":11004,"Ġìļ°ë¦°":11005,"Ġê°Ģë²¼ìļ´":11006,"TO":11007,"Ġplatforms":11008,"Ġì§ĳëĭĪëĭ¤":11009,"Ġëļľê»ĳ":11010,"Ġëª¨ë¥¸ëĭ¤":11011,"Ġcycles":11012,"Ġíļ¡":11013,"ĠThough":11014,"Ġìĭ¤íĺĦ":11015,"Ġlikelihood":11016,"Ġê±°ëĵŃ":11017,"Ġ**]{},":11018,"ĠìĦ¤ë¹Ħ":11019,"hand":11020,"Ġconverted":11021,"Ġdeviation":11022,"ĠíĿĶíŀĪ":11023,"ĠìĿ´ìĬĪ":11024,"Ġtrends":11025,"ĠìĿĺíķĻ":11026,"ĠíİĺìĿ´":11027,"ĠìĥĿíĥľ":11028,"éĸ":11029,"ĠìĹĺë¦¬":11030,"Ġelastic":11031,"Ġê±°íĴĪ":11032,"Ġprecisely":11033,"Ġìĭłì¤ĳ":11034,"ĠëªħíĻķ":11035,"ìĬĲ":11036,"ĠìķĦë§ĪëıĦ":11037,"Ġë¿ľ":11038,"Ġconstitutional":11039,"ĠìķĦìĿ´ëĶĶìĸ´":11040,"Ġisinstance":11041,"Ġê°ĲìķĪ":11042,"Ġë°Ķê¹¥":11043,"ĠìĤ½":11044,"Ġìŀłëĵ¤":11045,"Ġë§¤ëĭ¬":11046,"Ġprinted":11047,"ĠìĽ¨ìĿ´":11048,"ĠUbuntu":11049,"private":11050,"Ġexcluded":11051,"LR":11052,"ulties":11053,"Ġë§ĪëĿ¼":11054,"ìĭľíĶ¼":11055,"operative":11056,"ëŃĩ":11057,"WH":11058,"Ġacquisition":11059,"ĠìĤ¬ìľł":11060,"Ġmovies":11061,"ĠëłĮíĬ¸":11062,"ĠìĿ´ìŀ¬":11063,"Ġë§ŀì¶°ìĦľ":11064,"Ġíĺģëªħ":11065,"Ġinclusion":11066,"Ġawarded":11067,"Ġdeveloper":11068,"Ġframes":11069,"Ġarranged":11070,"ë°ĸ":11071,"Ġì±ħìĥģ":11072,"Ġì°½ìĽĲ":11073,"ìĸ´ë§Ī":11074,"Ġìĸ´ë¥´ìĭł":11075,"ĠNorthern":11076,"ĠíĸĩìĤ´":11077,"ĠìłĦëĤ¨":11078,"Ġíĥľìĸ´ëĤĺ":11079,"Ġmirror":11080,"Ġëĭ¤ë¥¼":11081,"Ġë³ĢëıĻ":11082,"Ġdistinguish":11083,"ëĿł":11084,"Ġexecuted":11085,"Ġfiction":11086,"Ġinhibit":11087,"éģ":11088,"Ġë¹łì¡Į":11089,"PN":11090,"ĠìĹĲìĦľë¶ĢíĦ°":11091,"Ġscientists":11092,"Ġcontinuing":11093,"ĠëĮĢë§Į":11094,"Ġinnovation":11095,"ĠíļĮìłĦ":11096,"ĠëĤ´ë¦°":11097,"Ġê°ķìĽĲëıĦ":11098,"Ġmaintaining":11099,"utable":11100,"mented":11101,"Ġovercome":11102,"ë°ĺëıĦ":11103,"Ġwidetilde":11104,"Ġthereof":11105,"ë¨¸ëĭĺ":11106,"Ġreceptors":11107,"Ġsoldiers":11108,"ĠìĿĳëĭµ":11109,"Ġdivide":11110,"Ġì»¤ì§Ģ":11111,"Ġquantitative":11112,"anguage":11113,"ĠìĬ¤íİĺìĿ¸":11114,"Ġseriously":11115,"ĠFI":11116,"Ġìıł":11117,"Ġëħ¸íĬ¸ë¶ģ":11118,"Ġdemands":11119,"Ġëĭ¤ì§Ĳ":11120,"Ġresolved":11121,"íĬ¸ë¦¬":11122,"ĠìĦ¤ëłĪ":11123,"ologist":11124,"Ġcareful":11125,"Ġêµ¬ìĦĿ":11126,"Ġarrested":11127,"ĠëĤ´ìŀ¥":11128,"Ġregulated":11129,"Ġëĭ¤ë£¨":11130,"Ġelevated":11131,"Ġìŀ¥ëĤľê°Ĳ":11132,"Ġreflected":11133,"Ġì½ĶëĦĪ":11134,"Ġë¹Ħì£¼ìĸ¼":11135,"ĠìļĶìķ½":11136,"ĠìĪĺê³ł":11137,"Ġsuffer":11138,"Ġduplic":11139,"ëį°ìĿ´íĬ¸":11140,"Ġë¶ĢìĦľ":11141,"Ġindirect":11142,"Ġë§Īë²ķ":11143,"Ġë§Īì¹´":11144,"Ġvictims":11145,"Ġëĭ¹ìĦł":11146,"part":11147,"Ġscripts":11148,"Ġshipping":11149,"Pe":11150,"TM":11151,"Ġaddresses":11152,"ĠGC":11153,"Ġìĭ¼":11154,"Ġë¶Ģì²ľ":11155,"ëłĮì§Ģ":11156,"íĮ¬":11157,"Ġìĭ¬íĶĮ":11158,"Ġhierarch":11159,"Ġìĸ´ë¦°ìĿ´ì§ĳ":11160,"Ġpursuant":11161,"ĠAA":11162,"Ġaffects":11163,"ĠìĹĪìĹĪ":11164,"Ġconstantly":11165,"ĠìĤ¬ìĿ´ëĵľ":11166,"Ġintervals":11167,"Ġcultures":11168,"Ġê°ľë´ī":11169,"Ġdisturb":11170,"Ġclosing":11171,"Ġë°ĺì§Ŀ":11172,"Ġì«ĵ":11173,"Ġë²ĪìĹŃ":11174,"ticles":11175,"Ġì¼ĢìĿµ":11176,"ĠìĹĲìĿ´":11177,"ĠëĤĺëĪĶ":11178,"Ġsatell":11179,"Ġphases":11180,"Results":11181,"Ġê°Ģê¹Ŀ":11182,"Ġvisited":11183,"Ġsteady":11184,"ĠFull":11185,"ĠìŀĦìĭľ":11186,"ologic":11187,"ĠíĴĢë¦¬":11188,"Ġreliability":11189,"Ġscheduled":11190,"Ġqualified":11191,"Ġsuppose":11192,"Client":11193,"Ġë¦¬ì¡°íĬ¸":11194,"ĠìĭľìĦ¸":11195,"ë¬´ìĹĩ":11196,"Ġë²ħìĬ¤":11197,"ĠìĿ¼ìĸ´ëĤ¬":11198,"Ġclinic":11199,"ĠLittle":11200,"Ġenrich":11201,"ì¶¤":11202,"ĠìĦ¸íĮħ":11203,"ĠìķĦë¬´ëŁ°":11204,"you":11205,"Ġchecks":11206,"Ġë¯¸ë§Į":11207,"ëĭ¤ëŀĢ":11208,"Ġscholars":11209,"Ġbasket":11210,"Ġìĸ´ìĥī":11211,"Ġproliferation":11212,"Ġë¹ĦíĬ¸":11213,"ĠAppeals":11214,"ê±°ëĤĺ":11215,"Ġdating":11216,"Ġcontrad":11217,"Ġintake":11218,"ëĲľ":11219,"Ġì³Ĳëĭ¤ë³´":11220,"Finally":11221,"Ġëĭ´ë³´":11222,"ylvania":11223,"Ġsymmetry":11224,"Bar":11225,"ĠíĻľë°ľ":11226,"Ġbutter":11227,"Ġë¯¸ë£¨":11228,"ĠíĿ¬ìĥĿ":11229,"CO":11230,"Ġë¹ĦëĮĢ":11231,"Ġassignment":11232,"Ġìľ¼ëĿ¼ê³ł":11233,"Ġclothes":11234,"Ġë§Īìĭ¤":11235,"Ġìłľìķ½":11236,"KE":11237,"Ġrising":11238,"ĠëĤĺíĥĢëĤ´":11239,"íĩ´ê·¼":11240,"íķĺë©´":11241,"īģ":11242,"Ġguidance":11243,"ĠìķĺìĹĪ":11244,"Ġdifferentiation":11245,"ĠSV":11246,"Ġë³´íĹĺë£Į":11247,"Ġminister":11248,"Ġimposed":11249,"Ġreturning":11250,"Ġkilling":11251,"ĠSource":11252,"Ġcenters":11253,"uction":11254,"estyle":11255,"ĠìĬ´":11256,"Ġabnormal":11257,"ĠíĶ¼ìķĦëħ¸":11258,"ĠAttorney":11259,"ëĺĳ":11260,"ëł·":11261,"Ġpipeline":11262,"ĠìļĶìĥĪ":11263,"ê·¸ëķĮ":11264,"ĠëĿ¼ìĿ´íĬ¸":11265,"Ġinvestors":11266,"Ġrejected":11267,"ĠìĦľìļ¸íĬ¹ë³Ħìĭľ":11268,"aration":11269,"Ġì°¸ì¹ĺ":11270,"ëĿ¼ìĹĺ":11271,"ĠConfig":11272,"Ġìĭ¤ì§Ī":11273,"Ġenables":11274,"Ġëŀľëĵľ":11275,"Ġì§ĢëĭĪ":11276,"ê³łë¦¬":11277,"ĠìĻľëĥĲ":11278,"ĠêµŃë°©":11279,"ĠíĦ°ì¹ĺ":11280,"ĠëªħíĴĪ":11281,"DNA":11282,"ĠìĿ´ê²¨":11283,"Ġì§Ģíĺľ":11284,"ģëĭĪëĭ¤":11285,"Ġë¶ĦëªħíŀĪ":11286,"Ġattended":11287,"Ġê³µíı¬":11288,"ëŀĢëĵľ":11289,"ĠíĿĶìłģ":11290,"ĠMV":11291,"ĲĨ":11292,"ëłĪìĿ´íģ¬":11293,"ĠìķĶíĬ¼":11294,"Ġruling":11295,"Ġì°¢":11296,"Ġrecommendations":11297,"Ġíĺĳìķ½":11298,"Ġê³µëĭ¨":11299,"Ġmodify":11300,"Ġì§ĢëĤ¬":11301,"ĠìķłëĭĪ":11302,"Ġviewed":11303,"Ġì¶ľìŀħ":11304,"Ġlocally":11305,"HR":11306,"Ġcapabilities":11307,"ĠStudies":11308,"Ġê±°ì¹ĺ":11309,"Ġë§ĪìĬ¤íĦ°":11310,"Ġprecip":11311,"Ġingredients":11312,"ë³¸ëĭ¤":11313,"Ġopinions":11314,"Ġvisitors":11315,"Ġmagazine":11316,"ìķĦë¹ł":11317,"umptions":11318,"ĠBY":11319,"Ġvalidate":11320,"Ġê°Ģë§ĮíŀĪ":11321,"ĠìłĢíķĺ":11322,"ĠìĽ¬":11323,"ĠíĿĺë¦¬":11324,"ĠíĹĲ":11325,"FO":11326,"Ġexplains":11327,"ĠíĻĺìĺģ":11328,"Ġtransactions":11329,"Ġìłķì§Ģ":11330,"Ġì¼ĢìĿ´ë¸Ķ":11331,"Ġë°ĿíŀĪ":11332,"Ġsearching":11333,"Ġê°ĸì¶ĺ":11334,"ĠìĹ¬ë¡ł":11335,"ë²Įìį¨":11336,"ĠíĹ·":11337,"ĠëłĪë²¨":11338,"Ġì´īì§Ħ":11339,"ë©ľ":11340,"Ġì½ĺìĦľíĬ¸":11341,"Ġdrinking":11342,"Ġë°Ķëŀĺ":11343,"Ġinterference":11344,"Ġë©´ìĹŃëł¥":11345,"________________":11346,"ê³ĦìĨį":11347,"ìļ¸ëŁ¬":11348,"Ġcopies":11349,"Ġconstraint":11350,"ĠíĮĮê´´":11351,"ëĤĺì¤ĳ":11352,"Ġsatisfaction":11353,"Ġê³µì§Ģ":11354,"Ġbehalf":11355,"Ġcomplications":11356,"Ġlateral":11357,"ployment":11358,"ĠFrancisco":11359,"Ġlattice":11360,"ĠìĿ¼ìĤ°":11361,"Ġinsight":11362,"Ġì´Īì½ľë¦¿":11363,"Ġwherein":11364,"ailable":11365,"Ġplates":11366,"Ġíģ´ëłĮ":11367,"ìŀ¡ìĿ´":11368,"ĠìºłíĶĦ":11369,"ĠíĥĪì¶ľ":11370,"ĠìĭĿíĥģ":11371,"Ġì±Į":11372,"Ġíķľê¸Ģ":11373,"ĠException":11374,"ĠìĥĮëĵľìľĦì¹ĺ":11375,"ĠLiving":11376,"ĠìĥĿìĦ±":11377,"ĠDonald":11378,"Ġsurprised":11379,"Ġstreets":11380,"æĹ":11381,"Ġenjoyed":11382,"ĠMichigan":11383,"ĠìĦ¸ìĿ¼":11384,"Ġìĺģíĺ¼":11385,"Ġê·¸ëŁ¬ëĭĪê¹Į":11386,"Ġìĸµìłľ":11387,"Ġìłķê·ľ":11388,"Ġoccurrence":11389,"ĠíĬ¸ëłĮ":11390,"Ġenroll":11391,"Ġoutputs":11392,"Ġê¸´ê¸ī":11393,"advant":11394,"Ġdisclosed":11395,"ë¬¸ìłľ":11396,"ĠTaylor":11397,"Ġì¢ĮìĦĿ":11398,"ìĬ¤íĮħ":11399,"Ġêµ¬ìĽĲ":11400,"ìļ´ìłĦ":11401,"Ġë¶Ģì±Ħ":11402,"Ġinfections":11403,"ìļ°ëĵľ":11404,"ê·¼íĺľ":11405,"Ġë¸Įë¦¬":11406,"Ġvertex":11407,"agnetic":11408,"ĠìĿĮìĦ±":11409,"ĠABC":11410,"Ġdesktop":11411,"points":11412,"Ġsmoking":11413,"Ġoriented":11414,"Ġafraid":11415,"ìĸ´ë¦¬":11416,"ëħ¼":11417,"Ġwriters":11418,"Ġhospit":11419,"ĠRF":11420,"Ġê°ķë¦ī":11421,"Ġsaving":11422,"EP":11423,"Ġcompletion":11424,"ĠìĦ¸ëł¨":11425,"Ġpersonnel":11426,"Ġentities":11427,"ĠìľĦìķĪ":11428,"ë°Ķëĭ¤":11429,"UP":11430,"Builder":11431,"Ġíķľìŀħ":11432,"itigation":11433,"Ġapartment":11434,"Ġlandscape":11435,"Ġìī´":11436,"anches":11437,"ì°¸ê³ł":11438,"Ġtheories":11439,"Ġë¶Ģì°©":11440,"Ġbarrier":11441,"Ġratios":11442,"ĠMountain":11443,"Ġmixing":11444,"ematical":11445,"íĺĦëĮĢ":11446,"Ġê·¼ë³¸":11447,"unning":11448,"Ġì¤ĦìĹ¬":11449,"ĠìķĦìļ°":11450,"Ġaccused":11451,"ìĿĮìĭĿ":11452,"ìĮĪ":11453,"Ġprinting":11454,"Ġroughly":11455,"Ġdiagram":11456,"Ġì¤ĳëıħ":11457,"ĠEnvironment":11458,"Ġë§Īíģ¬":11459,"Ġmanufacturer":11460,"Ġlesions":11461,"GS":11462,"Ġìĺ³":11463,"Ġì§Ģë£¨":11464,"Ġscored":11465,"ìĽĮíķĺ":11466,"Ġnonlinear":11467,"Ġvessel":11468,"ĠOptional":11469,"ë¥´ëª¬":11470,"Ġdeposition":11471,"Ġë§¤ëıĦ":11472,"cripts":11473,"ĠìĹ¬ê¸´":11474,"ì»·":11475,"ĠSpring":11476,"Ġìĸ´ìĹ¬":11477,"ìĸ´ëĶĶ":11478,"ĠìłĦë¶ģ":11479,"Ġnavigation":11480,"Ġë¡ľë´ĩ":11481,"Ġimplications":11482,"Ġrefresh":11483,"Ġìłľë²ķ":11484,"Ġìĸ´ìķ¼ì§Ģ":11485,"Ġlistening":11486,"Ġcoordinate":11487,"Ġìµľìĭł":11488,"ìłĢíŀĪ":11489,"Ġprotest":11490,"Ġê°ĪìķĦ":11491,"Ġë¹ĮëĶ©":11492,"ĠìĹŃëĮĢ":11493,"Ġê·¸ëłĪìĿ´":11494,"Ġfalling":11495,"ĠíĻįëĮĢ":11496,"ĠìĿ´ìĦ±":11497,"tainer":11498,"ĠíķŃëª©":11499,"ë§Ĳë¡ľ":11500,"ëĭ¤íĸī":11501,"Ġchecking":11502,"display":11503,"amples":11504,"ĠëĶĶíħĮìĿ¼":11505,"Ġengagement":11506,"Ġì£¼ìĦ¸ìļĶ":11507,"ĠìĿ´íĥĪë¦¬ìķĦ":11508,"sylvania":11509,"Ġëĭ¹íĸĪ":11510,"Co":11511,"ĠPV":11512,"Ġë¬¼ìĸ´":11513,"Ġì¤ĳíķĻêµĲ":11514,"Ġì¡°ë¦½":11515,"Ġseparately":11516,"Ġpredictions":11517,"ĠìĦ¸ì¢ħ":11518,"Ġë¦´":11519,"Ġêµ¬ê¸Ģ":11520,"ë§Įê°Ħ":11521,"ĠìĿ´ë¶Ī":11522,"Ġarrangement":11523,"ĠíĺĪê´Ģ":11524,"Ġsegments":11525,"Ġappreciate":11526,"Ġëį¤":11527,"Ġpushed":11528,"Ġswitching":11529,"Ġfacilitate":11530,"ĠìŀĲêµŃ":11531,"Ġtraject":11532,"Ġcomputation":11533,"tration":11534,"ë¯¸ëĦĲ":11535,"Ġlabeled":11536,"Ġentering":11537,"Ġdesirable":11538,"Ġë¶Ģë¦¬":11539,"Ġë³µìĽĲ":11540,"parser":11541,"Ġì¿łìħĺ":11542,"Ġending":11543,"Ġìµľìłģ":11544,"aussian":11545,"Ġscattering":11546,"Ġsodium":11547,"Ġëĭ¬ëĿ¼ì§Ģ":11548,"ĠìķĦìī¬ìĽĢ":11549,"ĠìĪĺìĭľ":11550,"System":11551,"ë¿Į":11552,"Ġíĸ¥ìĪĺ":11553,"ĠëįĶë¸Ķ":11554,"Ġíķĺë°ĺê¸°":11555,"Ġì§¤":11556,"Ġì¶ĶìĽĮ":11557,"DC":11558,"ĠìĿ´ëĿ¼":11559,"Ġfunctionality":11560,"ĠíĮŁ":11561,"Ġwaters":11562,"Ġcollapse":11563,"Ġabstract":11564,"ĠClinton":11565,"ĠíķłìķĦë²Ħì§Ģ":11566,"Ġì§ģíĽĦ":11567,"Ġë¹łì§Ī":11568,"Ġcompatible":11569,"ĠEastern":11570,"Ġstruggle":11571,"Ġìļ©ìĿ¸":11572,"Ġrandomly":11573,"ĠíĥĢìĿ¸":11574,"Ġëľ¬":11575,"Ġë§ĪìĿ´íģ¬":11576,"Ġê²ĮìĭľíĮĲ":11577,"Ġfrustr":11578,"ĠHTTP":11579,"Ġê»įì§Ī":11580,"ĠìĬ¤íĤ¬":11581,"Ġchromos":11582,"GG":11583,"Ġì²Ńìķ½":11584,"Ġfeeding":11585,"Ġì²Ļì¶Ķ":11586,"ĠìĦ±ê²½":11587,"Ġê°ĢìĤ¬":11588,"........":11589,"ĠìłĢê±°":11590,"Ġheavily":11591,"Ġë¡ľëĵľ":11592,"Ġìĸ´ì°¨íĶ¼":11593,"Ġìĸ´ì°ĮëĤĺ":11594,"ëŀ´":11595,"Ġmusical":11596,"íı¬íĬ¸":11597,"Ġdegradation":11598,"ìĿ¸íĦ°":11599,"ĠTi":11600,"ìĻ¸ìĦł":11601,"Ġìŀ¥ë¯¸":11602,"Ġê³Ħì¢Į":11603,"Ġaggress":11604,"Ġgained":11605,"ĠíķĺíĬ¸":11606,"ê±°ê¸°":11607,"============":11608,"Ġmanuscript":11609,"Ġremoving":11610,"íĮł":11611,"Ġëį°ë·Ķ":11612,"ìĺ¤ëŀĺ":11613,"ĠìĽĲë¦¬":11614,"theast":11615,"Ġìĳ¥":11616,"ĠìĽ°":11617,"Ġê±°ì§ĵë§Ĳ":11618,"Ġì»¨ìĦ¤":11619,"ĠìĥģìľĦ":11620,"Ġì§Ħë¦¬":11621,"Ġë¸Ķë¡Ŀ":11622,"Ġê°ľë°©":11623,"ëĨĢìĿ´":11624,"ĠíĻķìĭł":11625,"Ġë°°ê´Ģ":11626,"BR":11627,"Ġearned":11628,"Ġemissions":11629,"Ġsingular":11630,"ĠëłĪìĭľíĶ¼":11631,"ĠëĿ¼ë©´ìĦľ":11632,"Ġgentle":11633,"ë©Ģ":11634,"Ġê¹¨ëĭ«":11635,"Ġíķľë§ĪëĶĶ":11636,"Ġì¡°ê°ľ":11637,"Ġthirty":11638,"ĠFS":11639,"Ġìĺ¤íĶ¼ìĬ¤":11640,"íļĮìŀ¥":11641,"ĠFollowing":11642,"Ġillustrated":11643,"Ġìĸ¹":11644,"ëŁ¬ìĦľ":11645,"Ġìķłìłķ":11646,"Ġprejud":11647,"ĠSearch":11648,"monary":11649,"Ġmatched":11650,"ĠíĿ¡ìŀħ":11651,"ĠìĿ¸ì¹ĺ":11652,"Ġconclusions":11653,"ĠZealand":11654,"Ġprogression":11655,"ĠUSB":11656,"ê³µìĤ¬":11657,"Ġvaried":11658,"ĠêµĲë¥ĺ":11659,"Ġsystematic":11660,"Ġê³µìĭľ":11661,"Ġë²ķë¬´":11662,"Ġëĭ´ê¸´":11663,"ìľĹ":11664,"Ġëª¨ëŀĺ":11665,"Select":11666,"Ġmutation":11667,"Ġë¸ĮëĿ¼ìļ´":11668,"ĠìĿ¼ìľ¼íĤ¤":11669,"ìĬ¤íĭ°":11670,"ë£¬":11671,"Ġcontracts":11672,"ĠíĶĦë¦°":11673,"Ġstrings":11674,"Ġtalked":11675,"ìĤ¬ë¦¬":11676,"Ġì§Ģìĭľ":11677,"ĠAndrew":11678,"Ġexciting":11679,"Ġexpenses":11680,"Ġwedding":11681,"ëĬ¬":11682,"ĠAmendment":11683,"Ġresponded":11684,"Ġê´ĢìłĲ":11685,"itative":11686,"ĠìłĦê°ľ":11687,"Ġì¿¼":11688,"ĠPerhaps":11689,"Ġíı¬íĬ¸":11690,"Ġmeetings":11691,"Ġìłĵ":11692,"Ġidentifying":11693,"Ġutilized":11694,"ĠìĦ±íĸ¥":11695,"Ġherein":11696,"loat":11697,"Ġë°ľíľĺ":11698,"ĠSeveral":11699,"Ġì§Ģì¶ľ":11700,"height":11701,"ĠìĤ´ë¦¬":11702,"GR":11703,"Ġtransportation":11704,"ĠëŃĶì§Ģ":11705,"Ġranges":11706,"Ġcontemporary":11707,"Ġdiscrete":11708,"íĬĢê¹Ģ":11709,"ĠDA":11710,"Ġshouldn":11711,"Ġìĥģë°ĺê¸°":11712,"ìłĢë¦¬":11713,"Ġpsychological":11714,"Ġcancel":11715,"ĠêµĲìĭ¤":11716,"ìĽ¨ìĸ´":11717,"ëĦ¤ìļĶ":11718,"ĠìĬ¤íĨłìĸ´":11719,"Ġìŀ¬ëĤľ":11720,"Ġê°Ħëĭ¨íŀĪ":11721,"ĠìĦ±ëĤ¨":11722,"Ġë²Ħë¦´":11723,"inance":11724,"ĠCentre":11725,"ĠíķľíĻĶ":11726,"ë³´ëĵľ":11727,"Controller":11728,"Ġë¦¬ìĸ¼":11729,"Ġvascular":11730,"config":11731,"Ġêµ°ëĮĢ":11732,"Ġvariability":11733,"Ġseasons":11734,"Ġexpressions":11735,"Ġinequality":11736,"Ġpenalty":11737,"ê´Ģë¦¬":11738,"Ġíķ´ë³Ģ":11739,"Ġprominent":11740,"ëļľ":11741,"Ġë¦¬ëª¨":11742,"Ġrestrictions":11743,"ìĬ¤ëłĪ":11744,"Ġê¸ģ":11745,"Ġbounded":11746,"Ġpersonally":11747,"Ġë°Ń":11748,"otypes":11749,"Ġëĵ¤ìľ¼ë©´":11750,"Ġstudying":11751,"Ġelsewhere":11752,"Ġinjured":11753,"ìŀĲìĹ°":11754,"Ġcontam":11755,"Ġcurrency":11756,"Ġsupplied":11757,"ĠInterest":11758,"ì·Ħ":11759,"Ġcouncil":11760,"Ġdeposit":11761,"Ġcalcium":11762,"Ġomitted":11763,"Ġë¶Ħëħ¸":11764,"Ġspiritual":11765,"ê¹ĶëģĶ":11766,"ëŀĢíŀĪ":11767,"Ġëĵ±ìĤ°":11768,"ìĦ¼íĬ¸":11769,"Ġëĥīë©´":11770,"Ġperipheral":11771,"Ġvacuum":11772,"Ġëħ¼ë¬¸":11773,"Ġë°ĶìľĦ":11774,"Ġrecipe":11775,"ĠìķĦëģ¼":11776,"ĠìĿ¼ìĭľ":11777,"êµ¬ëĭĪ":11778,"Ġweapon":11779,"ĠëªħìłĪ":11780,"Ġcollaboration":11781,"ëĮĢíķľ":11782,"Ġequipped":11783,"Ġpredom":11784,"Ġbeneficial":11785,"Ġinduce":11786,"Ġì¹ĺìĹ´":11787,"Ġboundaries":11788,"Ġê³Ħìħ¨":11789,"Ġìľ¼ë¡ł":11790,"ĠìĥĪíķ´":11791,"Ġinfinite":11792,"Ġlawyer":11793,"ĠìĽĲíĻľ":11794,"Ġëį°ìĿ¼ë¦¬":11795,"Content":11796,"entive":11797,"ĠGeorgia":11798,"ì¹´ëĿ½":11799,"Ġë°°ìĽĮ":11800,"Ġë¹ĦëĪĦ":11801,"ë£°":11802,"urations":11803,"ĠìķĮëł¤ì§Ħ":11804,"ĠìĥĿê²¨ìĦľ":11805,"ĠìĺĪê³ł":11806,"ĠìĹ´ë§¤":11807,"Ġrelating":11808,"Ġadapted":11809,"Ġprofessor":11810,"Ġcolleagues":11811,"Ġfingers":11812,"Ġì½Ķì½Ķ":11813,"ĠìĦ¹":11814,"íĿĶ":11815,"Ġparking":11816,"Ġë©´íĹĪ":11817,"Ġë°ľìĤ¬":11818,"ĠíĻĶìĿ´íĮħ":11819,"aterials":11820,"ĠìĭľìĿ¸":11821,"Ġëª©ìĤ¬":11822,"ĠSports":11823,"ĠWithout":11824,"Ġmodification":11825,"ĠíıĲê¸°":11826,"ĠAV":11827,"ĠPennsylvania":11828,"Ġë¹ĦëĤľ":11829,"íĪ¼":11830,"life":11831,"Ġcomprises":11832,"Ġìļķìĭ¤":11833,"Ġspecify":11834,"Because":11835,"ĠëĿ¼ìĿ´íĶĦ":11836,"ĠNevertheless":11837,"ì¹¸":11838,"Ġevident":11839,"Ġì«Ħê¹ĥ":11840,"Ġsomehow":11841,"Ġíľ´ë¬´":11842,"ê±¸ë¦¬":11843,"Ġê·¸ëĮĢ":11844,"Ġë¶ĪëłĢ":11845,"âĹ":11846,"URE":11847,"ĠUnivers":11848,"Ġforgot":11849,"ĠìŁĪ":11850,"ĠGT":11851,"ëļ±":11852,"Ġê¸°ìĨĮ":11853,"ĠíĮĲìłķ":11854,"ĠWilson":11855,"ailing":11856,"ĠIllinois":11857,"Ġëįĺê°Ģ":11858,"ĠìĿ´ìĬ¤ëĿ¼ìĹĺ":11859,"ê³łê°Ŀ":11860,"Ġì§Ģì¼ľë³´":11861,"ĠìĹ°ìĺĪìĿ¸":11862,"Ġë¨¸ë¦¿":11863,"ĠêµŃíĨł":11864,"Ġinstitution":11865,"Ġëĵ¤ìĸ´ìĦľ":11866,"Ġë³´ìĻĦ":11867,"Ġì§Ģê°ĳ":11868,"Ġtelephone":11869,"ĠEP":11870,"tribution":11871,"iratory":11872,"Ġê·¸ë¶Ħ":11873,"ĠëģĬìŀĦ":11874,"ìĿ´ëķĮ":11875,"ĠìĤ´ëł¤":11876,"Ġbacterial":11877,"ëŁ¬ë¸Ķ":11878,"ĠìĬ¹ë¶Ģ":11879,"ĠëıĦì¤ĳ":11880,"ĠëĪĦìĪĺ":11881,"Ġë§Īëĭ¹":11882,"Ġíķ´ìĪĺ":11883,"Ġpharmac":11884,"ĠíĻĺìľ¨":11885,"Ġacceptable":11886,"Ġìĭ¤ìĭľê°Ħ":11887,"ĠChildren":11888,"íĻĶìŀ¥":11889,"Further":11890,"Ġìļ©ëıĦ":11891,"Ġexplos":11892,"ìĸ´ëĸ»":11893,"Ġê·¸ëĿ¼":11894,"ĠConference":11895,"ĠëıĦìŀ¥":11896,"Ġnerve":11897,"ĠíĽĦìĽĲ":11898,"ĠíļĮìĭĿ":11899,"Ġinstruments":11900,"ìĮį":11901,"ogenous":11902,"Ġë°į":11903,"Ġë¬´ëĦĪ":11904,"ëłĪìĿ¸":11905,"ĠëıħìŀĲ":11906,"Ġë¹ĦëĭĲ":11907,"ĠìķĦëĭĪë©´":11908,"Ġhandler":11909,"Ġlegend":11910,"ĠCorporation":11911,"ĠìŀĦìĥģ":11912,"Ġë¹Ħë²¼":11913,"Ġupgrade":11914,"Ġíģ¬ë¦¬":11915,"Ġreplied":11916,"Ġcollective":11917,"Ġdisable":11918,"ëĭĪìĸ´":11919,"ecessary":11920,"Ġì£¼ë¨¹":11921,"ulative":11922,"KS":11923,"Ġë¬¼íĴĪ":11924,"Ġconservative":11925,"Ġconnecting":11926,"Ġì£½ìĿ´":11927,"Ġinline":11928,"open":11929,"ĠìĨĮíĮĮ":11930,"Ġì·¨ê¸ī":11931,"Ġperception":11932,"ìĿ¸ì²ľ":11933,"ĠíĥĢìĿ¼":11934,"ĠìĿ¸ìłķë°Ľ":11935,"Ġtension":11936,"Ġê°Ģì§Ī":11937,"Ġê±°ëĮĢ":11938,"Ġlifetime":11939,"ĠìĨĮìĦľ":11940,"Ġcomprising":11941,"Ġstrategic":11942,"Ġì¶ľëł¥":11943,"ìĬ¤íħĮ":11944,"Ġattitude":11945,"Ġadministered":11946,"ĠìĦ¸ë¶Ģ":11947,"ëĿ¼ë©´":11948,"ĠíĮĮëŀĢ":11949,"ë¸Įë¦¬":11950,"Ġattributed":11951,"Ġshorter":11952,"Ġregarded":11953,"Ġsubscri":11954,"íķĺëĬĺ":11955,"Ġë§¤ê°ģ":11956,"Ġëį´":11957,"ĠëĨĴìĹ¬":11958,"Ġë³´ëĤ¼":11959,"ĠëĮĢëŀµ":11960,"Ġrepository":11961,"ëª¨ìĬµ":11962,"Ġmining":11963,"Ġvoters":11964,"ĠëłĪìĿ´ìłĢ":11965,"Ġultimate":11966,"Ġê²Ģìłķ":11967,"Ġì¾Įìłģ":11968,"Ġmanagers":11969,"ĠMiller":11970,"ë°ĳ":11971,"ìĺģìĹħ":11972,"urities":11973,"Ġëª©ìļķ":11974,"ĠìĭŃìĭľìĺ¤":11975,"ĠìĦ±íĺķ":11976,"Ġíĺ¸ë¥´ëª¬":11977,"Ġì¹¼ë¡ľë¦¬":11978,"Ġë¶ĢìĬ¤":11979,"Ġë§¤ì²´":11980,"è¦":11981,"ìĨĮìĬ¤":11982,"Ġinterviews":11983,"isting":11984,"Ġìĸ´ëł¤ìļ¸":11985,"Ġpacket":11986,"ĠìĬ¤íĤ¤":11987,"Ġplurality":11988,"ĠíķľëĳĲ":11989,"ĠêµŃë¬´":11990,"ĠìĿĢìĿĢ":11991,"Ġelections":11992,"Ġbounds":11993,"Ġê²°ìĭ¬":11994,"Ġsynthes":11995,"ectivity":11996,"ĠíĥĢìŀĲ":11997,"ĠëŁŃ":11998,"Ġassumptions":11999,"Ġdestroyed":12000,"Ġweekly":12001,"Ġunlikely":12002,"Ġexpertise":12003,"ĠíĤ¤ì¦Ī":12004,"ĠìłĦë³µ":12005,"ĠëĵŃ":12006,"Ġì½ĶëĶĶ":12007,"Ġdifficulties":12008,"Ġbirths":12009,"Ġprojection":12010,"ĠëĮĢë³ĢìĿ¸":12011,"length":12012,"perties":12013,"JS":12014,"ëį§":12015,"Ġsolely":12016,"Ġê°ĢëıĻ":12017,"Ġê°Ģê³µ":12018,"Ġmistake":12019,"elfare":12020,"Ġê³¼ëıĦ":12021,"Ġëħ¸ìĦł":12022,"ëĮĢë¬¸":12023,"Ġíĸĩë¹Ľ":12024,"Ġempirical":12025,"Ġrarely":12026,"Ġmetabolic":12027,"ìĿ´ë¦Ħ":12028,"ë´Ĳìķ¼":12029,"Ġdisadvant":12030,"ëĤĺê°Ģ":12031,"ìłĦì²´":12032,"ĠìķĪë³´":12033,"Ġreasonably":12034,"ê°ĸ":12035,"Ġphysics":12036,"Ġparagraph":12037,"Ġownership":12038,"Ġneighb":12039,"export":12040,"ĠìĪłì§ĳ":12041,"Ġêµ¬ëĭ¨":12042,"Ġholiday":12043,"ë¯¹":12044,"íĺ¸ë°ķ":12045,"ĠPerform":12046,"ĠìĿ¸ìļ©":12047,"Ġìĩł":12048,"Ġë©Ģíĭ°":12049,"Ġreject":12050,"ĠìĹĲëĭ¤ê°Ģ":12051,"ê³½":12052,"Ġsuspect":12053,"overty":12054,"Listener":12055,"Handler":12056,"íĮĮìĿ´":12057,"Ġperturb":12058,"Ġchildhood":12059,"Ġì¸Ħ":12060,"Ġê³łíĸ¥":12061,"ĠJersey":12062,"Link":12063,"Ġoccurring":12064,"Ġíģ´ëĿ¼":12065,"ĠìłĢì¶ķ":12066,"Ġprevention":12067,"ì¹«":12068,"Ġíķľìķ½":12069,"Ġì¹´ëłĪ":12070,"Ġbelieves":12071,"ĠìĽĲë£Į":12072,"Ġë»Ĺ":12073,"Ġchicken":12074,"Ġpreferences":12075,"Ġsymmetric":12076,"ĠìĹ¿":12077,"ĠìĪĺì§Ģ":12078,"ĠìĥĿì¡´":12079,"Ġadmission":12080,"Ġmetall":12081,"TV":12082,"ĠìĹ¬ìĿĺ":12083,"ĠUnfortunately":12084,"ologists":12085,"Ġprocessor":12086,"ìĭľìĽĲ":12087,"ĠëıĮíĮĮ":12088,"Ġfounder":12089,"Ġcombine":12090,"Ġì¶ķìĨĮ":12091,"Ġattain":12092,"ĠGDP":12093,"Ġdatasets":12094,"Ġìĺ®ê¸°":12095,"Ġcommunicate":12096,"plates":12097,"Ġchampions":12098,"History":12099,"ëĳĲë¶Ģ":12100,"¥¿":12101,"Ġë¶Ļìŀ¡":12102,"Ġsimilarity":12103,"Ġì½§":12104,"ĠìĤ¬ë£Į":12105,"ĠíĹĽ":12106,"Ġìŀħìĭľ":12107,"Ġfocusing":12108,"Ġpenetr":12109,"Ġchoosing":12110,"ĠìĬ¤íİĺ":12111,"Ġunusual":12112,"Ġconstitu":12113,"Ġdiagnosed":12114,"ĠëĮĢìļ°":12115,"ĠBP":12116,"Ġalignment":12117,"Ġì¶ľíĮĲ":12118,"Ġpremium":12119,"Ġìĭ¤ë¬´":12120,"Ġdisplays":12121,"Ġdesignated":12122,"ĠíĦ°ë¯¸ëĦĲ":12123,"Ġìľłìŀħ":12124,"Ġassault":12125,"Ġíı¬ëıĦ":12126,"Ġpasses":12127,"Ġtroops":12128,"à¯":12129,"Ġë°±ìĦ±":12130,"Ġpocket":12131,"Ġì·¨ìķ½":12132,"Ġdisability":12133,"ĠSoviet":12134,"Ġmitochond":12135,"ĠìĽĮíģ¬":12136,"Ġê±¸ìĸ´ê°Ģ":12137,"Ġì¤ĺìļĶ":12138,"ìķĦê¸°":12139,"Ġaccompanied":12140,"Ġìĭłíĺ¼":12141,"ĠìĹ°ê°Ħ":12142,"ĠìĺĪë»ĲìĦľ":12143,"çī":12144,"ĠíĻĺìĥģ":12145,"íĿĺ":12146,"angers":12147,"Ġguests":12148,"Ġë°Ķë³´":12149,"Ġparser":12150,"Ġstatutory":12151,"Ġdiscussions":12152,"Ġaccumulation":12153,"Ġreputation":12154,"Ġëħ¼ë¦¬":12155,"Ġê°Ģìĥģ":12156,"Ġenhancement":12157,"ì½Ķë¡ľëĤĺ":12158,"ĠíķľëıĦ":12159,"ĠëĮĢíķĻìĥĿ":12160,"Ġì±ĶíĶ¼ìĸ¸":12161,"Ġhardly":12162,"Ġscenarios":12163,"Ġíģ¼":12164,"Ġì«Ģ":12165,"Ġinflammation":12166,"ĠìĿ¼ìĸ´ëĤľ":12167,"Ġposterior":12168,"Ġdeeply":12169,"ĠíĶ¼ë¶Ģê³¼":12170,"Ġsettled":12171,"Ġìĸ´ë¦¬":12172,"Ġartificial":12173,"Result":12174,"Ġmetabolism":12175,"ĠìĹ°ìĿ¸":12176,"Ġì§Ģíĳľ":12177,"Ġimpair":12178,"ambling":12179,"ĠìĬ¤íĥł":12180,"ĠConstitution":12181,"ĠDemocrats":12182,"Ġìĺģìĸĳìłľ":12183,"Ġíĳľë©´":12184,"Ġpointer":12185,"Layout":12186,"ĠOH":12187,"ematics":12188,"Ġìĺ¬ë°Ķë¥¸":12189,"Ġflowers":12190,"Ġunexpected":12191,"Ġíĺ¸ìĨĮ":12192,"Ġeligible":12193,"Ġguitar":12194,"ìķĦë¬´ëŀĺëıĦ":12195,"Ġpleasure":12196,"Ġborrow":12197,"Ġintrac":12198,"Ġconsistently":12199,"inking":12200,"ĠìĹĳìĬ¤":12201,"odynam":12202,"ĠëªħìĺĪ":12203,"ĠëĤ´ìĽĲ":12204,"Ġelectricity":12205,"Ġëª¨íĦ°":12206,"Ġëħ¸ëıĻìŀĲ":12207,"ĠìĹ¬ìĪĺ":12208,"Ġinverse":12209,"Ġmembership":12210,"Ġë²ķìķĪ":12211,"Ġphrase":12212,"Ġì´ĪìłĲ":12213,"Ġmolecule":12214,"ìĦ¸ì§Ģ":12215,"Ġê²½íĸ¥":12216,"Ġnitrogen":12217,"ounced":12218,"Ġì²´ì§Ī":12219,"ĠìĿ¼ìŀĲ":12220,"Ġcombat":12221,"ĠíĮ¨ëĵľ":12222,"ĠìĪ¯":12223,"ĠìĪĺë¦½":12224,"Ġê°ĪìĪĺë¡Ŀ":12225,"ê·ĢìĹ¬":12226,"ëıĮìķĦ":12227,"êµŃëĤ´":12228,"Ġì§ĢëĤĺì¹ĺ":12229,"ëĦ¬":12230,"Ġbranches":12231,"ì£¼ìĭľ":12232,"ĠMarket":12233,"Ġê°ľìĦ±":12234,"Ġìĭłìĥģ":12235,"íĭ°ë¸Į":12236,"Ġhanded":12237,"Ġtherap":12238,"Ġconstants":12239,"Ġtransformed":12240,"ĠìłĢìŀĲ":12241,"Ġëĭ¹íķľ":12242,"Ġë°ĽìķĦëĵ¤ìĿ´":12243,"ĠëĤ¨ì¹ľ":12244,"ĠëĪĪê¸¸":12245,"ĠíĴįìĦ±":12246,"Ġdetector":12247,"ìĹ¬ìŀĲ":12248,"Ġalongside":12249,"ĠKB":12250,"Ġëŀį":12251,"Ġìĭľê³¨":12252,"ëĦ¤ìĿ´ë²Ħ":12253,"íĨłë¦¬":12254,"Ġpermitted":12255,"Ġìĺ¤ì§ģ":12256,"Ġë§ĮìĦ±":12257,"Ġcertificate":12258,"íĭ°ì§Ģ":12259,"ĠíļĮê³Ħ":12260,"Ġvalidity":12261,"Ġawesome":12262,"Ġcopyright":12263,"ĠDocument":12264,"Ġphilosophy":12265,"Ġentrep":12266,"ĠElectr":12267,"Ġcooking":12268,"ĠPatent":12269,"Ġìĸ´ëĿ¼":12270,"Ġnormalized":12271,"Options":12272,"Ġnewspaper":12273,"estamp":12274,"è¨":12275,"Ġë¬¸ìłľìłĲ":12276,"ĠìķĦìķĦ":12277,"Ġìĺ¨ëĭ¤":12278,"Ġìĸ´ìļ°":12279,"ĠMessage":12280,"æ°":12281,"Ġì£¼ìĬ¤":12282,"ĠVersion":12283,"ĠìĬ¤ëŁ°":12284,"Ġìĺ¤ìĿ´":12285,"ĠMethods":12286,"chester":12287,"ĠSelect":12288,"Ġì±Ħë¬´":12289,"Ġìĭľì¼ľìĦľ":12290,"content":12291,"å¼":12292,"ĠìĬ¤ìľĦ":12293,"Ġë¬´ìĦł":12294,"Ġë³´ì¶©":12295,"Ġservers":12296,"Ġinhibitor":12297,"ĠêµĲìľ¡ì²Ń":12298,"ĠëĬĺë¦¬":12299,"osystem":12300,"Ġìķ¼ê°Ħ":12301,"Ġcampus":12302,"ëį´":12303,"Ġìĭ¤ë¦¬":12304,"ĠìĿ¸íĶĦëĿ¼":12305,"Ġpreliminary":12306,"Ġê¸°ìĥģ":12307,"ĠìłĢì§Ģ":12308,"ĠëĿ¼ìĿ´ë¸Į":12309,"ĠFather":12310,"íı¼":12311,"Ġìĺ¤ëłĮì§Ģ":12312,"ĠíĥľíĴį":12313,"ĠìĹħëį°ìĿ´íĬ¸":12314,"Ġì¦Ĳê±°ìĽĢ":12315,"Ġunlike":12316,"Ġë¶Īë§Į":12317,"Ġcompression":12318,"Ġë³¸ìĤ¬":12319,"aternal":12320,"ĠHistor":12321,"ĠTB":12322,"Ġconstitute":12323,"Ġê³łë°±":12324,"Ġë¶Ħëĭ¹":12325,"ABLE":12326,"ĠìĦ¸ìłľ":12327,"Ġoperational":12328,"Ġattractive":12329,"Ġanymore":12330,"Ġìļ°ìĹ°íŀĪ":12331,"Ġë¶Ģê³¼":12332,"GO":12333,"Ġmanually":12334,"ologically":12335,"ĠíĨłëģ¼":12336,"Ġreadily":12337,"Ġstruck":12338,"Ġentreprene":12339,"Ġintellectual":12340,"Ġë³´ìĬ¤":12341,"Ġvolunt":12342,"Ġë·Ķ":12343,"Ġê²ģëĤĺ":12344,"ĠíĶĦëłĪìŀĦ":12345,"ĠLP":12346,"Ġconsecutive":12347,"Ġì´īêµ¬":12348,"Ġë§¡ê¸°":12349,"Ġë°ĶëĤĺëĤĺ":12350,"ĠìĦľë²Ħ":12351,"ĠëıĦì¿Ħ":12352,"Ġhypothes":12353,"Ġsustainable":12354,"Ġsymbols":12355,"Ġê¸ĢìŀĲ":12356,"Ġ});":12357,"Ġë¬¸ìŀ¬ìĿ¸":12358,"Ġê²½ìĥģ":12359,"Ġincons":12360,"Ġapoptosis":12361,"ĠCPU":12362,"êµĲíĨµ":12363,"Ġìŀ¥ë¡Ģ":12364,"Ġsimilarly":12365,"Ġmethodology":12366,"Ġpromising":12367,"ĠìĨĮëħĦ":12368,"Ġê¸°ìĽĲ":12369,"Ġpartnership":12370,"NT":12371,"Ġë¡Ŀ":12372,"Ġsolving":12373,"Ġíĸ¥íķĺ":12374,"Ġë§¤ëĭĪ":12375,"Ġcapability":12376,"ìĹ´ìĭ¬íŀĪ":12377,"ĠìĽĲìłķ":12378,"Ġë§Īì¹ľ":12379,"Ġindicator":12380,"Ġcomputational":12381,"ĠëĲłê¹Į":12382,"Ġmedication":12383,"Ġê¼¬ì¹ĺ":12384,"Ġfusion":12385,"Ġì¤Ħìĸ´":12386,"ĠìĽĲíĶ¼ìĬ¤":12387,"Ġmatrices":12388,"Ġì°¨ëł¤":12389,"íĸīë³µ":12390,"Ġmanaging":12391,"Ġë³Ģìĭł":12392,"Ġì¡°ìļ©íŀĪ":12393,"Ġì½ķ":12394,"Ġëĭ¤ë¦Ħ":12395,"Ġprotective":12396,"ĠVS":12397,"Ġinterpreted":12398,"Ġinches":12399,"Ġoverwhel":12400,"Ġê±¸ê¹ĮìļĶ":12401,"Ġprogramme":12402,"ĠìĻ¸ëª¨":12403,"Ġreveals":12404,"ì£¼ì°¨":12405,"Ġìľ¤ê¸°":12406,"ìłĢë²Ī":12407,"ĠìŀĲë¥´":12408,"Ġcontacts":12409,"Ġë¹Įëł¤":12410,"Ġëĭ¤ë©´ìĦľ":12411,"ĠRights":12412,"olation":12413,"Ġë¹ĻìĪĺ":12414,"Ġë°ľêµ´":12415,"ĠëıĦëĮĢì²´":12416,"ĠëĤ´ëł¤ìĺ¤":12417,"Ġë§Ŀê³ł":12418,"Ġestablishment":12419,"Ġpersonality":12420,"ĠíŀĪíŀĪ":12421,"Ġê¸°ìķĦ":12422,"ĠìĿ¸ìŀ¬":12423,"ëıĦë¡ľ":12424,"UI":12425,"Ġìµľìĥģ":12426,"Ġfailing":12427,"ëĴĢ":12428,"ì§ģìłĳ":12429,"ĠìŀĲê¶ģ":12430,"Ġíĺ¼ëŀĢ":12431,"ĠìĽĮíĦ°":12432,"ĠíĿ°ìĥī":12433,"Ġfitting":12434,"ĠDetermine":12435,"ĠíĻ©ê¸Ī":12436,"ĠíĥľêµŃ":12437,"Ġsubjected":12438,"ĠíİĺìĿ´ìĬ¤ë¶ģ":12439,"FD":12440,"ĠìĨįëĪĪìį¹":12441,"Ġanimation":12442,"ĠDI":12443,"Ġabsent":12444,"Ġabundance":12445,"Ġì§Ħì§Ģ":12446,"Ġseverity":12447,"Ġìŀ¥ìĤ¬":12448,"Ġë§Įì§Ģ":12449,"has":12450,"Ġpainting":12451,"ĠëĵŃëĭĪëĭ¤":12452,"ĠManager":12453,"ĠìĨįìĥģ":12454,"Ġfiling":12455,"ë¹¡":12456,"ĠìĤ´ìĿ¸":12457,"Ġê»´":12458,"Ġtransmitted":12459,"Ġphosphory":12460,"Ġrespondents":12461,"Ġëĺĳê°ĻìĿ´":12462,"ĠìľłíķĻ":12463,"ĠíĥĢê²©":12464,"Ġarrival":12465,"Ġgovernments":12466,"orable":12467,"output":12468,"Ġactors":12469,"CD":12470,"Ġbehaviors":12471,"Ġë³¸ë¬¸":12472,"Ġcontest":12473,"Ġì¶Ķìļ´":12474,"Ġíģ´ëŀĺìĭĿ":12475,"ê¸°ì¡´":12476,"Ġcrystall":12477,"Ġgravity":12478,"Ġdeeper":12479,"Ġresidence":12480,"ĠëĮĢìĹ¬":12481,"Ġcomputers":12482,"Ġê²©ë¦¬":12483,"Ġforever":12484,"Ġfilling":12485,"Ġë²¼":12486,"static":12487,"Ġcaption":12488,"Ġyesterday":12489,"Ġpandemic":12490,"ĠFM":12491,"ì¦Ļ":12492,"Ġfitness":12493,"Ġê°ĲíĥĦ":12494,"Ġê´´ë¡Ń":12495,"Ġë¡ľê³ł":12496,"Ġbundle":12497,"Every":12498,"åĵ":12499,"Ġpanels":12500,"Ġì²¨ë¶Ģ":12501,"ĠëĳĲìĤ°":12502,"ĠìĦ±ë¹Ħ":12503,"ë¬´ê²Į":12504,"Ġì¹ĺìľł":12505,"ifferent":12506,"Ġappell":12507,"Ġdoctors":12508,"Ġticket":12509,"ĠíĻĢë¡ľ":12510,"ëĶľ":12511,"Ġdefects":12512,"ĠíĺĪìķķ":12513,"ĠclusterK":12514,"ĠPDF":12515,"ĠSystems":12516,"ĠSupplementary":12517,"Ġenterprise":12518,"Ġorange":12519,"Ġsubsid":12520,"Ġvisits":12521,"ĠNP":12522,"Ġdescribing":12523,"ĠëĶĶìŀĲìĿ´ëĦĪ":12524,"Ġepisodes":12525,"ĠëıĦìĸ´":12526,"ĠPalest":12527,"Ġëª¨ë¥¸":12528,"Ġhealing":12529,"Ġinnovative":12530,"thesis":12531,"ëį°ë¯¸":12532,"Ġíķľë°ĺëıĦ":12533,"ëŁ°ì¹ĺ":12534,"ĠìļĶê¸°":12535,"Ġì°Ķ":12536,"Ġmutant":12537,"ĠPrevious":12538,"forward":12539,"Ġenthus":12540,"ĠëĶ´":12541,"ĠìĪĺì§ĳ":12542,"ĠìĿ¸íķ´ìĦľ":12543,"ĠProduc":12544,"inition":12545,"Ġìĺ¬ë¦¬ë¸Į":12546,"Ġallegations":12547,"abling":12548,"Ġìłľìŀ¬":12549,"GB":12550,"ĠíļįëĵĿ":12551,"ĠìĭľìľĦ":12552,"ĠìĿ´íĥľ":12553,"Ġdispute":12554,"Ġcatalog":12555,"Ġê¹Įë¨¹":12556,"Ġë³µêµ¬":12557,"CR":12558,"Ġconjug":12559,"Ġê³µíĨµ":12560,"iously":12561,"Ġemerging":12562,"Ġimpacts":12563,"Ġíĺ¹ìĭľëĤĺ":12564,"Ġìľłíķ´":12565,"Ġìĸ´ë§Īìĸ´ë§Ī":12566,"Ġë¶Ħíķ´":12567,"Ġíķĺíķĺ":12568,"Ġheading":12569,"ĠëĶ±ëĶ±":12570,"Ġsupplies":12571,"Ġsilent":12572,"Ġìĺ¤ë²Ħ":12573,"Ġë§Īì³¤":12574,"Ġëħ¸íĻĶ":12575,"Ġattract":12576,"friend":12577,"ìĬĺ":12578,"Ġintense":12579,"Ġë°ķê·¼íĺľ":12580,"Ġë³ĢìĪĺ":12581,"Ġcohort":12582,"Ġìĭ¬íĮĲ":12583,"Ġìĺģê´ĳ":12584,"Ġê°ģì§Ī":12585,"Ġresonance":12586,"Ġì¡´ëĤĺ":12587,"Ġscaling":12588,"ìļķìŀ¥":12589,"ĠëĬĶêµ¬ëĤĺ":12590,"ë§ĺ":12591,"Ġraising":12592,"ĠBB":12593,"Ġë¶ĪëŁī":12594,"Ġì²«ëĤł":12595,"Ġìĸ¸ìłłê°Ģ":12596,"Ġgradually":12597,"Ġìķ½íķľ":12598,"Ġsynthetic":12599,"ĠìļĶìĸĳ":12600,"Ġlimitation":12601,"Ġnervous":12602,"Ġwinner":12603,"Ġconvergence":12604,"Ġbottle":12605,"uations":12606,"ĠConsequently":12607,"Ġpeptide":12608,"Ġchains":12609,"Ġbeliefs":12610,"activity":12611,"Ġwrites":12612,"Ġscenes":12613,"ĠìłĢëłĩ":12614,"ĠìĹ°ëĮĢ":12615,"Ġë¶Īê³łê¸°":12616,"ĠDigital":12617,"istence":12618,"Ġobjectives":12619,"Ġselective":12620,"Ġsustained":12621,"ampion":12622,"ĠProfessor":12623,"ìĨĶì§ģ":12624,"ìŀĲì²´":12625,"Ġexhibited":12626,"ĠíĻĶíıĲ":12627,"Ġeverywhere":12628,"vation":12629,"Ġë¨¸ë¦¬ì¹´ëĿ½":12630,"ĠìºĲëĤĺëĭ¤":12631,"del":12632,"Ġvariants":12633,"Ġintegrity":12634,"Ġëĭ¹ë¶Ģ":12635,"ocolate":12636,"Ġshapes":12637,"Ġë§¤ì£¼":12638,"Ġìķĵ":12639,"ĠíħĮëĿ¼ìĬ¤":12640,"Ġëĵ¤ìĸ´ìĻĢ":12641,"Ġvertices":12642,"ëĵľëł¤":12643,"ĠColumbia":12644,"Ġvaccine":12645,"ĠKorean":12646,"ĠSometimes":12647,"ëŀĮíļĮ":12648,"Ġaccurately":12649,"ĠëĦĺê¸°":12650,"Ġíĳ¸ë¥¸":12651,"Ġë°ľíļ¨":12652,"Ġconvey":12653,"Ġartery":12654,"Ġëĭ¹ëĩ¨":12655,"ĠUpdate":12656,"ĠìĹ°ê´Ģ":12657,"ëľ¨ë¦¬":12658,"Ġduties":12659,"ĠPakistan":12660,"Ġìĭ±ìĭ±":12661,"Ġfragment":12662,"NC":12663,"ê²Įëĭ¤ê°Ģ":12664,"Ġnations":12665,"Ġheaded":12666,"Ġscreens":12667,"ĠWT":12668,"Ġë§ĪëĶĶ":12669,"Ġë°°ìļ´":12670,"Ġcalendar":12671,"Ġlogical":12672,"Ġcompos":12673,"ëĭ¨ì§Ģ":12674,"ĠëįĶëįĶìļ±":12675,"iology":12676,"ë²Ħê±°":12677,"Ġê¸ĢìĶ¨":12678,"ĠëĬĺìĸ´ëĤľ":12679,"ĠíĨµìĥģ":12680,"Ġì²łëıĦ":12681,"Ġcircular":12682,"Ġbullet":12683,"Ġìļ´ëªħ":12684,"Ġdamaged":12685,"ëĸ¨":12686,"ported":12687,"ĠìĨĲì§Ī":12688,"ĠDaniel":12689,"Ġê°ĢëĿ¼":12690,"ĠìķĦíĶĶ":12691,"Ġêµµ":12692,"Ġcopper":12693,"ĠìĨĲëª©":12694,"Ġisolation":12695,"Ġìķ°":12696,"ĠíıĲì§Ģ":12697,"Ġaltered":12698,"ĠëıĮìķĦë³´":12699,"Ġmathsf":12700,"Ġjudicial":12701,"Ġconservation":12702,"Ġíķ´ìł¸":12703,"Ġíŀĺëĵľ":12704,"Ġë¹ĽëĤĺ":12705,"Ġterritory":12706,"Ġì¶©ëĤ¨":12707,"Ġincubated":12708,"Ġë³¼ê²ĮìļĶ":12709,"ĠOfficer":12710,"Ġë§Īì¹´ë¡±":12711,"Ġì¤Ħê¸°":12712,"å°":12713,"Ġintens":12714,"Ġinterventions":12715,"ĠëĮĢíĸī":12716,"ĠMRI":12717,"íķŃê³µ":12718,"Ġflying":12719,"Ġunderw":12720,"ĠëĤ©ë¶Ģ":12721,"Ġinvariant":12722,"Ġë°Ķëĭ·":12723,"ìĤ°ë¶Ģ":12724,"ìĿ´ëıĦ":12725,"ĠëĳĲëł¤ìĽĢ":12726,"êµŃë¯¼":12727,"Ġcollections":12728,"Ġì¢ħë¡ľ":12729,"Ġinsufficient":12730,"ĠëıĻìĽĲ":12731,"Ġì½©ëĤĺë¬¼":12732,"Ġíķ´ìĤ°ë¬¼":12733,"Stream":12734,"Ġsurvive":12735,"ĠíĺĦíĻ©":12736,"ĠìĻ¸ìĭĿ":12737,"Ġweighted":12738,"Ġrecovered":12739,"ĠAgreement":12740,"ì¦ī":12741,"ĠìľłìĤ°ê·ł":12742,"Ġemotion":12743,"erator":12744,"ancial":12745,"ĠëĮķ":12746,"çķ":12747,"ĠGaussian":12748,"ĠíķĦëĿ¼íħĮìĬ¤":12749,"ë²łìĿ´":12750,"ëĦĪìĬ¤":12751,"ĠìķĦìĬ¤":12752,"ĠëĤ¨ë¶Ģ":12753,"ĠëĤĺìĻĢìļĶ":12754,"Ġparticipant":12755,"ìĥĺ":12756,"ĠìĬ¤íĥĢíĬ¸":12757,"Ġë¹Ħë¡Ŀ":12758,"Ġê°ĶìĹĪ":12759,"Ġlibraries":12760,"izabeth":12761,"Ġliterally":12762,"Ġë¹Ħì¦ĪëĭĪìĬ¤":12763,"ĠSummer":12764,"Ġëĭ¬ëŀĺ":12765,"Ġproductivity":12766,"Ġspecimens":12767,"Ġfaculty":12768,"Ġcombinations":12769,"ĠYouTube":12770,"ĠFROM":12771,"Ġì²¨ëĭ¨":12772,"Ġë¹ĦìłĦ":12773,"Ġrecomb":12774,"Ġconspir":12775,"Ġstretch":12776,"Ġì²Ńìłķ":12777,"Ġdismissed":12778,"Ġtalent":12779,"ìĸ´ëĸ»ê²Į":12780,"Ġê¸°íķľ":12781,"ë¹ĦìķĦ":12782,"Ġìķłë§¤":12783,"ê³§":12784,"Ġcoating":12785,"Ġê¸°ëĮĢê°Ĳ":12786,"Ġê°ľêµŃ":12787,"ĠìłĳìĨį":12788,"Ġportions":12789,"Ġreflects":12790,"Ġë²Ħíĭ°":12791,"Ġlimiting":12792,"å¾":12793,"Ġsolved":12794,"rupted":12795,"Ġinvited":12796,"OH":12797,"Ġê³łëıĦ":12798,"Ġíı¬ì¦Ī":12799,"ĠëĵľëĿ¼ìĿ´ë¸Į":12800,"ê°ĢëģĶ":12801,"ĠìĪĺìĽĶ":12802,"ĠíĥĳìĬ¹":12803,"Ġë¬´ì¹¨":12804,"Ġeastern":12805,"Ġìĺ¤íķ´":12806,"ĠìĥĺíĶĮ":12807,"Ġproducer":12808,"ê°ĢìĿĦ":12809,"Ġrestriction":12810,"Ġarrive":12811,"Ġìłģìĸ´ëıĦ":12812,"Ġsimulated":12813,"Ġcrimes":12814,"Ġrefuge":12815,"ìĦ¼ìĬ¤":12816,"¥Ń":12817,"Ġì²łê±°":12818,"Ġë±ĥ":12819,"Ġíķľê°ķ":12820,"Ġì»¨ìĦ¤íĮħ":12821,"Ġadjustment":12822,"Ġcookie":12823,"ĠëĨįìŀ¥":12824,"range":12825,"ĠAdministration":12826,"ê¿Ģ":12827,"Current":12828,"Ġì¢Įìļ°":12829,"Ġscanning":12830,"ìĿĺìŀĲ":12831,"Ġë§ĿìĦ¤":12832,"LG":12833,"ĠCat":12834,"Ġvessels":12835,"ĠëĭŃê°Īë¹Ħ":12836,"ĠìĨĮíĺķ":12837,"Ġê¹Ģíı¬":12838,"ĠRepresent":12839,"ĠCambridge":12840,"Ġfarmers":12841,"Ġkinase":12842,"Ġë³¼ë¥¨":12843,"Ġpromoting":12844,"Ĳģ":12845,"Ġplacement":12846,"DU":12847,"Ġë°Ģíģ¬":12848,"Ġstaining":12849,"æĺ":12850,"Ġë¯¸ìĤ¬ìĿ¼":12851,"Ġë³´ë¦¬":12852,"Ġdispers":12853,"################":12854,"Ġê°Ģíķ´":12855,"ĠìĪĺìĺģìŀ¥":12856,"ĠëĪĦìłģ":12857,"Ġêµ¬ì²Ń":12858,"Ġaccounting":12859,"ĠíĨłëĮĢ":12860,"Ġdefines":12861,"ìĦ¸ëĮĢ":12862,"ë°°ì¶Ķ":12863,"éĻ":12864,"Ġfocuses":12865,"Ġincorrect":12866,"ĠìĹ¬ê±´":12867,"Ġë¡ľë§Ī":12868,"Ġaffecting":12869,"ĠíĨµìŀ¥":12870,"Ġphysician":12871,"Ġê²°ìĬ¹":12872,"ìĸ¼êµ´":12873,"ĠìļĶë²ķ":12874,"Ġì·¨ì§Ģ":12875,"Ġoverview":12876,"ëĤ¨íİ¸":12877,"Ġindustries":12878,"ĠExample":12879,"Ġíĺ¸ê¸°":12880,"Ġìŀĩëª¸":12881,"ĠíİĦ":12882,"Ġraises":12883,"ĠíĮ½":12884,"ĠìĽĲìŀĲ":12885,"Ġëĥłëĥł":12886,"Ġsuggestions":12887,"Ġagricultural":12888,"Ġhoping":12889,"ìķĬ":12890,"ĠëĳĲêº¼":12891,"Ġprogressive":12892,"ĠíķĺìĪĺ":12893,"ECT":12894,"ĠìĹ´ì°¨":12895,"Ġpreference":12896,"ĠOxford":12897,"Ġê±°ìłĪ":12898,"Ġìŀ¬ë¬´":12899,"Ġliberal":12900,"Ġê³Ħìĭ¤":12901,"Ġë²ĮìĿ´":12902,"Ġpending":12903,"ĠìĿĮì£¼":12904,"Ġfinance":12905,"lectively":12906,"Ġìĺģìŀħ":12907,"Ġtolerance":12908,"Ġìłķë°Ģ":12909,"Ġsilicon":12910,"Ġdelayed":12911,"Ġtexture":12912,"Ġvisiting":12913,"Ġì´Īê³¼":12914,"Ġtreating":12915,"Ġëª°ëĿ¼ìĦľ":12916,"zation":12917,"Ġì»¤ëĭ¤ëŀĢ":12918,"Ġê±°íĬ¸":12919,"Ġdefinitions":12920,"ĠëĳĲê»ĺ":12921,"ĠêµŃìŀ¥":12922,"Ġë³´ì¡´":12923,"Ġeliminate":12924,"Ġíİ¼ì¹ĺ":12925,"Ġexceptions":12926,"ĠëĮĢê°Ģ":12927,"Ġalumin":12928,"Ġsilence":12929,"ëĨ¨":12930,"Ġë§ĪìĿ¸":12931,"ĠëķĮë¦¬":12932,"ĠChange":12933,"ĠìĤ¬ìĭ¤ìĥģ":12934,"Ġtimeout":12935,"Ġroutes":12936,"ĠëĤĺìĺ´":12937,"Ġê³łëĬĶ":12938,"Ġdysfunction":12939,"ĠíĨ¡íĨ¡":12940,"Ġwrapper":12941,"FR":12942,"Ġìľłê°Ģ":12943,"Ġdefining":12944,"Ġpromotion":12945,"plicity":12946,"Ġëĭ´ë°±":12947,"Ġfluorescence":12948,"ĠForeign":12949,"ĠíĹĪë¸Į":12950,"Ġpoverty":12951,"Ġscalar":12952,"ëĤ´ë¶Ģ":12953,"DM":12954,"Ġë²łìĿ´ë¹Ħ":12955,"ĠëĤĺê°Ħ":12956,"ĠìĿ´ë¤Ħì§Ģ":12957,"Ġtraits":12958,"Ġdispos":12959,"Ġì¹ľìłķ":12960,"Ġproceeding":12961,"ĠìħĢì¹´":12962,"Ġassociations":12963,"Ġtransplant":12964,"ĠMinistry":12965,"Ġharder":12966,"Ġì§ķìĹŃ":12967,"ĠíķĻìłĲ":12968,"Ġencounter":12969,"ĠíĬ¸ëŁ¬ë¸Ķ":12970,"Ġê³Ħìłķ":12971,"Ġderivatives":12972,"Ġì¥¬ìĸ¼":12973,"ĠCollection":12974,"íħĢ":12975,"iovascular":12976,"Ġê³Ħê³¡":12977,"Ġprotocols":12978,"Ġíķ´ìłľ":12979,"Ġë¡ľìħĺ":12980,"Ġìķ¼ëĭ¹":12981,"Ġburning":12982,"Ġìļ´ìłĦìŀĲ":12983,"ëłīíĬ¸":12984,"Ġë°°ìļ¸":12985,"Ġì¶ľê³ł":12986,"Ġìĸĳìª½":12987,"esterol":12988,"Column":12989,"ĠìĤ¬ë¦¬":12990,"ĠPK":12991,"iveness":12992,"ĠìĺĪë»¤":12993,"Ġinsights":12994,"ricular":12995,"ĠìĿ´ìĸ´ì§Ī":12996,"Ġviolent":12997,"Ġë¯¸ì³¤":12998,"Ġmeaningful":12999,"illary":13000,"ĠíĻĶìĦ±":13001,"Ġwidehat":13002,"Ġì²¨ê°Ģ":13003,"efully":13004,"Ġrespiratory":13005,"ëĦ£":13006,"Ġê·¸ëŁ¬ë¯Ģë¡ľ":13007,"Search":13008,"Collect":13009,"Ġfibers":13010,"metric":13011,"Ġinstitutional":13012,"ĠêµŃíļĮìĿĺìĽĲ":13013,"Ġëĭ¹ëĭ¹":13014,"Ġê¹Įì§Ħ":13015,"ĠìĽ¨ìĿ´íĮħ":13016,"Ġë°ĺìĦ±":13017,"ĠëĤĺìķĦ":13018,"Ġinvasion":13019,"ĠColumn":13020,"ĠìĿ´íĸī":13021,"Ġdocumented":13022,"Ġìŀ¬ì§Ī":13023,"Ġìĸ´ì§Ģ":13024,"Ġë³ĳíĸī":13025,"ëĿ¼ìĿ´íĬ¸":13026,"Ġêº¾":13027,"Ġê³µë°©":13028,"Ġë²łë¦¬":13029,"ëłĺ":13030,"ĠìĿĺë£Įì§Ħ":13031,"ĠìĹ¬íĺ¸":13032,"Ġexcessive":13033,"Change":13034,"ĠColorado":13035,"PH":13036,"Ġignored":13037,"ĠShould":13038,"Ġíķ©ë³ĳ":13039,"Ġpixels":13040,"ĠíĮį":13041,"Ġdominated":13042,"Ġflexibility":13043,"Ġtitles":13044,"ëĿ¼ì§Ģ":13045,"enders":13046,"Ġì¹´ìļ´":13047,"Ġanalytical":13048,"Ġefficiently":13049,"ĠìķĦì¹´ëį°ë¯¸":13050,"izable":13051,"onomic":13052,"ĠìĤ¬ë¬´ìĨĮ":13053,"ĠìĻĢìķ¼":13054,"ĠíħĢ":13055,"Ġthinks":13056,"Ġassistant":13057,"ĠìĽĲëĤ´ëĮĢíĳľ":13058,"ĠìĦłì§Ħ":13059,"ĠìĿĢíĺľ":13060,"ĠDefault":13061,"ìĺ¤ë¥¸":13062,"Ġminimize":13063,"versely":13064,"ĠìĹīëį©ìĿ´":13065,"ĠVR":13066,"Ġë¹ĮëĿ¼":13067,"ìķ½ê°Ħ":13068,"Ġë°Ķë¹ł":13069,"Ġtwitter":13070,"ĠíĴĪëª©":13071,"ĠRC":13072,"Ġappointment":13073,"ìĬ¤ì½Ķ":13074,"ĠìĿĺíķĺ":13075,"Ġì§Ħíķľ":13076,"Ġcompile":13077,"ĠRequest":13078,"Ġì§ĳê³Ħ":13079,"àª":13080,"Ġtokens":13081,"ĠëıĦìļ°":13082,"illance":13083,"ĠConserv":13084,"Ġgenuine":13085,"ĠAgency":13086,"Ġë°ķëŀĮíļĮ":13087,"Access":13088,"Ġstrictly":13089,"íĻĪ":13090,"Ġlocked":13091,"ĠCommer":13092,"input":13093,"Ġë¦¬íķĦ":13094,"Ġë§īê±¸ë¦¬":13095,"ê¸°ë¶Ħ":13096,"Ġdistances":13097,"Ġë³´ëĿ¼":13098,"Ġdenotes":13099,"ë¶Ħê°Ħ":13100,"Ġinhibitors":13101,"ìłĦíĻĶ":13102,"ë¹¼":13103,"Ġìĭ¤ìĬµ":13104,"æŃ":13105,"ĠëĮĢìļĶ":13106,"Ġì§ĢìĹ°":13107,"ĠCommand":13108,"Ġìĭłì¶ķ":13109,"Ġadoles":13110,"Ġvoting":13111,"Ġtargeting":13112,"Ġêµ¬íĺĦ":13113,"Ġì£µ":13114,"Ġìķ½ë¬¼":13115,"Ġjoining":13116,"Ġcorrelations":13117,"Ġdivisor":13118,"expect":13119,"ĠíĥĢìļ´":13120,"ĠìĺĪë°°":13121,"Ġexpressing":13122,"Ġcavity":13123,"ĠìĹĲëĭ¤":13124,"Ġpetitioner":13125,"ĠArticle":13126,"IO":13127,"Ġvolumes":13128,"Ġê·¸ëłĩì§Ģë§Į":13129,"ĠMother":13130,"Ġexclusively":13131,"Ġdisclosure":13132,"Ġì§Ģìļ°":13133,"Ġcomplexes":13134,"æī":13135,"ìķ¤":13136,"Ġì§ľìŀ¥":13137,"ĠíĬ¸ìľĦ":13138,"Ġë¹ĦìĦľ":13139,"ê²¨ìĦľ":13140,"Ġë¬¼ê³łê¸°":13141,"Ġê¸īê²©":13142,"Ġê°ľíİ¸":13143,"Ġentertainment":13144,"ĠíĤ¨":13145,"Ġschemes":13146,"ĠProposition":13147,"Ġì½Ķì¹ĺ":13148,"Ġimplant":13149,"Ġbrands":13150,"Ġecosystem":13151,"Ġì¶©ì¡±":13152,"ĠiPhone":13153,"Ġdollar":13154,"Ġprovince":13155,"Ġê°ķëıĦ":13156,"Ġíķĺëĵľ":13157,"Ġìĸ´ì©Įë©´":13158,"ì¼ĢìĿ´ìħĺ":13159,"ı¾":13160,"ĠìĥĿë¬¼":13161,"Ġhistoric":13162,"arding":13163,"Ġclause":13164,"Ġconcat":13165,"ĠìľłìłĢ":13166,"Ġendoth":13167,"Ġemerged":13168,"Ġrouter":13169,"Ġìį©":13170,"Ġê²½ë¡ľ":13171,"Ġë¹Ħë¹Ħ":13172,"Ġeveryday":13173,"Ġì§ģìŀ¥ìĿ¸":13174,"ĠìĿ¸ë¥ĺ":13175,"Ġìŀ¬ë°°":13176,"Ġwidget":13177,"Ġnarrative":13178,"ë¦ŃìĬ¤":13179,"Ġdictionary":13180,"factory":13181,"Ġì²ľìŀ¥":13182,"Ġsatellite":13183,"Ġíģ´ëłĮì§ķ":13184,"Ġdispatch":13185,"BE":13186,"ĠImport":13187,"Ġë¦¬íĶĦ":13188,"Ġapprox":13189,"Ġprotes":13190,"Ġstayed":13191,"íĶ¼ìķĦ":13192,"Ġdestruction":13193,"Ġmature":13194,"ê³łìĤ¬":13195,"ĠSpeaker":13196,"Ġë¸ĮëłĪìĿ´íģ¬":13197,"ĠAtlantic":13198,"alling":13199,"Ġíķ©ìĦ±":13200,"ìŀħêµ¬":13201,"ê·¸ëłĪìĿ´ëĵľ":13202,"Ġíĸ¥íĸĪ":13203,"ĠìĬ¤íĦ°ëĶĶ":13204,"éĥ":13205,"íķ¨ê»ĺ":13206,"å·":13207,"ĠPrince":13208,"Ġthemes":13209,"ĠFestival":13210,"ĠìĨĮìĽĲ":13211,"Ġsentences":13212,"Ġìĥģíģ¼":13213,"Ġauthorized":13214,"ĠìĹ¬ìŃ":13215,"Ġintest":13216,"Ġquantities":13217,"ĠëĤĺíĥĢëĤł":13218,"Ġë¹Ħíķĺ":13219,"ĠHA":13220,"ì´Ŀë¦¬":13221,"Ġattachment":13222,"Ġantigen":13223,"ilation":13224,"Ġëĭ¨ëĭ¤":13225,"ĠNothing":13226,"Ġì§Ħì£¼":13227,"LP":13228,"Ġsuspension":13229,"Ġmasses":13230,"Ġì§ĢìĽĲê¸Ī":13231,"Ġtomorrow":13232,"Window":13233,"Ġìŀ¥ìĸ´":13234,"Ġinflation":13235,"Ġdependency":13236,"titioner":13237,"Ġìŀ¬ë°ľ":13238,"ë§¤ìŀ¥":13239,"ĠIslamic":13240,"ĠìĿ´ìļ©ìŀĲ":13241,"ĠëıĻíĻĶ":13242,"ĠìĪŁ":13243,"ĠJordan":13244,"Ġë°°ëĭ¹":13245,"render":13246,"ĠPhilipp":13247,"Action":13248,"Ġìŀ¦":13249,"ĠPatients":13250,"Ġhospitals":13251,"ĠìĿ´ì¤ĳ":13252,"Ġdifferently":13253,"itudinal":13254,"ĠëĵľëŁ¬ëĤĺ":13255,"Ġì£¼ì²´":13256,"Ġê¼¬ë¦¬":13257,"Ġentrance":13258,"ĠëıĮìķĦìĺ¨":13259,"Ġwitnesses":13260,"ĠìłĦíĽĦ":13261,"ĠAdditional":13262,"ê²łëĭ¤":13263,"Ġdetermin":13264,"ĠìĿĺìĻ¸":13265,"Ġë¶Ģì¶Ķ":13266,"Ġëª°ëł¤":13267,"Ġìľ¼ë¦¬":13268,"Ġmandatory":13269,"Ġê°ĢìĦ±":13270,"ê°Ħëĭ¨":13271,"Ġmemories":13272,"ĠVietnam":13273,"Ġìµľìķł":13274,"ĠìĭłìĦ¸ê³Ħ":13275,"ometric":13276,"Ġìķķëł¥":13277,"ĠSpecifically":13278,"ĠìĻĢìĿ´":13279,"titudes":13280,"ĠíĹĺ":13281,"Ġconsisted":13282,"Ġì²ľìĤ¬":13283,"ĠìĨĮìĨĮ":13284,"Ġtunnel":13285,"Ġdocker":13286,"Ġì³¤":13287,"Ġkidney":13288,"Ġìĭ¤ìļ©":13289,"Ġëĭ¤ìĬ¤":13290,"ĠìłľìŀĲ":13291,"ĠìĦ¸ì°¨":13292,"Ġphysically":13293,"ĠíĽĦìľł":13294,"Ġìĸ´ëĶĺ":13295,"Ġì§ĳíļĮ":13296,"Ġíĳľì§Ģ":13297,"ëĶª":13298,"Ġì¶ĺì²ľ":13299,"Ġbriefly":13300,"ĠëįĶìļ´":13301,"Ġparticipated":13302,"ĠíĻĶë¶Ħ":13303,"Ġbandwidth":13304,"ìĭľíĹĺ":13305,"Ġë¶Ħë¹Ħ":13306,"Ġrestore":13307,"Ġsupers":13308,"ê¾¸ë¯¸":13309,"ëŀĳìĿ´":13310,"Ġìļ©ìĸ´":13311,"ê±°ëŀĺ":13312,"íĮ¡ìĿ´":13313,"ĠíķĻë¶Ģëª¨":13314,"Ġë©ĶìĿ¼":13315,"ìĸĺ":13316,"Ġcompeting":13317,"ëĿ¼ë¯¸":13318,"Ġê¾¸ë¯¸":13319,"Ġcheese":13320,"Ġobtaining":13321,"Ġì°½ê³ł":13322,"Ġcovari":13323,"à²":13324,"ĠìĦłìŀĦ":13325,"Ġë°Ģëł¤":13326,"Ġbeneath":13327,"Ġindependence":13328,"Update":13329,"Ġê³µëıĻì²´":13330,"ĠParliament":13331,"ĠProperty":13332,"Ġmuscles":13333,"default":13334,"Ġê°Ģë¥´ì³Ĳ":13335,"ĠBA":13336,"ĠëŁ¼":13337,"MT":13338,"Ġë´ħ":13339,"ĠìĪĺìļĶìĿ¼":13340,"Ġsocket":13341,"Ġpulmonary":13342,"Ġlifestyle":13343,"Ġoccupied":13344,"Ġgraphs":13345,"ìķĺ":13346,"Ġìł¤ë¦¬":13347,"Ġë¹¨ëŀĺ":13348,"Ġwashed":13349,"Ġmathematical":13350,"Ġì§Ģë¶Ī":13351,"ĠìŀĲì¡´":13352,"Ġë£°":13353,"Ġê³Ħì¸µ":13354,"Ġwondering":13355,"ĠTF":13356,"Ġë§īíŀĪ":13357,"Ġbankruptcy":13358,"Ġspokes":13359,"Ġê±¸ìĸ´ìĦľ":13360,"ariate":13361,"Ġapache":13362,"Ġrepresentations":13363,"Ġëª¨ìĭľ":13364,"Ġnamespace":13365,"ĠìĦľìļ¸ëĮĢ":13366,"Ġê³łë¬´":13367,"Ġì§ģë¬´":13368,"ĠìĪĺìĭŃ":13369,"ëĭ¹ìĭł":13370,"Ġvulnerable":13371,"ĠìĦ¸ê·ł":13372,"Ġpregnant":13373,"íĮĮìĦľ":13374,"Ġflavor":13375,"Ġemotions":13376,"ĠAltern":13377,"Ġsatisfies":13378,"ĠLearning":13379,"Ġcontends":13380,"Ġmalign":13381,"Ġìĭ±íģ¬":13382,"Ġì¤ĳê°ľ":13383,"ĠëŀĺìļĶ":13384,"ìĸ´ë¦°":13385,"Ġdecomposition":13386,"Ġpreserve":13387,"ìĸ´ì¡Į":13388,"Ġtoggle":13389,"Ġmobility":13390,"Ġcursor":13391,"ĠìĪĺê¸ī":13392,"Ġìľ¼ëĭĪê¹ĮìļĶ":13393,"Ġì¶Ķì¶ľë¬¼":13394,"Ġê·¸ëŁ¼ìĹĲëıĦ":13395,"Default":13396,"ĠNF":13397,"ĠíĥģìĽĶ":13398,"Ġìĸ´ëĬĲìĥĪ":13399,"ĠAppend":13400,"ëıĦìļ°":13401,"Ġgraphics":13402,"ĠCompar":13403,"Ġequity":13404,"ë¼Ī":13405,"Ġë§¤ì¹ĺ":13406,"Ġrendered":13407,"Ġêµ¬ë¦¬":13408,"ĠìĦ±ëĭ¹":13409,"Ġê¸°ìłĢ":13410,"Ġë®¤ì§Ģì»¬":13411,"ĠíĹĮë²ķ":13412,"Ġphysiological":13413,"Ġpresidential":13414,"ĠíĶĮëĿ¼ìĬ¤íĭ±":13415,"Ġì£¼ì£¼":13416,"ìĻ¸ê³¼":13417,"Ġì§ĢëıĦìŀĲ":13418,"Ġgaming":13419,"ìĨĶì§ģíŀĪ":13420,"ĠëĸĦ":13421,"Function":13422,"Ġë³¸ìłĲ":13423,"Ġreconstruction":13424,"Ġappeals":13425,"lessly":13426,"Ġencode":13427,"Ġì¡´ì¤ĳ":13428,"Ġclosure":13429,"Ġìºĺ":13430,"Ġsorted":13431,"Ġëı¼ì§Ģê³łê¸°":13432,"his":13433,"ĠíıŃíĴį":13434,"íĺ¸íħĶ":13435,"Ġdenominator":13436,"ĠìĪĺìľł":13437,"ĠìłĢíķŃ":13438,"Ġë¯¸ìĪłê´Ģ":13439,"essional":13440,"Ġretirement":13441,"ĠìĦ¸ì²Ļ":13442,"Ġoverse":13443,"Ġtournament":13444,"Ġinvestigations":13445,"Ġëª©ìĪ¨":13446,"Ġcontinuously":13447,"ĠArizona":13448,"ĠëĨįêµ¬":13449,"Ġìĺ¤ë¸Į":13450,"Ġreleases":13451,"Ġìłĳíķĺ":13452,"Create":13453,"SQL":13454,"ĠíĻĶìłľ":13455,"Ġreaches":13456,"ĠíĥĦíĥĦ":13457,"Ġê°Ģê¹ĮìĽĮ":13458,"ĠëıĻíķ´":13459,"Ġëħ¹ì°¨":13460,"ĠInstagram":13461,"ĠScotland":13462,"Returns":13463,"Ġscratch":13464,"Ġangles":13465,"Ġpreventing":13466,"Ġresidential":13467,"Filter":13468,"Ġperiodic":13469,"ìłľìĿ¼":13470,"ìĭŃëĭĪëĭ¤":13471,"Ġaccomplish":13472,"Ġextending":13473,"ĠíĮĮíĬ¸ëĦĪ":13474,"Ġê°ĢìłĦ":13475,"ĠEdward":13476,"Ġadaptation":13477,"ĠìĦłëªħ":13478,"Ġfrozen":13479,"ensing":13480,"Ġë²Ħë¦¼":13481,"Ġeverybody":13482,"logger":13483,"Ġatomic":13484,"Ġrotate":13485,
[...]
